<unk>	-100.0
<s>	-66.66666
</s>	-62.5
<0x00>	0.0
<0x01>	0.0
<0x02>	0.0
<0x03>	0.0
<0x04>	0.0
<0x05>	0.0
<0x06>	0.0
<0x07>	0.0
<0x08>	0.0
<0x09>	0.0
<0x0A>	0.0
<0x0B>	0.0
<0x0C>	0.0
<0x0D>	0.0
<0x0E>	0.0
<0x0F>	0.0
<0x10>	0.0
<0x11>	0.0
<0x12>	0.0
<0x13>	0.0
<0x14>	0.0
<0x15>	0.0
<0x16>	0.0
<0x17>	0.0
<0x18>	0.0
<0x19>	0.0
<0x1A>	0.0
<0x1B>	0.0
<0x1C>	0.0
<0x1D>	0.0
<0x1E>	0.0
<0x1F>	0.0
<0x20>	0.0
<0x21>	0.0
<0x22>	0.0
<0x23>	0.0
<0x24>	0.0
<0x25>	0.0
<0x26>	0.0
<0x27>	0.0
<0x28>	0.0
<0x29>	0.0
<0x2A>	0.0
<0x2B>	0.0
<0x2C>	0.0
<0x2D>	0.0
<0x2E>	0.0
<0x2F>	0.0
<0x30>	0.0
<0x31>	0.0
<0x32>	0.0
<0x33>	0.0
<0x34>	0.0
<0x35>	0.0
<0x36>	0.0
<0x37>	0.0
<0x38>	0.0
<0x39>	0.0
<0x3A>	0.0
<0x3B>	0.0
<0x3C>	0.0
<0x3D>	0.0
<0x3E>	0.0
<0x3F>	0.0
<0x40>	0.0
<0x41>	0.0
<0x42>	0.0
<0x43>	0.0
<0x44>	0.0
<0x45>	0.0
<0x46>	0.0
<0x47>	0.0
<0x48>	0.0
<0x49>	0.0
<0x4A>	0.0
<0x4B>	0.0
<0x4C>	0.0
<0x4D>	0.0
<0x4E>	0.0
<0x4F>	0.0
<0x50>	0.0
<0x51>	0.0
<0x52>	0.0
<0x53>	0.0
<0x54>	0.0
<0x55>	0.0
<0x56>	0.0
<0x57>	0.0
<0x58>	0.0
<0x59>	0.0
<0x5A>	0.0
<0x5B>	0.0
<0x5C>	0.0
<0x5D>	0.0
<0x5E>	0.0
<0x5F>	0.0
<0x60>	0.0
<0x61>	0.0
<0x62>	0.0
<0x63>	0.0
<0x64>	0.0
<0x65>	0.0
<0x66>	0.0
<0x67>	0.0
<0x68>	0.0
<0x69>	0.0
<0x6A>	0.0
<0x6B>	0.0
<0x6C>	0.0
<0x6D>	0.0
<0x6E>	0.0
<0x6F>	0.0
<0x70>	0.0
<0x71>	0.0
<0x72>	0.0
<0x73>	0.0
<0x74>	0.0
<0x75>	0.0
<0x76>	0.0
<0x77>	0.0
<0x78>	0.0
<0x79>	0.0
<0x7A>	0.0
<0x7B>	0.0
<0x7C>	0.0
<0x7D>	0.0
<0x7E>	0.0
<0x7F>	0.0
<0x80>	0.0
<0x81>	0.0
<0x82>	0.0
<0x83>	0.0
<0x84>	0.0
<0x85>	0.0
<0x86>	0.0
<0x87>	0.0
<0x88>	0.0
<0x89>	0.0
<0x8A>	0.0
<0x8B>	0.0
<0x8C>	0.0
<0x8D>	0.0
<0x8E>	0.0
<0x8F>	0.0
<0x90>	0.0
<0x91>	0.0
<0x92>	0.0
<0x93>	0.0
<0x94>	0.0
<0x95>	0.0
<0x96>	0.0
<0x97>	0.0
<0x98>	0.0
<0x99>	0.0
<0x9A>	0.0
<0x9B>	0.0
<0x9C>	0.0
<0x9D>	0.0
<0x9E>	0.0
<0x9F>	0.0
<0xA0>	0.0
<0xA1>	0.0
<0xA2>	0.0
<0xA3>	0.0
<0xA4>	0.0
<0xA5>	0.0
<0xA6>	0.0
<0xA7>	0.0
<0xA8>	0.0
<0xA9>	0.0
<0xAA>	0.0
<0xAB>	0.0
<0xAC>	0.0
<0xAD>	0.0
<0xAE>	0.0
<0xAF>	0.0
<0xB0>	0.0
<0xB1>	0.0
<0xB2>	0.0
<0xB3>	0.0
<0xB4>	0.0
<0xB5>	0.0
<0xB6>	0.0
<0xB7>	0.0
<0xB8>	0.0
<0xB9>	0.0
<0xBA>	0.0
<0xBB>	0.0
<0xBC>	0.0
<0xBD>	0.0
<0xBE>	0.0
<0xBF>	0.0
<0xC0>	0.0
<0xC1>	0.0
<0xC2>	0.0
<0xC3>	0.0
<0xC4>	0.0
<0xC5>	0.0
<0xC6>	0.0
<0xC7>	0.0
<0xC8>	0.0
<0xC9>	0.0
<0xCA>	0.0
<0xCB>	0.0
<0xCC>	0.0
<0xCD>	0.0
<0xCE>	0.0
<0xCF>	0.0
<0xD0>	0.0
<0xD1>	0.0
<0xD2>	0.0
<0xD3>	0.0
<0xD4>	0.0
<0xD5>	0.0
<0xD6>	0.0
<0xD7>	0.0
<0xD8>	0.0
<0xD9>	0.0
<0xDA>	0.0
<0xDB>	0.0
<0xDC>	0.0
<0xDD>	0.0
<0xDE>	0.0
<0xDF>	0.0
<0xE0>	0.0
<0xE1>	0.0
<0xE2>	0.0
<0xE3>	0.0
<0xE4>	0.0
<0xE5>	0.0
<0xE6>	0.0
<0xE7>	0.0
<0xE8>	0.0
<0xE9>	0.0
<0xEA>	0.0
<0xEB>	0.0
<0xEC>	0.0
<0xED>	0.0
<0xEE>	0.0
<0xEF>	0.0
<0xF0>	0.0
<0xF1>	0.0
<0xF2>	0.0
<0xF3>	0.0
<0xF4>	0.0
<0xF5>	0.0
<0xF6>	0.0
<0xF7>	0.0
<0xF8>	0.0
<0xF9>	0.0
<0xFA>	0.0
<0xFB>	0.0
<0xFC>	0.0
<0xFD>	0.0
<0xFE>	0.0
<0xFF>	0.0
▁▁	-75.0
▁t	-75.0
er	-75.0
in	-75.0
▁a	-75.0
en	-75.0
on	-75.0
▁th	-66.66666
es	-75.0
▁▁▁▁	-62.5
▁s	-75.0
▁d	-75.0
at	-75.0
or	-75.0
an	-75.0
▁c	-75.0
is	-75.0
re	-75.0
it	-75.0
▁the	-62.5
ar	-75.0
le	-75.0
▁w	-75.0
▁p	-75.0
ou	-75.0
al	-75.0
▁f	-75.0
▁m	-75.0
ed	-75.0
▁o	-75.0
▁b	-75.0
om	-75.0
ion	-66.66666
ing	-66.66666
ic	-75.0
as	-75.0
el	-75.0
ent	-66.66666
▁in	-66.66666
▁h	-75.0
nd	-75.0
et	-75.0
▁l	-75.0
▁n	-75.0
st	-75.0
▁to	-66.66666
ch	-75.0
▁I	-75.0
ro	-75.0
▁▁▁▁▁▁▁▁	-56.25
il	-75.0
▁of	-66.66666
de	-75.0
ct	-75.0
▁(	-75.0
am	-75.0
▁C	-75.0
▁de	-66.66666
▁S	-75.0
▁u	-75.0
▁A	-75.0
▁\	-75.0
▁e	-75.0
▁and	-62.5
▁T	-75.0
ol	-75.0
▁v	-75.0
im	-75.0
ot	-75.0
ad	-75.0
ut	-75.0
▁g	-75.0
em	-75.0
ur	-75.0
id	-75.0
▁*	-75.0
ig	-75.0
ra	-75.0
▁re	-66.66666
▁is	-66.66666
qu	-75.0
ow	-75.0
▁M	-75.0
est	-66.66666
▁y	-75.0
se	-75.0
ve	-75.0
ce	-75.0
ie	-75.0
un	-75.0
▁P	-75.0
▁B	-75.0
ag	-75.0
ul	-75.0
▁=	-75.0
he	-75.0
end	-66.66666
ode	-66.66666
ter	-66.66666
ment	-62.5
os	-75.0
▁D	-75.0
if	-75.0
ation	-60.0
▁for	-62.5
▁r	-75.0
▁L	-75.0
▁you	-62.5
▁be	-66.66666
ly	-75.0
ver	-66.66666
ab	-75.0
te	-75.0
▁it	-66.66666
▁on	-66.66666
ri	-75.0
us	-75.0
▁"	-75.0
▁wh	-66.66666
▁con	-62.5
▁H	-75.0
▁st	-66.66666
ir	-75.0
▁E	-75.0
▁F	-75.0
ck	-75.0
▁an	-66.66666
th	-75.0
eg	-75.0
ay	-75.0
ith	-66.66666
▁R	-75.0
ist	-66.66666
and	-66.66666
▁that	-60.0
▁al	-66.66666
▁$	-75.0
▁#	-75.0
od	-75.0
um	-75.0
▁W	-75.0
ht	-75.0
code	-62.5
▁G	-75.0
ate	-66.66666
ess	-66.66666
▁N	-75.0
ere	-66.66666
pp	-75.0
▁as	-66.66666
▁se	-66.66666
▁pro	-62.5
▁with	-60.0
pe	-75.0
▁k	-75.0
ers	-66.66666
pt	-75.0
);	-75.0
lo	-75.0
▁▁▁▁▁	-60.0
▁com	-62.5
ame	-66.66666
▁`	-75.0
▁Com	-62.5
ia	-75.0
ant	-66.66666
▁la	-66.66666
▁{	-75.0
▁en	-66.66666
ction	-60.0
▁ex	-66.66666
ld	-75.0
ub	-75.0
▁j	-75.0
la	-75.0
ue	-75.0
▁J	-75.0
ich	-66.66666
▁do	-66.66666
▁O	-75.0
▁qu	-66.66666
iv	-75.0
ort	-66.66666
art	-66.66666
▁un	-66.66666
▁##	-66.66666
▁this	-60.0
ke	-75.0
▁ha	-66.66666
▁-	-75.0
out	-66.66666
▁The	-62.5
▁not	-62.5
▁ne	-66.66666
ill	-66.66666
▁le	-66.66666
ci	-75.0
rom	-66.66666
ine	-66.66666
//	-75.0
op	-75.0
egin	-62.5
▁Comment	-56.25
▁▁▁▁▁▁▁▁▁▁▁▁▁▁▁▁	-53.125
begin	-60.0
ст	-75.0
ass	-66.66666
iz	-75.0
).	-75.0
og	-75.0
▁п	-75.0
▁or	-66.66666
▁was	-62.5
▁at	-66.66666
our	-66.66666
▁i	-75.0
ain	-66.66666
▁K	-75.0
на	-75.0
▁V	-75.0
ge	-75.0
▁su	-66.66666
ap	-75.0
age	-66.66666
ould	-62.5
ne	-75.0
av	-75.0
xt	-75.0
ore	-66.66666
ile	-66.66666
--	-75.0
▁в	-75.0
▁by	-66.66666
li	-75.0
ath	-66.66666
ра	-75.0
ber	-66.66666
ach	-66.66666
all	-66.66666
▁Th	-66.66666
ult	-66.66666
▁}	-75.0
▁U	-75.0
▁us	-66.66666
▁z	-75.0
ust	-66.66666
▁have	-60.0
lic	-66.66666
ни	-75.0
▁can	-62.5
tr	-75.0
com	-66.66666
),	-75.0
▁In	-66.66666
ind	-66.66666
ell	-66.66666
▁from	-60.0
ов	-75.0
to	-75.0
▁[	-75.0
able	-62.5
ost	-66.66666
▁ch	-66.66666
ect	-66.66666
ight	-62.5
int	-66.66666
▁'	-75.0
▁are	-62.5
▁im	-66.66666
▁sh	-66.66666
▁<	-75.0
▁An	-66.66666
▁с	-75.0
ata	-66.66666
ire	-66.66666
▁tr	-66.66666
con	-66.66666
ord	-66.66666
ity	-66.66666
ard	-66.66666
▁▁▁▁▁▁	-58.33333
▁he	-66.66666
▁but	-62.5
oc	-75.0
="	-75.0
▁pr	-66.66666
ure	-66.66666
per	-66.66666
ack	-66.66666
ork	-66.66666
ong	-66.66666
ans	-66.66666
ко	-75.0
ple	-66.66666
▁des	-62.5
ok	-75.0
orm	-66.66666
wer	-66.66666
ak	-75.0
pr	-75.0
ase	-66.66666
▁el	-66.66666
ph	-75.0
ac	-75.0
▁und	-62.5
▁ar	-66.66666
▁if	-66.66666
ud	-75.0
ps	-75.0
ite	-66.66666
ble	-66.66666
но	-75.0
fer	-66.66666
pl	-75.0
ive	-66.66666
ang	-66.66666
ens	-66.66666
ро	-75.0
▁so	-66.66666
so	-75.0
ast	-66.66666
()	-75.0
swer	-62.5
ru	-75.0
ies	-66.66666
▁:	-75.0
au	-75.0
ov	-75.0
ре	-75.0
го	-75.0
▁der	-62.5
▁my	-66.66666
▁we	-66.66666
▁me	-66.66666
nt	-75.0
▁ad	-66.66666
urn	-66.66666
▁your	-60.0
://	-66.66666
are	-66.66666
▁all	-62.5
ff	-75.0
io	-75.0
estion	-58.33333
ime	-66.66666
▁er	-66.66666
lass	-62.5
▁и	-75.0
▁which	-58.33333
ome	-66.66666
ont	-66.66666
▁par	-62.5
▁ma	-66.66666
▁Y	-75.0
",	-75.0
▁о	-75.0
ft	-75.0
ial	-66.66666
cc	-75.0
ound	-62.5
▁li	-66.66666
▁res	-62.5
eth	-66.66666
ject	-62.5
▁app	-62.5
▁St	-66.66666
ice	-66.66666
▁am	-66.66666
act	-66.66666
▁del	-62.5
gr	-75.0
ated	-62.5
ier	-66.66666
▁▁▁▁▁▁▁▁▁▁▁▁	-54.16667
▁ab	-66.66666
▁et	-66.66666
ally	-62.5
..	-75.0
port	-62.5
ik	-75.0
▁per	-62.5
▁cont	-60.0
ри	-75.0
ка	-75.0
ser	-66.66666
ли	-75.0
ll	-75.0
iew	-66.66666
ign	-66.66666
_{	-75.0
put	-66.66666
one	-66.66666
unction	-57.14286
▁di	-66.66666
ary	-66.66666
ition	-60.0
ma	-75.0
ен	-75.0
get	-66.66666
▁lo	-66.66666
▁val	-62.5
▁Q	-75.0
ran	-66.66666
▁д	-75.0
ence	-62.5
▁work	-60.0
▁на	-66.66666
ip	-75.0
item	-62.5
ype	-66.66666
▁&	-75.0
▁his	-62.5
▁use	-62.5
der	-66.66666
▁Answer	-57.14286
▁will	-60.0
ize	-66.66666
та	-75.0
low	-66.66666
▁Ch	-66.66666
▁get	-62.5
ide	-66.66666
ous	-66.66666
ink	-66.66666
ption	-60.0
ла	-75.0
turn	-62.5
ung	-66.66666
ec	-75.0
ug	-75.0
form	-62.5
res	-66.66666
htt	-66.66666
oug	-66.66666
ль	-75.0
▁no	-66.66666
cl	-75.0
▁ro	-66.66666
▁one	-62.5
tt	-75.0
cri	-66.66666
du	-75.0
▁up	-66.66666
то	-75.0
("	-75.0
▁ob	-66.66666
we	-75.0
ory	-66.66666
▁est	-62.5
ery	-66.66666
iel	-66.66666
str	-66.66666
ob	-75.0
▁que	-62.5
ian	-66.66666
▁out	-62.5
▁pl	-66.66666
▁new	-62.5
ки	-75.0
▁+	-75.0
ry	-75.0
oth	-66.66666
ther	-62.5
▁var	-62.5
▁would	-58.33333
▁ser	-62.5
tern	-62.5
text	-62.5
▁there	-58.33333
ish	-66.66666
ror	-66.66666
те	-75.0
▁set	-62.5
▁@	-75.0
▁по	-66.66666
▁te	-66.66666
ex	-75.0
▁return	-57.14286
ail	-66.66666
▁any	-62.5
▁It	-66.66666
▁function	-55.55556
{\	-75.0
',	-75.0
és	-75.0
ale	-66.66666
ан	-75.0
▁when	-60.0
ib	-75.0
▁go	-66.66666
ance	-62.5
▁had	-62.5
▁Qu	-66.66666
▁comp	-60.0
ле	-75.0
▁з	-75.0
math	-62.5
▁has	-62.5
▁м	-75.0
▁pre	-62.5
ener	-62.5
▁part	-60.0
elf	-66.66666
▁die	-62.5
▁like	-60.0
ray	-66.66666
irst	-62.5
▁dis	-62.5
▁man	-62.5
rit	-66.66666
▁then	-60.0
▁class	-58.33333
pro	-66.66666
▁po	-66.66666
▁using	-58.33333
eb	-75.0
▁code	-60.0
own	-66.66666
▁some	-60.0
ces	-66.66666
▁$\	-66.66666
ер	-75.0
lect	-62.5
▁au	-66.66666
isch	-62.5
▁col	-62.5
▁–	-75.0
up	-75.0
ons	-66.66666
▁add	-62.5
ild	-66.66666
iss	-66.66666
val	-66.66666
ount	-62.5
les	-66.66666
vent	-62.5
▁▁▁▁▁▁▁▁▁▁▁▁▁	-53.84615
▁Z	-75.0
In	-75.0
row	-66.66666
ear	-66.66666
ations	-58.33333
ah	-75.0
que	-66.66666
ublic	-60.0
ank	-66.66666
▁sp	-66.66666
▁Wh	-66.66666
----	-62.5
sk	-75.0
ew	-75.0
ags	-66.66666
ти	-75.0
ann	-66.66666
▁—	-75.0
ert	-66.66666
ace	-66.66666
sch	-66.66666
▁need	-60.0
▁à	-75.0
ien	-66.66666
ough	-62.5
не	-75.0
▁def	-62.5
ij	-75.0
ern	-66.66666
▁what	-60.0
▁Ar	-66.66666
wo	-75.0
ml	-75.0
</	-75.0
▁Re	-66.66666
▁es	-66.66666
▁inst	-60.0
bo	-75.0
az	-75.0
▁###	-62.5
▁б	-75.0
erm	-66.66666
▁Al	-66.66666
led	-66.66666
да	-75.0
ten	-66.66666
set	-66.66666
ло	-75.0
▁comm	-60.0
sh	-75.0
ва	-75.0
▁/	-75.0
▁data	-60.0
▁//	-66.66666
](	-75.0
▁str	-62.5
ose	-66.66666
▁Un	-66.66666
ven	-66.66666
St	-75.0
...	-66.66666
▁С	-75.0
yst	-66.66666
▁«	-75.0
ick	-66.66666
ix	-75.0
par	-66.66666
▁у	-75.0
▁want	-60.0
ng	-75.0
ote	-66.66666
▁gr	-66.66666
▁du	-66.66666
▁.	-75.0
und	-66.66666
▁only	-60.0
▁sa	-66.66666
ely	-66.66666
vers	-62.5
▁ent	-62.5
))	-75.0
('	-75.0
▁mod	-62.5
ava	-66.66666
ton	-66.66666
▁should	-57.14286
ement	-60.0
▁form	-60.0
▁also	-60.0
▁sc	-66.66666
ings	-62.5
▁You	-62.5
ón	-75.0
▁kn	-66.66666
();	-66.66666
▁|	-75.0
▁were	-60.0
ss	-75.0
▁Question	-55.55556
ise	-66.66666
▁they	-60.0
▁De	-66.66666
ond	-66.66666
▁sol	-62.5
▁fol	-62.5
▁more	-60.0
▁her	-62.5
▁_	-75.0
▁é	-75.0
atch	-62.5
fter	-62.5
▁cre	-62.5
lock	-62.5
tring	-60.0
▁This	-60.0
ze	-75.0
ado	-66.66666
ull	-66.66666
ger	-66.66666
be	-75.0
▁other	-58.33333
▁Tags	-60.0
ution	-60.0
ict	-66.66666
▁how	-62.5
▁x	-75.0
▁Se	-66.66666
▁che	-62.5
cript	-60.0
▁just	-60.0
▁pos	-62.5
ange	-62.5
ific	-62.5
ree	-66.66666
}}	-75.0
▁time	-60.0
app	-66.66666
ны	-75.0
▁file	-60.0
ark	-66.66666
ical	-62.5
▁first	-58.33333
▁int	-62.5
▁В	-75.0
▁He	-66.66666
ta	-75.0
ument	-60.0
ors	-66.66666
lement	-58.33333
rac	-66.66666
▁ag	-66.66666
▁does	-60.0
yn	-75.0
read	-62.5
ual	-66.66666
▁Le	-66.66666
ys	-75.0
▁em	-66.66666
▁num	-62.5
vel	-66.66666
ди	-75.0
over	-62.5
▁dif	-62.5
ethod	-60.0
▁If	-66.66666
▁spe	-62.5
ym	-75.0
▁them	-60.0
▁into	-60.0
▁▁▁▁▁▁▁▁▁▁	-55.0
▁les	-62.5
▁its	-62.5
ese	-66.66666
ield	-62.5
▁public	-57.14286
▁П	-75.0
▁den	-62.5
ystem	-60.0
of	-75.0
▁over	-60.0
->	-75.0
▁fil	-62.5
name	-62.5
inal	-62.5
▁il	-66.66666
ample	-60.0
▁way	-62.5
ica	-66.66666
во	-75.0
cess	-62.5
itt	-66.66666
uch	-66.66666
▁where	-58.33333
ми	-75.0
org	-66.66666
https	-60.0
▁vo	-66.66666
ient	-62.5
ove	-66.66666
▁value	-58.33333
eng	-66.66666
▁La	-66.66666
^{	-75.0
ref	-66.66666
ied	-66.66666
ER	-75.0
▁stat	-60.0
fig	-66.66666
me	-75.0
▁von	-62.5
▁inter	-58.33333
roid	-62.5
ater	-62.5
▁their	-58.33333
▁bet	-62.5
▁ein	-62.5
}\	-75.0
">	-75.0
▁sub	-62.5
▁op	-66.66666
▁don	-62.5
ty	-75.0
▁try	-62.5
▁Pro	-62.5
▁tra	-62.5
▁same	-60.0
ep	-75.0
▁two	-62.5
▁name	-60.0
old	-66.66666
let	-66.66666
▁sim	-62.5
sp	-75.0
▁av	-66.66666
bre	-66.66666
blem	-62.5
ey	-75.0
▁could	-58.33333
▁cor	-62.5
▁acc	-62.5
ays	-66.66666
cre	-66.66666
urr	-66.66666
si	-75.0
▁const	-58.33333
ues	-66.66666
}$	-75.0
View	-62.5
▁act	-62.5
▁bo	-66.66666
▁ко	-66.66666
▁som	-62.5
▁about	-58.33333
land	-62.5
mer	-66.66666
▁list	-60.0
cal	-66.66666
▁import	-57.14286
col	-66.66666
▁na	-66.66666
na	-75.0
::	-75.0
▁who	-62.5
▁error	-58.33333
▁X	-75.0
ator	-62.5
ext	-66.66666
▁been	-60.0
ér	-75.0
▁run	-62.5
pos	-66.66666
▁cl	-66.66666
**	-75.0
▁К	-75.0
ular	-62.5
ause	-62.5
▁reg	-62.5
▁know	-60.0
▁see	-62.5
▁him	-62.5
ning	-62.5
▁за	-66.66666
ates	-62.5
fore	-62.5
ions	-62.5
▁hel	-62.5
ute	-66.66666
▁rem	-62.5
▁го	-66.66666
▁Mar	-62.5
ру	-75.0
vice	-62.5
irect	-60.0
ner	-66.66666
▁under	-58.33333
rib	-66.66666
hr	-75.0
че	-75.0
▁As	-66.66666
▁end	-62.5
ember	-60.0
▁а	-75.0
▁att	-62.5
ina	-66.66666
son	-66.66666
▁follow	-57.14286
▁Sch	-62.5
pect	-62.5
▁rel	-62.5
▁So	-66.66666
▁look	-60.0
abel	-62.5
▁problem	-56.25
▁van	-62.5
strong	-58.33333
co	-75.0
pon	-66.66666
ca	-75.0
ada	-66.66666
":	-75.0
cond	-62.5
amb	-66.66666
},	-75.0
quest	-60.0
▁aut	-62.5
▁result	-57.14286
▁may	-62.5
Re	-75.0
http	-62.5
):	-75.0
▁And	-62.5
red	-66.66666
▁How	-62.5
po	-75.0
ско	-66.66666
att	-66.66666
oup	-66.66666
ced	-66.66666
▁type	-60.0
▁than	-60.0
▁cons	-60.0
uf	-75.0
ци	-75.0
▁question	-55.55556
raph	-62.5
igh	-66.66666
▁М	-75.0
▁htt	-62.5
ins	-66.66666
den	-66.66666
▁da	-66.66666
▁ver	-62.5
oh	-75.0
▁=>	-66.66666
riv	-66.66666
ude	-66.66666
▁For	-62.5
▁ra	-66.66666
frac	-62.5
ма	-75.0
▁after	-58.33333
}{	-75.0
▁method	-57.14286
")	-75.0
amp	-66.66666
ash	-66.66666
▁rec	-62.5
▁differ	-57.14286
ON	-75.0
ax	-75.0
ament	-60.0
ource	-60.0
Con	-66.66666
its	-66.66666
Name	-62.5
man	-66.66666
▁bec	-62.5
che	-66.66666
▁En	-66.66666
aj	-75.0
▁gener	-58.33333
IN	-75.0
▁id	-66.66666
ages	-62.5
▁loc	-62.5
fo	-75.0
br	-75.0
▁she	-62.5
Pro	-66.66666
▁una	-62.5
▁к	-75.0
eta	-66.66666
log	-66.66666
olog	-62.5
▁sur	-62.5
arg	-66.66666
▁--	-66.66666
kt	-75.0
(\	-75.0
min	-66.66666
▁line	-60.0
▁vari	-60.0
ся	-75.0
ics	-66.66666
ня	-75.0
very	-62.5
add	-66.66666
▁object	-57.14286
Id	-75.0
▁But	-62.5
▁case	-60.0
▁make	-60.0
▁cal	-62.5
▁pass	-60.0
сь	-75.0
ession	-58.33333
net	-66.66666
."	-75.0
▁г	-75.0
är	-75.0
де	-75.0
no	-75.0
ating	-60.0
ato	-66.66666
line	-62.5
ви	-75.0
▁Ex	-66.66666
▁ass	-62.5
▁vers	-60.0
ля	-75.0
▁ed	-66.66666
umn	-66.66666
other	-60.0
ста	-66.66666
ative	-60.0
String	-58.33333
▁los	-62.5
wn	-75.0
▁answer	-57.14286
▁let	-62.5
▁pe	-66.66666
ents	-62.5
▁fe	-66.66666
ince	-62.5
ni	-75.0
ider	-62.5
ows	-66.66666
▁test	-60.0
▁here	-60.0
roll	-62.5
▁call	-60.0
ruct	-62.5
▁pol	-62.5
ait	-66.66666
▁back	-60.0
ho	-75.0
Ex	-75.0
ress	-62.5
ST	-75.0
ried	-62.5
date	-62.5
ет	-75.0
▁did	-62.5
ting	-62.5
▁El	-66.66666
▁dem	-62.5
)$	-75.0
ова	-66.66666
urrent	-58.33333
lace	-62.5
right	-60.0
ren	-66.66666
по	-75.0
▁each	-60.0
cy	-75.0
block	-60.0
data	-62.5
▁%	-75.0
▁ac	-66.66666
▁==	-66.66666
ür	-75.0
▁por	-62.5
ask	-66.66666
arch	-62.5
ames	-62.5
▁Con	-62.5
ча	-75.0
▁off	-62.5
▁find	-60.0
cont	-62.5
▁now	-62.5
work	-62.5
ational	-57.14286
dd	-75.0
ción	-62.5
▁А	-75.0
ault	-62.5
List	-62.5
▁ext	-62.5
urs	-66.66666
ake	-66.66666
ule	-66.66666
▁point	-58.33333
AT	-75.0
aut	-66.66666
▁trans	-58.33333
▁co	-66.66666
▁read	-60.0
▁used	-60.0
ски	-66.66666
ari	-66.66666
LE	-75.0
eter	-62.5
oun	-66.66666
ever	-62.5
self	-62.5
ined	-62.5
idth	-62.5
ux	-75.0
js	-75.0
▁such	-60.0
▁Is	-66.66666
ée	-75.0
ful	-66.66666
▁dist	-60.0
▁bu	-66.66666
itemize	-57.14286
Cont	-62.5
je	-75.0
си	-75.0
▁prov	-60.0
bb	-75.0
ward	-62.5
esent	-60.0
erson	-60.0
anks	-62.5
wh	-75.0
not	-66.66666
▁We	-66.66666
ka	-75.0
rop	-66.66666
atur	-62.5
als	-66.66666
▁bel	-62.5
ör	-75.0
fr	-75.0
▁example	-56.25
▁incl	-60.0
amil	-62.5
▁ра	-66.66666
▁“	-75.0
▁string	-57.14286
▁think	-58.33333
Th	-75.0
▁tem	-62.5
ave	-66.66666
▁Fran	-60.0
▁number	-57.14286
▁si	-66.66666
imes	-62.5
tem	-66.66666
my	-75.0
ler	-66.66666
load	-62.5
==	-75.0
▁hand	-60.0
za	-75.0
▁because	-56.25
▁sch	-62.5
vo	-75.0
this	-62.5
ID	-75.0
ão	-75.0
▁start	-58.33333
▁war	-62.5
▁help	-60.0
ts	-75.0
▁char	-60.0
▁ph	-66.66666
▁min	-62.5
til	-66.66666
rite	-62.5
--------	-56.25
els	-66.66666
▁mit	-62.5
edia	-62.5
ку	-75.0
▁Sh	-66.66666
any	-66.66666
];	-75.0
▁Б	-75.0
ique	-62.5
da	-75.0
ef	-75.0
dex	-66.66666
▁produ	-58.33333
▁Н	-75.0
gram	-62.5
▁Or	-66.66666
▁gre	-62.5
quote	-60.0
leg	-66.66666
orn	-66.66666
▁ind	-62.5
▁post	-60.0
▁dep	-62.5
],	-75.0
vi	-75.0
▁user	-60.0
▁>	-75.0
lick	-62.5
▁very	-60.0
ething	-58.33333
▁array	-58.33333
▁gu	-66.66666
▁dur	-62.5
`.	-75.0
ть	-75.0
lication	-56.25
сти	-66.66666
ek	-75.0
ico	-66.66666
▁dat	-62.5
ор	-75.0
html	-62.5
ione	-62.5
▁different	-55.0
▁check	-58.33333
▁fr	-66.66666
▁Er	-66.66666
▁text	-60.0
ні	-75.0
icht	-62.5
stack	-60.0
EN	-75.0
rag	-66.66666
▁every	-58.33333
Ar	-75.0
▁before	-57.14286
alse	-62.5
▁fin	-62.5
▁dé	-66.66666
▁these	-58.33333
▁det	-62.5
Val	-66.66666
ception	-57.14286
▁android	-56.25
blockquote	-55.0
▁je	-66.66666
file	-62.5
ats	-66.66666
▁до	-66.66666
essage	-58.33333
▁again	-58.33333
aw	-75.0
Ch	-75.0
ween	-62.5
▁Д	-75.0
for	-66.66666
cial	-62.5
play	-62.5
pre	-66.66666
ida	-66.66666
▁Par	-62.5
ny	-75.0
ract	-62.5
▁supp	-60.0
ased	-62.5
lection	-57.14286
▁dans	-60.0
air	-66.66666
rol	-66.66666
▁thr	-62.5
Data	-62.5
lich	-62.5
▁про	-62.5
▁long	-60.0
▁second	-57.14286
ually	-60.0
ines	-62.5
▁found	-58.33333
ength	-60.0
yp	-75.0
ead	-66.66666
▁log	-62.5
ui	-75.0
new	-66.66666
▁Р	-75.0
go	-75.0
aus	-66.66666
ody	-66.66666
▁son	-62.5
ме	-75.0
ero	-66.66666
ved	-66.66666
sub	-66.66666
▁right	-58.33333
view	-62.5
▁following	-55.0
')	-75.0
");	-66.66666
▁said	-60.0
же	-75.0
чи	-75.0
ту	-75.0
ott	-66.66666
се	-75.0
ars	-66.66666
$.	-75.0
gg	-75.0
▁br	-66.66666
ool	-66.66666
yle	-66.66666
use	-66.66666
▁show	-60.0
lease	-60.0
cia	-66.66666
▁direct	-57.14286
doc	-66.66666
ар	-75.0
ms	-75.0
▁giv	-62.5
▁exp	-62.5
ql	-75.0
ду	-75.0
ве	-75.0
▁Be	-66.66666
Com	-66.66666
iter	-62.5
RE	-75.0
mp	-75.0
men	-66.66666
▁Ro	-66.66666
MA	-75.0
▁Col	-62.5
ister	-60.0
▁well	-60.0
▁</	-66.66666
ayout	-60.0
ature	-60.0
ivers	-60.0
zy	-75.0
▁не	-66.66666
▁met	-62.5
une	-66.66666
yth	-66.66666
Type	-62.5
▁element	-56.25
▁link	-60.0
mod	-66.66666
▁between	-56.25
cept	-62.5
quire	-60.0
▁through	-56.25
▁while	-58.33333
▁On	-66.66666
the	-66.66666
ía	-75.0
▁something	-55.0
vol	-66.66666
▁most	-60.0
sc	-75.0
uss	-66.66666
▁car	-62.5
▁sm	-66.66666
▁ро	-66.66666
ano	-66.66666
left	-62.5
va	-75.0
▁true	-60.0
($	-75.0
ems	-66.66666
▁much	-60.0
ás	-75.0
▁New	-62.5
▁proper	-57.14286
era	-66.66666
ited	-62.5
▁doc	-62.5
ices	-62.5
The	-66.66666
▁?	-75.0
сто	-66.66666
fl	-75.0
▁spec	-60.0
ender	-60.0
way	-66.66666
▁self	-60.0
▁even	-60.0
ів	-75.0
▁се	-66.66666
ния	-66.66666
▁Pr	-66.66666
▁ke	-66.66666
emb	-66.66666
▁table	-58.33333
▁equ	-62.5
lient	-60.0
td	-75.0
part	-62.5
▁print	-58.33333
▁une	-62.5
ify	-66.66666
▁->	-66.66666
ene	-66.66666
▁mon	-62.5
▁dec	-62.5
▁still	-58.33333
▁об	-66.66666
▁Tr	-66.66666
▁ф	-75.0
ife	-66.66666
ism	-66.66666
by	-75.0
raw	-66.66666
ior	-66.66666
▁med	-62.5
orld	-62.5
▁comple	-57.14286
ww	-75.0
▁art	-62.5
ron	-66.66666
▁Г	-75.0
▁My	-66.66666
▁als	-62.5
rect	-62.5
▁auf	-62.5
▁down	-60.0
ather	-60.0
Col	-66.66666
Text	-62.5
back	-62.5
$,	-75.0
▁year	-60.0
мо	-75.0
pi	-75.0
▁Gr	-66.66666
ream	-62.5
▁rep	-62.5
bf	-75.0
www	-66.66666
▁wur	-62.5
▁org	-62.5
inter	-60.0
▁Die	-62.5
▁being	-58.33333
".	-75.0
label	-60.0
▁cent	-60.0
java	-62.5
bar	-66.66666
ante	-62.5
ana	-66.66666
__	-75.0
▁solution	-55.55556
▁О	-75.0
▁fl	-66.66666
▁create	-57.14286
ici	-66.66666
ste	-66.66666
ython	-60.0
unt	-66.66666
ason	-62.5
ference	-57.14286
SE	-75.0
▁non	-62.5
ane	-66.66666
▁ins	-62.5
ader	-62.5
_{\	-66.66666
Res	-66.66666
▁main	-60.0
пи	-75.0
▁▁▁▁▁▁▁▁▁▁▁▁▁▁	-53.57143
▁There	-58.33333
▁pour	-60.0
RO	-75.0
`,	-75.0
lish	-62.5
bject	-60.0
ccess	-60.0
▁orig	-60.0
▁▁▁	-66.66666
ischen	-58.33333
ower	-62.5
▁het	-62.5
uc	-75.0
▁else	-60.0
».	-75.0
▁от	-66.66666
equ	-66.66666
sible	-60.0
test	-62.5
stand	-60.0
én	-75.0
ets	-66.66666
GE	-75.0
ident	-60.0
▁е	-75.0
▁при	-62.5
.,	-75.0
▁das	-62.5
ock	-66.66666
,"	-75.0
▁vol	-62.5
▁fo	-66.66666
▁para	-60.0
▁Т	-75.0
▁Car	-62.5
ral	-66.66666
▁Sp	-66.66666
var	-66.66666
▁play	-60.0
ouse	-62.5
▁та	-66.66666
ically	-58.33333
▁contain	-56.25
ponse	-60.0
▁String	-57.14286
án	-75.0
▁both	-60.0
ken	-66.66666
AR	-75.0
ере	-66.66666
▁Il	-66.66666
▁iss	-62.5
▁open	-60.0
▁)	-75.0
▁What	-60.0
fe	-75.0
rivate	-58.33333
reg	-66.66666
▁without	-56.25
▁zu	-66.66666
vis	-66.66666
flow	-62.5
▁http	-60.0
abase	-60.0
▁word	-60.0
▁change	-57.14286
▁works	-58.33333
▁ge	-66.66666
▁!	-75.0
▁een	-62.5
itle	-62.5
▁event	-58.33333
word	-62.5
ando	-62.5
SB	-75.0
rem	-66.66666
▁field	-58.33333
ving	-62.5
Ser	-66.66666
▁our	-62.5
▁qui	-62.5
▁oper	-60.0
▁ist	-62.5
def	-66.66666
▁made	-60.0
ние	-66.66666
px	-75.0
▁men	-62.5
rm	-75.0
ais	-66.66666
cent	-62.5
list	-62.5
To	-75.0
▁To	-66.66666
ja	-75.0
vert	-62.5
▁mar	-62.5
value	-60.0
▁„	-75.0
";	-75.0
▁aus	-62.5
▁Br	-66.66666
ole	-66.66666
▁mult	-60.0
ought	-60.0
▁mat	-62.5
▁view	-60.0
fil	-66.66666
▁со	-66.66666
га	-75.0
▁void	-60.0
▁good	-60.0
бо	-75.0
CT	-75.0
▁many	-60.0
ben	-66.66666
▁во	-66.66666
▁ка	-66.66666
▁system	-57.14286
ino	-66.66666
▁another	-56.25
▁rest	-60.0
user	-62.5
ility	-60.0
ai	-75.0
▁might	-58.33333
ustom	-60.0
▁order	-58.33333
▁Ver	-62.5
SS	-75.0
})	-75.0
▁eff	-62.5
до	-75.0
ett	-66.66666
▁sign	-60.0
му	-75.0
IT	-75.0
string	-58.33333
elle	-62.5
▁sing	-60.0
cul	-66.66666
▁trying	-57.14286
▁beg	-62.5
▁page	-60.0
хо	-75.0
▁Can	-62.5
▁Ser	-62.5
++	-75.0
▁must	-60.0
▁values	-57.14286
▁key	-62.5
ible	-62.5
].	-75.0
ird	-66.66666
▁program	-56.25
roller	-58.33333
▁conne	-58.33333
▁say	-62.5
▁param	-58.33333
ache	-62.5
velop	-60.0
▁select	-57.14286
▁famil	-58.33333
▁last	-60.0
▁Thanks	-57.14286
▁pop	-62.5
}.	-75.0
eq	-75.0
▁doesn	-58.33333
['	-75.0
▁term	-60.0
▁ré	-66.66666
▁document	-55.55556
па	-75.0
лу	-75.0
ateg	-62.5
.)	-75.0
ling	-62.5
ional	-60.0
ables	-60.0
▁tak	-62.5
utton	-60.0
▁arg	-62.5
type	-62.5
▁sure	-60.0
▁real	-60.0
▁web	-62.5
▁current	-56.25
▁Pl	-66.66666
cho	-66.66666
ments	-60.0
▁Joh	-62.5
ots	-66.66666
▁exist	-58.33333
ну	-75.0
▁für	-62.5
▁из	-66.66666
do	-75.0
ного	-62.5
▁las	-62.5
▁null	-60.0
▁inform	-57.14286
▁Л	-75.0
▁version	-56.25
▁chang	-58.33333
ager	-62.5
▁Comm	-60.0
лі	-75.0
ush	-66.66666
▁Ge	-66.66666
▁high	-60.0
▁input	-58.33333
ogle	-62.5
ros	-66.66666
box	-66.66666
gen	-66.66666
▁ste	-62.5
▁local	-58.33333
Im	-75.0
▁process	-56.25
ternal	-58.33333
ized	-62.5
ги	-75.0
ét	-75.0
▁Ind	-62.5
▁och	-62.5
lt	-75.0
▁column	-57.14286
▁tried	-58.33333
▁command	-56.25
▁best	-60.0
aster	-60.0
за	-75.0
▁prim	-60.0
▁model	-58.33333
▁і	-75.0
▁those	-58.33333
ities	-60.0
ère	-66.66666
▁ре	-66.66666
је	-75.0
ши	-75.0
ques	-62.5
▁Am	-66.66666
▁own	-62.5
lin	-66.66666
зи	-75.0
Value	-60.0
thing	-60.0
▁,	-75.0
▁Te	-66.66666
▁stud	-60.0
▁um	-66.66666
▁server	-57.14286
ille	-62.5
▁put	-62.5
ativ	-62.5
gy	-75.0
ови	-66.66666
raf	-66.66666
ово	-66.66666
▁wurde	-58.33333
▁When	-60.0
▁div	-62.5
ants	-62.5
▁ter	-62.5
▁partic	-57.14286
▁т	-75.0
▁Do	-66.66666
▁No	-66.66666
sert	-62.5
ido	-66.66666
mathcal	-57.14286
ade	-66.66666
▁II	-66.66666
lear	-62.5
ograph	-58.33333
ense	-62.5
▁row	-62.5
num	-66.66666
▁possible	-55.55556
▁since	-58.33333
▁Bo	-66.66666
ctions	-58.33333
▁Im	-66.66666
OR	-75.0
ці	-75.0
▁ide	-62.5
map	-66.66666
▁correct	-56.25
ves	-66.66666
php	-66.66666
▁output	-57.14286
▁Ph	-66.66666
AL	-75.0
ared	-62.5
\\	-75.0
▁image	-58.33333
esch	-62.5
жи	-75.0
▁conf	-60.0
por	-66.66666
query	-60.0
ures	-62.5
ium	-66.66666
ends	-62.5
▁Ab	-66.66666
SBN	-66.66666
ід	-75.0
ether	-60.0
ptions	-58.33333
itu	-66.66666
lib	-66.66666
ns	-75.0
ki	-75.0
▁working	-56.25
▁como	-60.0
▁Then	-60.0
ML	-75.0
key	-66.66666
class	-60.0
ople	-62.5
ittle	-60.0
▁match	-58.33333
ways	-62.5
mathbb	-58.33333
▁require	-56.25
alt	-66.66666
▁vis	-62.5
▁bl	-66.66666
▁called	-57.14286
Item	-62.5
ura	-66.66666
vec	-66.66666
eme	-66.66666
▁della	-58.33333
embre	-60.0
urg	-66.66666
Se	-75.0
▁request	-56.25
ische	-60.0
▁port	-60.0
▁instead	-56.25
=\	-75.0
▁У	-75.0
hor	-66.66666
ente	-62.5
ume	-66.66666
erd	-66.66666
са	-75.0
▁why	-62.5
rist	-62.5
▁person	-57.14286
▁...	-62.5
▁private	-56.25
▁tot	-62.5
pha	-66.66666
ift	-66.66666
ita	-66.66666
loc	-66.66666
▁old	-62.5
он	-75.0
▁nel	-62.5
']	-75.0
ti	-75.0
iet	-66.66666
cite	-62.5
plement	-57.14286
▁above	-58.33333
ks	-75.0
ready	-60.0
▁come	-60.0
section	-57.14286
▁Pol	-62.5
▁writ	-60.0
▁https	-58.33333
▁$$	-66.66666
▁»	-75.0
▁build	-58.33333
ito	-66.66666
▁consider	-55.55556
aft	-66.66666
App	-66.66666
,\	-75.0
indows	-58.33333
comm	-62.5
▁;	-75.0
ground	-58.33333
▁place	-58.33333
By	-75.0
▁project	-56.25
Object	-58.33333
▁repr	-60.0
ences	-60.0
indow	-60.0
zt	-75.0
▁files	-58.33333
cz	-75.0
ivity	-60.0
▁init	-60.0
▁prob	-60.0
▁sk	-66.66666
orth	-62.5
iment	-60.0
ouble	-60.0
atal	-62.5
irc	-66.66666
▁è	-75.0
▁bre	-62.5
ista	-62.5
input	-60.0
▁И	-75.0
ной	-66.66666
sum	-66.66666
path	-62.5
▁cour	-60.0
▁too	-62.5
▁Ad	-66.66666
▁Gu	-66.66666
▁false	-58.33333
▁fun	-62.5
▁ст	-66.66666
ood	-66.66666
ès	-75.0
▁enc	-62.5
bol	-66.66666
rl	-75.0
arget	-60.0
order	-60.0
▁mean	-60.0
пе	-75.0
igen	-62.5
▁пре	-62.5
width	-60.0
;	-75.0
itor	-62.5
▁state	-58.33333
▁great	-58.33333
enn	-66.66666
bin	-66.66666
Er	-75.0
Mod	-66.66666
oz	-75.0
▁won	-62.5
▁fact	-60.0
▁java	-60.0
▁Univers	-56.25
▁cap	-62.5
istor	-60.0
}(	-75.0
ku	-75.0
ither	-60.0
ales	-62.5
▁ou	-66.66666
ross	-62.5
▁take	-60.0
rix	-66.66666
lob	-66.66666
▁eine	-60.0
ases	-62.5
▁access	-57.14286
ité	-66.66666
istr	-62.5
ization	-57.14286
▁appro	-58.33333
ball	-62.5
▁mak	-62.5
}^	-75.0
▁Cons	-60.0
press	-60.0
serv	-62.5
().	-66.66666
af	-75.0
▁ref	-62.5
)\	-75.0
▁contin	-57.14286
su	-75.0
iver	-62.5
▁cond	-60.0
▁expect	-57.14286
▁charact	-56.25
bert	-62.5
elt	-66.66666
ters	-62.5
script	-58.33333
▁Ed	-66.66666
apt	-66.66666
');	-66.66666
print	-60.0
▁size	-60.0
▁sich	-60.0
face	-62.5
enden	-60.0
▁Amer	-60.0
ified	-60.0
ów	-75.0
▁Su	-66.66666
tes	-66.66666
med	-66.66666
▁Reg	-62.5
sole	-62.5
▁includ	-57.14286
ini	-66.66666
inci	-62.5
▁pla	-62.5
▁left	-60.0
df	-75.0
Par	-66.66666
▁All	-62.5
▁occ	-62.5
▁At	-66.66666
▁cr	-66.66666
Qu	-75.0
▁given	-58.33333
▁System	-57.14286
ican	-62.5
▁final	-58.33333
itions	-58.33333
▁бы	-66.66666
▁perform	-56.25
AN	-75.0
▁Me	-66.66666
uro	-66.66666
▁That	-60.0
гра	-66.66666
▁По	-66.66666
▁ви	-66.66666
ably	-62.5
▁present	-56.25
duct	-62.5
ric	-66.66666
▁Eng	-62.5
try	-66.66666
▁lar	-62.5
bl	-75.0
idd	-66.66666
▁är	-66.66666
ora	-66.66666
LL	-75.0
oss	-66.66666
▁ISBN	-60.0
▁three	-58.33333
jo	-75.0
ní	-75.0
rc	-75.0
▁far	-62.5
▁Not	-62.5
▁little	-57.14286
dis	-66.66666
ati	-66.66666
function	-56.25
▁able	-60.0
less	-62.5
со	-75.0
▁path	-60.0
▁pres	-60.0
lose	-62.5
PI	-75.0
▁issue	-58.33333
ackage	-58.33333
time	-62.5
ige	-66.66666
ams	-66.66666
▁Cl	-66.66666
ails	-62.5
alk	-66.66666
ii	-75.0
ше	-75.0
pen	-66.66666
QL	-75.0
▁eas	-62.5
RL	-75.0
cel	-66.66666
▁sl	-66.66666
▁ask	-62.5
▁nom	-62.5
▁top	-62.5
ides	-62.5
index	-60.0
ém	-75.0
▁happ	-60.0
ox	-75.0
cd	-75.0
▁better	-57.14286
▁load	-60.0
ados	-62.5
zen	-66.66666
▁ce	-66.66666
▁fa	-66.66666
▁John	-60.0
IMA	-66.66666
▁Bar	-62.5
overflow	-56.25
▁де	-66.66666
ness	-62.5
cer	-66.66666
▁Here	-60.0
ret	-66.66666
▁sz	-66.66666
ambda	-60.0
opy	-66.66666
url	-66.66666
py	-75.0
rt	-75.0
▁understand	-54.54546
ał	-75.0
her	-66.66666
##	-75.0
▁child	-58.33333
▁exec	-60.0
▁application	-54.16667
▁struct	-57.14286
▁я	-75.0
File	-62.5
▁cert	-60.0
ison	-62.5
▁variable	-55.55556
DE	-75.0
rs	-75.0
▁really	-57.14286
Port	-62.5
ba	-75.0
▁Ber	-62.5
▁inte	-60.0
▁static	-57.14286
▁config	-57.14286
▁She	-62.5
estions	-57.14286
▁plus	-60.0
▁hab	-62.5
ope	-66.66666
▁mus	-62.5
▁count	-58.33333
ME	-75.0
▁support	-56.25
▁people	-57.14286
▁beh	-62.5
▁already	-56.25
Tr	-75.0
▁done	-60.0
dem	-66.66666
size	-62.5
alpha	-60.0
▁disc	-60.0
])	-75.0
▁Man	-62.5
▁mil	-62.5
▁stand	-58.33333
▁group	-58.33333
▁small	-58.33333
▁mag	-62.5
сть	-66.66666
▁default	-56.25
▁single	-57.14286
link	-62.5
clude	-60.0
▁ear	-62.5
ilar	-62.5
****	-62.5
▁fix	-62.5
ley	-66.66666
▁pas	-62.5
ний	-66.66666
ission	-58.33333
▁implement	-55.0
itch	-62.5
▁года	-60.0
▁always	-57.14286
▁Jah	-62.5
pring	-60.0
ção	-66.66666
plate	-60.0
▁descri	-57.14286
▁head	-60.0
init	-62.5
ograf	-60.0
▁query	-58.33333
ived	-62.5
▁ing	-62.5
pty	-66.66666
ha	-75.0
▁mov	-62.5
▁э	-75.0
ette	-62.5
ily	-66.66666
▁got	-62.5
iled	-62.5
icro	-62.5
▁wr	-66.66666
ря	-75.0
▁never	-58.33333
ores	-62.5
▁bas	-62.5
ios	-66.66666
lack	-62.5
aint	-62.5
vious	-60.0
▁give	-60.0
idad	-62.5
En	-75.0
ный	-66.66666
table	-60.0
▁На	-66.66666
▁pat	-62.5
тор	-66.66666
angu	-62.5
loy	-66.66666
▁seg	-62.5
array	-60.0
▁Fl	-66.66666
▁index	-58.33333
▁sw	-66.66666
IMAGE	-60.0
▁km	-66.66666
би	-75.0
Class	-60.0
ena	-66.66666
мен	-66.66666
comp	-62.5
atus	-62.5
rap	-66.66666
▁List	-60.0
Error	-60.0
▁typ	-62.5
▁ма	-66.66666
cs	-75.0
':	-75.0
ji	-75.0
▁However	-56.25
▁те	-66.66666
▁below	-58.33333
▁App	-62.5
ще	-75.0
}_	-75.0
bum	-66.66666
vir	-66.66666
ées	-66.66666
▁record	-57.14286
tain	-62.5
lem	-66.66666
ital	-62.5
▁imp	-62.5
ego	-66.66666
▁od	-66.66666
▁rece	-60.0
mit	-66.66666
ffic	-62.5
stackoverflow	-53.84615
ieve	-62.5
▁З	-75.0
▁nov	-62.5
це	-75.0
▁Intern	-57.14286
bu	-75.0
▁sugg	-60.0
▁loop	-60.0
ride	-62.5
▁$(	-66.66666
▁super	-58.33333
rid	-66.66666
ных	-66.66666
▁Per	-62.5
▁dom	-62.5
='	-75.0
utsch	-60.0
len	-66.66666
▁write	-58.33333
▁inv	-62.5
outh	-62.5
▁Her	-62.5
▁years	-58.33333
▁original	-55.55556
ega	-66.66666
▁Ste	-62.5
▁seems	-58.33333
ég	-75.0
▁next	-60.0
eder	-62.5
▁Ne	-66.66666
avas	-62.5
ification	-55.55556
Exception	-55.55556
▁Der	-62.5
▁ve	-66.66666
atic	-62.5
hat	-66.66666
brary	-60.0
return	-58.33333
urch	-62.5
ision	-60.0
mi	-75.0
oint	-62.5
▁day	-62.5
iction	-58.33333
ál	-75.0
▁és	-66.66666
▁though	-57.14286
action	-58.33333
ít	-75.0
ungen	-60.0
ours	-62.5
▁script	-57.14286
▁information	-54.16667
▁multi	-58.33333
▁\\	-66.66666
ster	-62.5
ке	-75.0
AC	-75.0
cies	-62.5
▁display	-56.25
oman	-62.5
Time	-62.5
ius	-66.66666
));	-66.66666
tre	-66.66666
▁lim	-62.5
ately	-60.0
éd	-75.0
iste	-62.5
▁са	-66.66666
post	-62.5
uel	-66.66666
img	-66.66666
▁ч	-75.0
ска	-66.66666
eld	-66.66666
pper	-62.5
ula	-66.66666
▁general	-56.25
Al	-75.0
Form	-62.5
▁upon	-60.0
zo	-75.0
amente	-58.33333
▁prom	-60.0
▁ü	-75.0
lex	-66.66666
▁turn	-60.0
▁ме	-66.66666
ention	-58.33333
лен	-66.66666
▁af	-66.66666
icle	-62.5
ств	-66.66666
▁Fil	-62.5
▁Ф	-75.0
avascript	-55.55556
Man	-66.66666
ara	-66.66666
ware	-62.5
align	-60.0
angle	-60.0
▁Sc	-66.66666
unic	-62.5
▁fran	-60.0
Un	-75.0
zi	-75.0
met	-66.66666
Add	-66.66666
▁pub	-62.5
ков	-66.66666
▁gen	-62.5
▁pod	-62.5
▁sum	-62.5
▁having	-57.14286
▁avec	-60.0
sl	-75.0
▁fig	-62.5
▁Res	-62.5
Date	-62.5
ules	-62.5
with	-62.5
ский	-62.5
gu	-75.0
ET	-75.0
▁bro	-62.5
rie	-66.66666
aps	-66.66666
ending	-58.33333
mail	-62.5
ook	-66.66666
▁success	-56.25
berg	-62.5
▁deb	-62.5
elta	-62.5
()`	-66.66666
ential	-58.33333
frame	-60.0
Key	-66.66666
inn	-66.66666
▁simple	-57.14286
ival	-62.5
▁care	-60.0
▁Web	-62.5
").	-66.66666
></	-66.66666
▁database	-55.55556
▁Now	-62.5
Ind	-66.66666
▁мо	-66.66666
cht	-66.66666
ban	-66.66666
ram	-66.66666
equation	-56.25
ski	-66.66666
ief	-66.66666
lim	-66.66666
Get	-66.66666
▁tre	-62.5
aten	-62.5
bed	-66.66666
▁Je	-66.66666
▁results	-56.25
лю	-75.0
тель	-62.5
db	-75.0
▁bit	-62.5
body	-62.5
Array	-60.0
mu	-75.0
pression	-56.25
▁ста	-62.5
ony	-66.66666
iff	-66.66666
▁bar	-62.5
▁Arch	-60.0
bers	-62.5
){	-75.0
▁Mon	-62.5
▁doing	-58.33333
▁prof	-60.0
▁install	-56.25
▁position	-55.55556
ema	-66.66666
▁});	-62.5
Path	-62.5
ali	-66.66666
▁&&	-66.66666
lev	-66.66666
▁cannot	-57.14286
▁May	-62.5
inst	-62.5
-\	-75.0
▁coun	-60.0
▁ang	-62.5
▁appear	-57.14286
cor	-66.66666
ció	-66.66666
ided	-62.5
questions	-55.55556
atter	-60.0
▁Pa	-66.66666
select	-58.33333
▁princi	-57.14286
Event	-60.0
▁side	-60.0
▁mem	-62.5
▁Jan	-62.5
ario	-62.5
▁within	-57.14286
▁Val	-62.5
odes	-62.5
iddle	-60.0
uration	-57.14286
bra	-66.66666
▁date	-60.0
[]	-75.0
▁entre	-58.33333
ili	-66.66666
Portail	-57.14286
docs	-62.5
ской	-62.5
Element	-57.14286
▁message	-56.25
▁nach	-60.0
▁during	-57.14286
▁gra	-62.5
etwork	-58.33333
▁By	-66.66666
▁tell	-60.0
ete	-66.66666
~\	-75.0
▁bis	-62.5
▁pu	-66.66666
▁red	-62.5
▁thing	-58.33333
▁sort	-60.0
xim	-66.66666
ires	-62.5
User	-62.5
iod	-66.66666
▁Est	-62.5
osed	-62.5
oute	-62.5
▁Les	-62.5
▁sent	-60.0
ribute	-58.33333
utes	-62.5
istory	-58.33333
▁service	-56.25
';	-75.0
field	-60.0
▁IN	-66.66666
ension	-58.33333
rel	-66.66666
▁going	-58.33333
web	-66.66666
Context	-57.14286
▁later	-58.33333
uk	-75.0
layout	-58.33333
ona	-66.66666
át	-75.0
----------------	-53.125
▁exact	-58.33333
andom	-60.0
▁sie	-62.5
II	-75.0
▁They	-60.0
mente	-60.0
ibli	-62.5
▁fine	-60.0
UT	-75.0
▁develop	-56.25
▁Ein	-62.5
soft	-62.5
off	-66.66666
Set	-66.66666
▁az	-66.66666
eters	-60.0
ilder	-60.0
ples	-62.5
▁specific	-55.55556
▁om	-66.66666
error	-60.0
ently	-60.0
▁film	-60.0
uck	-66.66666
ains	-62.5
ación	-60.0
ges	-66.66666
жа	-75.0
▁things	-57.14286
Sh	-75.0
▁thought	-56.25
▁added	-58.33333
dep	-66.66666
ского	-60.0
▁Li	-66.66666
ils	-66.66666
ync	-66.66666
▁то	-66.66666
ries	-62.5
▁cu	-66.66666
chen	-62.5
ION	-66.66666
▁Des	-62.5
ultado	-58.33333
irt	-66.66666
▁based	-58.33333
▁mo	-66.66666
▁dest	-60.0
png	-66.66666
reen	-62.5
▁running	-56.25
amma	-62.5
oud	-66.66666
▁refer	-58.33333
ious	-62.5
▁Jul	-62.5
▁search	-57.14286
ald	-66.66666
ede	-66.66666
▁wrong	-58.33333
An	-75.0
▁until	-58.33333
site	-62.5
ayer	-62.5
▁once	-60.0
arr	-66.66666
▁against	-56.25
====	-62.5
▁source	-57.14286
arn	-66.66666
api	-66.66666
▁represent	-55.0
▁aff	-62.5
▁sein	-60.0
▁allow	-58.33333
ormal	-60.0
ended	-60.0
▁control	-56.25
mathbf	-58.33333
come	-62.5
cur	-66.66666
endo	-62.5
wa	-75.0
▁update	-57.14286
▁inside	-57.14286
▁reason	-57.14286
omen	-62.5
▁вы	-66.66666
De	-75.0
▁је	-66.66666
sw	-75.0
▁sever	-58.33333
Of	-75.0
▁instance	-55.55556
▁mer	-62.5
▁effect	-57.14286
color	-60.0
ugust	-60.0
ilt	-66.66666
des	-66.66666
itz	-66.66666
ulation	-57.14286
nie	-66.66666
▁World	-58.33333
▁similar	-56.25
ymbol	-60.0
hing	-62.5
▁mark	-60.0
State	-60.0
▁content	-56.25
▁means	-58.33333
amed	-62.5
▁End	-62.5
ND	-75.0
count	-60.0
▁Inst	-60.0
perty	-60.0
ctor	-62.5
▁{\	-66.66666
▁Let	-62.5
▁!=	-66.66666
▁getting	-56.25
uth	-66.66666
umber	-60.0
▁Consultado	-54.54546
schaft	-58.33333
lete	-62.5
▁Will	-60.0
▁Em	-66.66666
head	-62.5
▁leg	-62.5
ном	-66.66666
Or	-75.0
arm	-66.66666
pond	-62.5
▁Christ	-57.14286
▁around	-57.14286
▁clear	-58.33333
▁href	-60.0
▁See	-62.5
').	-66.66666
▁created	-56.25
▁button	-57.14286
ining	-60.0
▁click	-58.33333
iam	-66.66666
plit	-62.5
For	-66.66666
▁polit	-58.33333
▁seem	-60.0
▁life	-60.0
нов	-66.66666
▁intern	-57.14286
щи	-75.0
sel	-66.66666
soci	-62.5
▁stor	-60.0
cle	-66.66666
earch	-60.0
android	-57.14286
}^{	-66.66666
▁either	-57.14286
▁few	-62.5
▁initial	-56.25
length	-58.33333
ria	-66.66666
sql	-66.66666
wik	-66.66666
▁ét	-66.66666
uer	-66.66666
▁valid	-58.33333
And	-66.66666
include	-57.14286
ury	-66.66666
▁sus	-62.5
ired	-62.5
▁After	-58.33333
▁due	-62.5
▁bei	-62.5
ources	-58.33333
▁Nov	-62.5
Act	-66.66666
▁Cont	-60.0
▁break	-58.33333
ested	-60.0
▁actually	-55.55556
else	-62.5
tml	-66.66666
rer	-66.66666
ones	-62.5
▁design	-57.14286
▁property	-55.55556
phi	-66.66666
ality	-60.0
och	-66.66666
ists	-62.5
▁·	-75.0
udio	-62.5
AB	-75.0
ala	-66.66666
iones	-60.0
фи	-75.0
find	-62.5
As	-75.0
▁custom	-57.14286
▁ann	-62.5
ES	-75.0
OT	-75.0
lambda	-58.33333
▁ident	-58.33333
▁organ	-58.33333
▁Cent	-60.0
▁Char	-60.0
▁os	-66.66666
▁hard	-60.0
ров	-66.66666
▁/>	-66.66666
ko	-75.0
▁exper	-58.33333
▁separ	-58.33333
yl	-75.0
ourn	-62.5
▁dev	-62.5
▁auch	-60.0
▁block	-58.33333
book	-62.5
▁map	-62.5
illa	-62.5
▁comput	-57.14286
▁space	-58.33333
result	-58.33333
)}	-75.0
▁echo	-60.0
config	-58.33333
hi	-75.0
▁large	-58.33333
▁width	-58.33333
▁Go	-66.66666
mat	-66.66666
▁diff	-60.0
▁kind	-60.0
ances	-60.0
ynam	-62.5
▁color	-58.33333
Int	-66.66666
sol	-66.66666
▁pi	-66.66666
▁character	-55.0
oment	-60.0
▁response	-55.55556
igma	-62.5
wards	-60.0
arrow	-60.0
су	-75.0
ties	-62.5
▁über	-60.0
Image	-60.0
yd	-75.0
▁пере	-60.0
▁node	-60.0
▁item	-60.0
achine	-58.33333
ima	-66.66666
▁va	-66.66666
▁approach	-55.55556
▁wer	-62.5
▁че	-66.66666
On	-75.0
ollow	-60.0
она	-66.66666
cted	-62.5
ured	-62.5
Controller	-55.0
lied	-62.5
▁jo	-66.66666
▁dal	-62.5
unk	-66.66666
▁î	-75.0
start	-60.0
ola	-66.66666
▁compon	-57.14286
IC	-75.0
bit	-66.66666
▁base	-60.0
пу	-75.0
▁idea	-60.0
▁dire	-60.0
▁rad	-62.5
group	-60.0
▁With	-60.0
server	-58.33333
side	-62.5
sing	-62.5
▁dies	-60.0
▁near	-60.0
▁voor	-60.0
▁argument	-55.55556
▁},	-66.66666
▁land	-60.0
▁names	-58.33333
▁option	-57.14286
ithub	-60.0
pped	-62.5
aug	-66.66666
▁links	-58.33333
▁full	-60.0
▁situ	-60.0
▁console	-56.25
▁etc	-62.5
aux	-66.66666
▁Cor	-62.5
icrosoft	-56.25
▁came	-60.0
local	-60.0
▁known	-58.33333
▁multiple	-55.55556
anguage	-57.14286
▁total	-58.33333
ology	-60.0
ät	-75.0
▁Х	-75.0
▁fre	-62.5
▁ten	-62.5
ideo	-62.5
▁bes	-62.5
true	-62.5
Query	-60.0
omm	-66.66666
▁Art	-62.5
▁keep	-60.0
▁University	-54.54546
reate	-60.0
pport	-60.0
▁python	-57.14286
tra	-66.66666
ector	-60.0
рі	-75.0
oph	-66.66666
▁conc	-60.0
▁four	-60.0
viron	-60.0
▁via	-62.5
?"	-75.0
image	-60.0
oll	-66.66666
ные	-66.66666
▁context	-56.25
▁sem	-62.5
._	-75.0
▁eng	-62.5
mar	-66.66666
AD	-75.0
▁mor	-62.5
▁Cal	-62.5
▁cell	-60.0
imal	-62.5
ATE	-66.66666
▁inf	-62.5
ön	-75.0
uffer	-60.0
sq	-75.0
....	-62.5
▁zur	-62.5
With	-62.5
ран	-66.66666
chn	-66.66666
▁door	-60.0
content	-57.14286
▁miss	-60.0
▁simp	-60.0
ár	-75.0
ira	-66.66666
▁hat	-62.5
Test	-62.5
▁certain	-56.25
NS	-75.0
▁cho	-62.5
▁adv	-62.5
where	-60.0
▁looking	-56.25
▁times	-58.33333
них	-66.66666
uto	-66.66666
▁É	-75.0
can	-66.66666
host	-62.5
▁(*	-66.66666
loat	-62.5
▁nicht	-58.33333
Field	-60.0
burg	-62.5
const	-60.0
ades	-62.5
▁Mus	-62.5
▁nothing	-56.25
▁incre	-58.33333
▁Min	-62.5
▁power	-58.33333
▁American	-55.55556
ln	-75.0
valid	-60.0
ungs	-62.5
▁National	-55.55556
▁San	-62.5
▁York	-60.0
Request	-57.14286
char	-62.5
▁Ze	-66.66666
button	-58.33333
▁alg	-62.5
SON	-66.66666
▁ap	-66.66666
uff	-66.66666
ability	-57.14286
ем	-75.0
▁anything	-55.55556
ela	-66.66666
())	-66.66666
ба	-75.0
ampion	-58.33333
▁pot	-62.5
▁fut	-62.5
ailable	-57.14286
▁prop	-60.0
"]	-75.0
▁less	-60.0
lag	-66.66666
▁August	-57.14286
It	-75.0
▁please	-57.14286
▁style	-58.33333
▁Also	-60.0
bt	-75.0
▁probably	-55.55556
▁One	-62.5
▁poss	-60.0
UI	-75.0
uit	-66.66666
▁West	-60.0
hn	-75.0
+\	-75.0
Button	-58.33333
json	-62.5
err	-66.66666
rame	-62.5
dom	-66.66666
ilon	-62.5
alf	-66.66666
▁client	-57.14286
▁continu	-56.25
xml	-66.66666
pec	-66.66666
ador	-62.5
ls	-75.0
▁however	-56.25
▁Any	-62.5
änd	-66.66666
mathrm	-58.33333
▁url	-62.5
▁book	-60.0
▁gl	-66.66666
ives	-62.5
gi	-75.0
▁tro	-62.5
▁US	-66.66666
point	-60.0
open	-62.5
▁cur	-62.5
▁era	-62.5
▁particular	-54.54546
▁HT	-66.66666
oot	-66.66666
ello	-62.5
lobal	-60.0
▁action	-57.14286
▁Int	-62.5
▁include	-56.25
▁elements	-55.55556
ная	-66.66666
ards	-62.5
▁Bl	-66.66666
▁hum	-62.5
from	-62.5
change	-58.33333
▁functions	-55.0
hen	-66.66666
Service	-57.14286
▁height	-57.14286
▁Land	-60.0
ias	-66.66666
gs	-75.0
ión	-66.66666
лов	-66.66666
node	-62.5
.”	-75.0
hand	-62.5
▁бу	-66.66666
▁amb	-62.5
▁Lu	-66.66666
▁throw	-58.33333
▁mot	-62.5
▁Act	-62.5
▁world	-58.33333
_\	-75.0
base	-62.5
▁Co	-66.66666
▁arch	-60.0
▁####	-60.0
ged	-66.66666
pril	-62.5
older	-60.0
Model	-60.0
▁several	-56.25
lie	-66.66666
check	-60.0
]{	-75.0
cons	-62.5
▁Tra	-62.5
heck	-62.5
▁least	-58.33333
down	-62.5
ebru	-62.5
Def	-66.66666
param	-60.0
ischer	-58.33333
▁cas	-62.5
CH	-75.0
▁address	-56.25
▁раз	-62.5
ufen	-62.5
urope	-60.0
ей	-75.0
▁bound	-58.33333
CO	-75.0
▁Ang	-62.5
▁Ma	-66.66666
Index	-60.0
core	-62.5
ouch	-62.5
atabase	-57.14286
ribution	-56.25
document	-56.25
Le	-75.0
}_{	-66.66666
vern	-62.5
▁statement	-55.0
▁Brit	-60.0
ono	-66.66666
psilon	-58.33333
▁level	-58.33333
▁product	-56.25
IS	-75.0
▁course	-57.14286
▁Mr	-66.66666
>	-75.0
▁background	-54.54546
▁ret	-62.5
ering	-60.0
most	-62.5
сько	-62.5
▁thread	-57.14286
itional	-57.14286
ites	-62.5
Pl	-75.0
▁dos	-62.5
ga	-75.0
day	-66.66666
▁Gener	-58.33333
▁tw	-66.66666
Ad	-75.0
"><	-66.66666
▁($	-66.66666
▁moment	-57.14286
title	-60.0
create	-58.33333
version	-57.14286
Manager	-57.14286
▁fur	-62.5
pping	-60.0
ijn	-66.66666
ос	-75.0
▁rather	-57.14286
ptember	-57.14286
OS	-75.0
▁site	-60.0
▁caus	-60.0
ani	-66.66666
▁home	-60.0
мі	-75.0
▁short	-58.33333
pa	-75.0
▁lead	-60.0
ished	-60.0
cing	-62.5
ording	-58.33333
▁prote	-58.33333
сле	-66.66666
LECT	-62.5
▁didn	-60.0
position	-56.25
","	-66.66666
(),	-66.66666
trans	-60.0
▁lot	-62.5
▁од	-66.66666
AS	-75.0
▁sat	-62.5
▁points	-57.14286
github	-58.33333
style	-60.0
▁году	-60.0
▁Dis	-62.5
ponent	-58.33333
omet	-62.5
zer	-66.66666
ULL	-66.66666
▁pa	-66.66666
AP	-75.0
aces	-62.5
▁United	-57.14286
ama	-66.66666
ety	-66.66666
Color	-60.0
▁enough	-57.14286
US	-75.0
▁length	-57.14286
());	-62.5
^{\	-66.66666
fty	-66.66666
Box	-66.66666
apter	-60.0
▁complet	-56.25
ник	-66.66666
max	-66.66666
object	-58.33333
({	-75.0
imgur	-60.0
itive	-60.0
unch	-62.5
▁Sub	-62.5
ende	-62.5
гу	-75.0
ategory	-57.14286
ты	-75.0
iano	-62.5
▁upd	-62.5
▁Aust	-60.0
}{\	-66.66666
top	-66.66666
las	-66.66666
pis	-66.66666
iness	-60.0
▁{	-66.66666
▁Е	-75.0
Gr	-75.0
▁AS	-66.66666
▁ве	-66.66666
thers	-60.0
▁defined	-56.25
azione	-58.33333
▁offic	-58.33333
▁autom	-58.33333
ün	-75.0
▁brow	-60.0
▁serv	-60.0
▁remove	-57.14286
iro	-66.66666
▁Bibli	-58.33333
ED	-75.0
▁whole	-58.33333
▁ш	-75.0
▁Java	-60.0
▁zum	-62.5
ua	-75.0
pm	-75.0
dev	-66.66666
кра	-66.66666
olds	-62.5
▁War	-62.5
än	-75.0
pass	-62.5
uz	-75.0
["	-75.0
▁tri	-62.5
ised	-62.5
ха	-75.0
▁memory	-57.14286
▁Port	-60.0
oper	-62.5
Up	-75.0
▁Thank	-58.33333
▁Mich	-60.0
ych	-66.66666
board	-60.0
бу	-75.0
Inst	-62.5
▁begin	-58.33333
ination	-57.14286
▁Mod	-62.5
_,	-75.0
▁Den	-62.5
option	-58.33333
▁construct	-55.0
▁Just	-60.0
Map	-66.66666
run	-66.66666
▁respect	-56.25
ham	-66.66666
ман	-66.66666
imedia	-58.33333
▁apply	-58.33333
cription	-56.25
main	-62.5
▁Ка	-66.66666
oid	-66.66666
Code	-62.5
};	-75.0
Info	-62.5
▁format	-57.14286
Log	-66.66666
▁су	-66.66666
▁lat	-62.5
utor	-62.5
▁reference	-55.0
▁calcul	-57.14286
onn	-66.66666
Lo	-75.0
infty	-60.0
▁along	-58.33333
▁č	-75.0
▁task	-60.0
▁ev	-66.66666
theta	-60.0
ras	-66.66666
jor	-66.66666
▁бо	-66.66666
▁princip	-56.25
My	-75.0
▁einer	-58.33333
▁Es	-66.66666
omb	-66.66666
quad	-62.5
^{-	-66.66666
ump	-66.66666
▁till	-60.0
ді	-75.0
▁looks	-58.33333
▁ok	-66.66666
ца	-75.0
nu	-75.0
Fil	-66.66666
▁sont	-60.0
▁Med	-62.5
ague	-62.5
▁cost	-60.0
▁Sim	-62.5
▁comment	-56.25
▁(\	-66.66666
egen	-62.5
▁parameter	-55.0
▁France	-57.14286
rep	-66.66666
▁TH	-66.66666
▁yet	-62.5
▁away	-60.0
▁circ	-60.0
▁API	-62.5
emp	-66.66666
ві	-75.0
Layout	-58.33333
▁lines	-58.33333
▁Part	-60.0
empt	-62.5
▁Bi	-66.66666
▁mind	-60.0
ky	-75.0
ging	-62.5
▁report	-57.14286
▁Add	-62.5
род	-66.66666
▁range	-58.33333
cias	-62.5
lip	-66.66666
▁Kar	-62.5
▁Commons	-56.25
gerufen	-57.14286
aff	-66.66666
sec	-66.66666
▁html	-60.0
lig	-66.66666
▁window	-57.14286
inition	-57.14286
cis	-66.66666
▁ut	-66.66666
eln	-66.66666
▁aux	-62.5
▁neg	-62.5
Hand	-62.5
▁);	-66.66666
▁anal	-60.0
▁fri	-62.5
▁си	-66.66666
etch	-62.5
md	-75.0
page	-62.5
▁library	-56.25
▁:=	-66.66666
ROM	-66.66666
You	-66.66666
space	-60.0
▁durch	-58.33333
▁host	-60.0
aven	-62.5
▁File	-60.0
alle	-62.5
тив	-66.66666
▁pap	-62.5
ство	-62.5
mark	-62.5
▁mais	-60.0
erman	-60.0
Size	-62.5
ек	-75.0
▁Ма	-66.66666
▁isn	-62.5
▁copy	-60.0
sten	-62.5
river	-60.0
▁went	-60.0
▁javascript	-54.54546
▁sam	-62.5
▁frame	-58.33333
▁vi	-66.66666
▁previous	-55.55556
rodu	-62.5
▁methods	-56.25
▁necess	-57.14286
NA	-75.0
cket	-62.5
▁opt	-62.5
Loc	-66.66666
how	-66.66666
▁în	-66.66666
ship	-62.5
▁itself	-57.14286
▁Please	-57.14286
iene	-62.5
вер	-66.66666
▁<<	-66.66666
▁mill	-60.0
▁trad	-60.0
pace	-62.5
▁Har	-62.5
iten	-62.5
wise	-62.5
write	-60.0
ции	-66.66666
ры	-75.0
Line	-62.5
olo	-66.66666
▁accept	-57.14286
height	-58.33333
▁elect	-58.33333
ella	-62.5
▁på	-66.66666
Select	-58.33333
▁ли	-66.66666
▁\<	-66.66666
((	-75.0
▁ID	-66.66666
ops	-66.66666
ван	-66.66666
ió	-75.0
TP	-75.0
»,	-75.0
nection	-57.14286
parent	-58.33333
▁Mag	-62.5
Table	-60.0
Over	-62.5
▁network	-56.25
спо	-66.66666
▁assign	-57.14286
igger	-60.0
irm	-66.66666
)`	-75.0
ottom	-60.0
beta	-62.5
▁dell	-60.0
▁body	-60.0
▁да	-66.66666
▁Your	-60.0
▁fue	-62.5
▁package	-56.25
▁light	-58.33333
▁**	-66.66666
MP	-75.0
▁cou	-62.5
yes	-66.66666
:\	-75.0
▁Ч	-75.0
▁mention	-56.25
ensch	-60.0
▁deg	-62.5
▁convert	-56.25
▁Dav	-62.5
adt	-66.66666
Result	-58.33333
though	-58.33333
▁bus	-62.5
xy	-75.0
▁seen	-60.0
All	-66.66666
public	-58.33333
ively	-60.0
▁Rec	-62.5
▁His	-62.5
sim	-66.66666
▁för	-62.5
▁histor	-57.14286
▁sett	-60.0
rat	-66.66666
abled	-60.0
▁»,	-66.66666
google	-58.33333
Web	-66.66666
él	-75.0
▁title	-58.33333
▁Janu	-60.0
ја	-75.0
▁took	-60.0
iden	-62.5
sz	-75.0
▁Get	-62.5
▁objects	-56.25
▁common	-57.14286
▁changes	-56.25
▁Lond	-60.0
▁extern	-57.14286
▁ju	-66.66666
Is	-75.0
▁available	-55.0
tri	-66.66666
▁más	-62.5
osa	-66.66666
Be	-75.0
▁Data	-60.0
ural	-62.5
▁hom	-62.5
▁account	-56.25
oo	-75.0
▁perm	-60.0
respond	-57.14286
yt	-75.0
▁send	-60.0
▁returns	-56.25
ivid	-62.5
▁expla	-58.33333
ín	-75.0
▁nor	-62.5
If	-75.0
▁From	-60.0
▁target	-57.14286
fect	-62.5
ент	-66.66666
▁uit	-62.5
▁Jo	-66.66666
▁variables	-55.0
▁series	-57.14286
▁func	-60.0
▁himself	-56.25
▁ча	-66.66666
anti	-62.5
▁ach	-62.5
ialog	-60.0
▁std	-62.5
ae	-75.0
▁foot	-60.0
▁unter	-58.33333
gress	-60.0
Not	-66.66666
rad	-66.66666
fér	-66.66666
▁util	-60.0
orem	-62.5
▁sou	-62.5
opt	-66.66666
▁og	-66.66666
▁uma	-62.5
itar	-62.5
▁Ok	-66.66666
ück	-66.66666
sqrt	-62.5
▁ant	-62.5
▁werden	-57.14286
år	-75.0
});	-66.66666
▁Paris	-58.33333
▁exception	-55.0
▁determ	-57.14286
▁Vol	-62.5
▁Sam	-62.5
▁ess	-62.5
lies	-62.5
ioni	-62.5
oding	-60.0
idget	-60.0
▁pri	-62.5
▁whether	-56.25
▁под	-62.5
▁numbers	-56.25
▁~	-75.0
event	-60.0
▁shows	-58.33333
atures	-58.33333
▁house	-58.33333
▁face	-60.0
▁się	-62.5
vironment	-55.55556
van	-66.66666
▁including	-55.0
▁<-	-66.66666
times	-60.0
now	-66.66666
▁pur	-62.5
ifier	-60.0
▁emp	-62.5
▁cla	-62.5
mon	-66.66666
▁Das	-62.5
ady	-66.66666
▁від	-62.5
▁ц	-75.0
abor	-62.5
OST	-66.66666
▁band	-60.0
▁ú	-75.0
▁exactly	-56.25
iert	-62.5
avig	-62.5
▁redu	-60.0
▁SE	-66.66666
lished	-58.33333
Bu	-75.0
Message	-57.14286
cell	-62.5
fully	-60.0
▁sv	-66.66666
▁makes	-58.33333
pol	-66.66666
▁required	-55.55556
ferrer	-58.33333
▁pers	-60.0
▁mi	-66.66666
FI	-75.0
▁Paul	-60.0
▁UI	-66.66666
▁Bel	-62.5
inc	-66.66666
▁contains	-55.55556
Out	-66.66666
asure	-60.0
pu	-75.0
oto	-66.66666
▁game	-60.0
zn	-75.0
▁Why	-62.5
orith	-60.0
big	-66.66666
кий	-66.66666
sigma	-60.0
▁quite	-58.33333
▁jed	-62.5
rec	-66.66666
▁SQL	-62.5
бе	-75.0
▁Mart	-60.0
ya	-75.0
▁school	-57.14286
▁simply	-57.14286
▁vor	-62.5
▁double	-57.14286
рав	-66.66666
▁Str	-62.5
iem	-66.66666
▁album	-58.33333
▁resol	-58.33333
▁dei	-62.5
▁Wik	-62.5
▁aw	-66.66666
umb	-66.66666
ols	-66.66666
▁*/	-66.66666
▁ze	-66.66666
▁anim	-60.0
/>	-75.0
ris	-66.66666
resh	-62.5
No	-75.0
iques	-60.0
current	-57.14286
▁period	-57.14286
▁April	-58.33333
▁store	-58.33333
','	-66.66666
▁Set	-62.5
={	-75.0
ached	-60.0
▁Mal	-62.5
▁Pal	-62.5
antes	-60.0
aterial	-57.14286
▁worked	-57.14286
leq	-66.66666
oreferrer	-55.55556
▁happen	-57.14286
▁box	-62.5
ney	-66.66666
▁close	-58.33333
▁gran	-60.0
▁lie	-62.5
▁ir	-66.66666
▁expected	-55.55556
▁для	-62.5
click	-60.0
și	-75.0
▁parte	-58.33333
ogn	-66.66666
▁Form	-60.0
▁memb	-60.0
▁plan	-60.0
▁team	-60.0
][	-75.0
▁commun	-57.14286
orry	-62.5
ency	-62.5
gl	-75.0
inary	-60.0
cdot	-62.5
^\	-75.0
▁First	-58.33333
ander	-60.0
▁Dec	-62.5
request	-57.14286
ства	-62.5
▁structure	-55.0
▁||	-66.66666
▁Comp	-60.0
actory	-58.33333
▁Mil	-62.5
▁Some	-60.0
Stream	-58.33333
▁assum	-58.33333
uen	-66.66666
▁words	-58.33333
▁September	-55.0
▁Ко	-66.66666
▁days	-60.0
ories	-60.0
став	-62.5
sm	-75.0
vin	-66.66666
partial	-57.14286
▁parent	-57.14286
oj	-75.0
нии	-66.66666
!"	-75.0
ugin	-62.5
▁Windows	-56.25
Ed	-75.0
:}	-75.0
▁q	-75.0
▁ben	-62.5
iana	-62.5
▁label	-58.33333
state	-60.0
uted	-62.5
▁()	-66.66666
▁сво	-62.5
▁edit	-60.0
uring	-60.0
▁NS	-66.66666
▁Jahr	-60.0
▁provide	-56.25
He	-75.0
▁Yes	-62.5
anel	-62.5
ename	-60.0
▁Don	-62.5
isk	-66.66666
gra	-66.66666
elij	-62.5
▁root	-60.0
*/	-75.0
▁Fre	-62.5
▁Mor	-62.5
used	-62.5
range	-60.0
▁tamb	-60.0
▁module	-57.14286
▁directory	-55.0
ounds	-60.0
Activity	-56.25
▁mu	-66.66666
info	-62.5
▁free	-60.0
orge	-62.5
tab	-66.66666
)=	-75.0
lang	-62.5
▁ос	-66.66666
▁FROM	-60.0
▁enter	-58.33333
▁became	-57.14286
idae	-62.5
хи	-75.0
▁States	-57.14286
verse	-60.0
▁expl	-60.0
ynt	-66.66666
UN	-75.0
ee	-75.0
endent	-58.33333
▁making	-57.14286
▁"$	-66.66666
uni	-66.66666
quence	-58.33333
▁lui	-62.5
HT	-75.0
▁uses	-60.0
zie	-66.66666
nia	-66.66666
Content	-57.14286
▁Count	-58.33333
▁standard	-55.55556
ENT	-66.66666
▁кон	-62.5
fort	-62.5
adas	-62.5
зу	-75.0
System	-58.33333
▁Sw	-66.66666
▁ever	-60.0
LO	-75.0
▁correspond	-54.54546
▁Po	-66.66666
argin	-60.0
кт	-75.0
ій	-75.0
▁remain	-57.14286
cio	-66.66666
▁actual	-57.14286
сту	-66.66666
▁sind	-60.0
▁Pe	-66.66666
▁changed	-56.25
▁Note	-60.0
skie	-62.5
▁family	-57.14286
ità	-66.66666
cos	-66.66666
txt	-66.66666
ker	-66.66666
ceed	-62.5
▁arr	-62.5
▁cam	-62.5
izer	-62.5
▁Dan	-62.5
hel	-66.66666
icult	-60.0
HP	-75.0
iler	-62.5
▁Sal	-62.5
▁connection	-54.54546
usion	-60.0
kn	-75.0
RI	-75.0
▁vom	-62.5
Listener	-56.25
▁ö	-75.0
▁dim	-62.5
▁press	-58.33333
▁esc	-62.5
▁Try	-62.5
atalog	-58.33333
▁thanks	-57.14286
DO	-75.0
▁written	-56.25
dir	-66.66666
rew	-66.66666
▁fire	-60.0
▁Nach	-60.0
▁á	-75.0
enc	-66.66666
▁origin	-57.14286
▁November	-55.55556
▁};	-66.66666
Count	-60.0
▁За	-66.66666
▁graph	-58.33333
▁mis	-62.5
▁External	-55.55556
▁▁▁▁▁▁▁▁▁	-55.55556
▁options	-56.25
▁URL	-62.5
▁php	-62.5
▁integr	-57.14286
Config	-58.33333
▁Text	-60.0
inner	-60.0
▁crit	-60.0
,”	-75.0
▁tog	-62.5
$$	-75.0
nof	-66.66666
▁ses	-62.5
ühr	-66.66666
▁Since	-58.33333
Des	-66.66666
ube	-66.66666
▁section	-56.25
▁gi	-66.66666
ford	-62.5
▁Ass	-62.5
ainer	-60.0
ttp	-66.66666
▁behav	-58.33333
ports	-60.0
draw	-62.5
This	-62.5
ranch	-60.0
inding	-58.33333
▁estab	-58.33333
▁obtain	-57.14286
rich	-62.5
licit	-60.0
ев	-75.0
▁qual	-60.0
▁za	-66.66666
▁har	-62.5
▁fac	-62.5
aar	-66.66666
jet	-66.66666
icles	-60.0
▁Aus	-62.5
▁hor	-62.5
▁remov	-58.33333
▁wie	-62.5
Client	-58.33333
▁natur	-58.33333
hip	-66.66666
Sub	-66.66666
▁random	-57.14286
DF	-75.0
▁area	-60.0
tag	-66.66666
Pr	-75.0
▁Ital	-60.0
▁roku	-60.0
nofollow	-56.25
*}	-75.0
▁others	-57.14286
▁limit	-58.33333
▁sil	-62.5
▁sav	-62.5
▁often	-58.33333
▁render	-57.14286
DB	-75.0
▁Mc	-66.66666
▁zijn	-60.0
жен	-66.66666
▁tag	-62.5
ming	-62.5
lichen	-58.33333
pack	-62.5
▁Ag	-66.66666
▁sense	-58.33333
pg	-75.0
Method	-58.33333
aged	-62.5
ág	-75.0
ła	-75.0
▁interest	-55.55556
▁associ	-57.14286
volution	-56.25
▁empty	-58.33333
iche	-62.5
▁gro	-62.5
▁types	-58.33333
▁Sie	-62.5
Inter	-60.0
▁noreferrer	-54.54546
▁gives	-58.33333
hal	-66.66666
▁save	-60.0
▁font	-60.0
ruction	-57.14286
Script	-58.33333
▁alla	-60.0
▁says	-60.0
▁fu	-66.66666
ape	-66.66666
▁language	-55.55556
iger	-62.5
▁King	-60.0
bor	-66.66666
uv	-75.0
▁shall	-58.33333
▁Europe	-57.14286
▁einem	-58.33333
▁water	-58.33333
▁govern	-57.14286
anz	-66.66666
ators	-60.0
▁month	-58.33333
ye	-75.0
▁important	-55.0
atz	-66.66666
first	-60.0
▁Trans	-58.33333
▁Mad	-62.5
▁bra	-62.5
ika	-66.66666
▁Saint	-58.33333
oria	-62.5
kre	-66.66666
ements	-58.33333
▁Ben	-62.5
lav	-66.66666
▁admin	-58.33333
▁Hen	-62.5
ril	-66.66666
▁Sm	-66.66666
cat	-66.66666
▁Refer	-58.33333
▁Ш	-75.0
▁pract	-58.33333
▁Pat	-62.5
▁Gre	-62.5
▁young	-58.33333
▁Inter	-58.33333
oma	-66.66666
teger	-60.0
ibility	-57.14286
▁parameters	-54.54546
▁everything	-54.54546
dat	-66.66666
urop	-62.5
olean	-60.0
▁returned	-55.55556
▁Class	-58.33333
acy	-66.66666
####	-62.5
▁př	-66.66666
▁folder	-57.14286
▁kon	-62.5
▁guess	-58.33333
gt	-75.0
jen	-66.66666
annel	-60.0
icon	-62.5
▁comb	-60.0
rict	-62.5
▁hij	-62.5
▁author	-57.14286
see	-66.66666
here	-62.5
stra	-62.5
▁entire	-57.14286
▁directly	-55.55556
raft	-62.5
heet	-62.5
ester	-60.0
▁ми	-66.66666
▁mass	-60.0
untu	-62.5
▁users	-58.33333
chi	-66.66666
PE	-75.0
▁component	-55.0
Click	-60.0
Att	-66.66666
▁sobre	-58.33333
ands	-62.5
▁Hol	-62.5
▁Sant	-60.0
ori	-66.66666
▁sua	-62.5
std	-66.66666
entic	-60.0
CC	-75.0
▁filter	-57.14286
SQL	-66.66666
▁God	-62.5
At	-75.0
▁му	-66.66666
▁performance	-54.16667
delta	-60.0
ande	-62.5
amer	-62.5
ды	-75.0
▁cult	-60.0
▁Nor	-62.5
but	-66.66666
▁lik	-62.5
********	-56.25
ствен	-60.0
▁comme	-58.33333
▁dr	-66.66666
imer	-62.5
ordin	-60.0
▁condition	-55.0
este	-62.5
([	-75.0
FF	-75.0
ться	-62.5
imo	-66.66666
rab	-66.66666
іль	-66.66666
▁half	-60.0
each	-62.5
Dis	-66.66666
▁rows	-60.0
▁hon	-62.5
▁together	-55.55556
▁și	-66.66666
medi	-62.5
agn	-66.66666
alled	-60.0
▁vill	-60.0
ING	-66.66666
idden	-60.0
▁draw	-60.0
yntax	-60.0
▁attempt	-56.25
URL	-66.66666
pose	-62.5
▁indic	-58.33333
ника	-62.5
▁English	-56.25
▁déc	-62.5
▁needs	-58.33333
▁normal	-57.14286
urt	-66.66666
▁но	-66.66666
}}\	-66.66666
last	-62.5
▁Fin	-62.5
▁Febru	-58.33333
ila	-66.66666
▁country	-56.25
▁fields	-57.14286
▁max	-62.5
lés	-66.66666
owie	-62.5
▁deux	-60.0
▁built	-58.33333
▁Main	-60.0
▁camp	-60.0
ivo	-66.66666
iva	-66.66666
icy	-66.66666
zione	-60.0
Node	-62.5
▁:)	-66.66666
▁among	-58.33333
▁Ob	-66.66666
▁cases	-58.33333
haps	-62.5
sers	-62.5
arter	-60.0
ści	-66.66666
▁iter	-60.0
▁named	-58.33333
exec	-62.5
▁season	-57.14286
tot	-66.66666
=>	-75.0
graph	-60.0
▁nil	-62.5
acional	-57.14286
▁NULL	-60.0
▁special	-56.25
сте	-66.66666
css	-66.66666
▁\(	-66.66666
vs	-75.0
ael	-66.66666
▁city	-60.0
ova	-66.66666
▁article	-56.25
▁South	-58.33333
Action	-58.33333
ça	-75.0
spring	-58.33333
itude	-60.0
▁complex	-56.25
▁что	-62.5
build	-60.0
gamma	-60.0
▁Ent	-62.5
iers	-62.5
'.	-75.0
car	-66.66666
apache	-58.33333
ingen	-60.0
Input	-60.0
: 	-75.0
▁dynam	-58.33333
alls	-62.5
show	-62.5
|\	-75.0
▁wird	-60.0
Bar	-66.66666
alth	-62.5
model	-60.0
Trans	-60.0
Row	-66.66666
abe	-66.66666
▁lib	-62.5
null	-62.5
ragment	-57.14286
▁State	-58.33333
▁law	-62.5
Frame	-60.0
▁Lo	-66.66666
geb	-66.66666
}$.	-66.66666
▁needed	-57.14286
▁contr	-58.33333
aries	-60.0
▁screen	-57.14286
yr	-75.0
mm	-75.0
▁shown	-58.33333
▁bad	-62.5
▁cast	-60.0
▁Test	-60.0
▁Auf	-62.5
▁quant	-58.33333
iga	-66.66666
▁ren	-62.5
▁Mac	-62.5
▁transform	-55.0
▁difference	-54.54546
▁tit	-62.5
TE	-75.0
▁step	-60.0
▁capt	-60.0
▁collection	-54.54546
ictionary	-55.55556
▁Tom	-62.5
rier	-62.5
▁move	-60.0
cope	-62.5
ords	-62.5
▁further	-56.25
▁columns	-56.25
▁Lin	-62.5
▁fixed	-58.33333
▁children	-55.55556
MS	-75.0
mo	-75.0
una	-66.66666
▁individ	-56.25
tty	-66.66666
aste	-62.5
src	-66.66666
match	-60.0
wi	-75.0
▁х	-75.0
▁ди	-66.66666
▁ord	-62.5
iving	-60.0
▁Bro	-62.5
▁almost	-57.14286
▁Pres	-60.0
reci	-62.5
aring	-60.0
▁///	-62.5
ется	-62.5
▁sig	-62.5
light	-60.0
▁Red	-62.5
▁suggest	-56.25
olf	-66.66666
▁été	-62.5
isation	-57.14286
зна	-66.66666
New	-66.66666
стан	-62.5
LA	-75.0
unicip	-58.33333
▁figure	-57.14286
mt	-75.0
iale	-62.5
▁catch	-58.33333
default	-57.14286
▁tele	-60.0
▁matter	-57.14286
cast	-62.5
▁Rich	-60.0
▁handle	-57.14286
valu	-62.5
$-	-75.0
об	-75.0
▁json	-60.0
Create	-58.33333
▁exam	-60.0
аль	-66.66666
ют	-75.0
ored	-62.5
idos	-62.5
append	-58.33333
▁Array	-58.33333
кс	-75.0
}[	-75.0
rive	-62.5
▁club	-60.0
mann	-62.5
▁este	-60.0
esta	-62.5
▁Gi	-66.66666
▁Jap	-62.5
▁Name	-60.0
Column	-58.33333
oups	-62.5
ismo	-62.5
▁City	-60.0
▁classes	-56.25
▁infl	-60.0
hl	-75.0
ром	-66.66666
▁adding	-57.14286
▁fail	-60.0
xx	-75.0
ões	-66.66666
Sc	-75.0
util	-62.5
▁location	-55.55556
lege	-62.5
ago	-66.66666
▁properties	-54.54546
abil	-62.5
vas	-66.66666
}$,	-66.66666
itted	-60.0
ód	-75.0
▁Dem	-62.5
▁asked	-58.33333
▁tab	-62.5
Source	-58.33333
▁errors	-57.14286
ographie	-56.25
▁жи	-66.66666
▁mal	-62.5
stract	-58.33333
▁dro	-62.5
rak	-66.66666
▁note	-60.0
▁setting	-56.25
▁fem	-62.5
▁saw	-62.5
iar	-66.66666
HER	-66.66666
ес	-75.0
▁pred	-60.0
▁Out	-62.5
▁items	-58.33333
лан	-66.66666
▁werd	-60.0
ersion	-58.33333
lia	-66.66666
▁sin	-62.5
ichte	-60.0
▁feel	-60.0
▁пра	-62.5
▁oder	-60.0
UE	-75.0
ocument	-57.14286
▁mode	-60.0
▁Na	-66.66666
ден	-66.66666
mes	-66.66666
framework	-55.55556
▁auto	-60.0
ным	-66.66666
uby	-66.66666
▁template	-55.55556
▁mess	-60.0
ieder	-60.0
▁related	-56.25
oken	-62.5
▁follows	-56.25
search	-58.33333
ami	-66.66666
▁wait	-60.0
igr	-66.66666
▁low	-62.5
ских	-62.5
ская	-62.5
▁Mark	-60.0
▁ill	-62.5
amento	-58.33333
\<	-75.0
▁df	-66.66666
osition	-57.14286
▁Ви	-66.66666
isf	-66.66666
▁Deutsch	-56.25
ahl	-66.66666
war	-66.66666
itect	-60.0
▁sal	-62.5
elen	-62.5
ById	-62.5
▁gru	-62.5
sv	-75.0
▁passed	-57.14286
▁añ	-66.66666
Sch	-66.66666
▁solve	-58.33333
weise	-60.0
atos	-62.5
▁meg	-62.5
▁member	-57.14286
ername	-58.33333
▁connect	-56.25
ips	-66.66666
▁round	-58.33333
▁]	-75.0
nes	-66.66666
▁dir	-62.5
▁London	-57.14286
dy	-75.0
FA	-75.0
▁received	-55.55556
reet	-62.5
▁Log	-62.5
▁School	-57.14286
ango	-62.5
▁These	-58.33333
▁Mont	-60.0
▁ener	-60.0
lad	-66.66666
▁define	-57.14286
sign	-62.5
▁cle	-62.5
figure	-58.33333
▁View	-60.0
textbf	-58.33333
$\	-75.0
зы	-75.0
number	-58.33333
▁din	-62.5
eller	-60.0
orithm	-58.33333
false	-60.0
fol	-66.66666
fficient	-56.25
▁HTML	-60.0
liche	-60.0
▁Mo	-66.66666
▁introdu	-56.25
exp	-66.66666
▁strong	-57.14286
▁thus	-60.0
/)	-75.0
▁ele	-62.5
▁так	-62.5
▁па	-66.66666
▁dont	-60.0
▁cause	-58.33333
Number	-58.33333
▁images	-57.14286
▁sample	-57.14286
▁sci	-62.5
like	-62.5
▁Lou	-62.5
div	-66.66666
anc	-66.66666
▁front	-58.33333
nen	-66.66666
▁missing	-56.25
aria	-62.5
pres	-62.5
▁пред	-60.0
DI	-75.0
filter	-58.33333
▁Mit	-62.5
UR	-75.0
▁opp	-62.5
▁sql	-62.5
▁року	-60.0
eren	-62.5
emat	-62.5
ís	-75.0
▁Jean	-60.0
éc	-75.0
▁ci	-66.66666
enne	-62.5
atform	-58.33333
▁taken	-58.33333
▁Of	-66.66666
▁насе	-60.0
▁err	-62.5
OP	-75.0
From	-62.5
Default	-57.14286
▁General	-56.25
wiki	-62.5
▁grand	-58.33333
▁einen	-58.33333
Reg	-66.66666
Handler	-57.14286
conom	-60.0
anger	-60.0
▁был	-62.5
▁Los	-62.5
▁expression	-54.54546
ша	-75.0
yal	-66.66666
▁$('	-62.5
▁switch	-57.14286
▁vector	-57.14286
▁Thom	-60.0
▁virt	-60.0
leased	-58.33333
▁cover	-58.33333
▁resp	-60.0
ako	-66.66666
rench	-60.0
ota	-66.66666
Cell	-62.5
anged	-60.0
▁+=	-66.66666
lac	-66.66666
ska	-66.66666
next	-62.5
▁International	-53.57143
▁Wil	-62.5
▁ont	-62.5
ibr	-66.66666
ustr	-62.5
▁black	-58.33333
▁selected	-55.55556
cher	-62.5
▁liter	-58.33333
root	-62.5
лся	-66.66666
▁Life	-60.0
▁insert	-57.14286
▁matrix	-57.14286
ises	-62.5
)]	-75.0
▁pel	-62.5
Override	-56.25
rypt	-62.5
▁former	-57.14286
▁Film	-60.0
▁North	-58.33333
client	-58.33333
▁night	-58.33333
ходи	-62.5
▁Austral	-56.25
▁Ret	-62.5
rho	-66.66666
▁пер	-62.5
ipedia	-58.33333
▁express	-56.25
▁third	-58.33333
▁major	-58.33333
▁grad	-60.0
owe	-66.66666
▁believe	-56.25
ournal	-58.33333
▁status	-57.14286
unc	-66.66666
▁dou	-62.5
▁JSON	-60.0
uis	-66.66666
▁population	-54.54546
enz	-66.66666
▁William	-56.25
sf	-75.0
▁Object	-57.14286
▁cin	-62.5
▁Di	-66.66666
curity	-58.33333
▁Open	-60.0
▁ле	-66.66666
lar	-66.66666
adding	-58.33333
▁kom	-62.5
}(\	-66.66666
▁kil	-62.5
umer	-62.5
"/>	-66.66666
▁feature	-56.25
▁Are	-62.5
cks	-66.66666
▁Internet	-55.55556
▁ih	-66.66666
▁started	-56.25
▁early	-58.33333
▁began	-58.33333
TH	-75.0
python	-58.33333
asp	-66.66666
▁Fr	-66.66666
▁clos	-60.0
istic	-60.0
▁music	-58.33333
▁dig	-62.5
▁ital	-60.0
▁David	-58.33333
▁website	-56.25
▁controller	-54.54546
▁Mer	-62.5
context	-57.14286
product	-57.14286
osp	-66.66666
▁▁▁▁▁▁▁	-57.14286
▁jun	-62.5
rown	-62.5
▁Az	-66.66666
":"	-66.66666
▁aan	-62.5
▁Date	-60.0
mult	-62.5
▁browser	-56.25
ред	-66.66666
which	-60.0
RA	-75.0
quare	-60.0
▁Russ	-60.0
▁soon	-60.0
▁Pre	-62.5
tau	-66.66666
▁week	-60.0
▁ба	-66.66666
▁oct	-62.5
▁town	-60.0
roy	-66.66666
▁els	-62.5
blic	-62.5
undle	-60.0
▁Histor	-57.14286
▁foi	-62.5
▁models	-57.14286
зо	-75.0
onym	-62.5
Param	-60.0
▁Met	-62.5
gener	-60.0
ją	-75.0
▁espe	-60.0
CE	-75.0
▁device	-57.14286
ellow	-60.0
▁debug	-58.33333
érie	-62.5
using	-60.0
анг	-66.66666
▁*)	-66.66666
udi	-66.66666
▁Miss	-60.0
ком	-66.66666
posed	-60.0
▁zwe	-62.5
ін	-75.0
▁Robert	-57.14286
▁Oct	-62.5
lop	-66.66666
jar	-66.66666
▁aver	-60.0
▁habit	-58.33333
▁::	-66.66666
äng	-66.66666
Start	-60.0
▁pow	-62.5
▁src	-62.5
▁pattern	-56.25
▁Э	-75.0
▁bi	-66.66666
otes	-62.5
▁__	-66.66666
▁sens	-60.0
▁avoid	-58.33333
example	-57.14286
utt	-66.66666
Label	-60.0
tex	-66.66666
boot	-62.5
esto	-62.5
▁March	-58.33333
▁easy	-60.0
icture	-58.33333
Group	-60.0
▁father	-57.14286
▁updated	-56.25
▁Vo	-66.66666
▁III	-62.5
omega	-60.0
▁alle	-60.0
Rec	-66.66666
yg	-75.0
зе	-75.0
▁Dim	-62.5
nect	-62.5
▁Tor	-62.5
▁deutsch	-56.25
▁white	-58.33333
▁national	-55.55556
ppe	-66.66666
▁air	-62.5
▁password	-55.55556
det	-66.66666
▁big	-62.5
▁Use	-62.5
call	-62.5
▁extra	-58.33333
We	-75.0
ania	-62.5
▁hold	-60.0
Control	-57.14286
▁CO	-66.66666
▁мі	-66.66666
iti	-66.66666
▁Ke	-66.66666
enu	-66.66666
▁Park	-60.0
том	-66.66666
▁auth	-60.0
▁center	-57.14286
Ph	-75.0
тов	-66.66666
iding	-60.0
▁across	-57.14286
▁song	-60.0
▁phys	-60.0
▁numer	-58.33333
ща	-75.0
▁Alex	-60.0
▁problems	-55.55556
▁Error	-58.33333
format	-58.33333
▁Acc	-62.5
▁six	-62.5
▁db	-66.66666
▁Cast	-60.0
oms	-66.66666
project	-57.14286
▁vert	-60.0
cret	-62.5
▁header	-57.14286
▁stream	-57.14286
ids	-66.66666
▁tor	-62.5
▁sept	-60.0
▁estim	-58.33333
▁decl	-60.0
▁gave	-60.0
▁player	-57.14286
ysis	-62.5
▁дру	-62.5
amm	-66.66666
що	-75.0
▁("	-66.66666
▁ax	-66.66666
Property	-56.25
usr	-66.66666
▁someone	-56.25
▁impro	-58.33333
aden	-62.5
rote	-62.5
▁Ми	-66.66666
ih	-75.0
++)	-66.66666
▁video	-58.33333
▁exists	-57.14286
кла	-66.66666
▁complete	-55.55556
▁session	-56.25
▁constant	-55.55556
icos	-62.5
▁pack	-60.0
rome	-62.5
egr	-66.66666
Application	-54.54546
▁yes	-62.5
▁elle	-60.0
▁email	-58.33333
orf	-66.66666
case	-62.5
▁pointer	-56.25
▁regard	-57.14286
sen	-66.66666
status	-58.33333
▁mes	-62.5
▁delle	-58.33333
ington	-58.33333
▁Bas	-62.5
)^	-75.0
develop	-57.14286
▁force	-58.33333
▁characters	-54.54546
▁cross	-58.33333
▁death	-58.33333
▁takes	-58.33333
éri	-66.66666
igne	-62.5
чен	-66.66666
UP	-75.0
.:	-75.0
Thread	-58.33333
ju	-75.0
iny	-66.66666
▁details	-56.25
▁xml	-62.5
tait	-62.5
output	-58.33333
message	-57.14286
''	-75.0
▁British	-56.25
ville	-60.0
▁Div	-62.5
▁User	-60.0
cm	-75.0
чно	-66.66666
column	-58.33333
eqref	-60.0
ór	-75.0
onom	-62.5
▁Post	-60.0
ellen	-60.0
Ab	-75.0
ulté	-62.5
▁perfect	-56.25
(){	-66.66666
vision	-58.33333
active	-58.33333
lier	-62.5
rij	-66.66666
sd	-75.0
▁kö	-66.66666
▁nie	-62.5
▁relig	-58.33333
▁ot	-66.66666
▁machine	-56.25
▁held	-60.0
)$.	-66.66666
========	-56.25
cker	-62.5
вы	-75.0
born	-62.5
▁past	-60.0
рия	-66.66666
▁Dr	-66.66666
▁regular	-56.25
▁provided	-55.55556
TER	-66.66666
▁univers	-56.25
▁gets	-60.0
▁nu	-66.66666
▁/*	-66.66666
ober	-62.5
fin	-66.66666
▁nella	-58.33333
▁become	-57.14286
▁``	-66.66666
▁history	-56.25
▁Sol	-62.5
▁Rad	-62.5
▁terms	-58.33333
▁events	-57.14286
lymp	-62.5
)))	-66.66666
рова	-62.5
▁absol	-58.33333
▁soft	-60.0
links	-60.0
▁hope	-60.0
▁subject	-56.25
"),	-66.66666
▁creating	-55.55556
▁}	-66.66666
▁Sk	-66.66666
▁flow	-60.0
▁Ра	-66.66666
▁assert	-57.14286
zet	-66.66666
▁Frank	-58.33333
sa	-75.0
▁distribution	-53.84615
cu	-75.0
band	-62.5
izz	-66.66666
▁job	-62.5
iner	-62.5
struct	-58.33333
ák	-75.0
TO	-75.0
auf	-66.66666
▁extends	-56.25
▁Gra	-62.5
display	-57.14286
▁signific	-55.55556
oney	-62.5
source	-58.33333
microsoft	-55.55556
inder	-60.0
▁quick	-58.33333
▁wonder	-57.14286
Instance	-56.25
elles	-60.0
ème	-66.66666
▁company	-56.25
uß	-75.0
.}	-75.0
▁separate	-55.55556
UM	-75.0
HERE	-62.5
▁writing	-56.25
itution	-57.14286
▁Gesch	-58.33333
мя	-75.0
▁James	-58.33333
▁DE	-66.66666
▁Spe	-62.5
process	-57.14286
Str	-66.66666
▁sym	-62.5
▁ao	-66.66666
▁wy	-66.66666
▁anyone	-57.14286
▁Up	-66.66666
useum	-60.0
aron	-62.5
▁definition	-54.54546
▁`$	-66.66666
▁fav	-62.5
ributes	-57.14286
▁Ré	-66.66666
ografia	-57.14286
element	-57.14286
cap	-66.66666
pat	-66.66666
▁Bra	-62.5
)(	-75.0
▁according	-55.0
ге	-75.0
▁pie	-62.5
eli	-66.66666
}"	-75.0
▁activ	-58.33333
▁stop	-60.0
patch	-60.0
ті	-75.0
▁Jose	-60.0
End	-66.66666
▁prze	-60.0
▁age	-62.5
itory	-60.0
▁PHP	-62.5
agement	-57.14286
▁`.	-66.66666
▁pretty	-57.14286
▁recomm	-57.14286
▁sud	-62.5
▁requ	-60.0
▁обла	-60.0
atives	-58.33333
▁High	-60.0
áz	-75.0
oul	-66.66666
rest	-62.5
▁Ter	-62.5
under	-60.0
thern	-60.0
center	-58.33333
▁ur	-66.66666
lat	-66.66666
▁interface	-55.0
▁ин	-66.66666
▁whose	-58.33333
icas	-62.5
amen	-62.5
Filter	-58.33333
▁station	-56.25
Page	-62.5
▁arm	-62.5
▁eyes	-60.0
▁рай	-62.5
▁seu	-62.5
oli	-66.66666
win	-66.66666
lik	-66.66666
gex	-66.66666
chan	-62.5
idence	-58.33333
args	-62.5
aking	-60.0
▁Google	-57.14286
▁Stud	-60.0
▁ho	-66.66666
торы	-62.5
Su	-75.0
▁automat	-56.25
ême	-66.66666
▁cy	-66.66666
lor	-66.66666
▁stack	-58.33333
▁SELECT	-57.14286
AF	-75.0
▁>>	-66.66666
▁compet	-57.14286
▁pair	-60.0
▁inglés	-57.14286
Response	-56.25
▁Fig	-62.5
grad	-62.5
▁documentation	-53.57143
▁cant	-60.0
▁appreci	-56.25
ån	-75.0
▁learn	-58.33333
▁indep	-58.33333
▁pal	-62.5
package	-57.14286
ares	-62.5
▁Berlin	-57.14286
бли	-66.66666
reich	-60.0
ён	-75.0
▁satisf	-57.14286
▁region	-57.14286
▁friend	-57.14286
▁George	-57.14286
▁Во	-66.66666
▁""	-66.66666
▁desde	-58.33333
Factory	-57.14286
▁County	-57.14286
ouv	-66.66666
▁‘	-75.0
▁installed	-55.0
▁wanted	-57.14286
▁Python	-57.14286
▁interpre	-55.55556
▁included	-55.55556
▁((	-66.66666
▁altern	-57.14286
isto	-62.5
gn	-75.0
▁border	-57.14286
pdf	-66.66666
▁dup	-62.5
▁download	-55.55556
just	-62.5
▁members	-56.25
child	-60.0
▁pay	-62.5
▁cer	-62.5
▁looked	-57.14286
▁correctly	-55.0
auth	-62.5
▁стан	-60.0
▁esp	-62.5
▁desc	-60.0
eben	-62.5
▁questions	-55.0
mal	-66.66666
▁abgerufen	-55.0
▁Band	-60.0
▁[]	-66.66666
Base	-62.5
▁ris	-62.5
▁fort	-60.0
▁Id	-66.66666
▁various	-56.25
▁League	-57.14286
▁Hand	-60.0
▁Type	-60.0
irl	-66.66666
▁Fe	-66.66666
ién	-66.66666
itter	-60.0
▁fast	-60.0
sta	-66.66666
▁except	-57.14286
icz	-66.66666
▁French	-57.14286
▁environment	-54.16667
▁conse	-58.33333
ур	-75.0
ого	-66.66666
▁necessary	-55.0
target	-58.33333
▁reading	-56.25
home	-62.5
zeich	-60.0
▁equal	-58.33333
▁più	-62.5
▁prem	-60.0
▁difficult	-55.0
▁unit	-60.0
▁replace	-56.25
▁heart	-58.33333
▁talk	-60.0
AM	-75.0
▁RE	-66.66666
▁Person	-57.14286
endency	-57.14286
▁imm	-62.5
▁human	-58.33333
dn	-75.0
▁Kir	-62.5
▁Aut	-62.5
known	-60.0
▁frequ	-58.33333
system	-58.33333
лав	-66.66666
▁Sz	-66.66666
▁Gal	-62.5
ное	-66.66666
selves	-58.33333
rightarrow	-55.0
▁Са	-66.66666
="@	-66.66666
▁building	-55.55556
import	-58.33333
▁fam	-62.5
▁delete	-57.14286
aire	-62.5
mary	-62.5
▁fund	-60.0
▁particip	-55.55556
▁syn	-62.5
sin	-66.66666
▁lower	-58.33333
▁zero	-60.0
▁sec	-62.5
▁fra	-62.5
Point	-60.0
▁failed	-57.14286
iento	-60.0
cup	-66.66666
▁slow	-60.0
▁nation	-57.14286
ähr	-66.66666
▁info	-60.0
▁Public	-57.14286
▁decla	-58.33333
▁Та	-66.66666
▁sold	-60.0
▁Rem	-62.5
▁Phil	-60.0
стра	-62.5
▁mehr	-60.0
▁Work	-60.0
▁Nord	-60.0
▁fait	-60.0
▁gew	-62.5
println	-57.14286
obile	-60.0
▁Kon	-62.5
▁assume	-57.14286
lands	-60.0
▁amount	-57.14286
▁Press	-58.33333
ých	-66.66666
▁maxim	-58.33333
▁Champion	-55.55556
library	-57.14286
añ	-75.0
▁Wal	-62.5
Comm	-62.5
]]	-75.0
▁zw	-66.66666
▁social	-57.14286
LI	-75.0
▁Unter	-58.33333
vor	-66.66666
Delta	-60.0
email	-60.0
raint	-60.0
oni	-66.66666
▁alt	-62.5
▁né	-66.66666
ция	-66.66666
ography	-57.14286
▁mentioned	-55.0
▁<=	-66.66666
▁cette	-58.33333
▁currently	-55.0
vare	-62.5
izing	-60.0
▁Def	-62.5
icol	-62.5
ünd	-66.66666
▁configuration	-53.57143
estig	-60.0
III	-66.66666
lam	-66.66666
ière	-62.5
▁Ear	-62.5
▁tu	-66.66666
Ent	-66.66666
▁Using	-58.33333
▁ком	-62.5
cie	-66.66666
▁proof	-58.33333
▁invol	-58.33333
▁History	-56.25
><	-75.0
▁AND	-62.5
avy	-66.66666
▁relations	-55.0
${	-75.0
▁comes	-58.33333
▁direction	-55.0
▁June	-60.0
▁Way	-62.5
Component	-55.55556
ech	-66.66666
▁Peter	-58.33333
sg	-75.0
▁stra	-60.0
uct	-66.66666
▁implementation	-53.33333
attle	-60.0
▁cz	-66.66666
plot	-62.5
▁played	-57.14286
"></	-62.5
▁five	-60.0
▁coll	-60.0
▁Charles	-56.25
Tra	-66.66666
▁suo	-62.5
files	-60.0
entes	-60.0
response	-56.25
How	-66.66666
▁Soci	-60.0
▁ign	-62.5
▁led	-62.5
▁German	-57.14286
udo	-66.66666
▁Du	-66.66666
▁tim	-62.5
ounter	-58.33333
▁attack	-57.14286
uri	-66.66666
▁ар	-66.66666
esse	-62.5
ivil	-62.5
▁Ju	-66.66666
▁vel	-62.5
matrix	-58.33333
▁Mat	-62.5
gio	-66.66666
▁Zeit	-60.0
VER	-66.66666
has	-66.66666
Connection	-55.0
▁ihr	-62.5
▁attribute	-55.0
▁discuss	-56.25
▁domain	-57.14286
bind	-62.5
▁Sec	-62.5
rik	-66.66666
close	-60.0
gin	-66.66666
▁love	-60.0
anto	-62.5
gent	-62.5
aba	-66.66666
jango	-60.0
bi	-75.0
▁obser	-58.33333
itting	-58.33333
▁ру	-66.66666
}=	-75.0
agen	-62.5
BC	-75.0
some	-62.5
▁Bu	-66.66666
▁soci	-60.0
▁individual	-54.54546
▁deal	-60.0
▁outside	-56.25
rio	-66.66666
Exec	-62.5
andid	-60.0
▁business	-55.55556
▁tempor	-57.14286
▁Tur	-62.5
▁(!	-66.66666
riter	-60.0
▁google	-57.14286
]:	-75.0
itte	-62.5
xi	-75.0
▁Па	-66.66666
hol	-66.66666
нь	-75.0
ring	-62.5
▁sul	-62.5
ности	-60.0
_.	-75.0
gar	-66.66666
Task	-62.5
▁Check	-58.33333
▁modern	-57.14286
▁win	-62.5
uster	-60.0
han	-66.66666
formation	-55.55556
void	-62.5
▁фи	-66.66666
▁useful	-57.14286
▁England	-56.25
los	-66.66666
etime	-60.0
eur	-66.66666
▁unique	-57.14286
▁как	-62.5
ying	-62.5
obj	-66.66666
uid	-66.66666
▁windows	-56.25
▁distance	-55.55556
▁nombre	-57.14286
ія	-75.0
ocus	-62.5
ahn	-66.66666
ierte	-60.0
▁dar	-62.5
SI	-75.0
long	-62.5
asta	-62.5
iven	-62.5
▁told	-60.0
▁Gru	-62.5
foo	-66.66666
▁calling	-56.25
iembre	-58.33333
▁future	-57.14286
près	-62.5
leep	-62.5
avigation	-55.55556
POST	-62.5
▁described	-55.0
▁noch	-60.0
unit	-62.5
allen	-60.0
▁branch	-57.14286
fa	-75.0
▁fill	-60.0
▁obj	-62.5
▁tree	-60.0
▁wurden	-57.14286
▁Liter	-58.33333
rot	-66.66666
split	-60.0
emein	-60.0
module	-58.33333
CA	-75.0
▁operator	-55.55556
▁wrote	-58.33333
▁Jack	-60.0
ologie	-58.33333
▁Ant	-62.5
тер	-66.66666
stream	-58.33333
▁Que	-62.5
epsilon	-57.14286
non	-66.66666
stein	-60.0
▁simpl	-58.33333
pub	-66.66666
▁July	-60.0
▁nature	-57.14286
▁Database	-55.55556
ól	-75.0
ним	-66.66666
▁VI	-66.66666
être	-62.5
iles	-62.5
▁wel	-62.5
'),	-66.66666
▁mut	-62.5
location	-56.25
▁therefore	-55.0
elli	-62.5
▁І	-75.0
né	-75.0
▁ав	-66.66666
ledge	-60.0
▁conver	-57.14286
ím	-75.0
▁XV	-66.66666
vider	-60.0
▁January	-56.25
▁usually	-56.25
▁released	-55.55556
▁Mi	-66.66666
Head	-62.5
iller	-60.0
▁jan	-62.5
▁letter	-57.14286
produ	-60.0
rd	-75.0
▁Cam	-62.5
,'	-75.0
▁Ц	-75.0
▁push	-60.0
update	-58.33333
▁maybe	-58.33333
Http	-62.5
@"	-75.0
мер	-66.66666
service	-57.14286
parse	-60.0
▁dass	-60.0
ên	-75.0
)"	-75.0
more	-62.5
/*	-75.0
▁mas	-62.5
▁likely	-57.14286
▁material	-55.55556
▁[[	-66.66666
▁longer	-57.14286
bal	-66.66666
▁Archiv	-57.14286
igt	-66.66666
▁egy	-62.5
idge	-62.5
igu	-66.66666
conf	-62.5
▁inc	-62.5
consulté	-56.25
▁mai	-62.5
Work	-62.5
▁гра	-62.5
▁October	-56.25
▁global	-57.14286
▁sel	-62.5
▁municip	-56.25
▁viol	-60.0
▁Does	-60.0
▁\[	-66.66666
ском	-62.5
▁compos	-57.14286
бря	-66.66666
вя	-75.0
▁respons	-56.25
▁considered	-54.54546
▁Japan	-58.33333
pes	-66.66666
osto	-62.5
▁milit	-58.33333
SP	-75.0
сы	-75.0
attr	-62.5
cil	-66.66666
irectory	-56.25
aving	-60.0
▁Del	-62.5
▁prevent	-56.25
idade	-60.0
git	-66.66666
iform	-60.0
outer	-60.0
inct	-62.5
level	-60.0
atever	-58.33333
▁repe	-60.0
▁exc	-62.5
дар	-66.66666
Style	-60.0
▁Thomas	-57.14286
eline	-60.0
▁ж	-75.0
untime	-58.33333
▁larg	-60.0
True	-62.5
.*	-75.0
creen	-60.0
yles	-62.5
▁transl	-57.14286
▁Со	-66.66666
ensions	-57.14286
äl	-75.0
isse	-62.5
▁volt	-60.0
cially	-58.33333
nik	-66.66666
.]	-75.0
▁Stadt	-58.33333
мы	-75.0
fill	-62.5
lov	-66.66666
▁"/	-66.66666
Sp	-75.0
▁Air	-62.5
Call	-62.5
▁nur	-62.5
Check	-60.0
ience	-60.0
efined	-58.33333
▁вре	-62.5
ło	-75.0
dz	-75.0
▁ор	-66.66666
iker	-62.5
owa	-66.66666
ович	-62.5
ré	-75.0
OL	-75.0
▁linear	-57.14286
▁export	-57.14286
ahr	-66.66666
icial	-60.0
Rep	-66.66666
▁natural	-56.25
▁cop	-62.5
▁})	-66.66666
ções	-62.5
zz	-75.0
What	-62.5
▁House	-58.33333
Ref	-66.66666
inger	-60.0
▁taking	-57.14286
ně	-75.0
▁Einz	-60.0
▁dam	-62.5
▁issues	-57.14286
Builder	-57.14286
edit	-62.5
▁prz	-62.5
password	-56.25
Gener	-60.0
rim	-66.66666
▁parts	-58.33333
---	-66.66666
iginal	-58.33333
▁Sci	-62.5
▁mother	-57.14286
rea	-66.66666
▁container	-55.0
дя	-75.0
▁IP	-66.66666
▁none	-60.0
▁followed	-55.55556
▁ple	-62.5
▁measure	-56.25
▁tout	-60.0
Ext	-66.66666
▁TV	-66.66666
▁explain	-56.25
▁paper	-58.33333
сті	-66.66666
ws	-75.0
Wik	-66.66666
▁mm	-66.66666
▁Norm	-60.0
▁Server	-57.14286
font	-62.5
ecause	-58.33333
TR	-75.0
▁би	-66.66666
La	-75.0
▁ens	-62.5
▁retr	-60.0
▁Sil	-62.5
▁sequence	-55.55556
arc	-66.66666
IV	-75.0
zá	-75.0
▁Android	-56.25
▁Super	-58.33333
▁roz	-62.5
ovie	-62.5
Om	-75.0
▁Well	-60.0
make	-62.5
orph	-62.5
▁Jer	-62.5
▁Ros	-62.5
reference	-55.55556
▁features	-55.55556
▁Ger	-62.5
▁Leg	-62.5
▁late	-60.0
▁additional	-54.54546
▁flo	-62.5
▁его	-62.5
▁algorithm	-55.0
BA	-75.0
kar	-66.66666
IP	-75.0
]);	-66.66666
▁appears	-56.25
yw	-75.0
▁temp	-60.0
▁aussi	-58.33333
method	-58.33333
▁pet	-62.5
strap	-60.0
arning	-58.33333
▁cut	-62.5
▁Sa	-66.66666
▁track	-58.33333
▁employ	-57.14286
▁inde	-60.0
rav	-66.66666
▁generate	-55.55556
bes	-66.66666
arts	-62.5
Status	-58.33333
uge	-66.66666
alis	-62.5
▁override	-55.55556
▁fi	-66.66666
▁lost	-60.0
oted	-62.5
▁room	-60.0
▁calls	-58.33333
▁consist	-56.25
рен	-66.66666
▁village	-56.25
dist	-62.5
▁techn	-58.33333
enza	-62.5
▁роз	-62.5
▁Catalog	-56.25
▁becom	-58.33333
rows	-62.5
▁Nel	-62.5
comple	-58.33333
▁premi	-58.33333
▁rot	-62.5
▁Weblinks	-55.55556
▁football	-55.55556
▁compar	-57.14286
▁live	-60.0
ких	-66.66666
▁equival	-56.25
cape	-62.5
▁Gen	-62.5
nder	-62.5
▁Vis	-62.5
▁behind	-57.14286
gers	-62.5
voke	-62.5
▁media	-58.33333
EX	-75.0
that	-62.5
▁sono	-60.0
▁mysql	-58.33333
ev	-75.0
▁rule	-60.0
дов	-66.66666
acc	-66.66666
▁WHERE	-58.33333
ене	-66.66666
Grid	-62.5
▁jul	-62.5
▁mort	-60.0
▁generated	-55.0
encia	-60.0
acter	-60.0
clud	-62.5
▁scen	-60.0
▁closed	-57.14286
▁Michael	-56.25
▁mount	-58.33333
)$,	-66.66666
▁drop	-60.0
▁combin	-57.14286
tocol	-60.0
▁goes	-60.0
▁geb	-62.5
MD	-75.0
▁Anton	-58.33333
▁$("	-62.5
Tem	-66.66666
▁ca	-66.66666
▁instru	-57.14286
eds	-66.66666
▁tool	-60.0
mys	-66.66666
▁route	-58.33333
"))	-66.66666
пре	-66.66666
▁float	-58.33333
▁services	-55.55556
▁чи	-66.66666
кі	-75.0
embly	-60.0
aker	-62.5
▁Son	-62.5
▁Math	-60.0
asse	-62.5
ously	-60.0
lications	-55.55556
▁ru	-66.66666
▁що	-66.66666
▁Const	-58.33333
▁immedi	-57.14286
FO	-75.0
oro	-66.66666
▁production	-54.54546
rei	-66.66666
▁jquery	-57.14286
annt	-62.5
▁While	-58.33333
▁sn	-66.66666
▁годи	-60.0
Format	-58.33333
▁star	-60.0
▁Sen	-62.5
▁ko	-66.66666
NAME	-62.5
▁prés	-60.0
cha	-66.66666
what	-62.5
omin	-62.5
endant	-58.33333
hy	-75.0
▁observ	-57.14286
▁prefer	-57.14286
ун	-75.0
▁constructor	-54.16667
bs	-75.0
▁mac	-62.5
▁Bre	-62.5
▁Instit	-57.14286
▁story	-58.33333
▁symbol	-57.14286
eles	-62.5
ße	-75.0
asing	-60.0
▁west	-60.0
ians	-62.5
▁master	-57.14286
ез	-75.0
▁ways	-60.0
bm	-75.0
▁pick	-60.0
▁depart	-57.14286
Back	-62.5
enk	-66.66666
lipse	-60.0
▁math	-60.0
▁Francis	-56.25
▁December	-55.55556
fs	-75.0
rum	-66.66666
▁development	-54.16667
LT	-75.0
ernel	-60.0
▁True	-60.0
▁More	-60.0
rangle	-58.33333
▁conditions	-54.54546
Options	-57.14286
▁gli	-62.5
▁operation	-55.0
ék	-75.0
acht	-62.5
ights	-60.0
▁mist	-60.0
anda	-62.5
▁energy	-57.14286
▁же	-66.66666
▁women	-58.33333
akt	-66.66666
▁CH	-66.66666
gebra	-60.0
▁meet	-60.0
iu	-75.0
well	-62.5
öl	-75.0
▁government	-54.54546
▁Jos	-62.5
ieg	-66.66666
▁syntax	-57.14286
fix	-66.66666
▁Pet	-62.5
jquery	-58.33333
▁card	-60.0
▁principal	-55.0
▁dru	-62.5
▁territ	-57.14286
▁пов	-62.5
▁SS	-66.66666
рии	-66.66666
tres	-62.5
agne	-62.5
lying	-60.0
tilde	-60.0
bern	-62.5
enter	-60.0
Per	-66.66666
▁somet	-58.33333
Load	-62.5
lice	-62.5
▁sous	-60.0
▁Louis	-58.33333
▁logic	-58.33333
▁Other	-58.33333
▁cir	-62.5
év	-75.0
chron	-60.0
▁han	-62.5
▁margin	-57.14286
Window	-58.33333
ères	-62.5
nych	-62.5
push	-62.5
bolds	-60.0
▁layout	-57.14286
▁[`	-66.66666
Char	-62.5
▁Cap	-62.5
boldsymbol	-55.0
▁Roman	-58.33333
▁Max	-62.5
:(	-75.0
▁Code	-60.0
ising	-60.0
▁states	-57.14286
▁existing	-55.55556
support	-57.14286
▁research	-55.55556
licate	-58.33333
vari	-62.5
▁bij	-62.5
▁appe	-60.0
▁happens	-56.25
\"	-75.0
▁concern	-56.25
west	-62.5
▁saying	-57.14286
pid	-66.66666
▁recogn	-57.14286
▁Het	-62.5
Child	-60.0
▁cs	-66.66666
\,	-75.0
▁clean	-58.33333
lections	-56.25
access	-58.33333
ву	-75.0
про	-66.66666
acity	-60.0
▁Off	-62.5
▁easily	-57.14286
èque	-62.5
▁jako	-60.0
▁iz	-66.66666
▁Ha	-66.66666
▁Det	-62.5
▁forma	-58.33333
sche	-62.5
swers	-60.0
▁offer	-58.33333
quired	-58.33333
Users	-60.0
▁subst	-58.33333
>(	-75.0
▁ground	-57.14286
unn	-66.66666
rod	-66.66666
spe	-66.66666
ursor	-60.0
▁leave	-58.33333
erk	-66.66666
▁tal	-62.5
▁bottom	-57.14286
IO	-75.0
▁popular	-56.25
igo	-66.66666
▁Time	-60.0
values	-58.33333
▁Loc	-62.5
▁Club	-60.0
▁anche	-58.33333
iał	-66.66666
ії	-75.0
Omega	-60.0
▁located	-56.25
Url	-66.66666
▁Esp	-62.5
лы	-75.0
ць	-75.0
ulate	-60.0
▁join	-60.0
aves	-62.5
vet	-66.66666
lio	-66.66666
remove	-58.33333
▁token	-58.33333
▁optim	-58.33333
▁claim	-58.33333
ological	-56.25
▁css	-62.5
▁although	-55.55556
▁priv	-60.0
▁Ba	-66.66666
ül	-75.0
entication	-55.0
▁ven	-62.5
Server	-58.33333
▁Cong	-60.0
NET	-66.66666
CON	-66.66666
dt	-75.0
perties	-57.14286
▁epis	-60.0
wikipedia	-55.55556
▁engine	-57.14286
▁fer	-62.5
getElement	-55.0
▁Cla	-62.5
ří	-75.0
▁rom	-62.5
varepsilon	-55.0
▁prime	-58.33333
istry	-60.0
pected	-58.33333
orage	-60.0
▁touch	-58.33333
▁['	-66.66666
▁dan	-62.5
Em	-75.0
aciones	-57.14286
Can	-66.66666
▁whom	-60.0
▁behavior	-55.55556
▁strings	-56.25
▁Europ	-58.33333
▁Rom	-62.5
circ	-62.5
▁pun	-62.5
▁register	-55.55556
buntu	-60.0
rain	-62.5
Ob	-75.0
TA	-75.0
▁sometimes	-55.0
▁ment	-60.0
▁integer	-56.25
▁Jac	-62.5
legate	-58.33333
othing	-58.33333
▁sound	-58.33333
laces	-60.0
▁Ба	-66.66666
rb	-75.0
di	-75.0
ления	-60.0
▁themselves	-54.54546
▁Black	-58.33333
▁settings	-55.55556
▁norm	-60.0
▁runs	-60.0
▁NOT	-62.5
KE	-75.0
▁perhaps	-56.25
▁Я	-75.0
▁mol	-62.5
▁ans	-62.5
atre	-62.5
▁Dies	-60.0
Token	-60.0
anie	-62.5
▁allowed	-56.25
Range	-60.0
▁Gro	-62.5
via	-66.66666
utorial	-57.14286
ensor	-60.0
estival	-57.14286
);	-66.66666
краї	-62.5
▁turned	-57.14286
scope	-60.0
▁bien	-60.0
=$	-75.0
▁extension	-55.0
atore	-60.0
▁Ро	-66.66666
▁specify	-56.25
edu	-66.66666
Datos	-60.0
▁stored	-57.14286
▁parse	-58.33333
▁answers	-56.25
ills	-62.5
▁heard	-58.33333
lu	-75.0
▁THE	-62.5
▁gén	-62.5
▁ful	-62.5
ez	-75.0
▁Prem	-60.0
then	-62.5
dp	-75.0
ського	-58.33333
▁Si	-66.66666
ço	-75.0
Edit	-62.5
ків	-66.66666
▁Ли	-66.66666
▁Sing	-60.0
▁categ	-58.33333
Equ	-66.66666
▁guer	-60.0
Width	-60.0
▁Christian	-55.0
stat	-62.5
Write	-60.0
▁woman	-58.33333
wood	-62.5
Vis	-66.66666
раз	-66.66666
▁$$\	-62.5
oder	-62.5
▁bool	-60.0
▁international	-53.57143
ность	-60.0
▁Richard	-56.25
▁addition	-55.55556
▁Music	-58.33333
▁aber	-60.0
tó	-75.0
▁hier	-60.0
ugh	-66.66666
▁pob	-62.5
▁tables	-57.14286
Do	-75.0
▁higher	-57.14286
psi	-66.66666
rá	-75.0
▁active	-57.14286
▁Table	-58.33333
ње	-75.0
▁description	-54.16667
▁seemed	-57.14286
íst	-66.66666
▁myself	-57.14286
▁menu	-60.0
del	-66.66666
▁ž	-75.0
ele	-66.66666
Aut	-66.66666
▁гру	-62.5
mut	-66.66666
oon	-66.66666
asc	-66.66666
bug	-66.66666
▁moved	-58.33333
CL	-75.0
▁datas	-58.33333
SO	-75.0
оло	-66.66666
▁Georg	-58.33333
▁reach	-58.33333
:"	-75.0
▁evalu	-58.33333
▁Hel	-62.5
▁River	-58.33333
▁Ар	-66.66666
////	-62.5
▁sets	-60.0
▁Olymp	-58.33333
Adapter	-57.14286
.'	-75.0
overn	-60.0
▁Lord	-60.0
!--	-66.66666
jpg	-66.66666
imento	-58.33333
▁Prof	-60.0
▁achieve	-56.25
}:	-75.0
▁incor	-58.33333
▁onder	-58.33333
engl	-62.5
ABLE	-62.5
▁Mary	-60.0
▁waren	-58.33333
lage	-62.5
Dec	-66.66666
англ	-62.5
encias	-58.33333
лей	-66.66666
▁Machine	-56.25
▁Ан	-66.66666
uda	-66.66666
▁ś	-75.0
▁XX	-66.66666
only	-62.5
ление	-60.0
▁también	-56.25
nej	-66.66666
▁relative	-55.55556
▁hours	-58.33333
▁indeed	-57.14286
undo	-62.5
ingu	-62.5
area	-62.5
▁Create	-57.14286
beit	-62.5
▁removed	-56.25
master	-58.33333
haus	-62.5
▁Bern	-60.0
▁speed	-58.33333
▁Bay	-62.5
▁Att	-62.5
▁None	-60.0
application	-54.54546
üd	-75.0
▁fit	-62.5
▁Maria	-58.33333
▁nord	-60.0
▁split	-58.33333
▁stru	-60.0
▁official	-55.55556
▁execute	-56.25
ouve	-62.5
{{	-75.0
▁Ap	-66.66666
▁ку	-66.66666
IL	-75.0
▁^	-75.0
dim	-66.66666
▁setup	-58.33333
ск	-75.0
▁share	-58.33333
▁minutes	-56.25
gle	-66.66666
oco	-66.66666
stell	-60.0
▁Coun	-60.0
▁temper	-57.14286
keit	-62.5
ський	-60.0
ao	-75.0
▁Long	-60.0
(&	-75.0
кан	-66.66666
▁dens	-60.0
But	-66.66666
XX	-75.0
DATE	-62.5
gan	-66.66666
.).	-66.66666
▁entry	-58.33333
install	-57.14286
▁зна	-62.5
▁Som	-62.5
Command	-57.14286
ßen	-66.66666
▁starting	-55.55556
▁sto	-62.5
IG	-75.0
▁minim	-58.33333
▁explicit	-55.55556
▁bytes	-58.33333
▁party	-58.33333
tober	-60.0
▁Grand	-58.33333
▁Vor	-62.5
▁leur	-60.0
Document	-56.25
erc	-66.66666
ensive	-58.33333
CP	-75.0
env	-66.66666
▁arguments	-55.0
▁Gran	-60.0
arily	-60.0
▁lin	-62.5
tn	-75.0
(-	-75.0
geq	-66.66666
▁Famil	-58.33333
▁Бо	-66.66666
▁tour	-60.0
▁nav	-62.5
▁properly	-55.55556
▁Mrs	-62.5
▁Mel	-62.5
▁scale	-58.33333
astic	-60.0
ds	-75.0
▁Sir	-62.5
▁Church	-57.14286
}^{\	-62.5
you	-66.66666
/.	-75.0
So	-75.0
▁brought	-56.25
▁role	-60.0
▁Sur	-62.5
▁fond	-60.0
▁ges	-62.5
że	-75.0
eten	-62.5
▁était	-58.33333
SER	-66.66666
▁которы	-57.14286
▁equation	-55.55556
aspx	-62.5
▁Afr	-62.5
▁dit	-62.5
empty	-60.0
alement	-57.14286
wrap	-62.5
▁Bet	-62.5
▁collect	-56.25
▁git	-62.5
▁vie	-62.5
▁..	-66.66666
рой	-66.66666
▁<?	-66.66666
▁educ	-60.0
kl	-75.0
ensis	-60.0
▁OR	-66.66666
▁Hi	-66.66666
▁Cour	-60.0
бы	-75.0
cert	-62.5
▁Ges	-62.5
essor	-60.0
Main	-62.5
▁лю	-66.66666
cade	-62.5
dot	-66.66666
augh	-62.5
hib	-66.66666
▁automatically	-53.57143
▁spir	-60.0
present	-57.14286
▁February	-55.55556
▁Elle	-60.0
custom	-58.33333
▁proget	-57.14286
▁administr	-55.0
AA	-75.0
▁born	-60.0
▁College	-56.25
athol	-60.0
`)	-75.0
ierre	-60.0
▁ran	-62.5
▁profession	-54.54546
ogen	-62.5
}_{\	-62.5
▁activity	-55.55556
▁scroll	-57.14286
▁prove	-58.33333
ibrary	-58.33333
eries	-60.0
Read	-62.5
year	-62.5
▁lang	-60.0
Det	-66.66666
▁knew	-60.0
▁protected	-55.0
▁wor	-62.5
▁effic	-58.33333
▁rég	-62.5
▁theory	-57.14286
▁published	-55.0
real	-62.5
▁Tour	-60.0
▁durante	-56.25
äs	-75.0
▁positive	-55.55556
▁forward	-56.25
▁Rel	-62.5
{"	-75.0
park	-62.5
▁Um	-66.66666
▁eer	-62.5
enta	-62.5
▁imag	-60.0
ної	-66.66666
piel	-62.5
▁jQuery	-57.14286
isme	-62.5
chni	-62.5
organ	-60.0
▁args	-60.0
oir	-66.66666
heim	-62.5
rian	-62.5
eless	-60.0
uses	-62.5
дин	-66.66666
ición	-60.0
▁indust	-57.14286
▁wish	-60.0
ány	-66.66666
oca	-66.66666
▁angular	-56.25
ieved	-60.0
▁occur	-58.33333
SELECT	-58.33333
onia	-62.5
admin	-60.0
▁Best	-60.0
▁это	-62.5
огра	-62.5
▁loss	-60.0
▁bal	-62.5
▁Рос	-62.5
▁career	-57.14286
▁пе	-66.66666
IX	-75.0
▁fall	-60.0
▁Rob	-62.5
▁OP	-66.66666
ened	-62.5
graphics	-56.25
▁coming	-57.14286
Update	-58.33333
▁died	-60.0
eden	-62.5
▁abs	-62.5
▁inner	-58.33333
▁trav	-60.0
стоя	-62.5
zą	-75.0
ép	-75.0
▁Group	-58.33333
▁cel	-62.5
▁stuff	-58.33333
▁situation	-55.0
▁${	-66.66666
acle	-62.5
▁purpose	-56.25
▁Fire	-60.0
▁Oh	-66.66666
▁Second	-57.14286
▁upload	-57.14286
ostał	-60.0
ющи	-66.66666
Auth	-62.5
▁showing	-56.25
▁completely	-54.54546
avel	-62.5
bd	-75.0
▁proced	-57.14286
▁Ö	-75.0
control	-57.14286
▁thank	-58.33333
undred	-58.33333
▁tom	-62.5
▁examples	-55.55556
▁remember	-55.55556
▁рабо	-60.0
▁possib	-57.14286
▁detect	-57.14286
▁poor	-60.0
▁Op	-66.66666
▁century	-56.25
utter	-60.0
▁login	-58.33333
unst	-62.5
Output	-58.33333
▁otherwise	-55.0
lan	-66.66666
тур	-66.66666
▁сов	-62.5
▁groups	-57.14286
rip	-66.66666
▁shell	-58.33333
▁district	-55.55556
▁records	-56.25
▁siè	-62.5
fortun	-58.33333
enty	-62.5
▁Tre	-62.5
▁changing	-55.55556
след	-62.5
aught	-60.0
▁deep	-60.0
subset	-58.33333
agy	-66.66666
endar	-60.0
jax	-66.66666
OM	-75.0
El	-75.0
imate	-60.0
ardo	-62.5
▁plot	-60.0
▁visit	-58.33333
▁bug	-62.5
▁все	-62.5
▁opened	-57.14286
▁repla	-58.33333
▁Henry	-58.33333
▁pp	-66.66666
bas	-66.66666
▁dark	-60.0
▁Martin	-57.14286
▁resource	-55.55556
iling	-60.0
▁watch	-58.33333
replace	-57.14286
▁release	-56.25
Location	-56.25
▁learning	-55.55556
menu	-62.5
▁allows	-57.14286
ър	-75.0
Length	-58.33333
▁whatever	-55.55556
▁pages	-58.33333
▁compiler	-55.55556
▁также	-58.33333
▁Pan	-62.5
command	-57.14286
▁road	-60.0
▁unless	-57.14286
`?	-75.0
▁discover	-55.55556
▁он	-66.66666
}]	-75.0
bour	-62.5
▁Could	-58.33333
▁regex	-58.33333
▁ps	-66.66666
CD	-75.0
из	-75.0
▁wife	-60.0
amenti	-58.33333
▁fair	-60.0
▁DB	-66.66666
▁Cup	-62.5
enen	-62.5
ajax	-62.5
othèque	-57.14286
▁seiner	-57.14286
icker	-60.0
ám	-75.0
exchange	-56.25
oles	-62.5
IF	-75.0
▁До	-66.66666
ohn	-66.66666
▁grow	-60.0
▁Thus	-60.0
spec	-62.5
▁hatte	-58.33333
#,	-75.0
allel	-60.0
▁rate	-60.0
▁central	-56.25
▁Van	-62.5
iforn	-60.0
Run	-66.66666
▁study	-58.33333
▁XML	-62.5
▁Che	-62.5
▁beaut	-58.33333
mid	-66.66666
▁advance	-56.25
Ver	-66.66666
тя	-75.0
▁hands	-58.33333
▁lay	-62.5
▁š	-75.0
▁OS	-66.66666
▁{}	-66.66666
Pre	-66.66666
▁Hall	-60.0
imp	-66.66666
▁sun	-62.5
▁steps	-58.33333
▁jud	-62.5
qui	-66.66666
▁boot	-60.0
▁%>	-66.66666
▁Ва	-66.66666
nost	-62.5
▁nem	-62.5
▁pen	-62.5
Open	-62.5
▁church	-57.14286
кон	-66.66666
▁average	-56.25
▁comments	-55.55556
▁corresponding	-53.57143
levant	-58.33333
▁bed	-62.5
▁meaning	-56.25
Version	-57.14286
Link	-62.5
bel	-66.66666
▁extract	-56.25
ść	-75.0
▁IV	-66.66666
▁Ir	-66.66666
▁computer	-55.55556
▁affect	-57.14286
▁Ста	-62.5
AX	-75.0
sort	-62.5
▁species	-56.25
▁Oper	-60.0
▁hash	-60.0
ches	-62.5
▁Einzeln	-56.25
▁keys	-60.0
▁marzo	-58.33333
▁interpret	-55.0
hood	-62.5
▁coordin	-56.25
ös	-75.0
rage	-62.5
etz	-66.66666
iza	-66.66666
дер	-66.66666
üt	-75.0
^*	-75.0
▁modify	-57.14286
▁termin	-57.14286
▁cred	-60.0
zon	-66.66666
ную	-66.66666
▁mie	-62.5
▁''	-66.66666
▁Mos	-62.5
▁connected	-55.0
NO	-75.0
▁compile	-56.25
▁"\	-66.66666
▁cat	-62.5
fiddle	-58.33333
uta	-66.66666
Access	-58.33333
▁Sto	-62.5
▁Bur	-62.5
▁north	-58.33333
Gamma	-60.0
▁alloc	-58.33333
Init	-62.5
▁Link	-60.0
ialize	-58.33333
Impl	-62.5
oupe	-62.5
ropri	-60.0
▁Gold	-60.0
▁solo	-60.0
▁Dist	-60.0
,-	-75.0
nav	-66.66666
▁alert	-58.33333
esis	-62.5
▁Os	-66.66666
///	-66.66666
▁feb	-62.5
▁-->	-62.5
foot	-62.5
▁Fried	-58.33333
▁Einzelnach	-54.54546
▁rev	-62.5
zeit	-62.5
▁Stat	-60.0
▁Seg	-62.5
▁blo	-62.5
wick	-62.5
EL	-75.0
caption	-57.14286
header	-58.33333
▁president	-55.0
▁multip	-57.14286
▁Einzelnachweise	-53.125
▁seine	-58.33333
?”	-75.0
Function	-56.25
▁Stand	-58.33333
▁Function	-55.55556
▁?>	-66.66666
▁Bill	-60.0
▁spect	-58.33333
▁redirect	-55.55556
rupt	-62.5
▁walk	-60.0
вши	-66.66666
springframework	-53.33333
place	-60.0
ého	-66.66666
Entity	-58.33333
▁Service	-56.25
inte	-62.5
▁training	-55.55556
▁(`	-66.66666
фор	-66.66666
▁кра	-62.5
aur	-66.66666
▁fetch	-58.33333
▁†	-75.0
▁même	-60.0
▁('	-66.66666
atively	-57.14286
▁execut	-57.14286
äch	-66.66666
▁Catalogue	-55.0
based	-60.0
Attribute	-55.55556
▁spring	-57.14286
phone	-60.0
тра	-66.66666
▁пи	-66.66666
тера	-62.5
▁`\	-66.66666
▁Od	-66.66666
One	-66.66666
send	-62.5
bon	-66.66666
▁°	-75.0
MO	-75.0
▁asking	-57.14286
▁où	-66.66666
▁ingår	-58.33333
▁testing	-56.25
▁фа	-66.66666
▁Book	-60.0
imm	-66.66666
▁progress	-55.55556
bro	-66.66666
First	-60.0
▁phot	-60.0
▁ON	-66.66666
Template	-56.25
developer	-55.55556
annot	-60.0
▁>=	-66.66666
mission	-57.14286
▁któ	-62.5
pc	-75.0
bach	-62.5
zent	-62.5
ued	-66.66666
▁ones	-60.0
ји	-75.0
▁rout	-60.0
▁Ки	-66.66666
Post	-62.5
ції	-66.66666
▁Vir	-62.5
nek	-66.66666
aging	-60.0
▁ок	-66.66666
izont	-60.0
▁agosto	-57.14286
▁choose	-57.14286
▁	-75.0
▁systems	-56.25
loss	-62.5
iente	-60.0
▁Cre	-62.5
▁contra	-57.14286
ums	-66.66666
▁beginning	-55.0
emy	-66.66666
istics	-58.33333
▁served	-57.14286
Down	-62.5
options	-57.14286
▁Govern	-57.14286
▁BY	-66.66666
▁jest	-60.0
té	-75.0
▁continue	-55.55556
pers	-62.5
▁easier	-57.14286
▁cos	-62.5
esso	-62.5
>>	-75.0
Net	-66.66666
▁Bor	-62.5
▁Cr	-66.66666
▁transfer	-55.55556
▁CSS	-62.5
▁finns	-58.33333
▁хо	-66.66666
username	-56.25
▁constru	-56.25
▁pain	-60.0
▁Tem	-62.5
▁specified	-55.0
▁brit	-60.0
ские	-62.5
irk	-66.66666
rapper	-58.33333
▁counter	-56.25
▁["	-66.66666
oded	-62.5
дан	-66.66666
property	-56.25
hard	-62.5
istrict	-57.14286
)/	-75.0
▁Pour	-60.0
▁Where	-58.33333
▁===	-62.5
▁sowie	-58.33333
▁Про	-62.5
▁dess	-60.0
▁tras	-60.0
▁уча	-62.5
▁Over	-60.0
note	-62.5
▁America	-56.25
cp	-75.0
▁grande	-57.14286
Me	-75.0
)-	-75.0
Mode	-62.5
▁passing	-56.25
▁giving	-57.14286
Cl	-75.0
}/	-75.0
Menu	-62.5
!!	-75.0
angular	-57.14286
▁launch	-57.14286
varphi	-58.33333
▁Johann	-57.14286
▁foreach	-56.25
ró	-75.0
sequ	-62.5
ifi	-66.66666
Am	-75.0
arp	-66.66666
▁buffer	-57.14286
▁ni	-66.66666
▁mix	-62.5
▁Museum	-57.14286
▁meant	-58.33333
asi	-66.66666
▁kan	-62.5
прав	-62.5
Comp	-62.5
istoire	-57.14286
iful	-62.5
jer	-66.66666
issions	-57.14286
Resource	-56.25
▁воз	-62.5
▁ST	-66.66666
▁solutions	-55.0
▁belong	-57.14286
▁Associ	-57.14286
cf	-75.0
▁Mär	-62.5
▁grid	-60.0
Mult	-62.5
▁requires	-55.55556
kk	-75.0
▁teach	-58.33333
emeinde	-57.14286
▁square	-57.14286
▁коман	-58.33333
▁Event	-58.33333
▁rules	-58.33333
▁bur	-62.5
▁eing	-60.0
▁Mai	-62.5
▁nam	-62.5
▁slä	-62.5
hör	-66.66666
▁tip	-62.5
▁Literatur	-55.0
▁scope	-58.33333
overline	-56.25
▁exit	-60.0
)?	-75.0
bet	-66.66666
▁vict	-60.0
Off	-66.66666
▁approxim	-55.55556
▁Geb	-62.5
ktop	-62.5
heit	-62.5
▁Ю	-75.0
template	-56.25
рон	-66.66666
▁uno	-62.5
Serv	-62.5
▁framework	-55.0
operator	-56.25
▁generally	-55.0
▁hundred	-56.25
▁divers	-57.14286
ovi	-66.66666
▁rés	-62.5
abs	-66.66666
▁gal	-62.5
çais	-62.5
▁feet	-60.0
▁virtual	-56.25
czy	-66.66666
ску	-66.66666
./	-75.0
hu	-75.0
ancy	-62.5
▁recommend	-55.0
▁під	-62.5
▁money	-58.33333
▁versions	-55.55556
▁helps	-58.33333
▁Hor	-62.5
Items	-60.0
look	-62.5
connect	-57.14286
anges	-60.0
ViewController	-53.57143
elijk	-60.0
▁occup	-58.33333
▁editor	-57.14286
auto	-62.5
ög	-75.0
▁seconds	-56.25
▁obvious	-56.25
vm	-75.0
akes	-62.5
▁gegen	-58.33333
▁til	-62.5
jection	-57.14286
лення	-60.0
▁operations	-54.54546
▁East	-60.0
ogy	-66.66666
▁Polit	-58.33333
uten	-62.5
▁Joseph	-57.14286
"`	-75.0
▁Company	-56.25
▁callback	-55.55556
▁sen	-62.5
cción	-60.0
▁associated	-54.54546
▁containing	-54.54546
▁practice	-55.55556
elijke	-58.33333
oke	-66.66666
éra	-66.66666
uns	-66.66666
anta	-62.5
vey	-66.66666
zu	-75.0
▁Bes	-62.5
▁Flor	-60.0
mem	-66.66666
ycz	-66.66666
▁architect	-55.0
▁anni	-60.0
▁contact	-56.25
YPE	-66.66666
▁Cas	-62.5
▁полу	-60.0
ovo	-66.66666
▁bring	-58.33333
▁concept	-56.25
▁js	-66.66666
▁Referencias	-54.16667
emble	-60.0
▁н	-75.0
▁supported	-55.0
Big	-66.66666
▁Hans	-60.0
erv	-66.66666
▁Maj	-62.5
▁arriv	-58.33333
▁Have	-60.0
▁probability	-54.16667
▁Pop	-62.5
▁Pass	-60.0
token	-60.0
Provider	-56.25
▁Ra	-66.66666
Reader	-58.33333
ooth	-62.5
lap	-66.66666
▁assist	-57.14286
adow	-62.5
▁tests	-58.33333
сси	-66.66666
▁king	-60.0
langle	-58.33333
▁Sum	-62.5
OIN	-66.66666
▁security	-55.55556
nis	-66.66666
../	-66.66666
▁basic	-58.33333
unity	-60.0
`:	-75.0
▁кото	-60.0
kow	-66.66666
▁Bibliothèque	-53.84615
asion	-60.0
alo	-66.66666
ifest	-60.0
▁novembre	-55.55556
▁peu	-62.5
▁Ж	-75.0
enschaft	-56.25
clus	-62.5
ју	-75.0
Height	-58.33333
ún	-75.0
▁tur	-62.5
▁ideas	-58.33333
▁ces	-62.5
frak	-62.5
▁premier	-56.25
itation	-57.14286
▁sé	-66.66666
HTML	-62.5
▁Royal	-58.33333
ської	-60.0
▁byte	-60.0
PS	-75.0
▁segu	-60.0
inen	-62.5
▁Great	-58.33333
▁Ку	-66.66666
▁external	-55.55556
Title	-60.0
Top	-66.66666
Process	-57.14286
ität	-62.5
▁`/	-66.66666
▁secret	-57.14286
pository	-56.25
▁potential	-55.0
▁Bud	-62.5
names	-60.0
asons	-60.0
stackexchange	-53.84615
background	-55.0
пер	-66.66666
сов	-66.66666
after	-60.0
▁pero	-60.0
▁software	-55.55556
▁sed	-62.5
▁arrays	-57.14286
tmp	-66.66666
▁asp	-62.5
scale	-60.0
▁Lat	-62.5
anal	-62.5
▁gem	-62.5
PU	-75.0
▁Altri	-58.33333
That	-62.5
▁Ни	-66.66666
ifact	-60.0
Address	-57.14286
▁south	-58.33333
▁formula	-56.25
▁Colleg	-57.14286
▁ін	-66.66666
ktion	-60.0
▁sac	-62.5
SH	-75.0
ajo	-66.66666
etc	-66.66666
vc	-75.0
`](	-66.66666
▁Dur	-62.5
▁Ме	-66.66666
▁Smith	-58.33333
items	-60.0
CK	-75.0
elo	-66.66666
▁plugin	-57.14286
▁serie	-58.33333
ienne	-60.0
▁или	-62.5
Mar	-66.66666
▁Image	-58.33333
got	-66.66666
andas	-60.0
▁matches	-56.25
▁worth	-58.33333
▁Deb	-62.5
▁cache	-58.33333
▁felt	-60.0
ersch	-60.0
izes	-62.5
Oper	-62.5
▁Jahre	-58.33333
▁commune	-56.25
thread	-58.33333
▁ny	-66.66666
dec	-66.66666
ouw	-66.66666
▁surface	-56.25
▁Por	-62.5
▁Street	-57.14286
при	-66.66666
▁candid	-57.14286
▁Return	-57.14286
▁Kom	-62.5
gru	-66.66666
▁ти	-66.66666
[\	-75.0
▁depends	-56.25
▁influ	-58.33333
▁towards	-56.25
ained	-60.0
▁rank	-60.0
▁Januar	-57.14286
▁components	-54.54546
gest	-62.5
getElementById	-53.57143
▁checked	-56.25
airs	-62.5
join	-62.5
▁dead	-60.0
▁hit	-62.5
ény	-66.66666
▁equivalent	-54.54546
▁Пре	-62.5
▁appropri	-55.55556
Pass	-62.5
▁primer	-57.14286
englisch	-56.25
▁appar	-58.33333
▁During	-57.14286
▁knowledge	-55.0
▁trigger	-56.25
▁core	-60.0
▁Ol	-66.66666
▁Produ	-58.33333
▁Fern	-60.0
▁нача	-60.0
Te	-75.0
▁Mot	-62.5
erve	-62.5
тво	-66.66666
▁mid	-62.5
▁finally	-56.25
aires	-60.0
▁especially	-54.54546
▁tut	-62.5
▁receive	-56.25
adre	-62.5
▁neigh	-58.33333
ktet	-62.5
ilde	-62.5
▁radio	-58.33333
▁driver	-57.14286
лись	-62.5
endencies	-55.55556
▁IE	-66.66666
▁saved	-58.33333
ffect	-60.0
▁Wayback	-56.25
iat	-66.66666
▁padding	-56.25
window	-58.33333
тиче	-62.5
▁mur	-62.5
actor	-60.0
▁Han	-62.5
ональ	-60.0
▁gar	-62.5
▁familjen	-55.55556
ós	-75.0
▁nationale	-55.0
▁pré	-62.5
ded	-66.66666
onal	-62.5
▁President	-55.0
▁\,	-66.66666
▁placed	-57.14286
erni	-62.5
▁signal	-57.14286
nab	-66.66666
hm	-75.0
Mon	-66.66666
▁vs	-66.66666
SC	-75.0
▁progetti	-55.55556
▁Ü	-75.0
▁forms	-58.33333
▁messages	-55.55556
inf	-66.66666
users	-60.0
GET	-66.66666
▁dels	-60.0
Collection	-55.0
▁Good	-60.0
▁Maybe	-58.33333
▁compr	-58.33333
▁larger	-57.14286
gres	-62.5
aper	-62.5
▁При	-62.5
undes	-60.0
▁sea	-62.5
▁Spring	-57.14286
ulo	-66.66666
▁mechan	-57.14286
▁sans	-60.0
GB	-75.0
Valid	-60.0
▁communic	-55.55556
▁pra	-62.5
vier	-62.5
▁Се	-66.66666
▁ain	-62.5
тура	-62.5
kom	-66.66666
skiego	-58.33333
ково	-62.5
adata	-60.0
▁Ре	-66.66666
▁boolean	-56.25
sets	-62.5
▁effort	-57.14286
.[	-75.0
▁został	-57.14286
PA	-75.0
▁Vict	-60.0
SD	-75.0
ował	-62.5
▁emb	-62.5
▁prima	-58.33333
▁hour	-60.0
subsection	-55.0
▁Fort	-60.0
mathfrak	-56.25
igin	-62.5
GL	-75.0
)+	-75.0
fi	-75.0
▁anci	-60.0
▁pan	-62.5
\)	-75.0
▁lug	-62.5
▁deploy	-57.14286
domain	-58.33333
▁slight	-57.14286
JSON	-62.5
▁morning	-56.25
▁hi	-66.66666
▁compare	-56.25
ije	-66.66666
▁blue	-60.0
▁Ac	-66.66666
▁middle	-57.14286
anden	-60.0
▁shared	-57.14286
▁Camp	-60.0
▁Á	-75.0
ounded	-58.33333
uw	-75.0
ierung	-58.33333
Stack	-60.0
▁eines	-58.33333
▁Da	-66.66666
lij	-66.66666
enti	-62.5
▁й	-75.0
Util	-62.5
▁experience	-54.54546
▁await	-58.33333
uls	-66.66666
▁requests	-55.55556
▁impos	-58.33333
▁constraint	-54.54546
Change	-58.33333
emph	-62.5
бер	-66.66666
▁Another	-56.25
Custom	-58.33333
▁significant	-54.16667
cr	-75.0
▁million	-56.25
reek	-62.5
▁dalla	-58.33333
▁Germ	-60.0
otal	-62.5
ateur	-60.0
btn	-66.66666
▁thinking	-55.55556
▁interval	-55.55556
onne	-62.5
▁liv	-62.5
():	-66.66666
▁Ве	-66.66666
oe	-75.0
▁Ev	-66.66666
meta	-62.5
▁broad	-58.33333
Rem	-66.66666
apply	-60.0
▁couple	-57.14286
▁techni	-57.14286
idades	-58.33333
▁goal	-60.0
▁CD	-66.66666
hab	-66.66666
▁explan	-57.14286
anner	-60.0
▁Because	-56.25
blog	-62.5
includegraphics	-53.33333
▁voice	-58.33333
▁Map	-62.5
vention	-57.14286
Session	-57.14286
▁Liens	-58.33333
▁sor	-62.5
category	-56.25
ashington	-55.55556
▁März	-60.0
pop	-66.66666
illet	-60.0
▁zwei	-60.0
▁Lie	-62.5
Null	-62.5
address	-57.14286
▁factor	-57.14286
▁ligne	-58.33333
▁HTTP	-60.0
▁suf	-62.5
▁personal	-55.55556
cip	-66.66666
▁Dar	-62.5
▁adm	-62.5
кой	-66.66666
▁Ext	-62.5
▁god	-62.5
aa	-75.0
Right	-60.0
été	-66.66666
▁dynamic	-56.25
▁maintain	-55.55556
tor	-66.66666
########	-56.25
▁Fra	-62.5
▁choice	-57.14286
▁сто	-62.5
СР	-75.0
▁Feder	-58.33333
ston	-62.5
▁flag	-60.0
kit	-66.66666
Module	-58.33333
▁спо	-62.5
▁Stra	-60.0
icks	-62.5
▁haven	-58.33333
▁Mass	-60.0
▁Emp	-62.5
▁Pi	-66.66666
▁Pen	-62.5
Rect	-62.5
▁Kr	-66.66666
itat	-62.5
eler	-62.5
ября	-62.5
itet	-62.5
▁Start	-58.33333
▁produced	-55.55556
▁пол	-62.5
(_	-75.0
▁delet	-58.33333
▁hot	-62.5
▁Geschichte	-54.54546
~~	-75.0
▁months	-57.14286
▁tod	-62.5
▁ни	-66.66666
ús	-75.0
temp	-62.5
▁Dez	-62.5
ypes	-62.5
▁cui	-62.5
ommun	-60.0
actions	-57.14286
▁eigen	-58.33333
▁immediately	-54.16667
PL	-75.0
▁Го	-66.66666
▁Bal	-62.5
ље	-75.0
ului	-62.5
▁online	-57.14286
▁años	-60.0
▁namespace	-55.0
▁mond	-60.0
▁Base	-60.0
▁Canada	-57.14286
etzt	-62.5
}-	-75.0
▁defin	-58.33333
▁doubt	-58.33333
▁investig	-55.55556
views	-60.0
▁Line	-60.0
▁stage	-58.33333
ettings	-57.14286
ubre	-62.5
float	-60.0
▁Play	-60.0
▁Las	-62.5
ptr	-66.66666
▁becomes	-56.25
estamp	-58.33333
▁independent	-54.16667
▁analysis	-55.55556
▁Look	-60.0
lain	-62.5
▁рас	-62.5
Reference	-55.55556
▁sorry	-58.33333
▁supposed	-55.55556
ût	-75.0
▁degree	-57.14286
utz	-66.66666
MM	-75.0
▁desired	-56.25
ły	-75.0
▁len	-62.5
▁alone	-58.33333
signed	-58.33333
▁Sta	-62.5
Person	-58.33333
▁applied	-56.25
▁Back	-60.0
▁mars	-60.0
Part	-62.5
▁Did	-62.5
▁externes	-55.55556
▁np	-66.66666
ongo	-62.5
▁esta	-60.0
Block	-60.0
▁pou	-62.5
adores	-58.33333
▁Studio	-57.14286
.$	-75.0
▁reached	-56.25
bot	-66.66666
▁Juni	-60.0
tons	-62.5
itel	-62.5
▁Gar	-62.5
▁articles	-55.55556
▁District	-55.55556
▁trouble	-56.25
lide	-62.5
▁Found	-58.33333
ád	-75.0
▁equip	-58.33333
▁internal	-55.55556
'],	-66.66666
▁async	-58.33333
UB	-75.0
gel	-66.66666
▁ai	-66.66666
ensure	-58.33333
▁appeared	-55.55556
▁$_	-66.66666
▁maximum	-56.25
▁Си	-66.66666
рь	-75.0
▁announ	-57.14286
лась	-62.5
▁cm	-66.66666
ган	-66.66666
aupt	-62.5
▁latter	-57.14286
▁platform	-55.55556
▁dra	-62.5
▁capital	-56.25
▁solved	-57.14286
riz	-66.66666
edic	-62.5
▁Mur	-62.5
▁Top	-62.5
тся	-66.66666
Panel	-60.0
rule	-62.5
etic	-62.5
▁Ren	-62.5
▁Wikimedia	-55.0
▁TO	-66.66666
second	-58.33333
isl	-66.66666
▁hy	-66.66666
▁niet	-60.0
▁loaded	-57.14286
dig	-66.66666
▁mayo	-60.0
[:	-75.0
Acc	-66.66666
▁bek	-62.5
нию	-66.66666
login	-60.0
tx	-75.0
▁Fur	-62.5
▁Santa	-58.33333
azz	-66.66666
▁conduct	-56.25
▁India	-58.33333
Order	-60.0
irth	-62.5
tw	-75.0
}+	-75.0
▁wieder	-57.14286
▁Edu	-62.5
AV	-75.0
▁```	-62.5
▁manually	-55.55556
▁Read	-60.0
fortunately	-54.54546
▁Run	-62.5
▁Award	-58.33333
▁Foot	-60.0
*)	-75.0
params	-58.33333
пі	-75.0
▁native	-57.14286
rift	-62.5
▁ä	-75.0
ATH	-66.66666
▁yourself	-55.55556
▁prior	-58.33333
▁cit	-62.5
äh	-75.0
▁treat	-58.33333
▁meas	-60.0
ributed	-57.14286
▁clar	-60.0
card	-62.5
ROR	-66.66666
illes	-60.0
▁layer	-58.33333
auer	-62.5
▁rat	-62.5
bernate	-57.14286
▁stato	-58.33333
▁China	-58.33333
▁$('#	-60.0
▁naar	-60.0
zip	-66.66666
▁${\	-62.5
▁appreciated	-54.16667
▁име	-62.5
ży	-75.0
▁przez	-58.33333
▁Indian	-57.14286
▁Tod	-62.5
▁Source	-57.14286
▁други	-58.33333
internal	-56.25
ionale	-58.33333
Product	-57.14286
▁Men	-62.5
▁upper	-58.33333
▁Every	-58.33333
},\	-66.66666
▁printf	-57.14286
▁continued	-55.0
▁nodes	-58.33333
лки	-66.66666
▁nice	-60.0
modules	-57.14286
eign	-62.5
▁Mex	-62.5
▁According	-55.0
▁undefined	-55.0
▁binary	-57.14286
cut	-66.66666
Current	-57.14286
edy	-66.66666
}}{	-66.66666
bles	-62.5
▁вой	-62.5
scri	-62.5
eqn	-66.66666
Changed	-57.14286
▁köz	-62.5
▁remote	-57.14286
вля	-66.66666
▁quel	-60.0
▁align	-58.33333
▁пар	-62.5
SV	-75.0
yer	-66.66666
▁Californ	-55.55556
▁places	-57.14286
▁primary	-56.25
▁conv	-60.0
▁Juli	-60.0
▁visual	-57.14286
▁Select	-57.14286
atory	-60.0
=(	-75.0
iser	-62.5
▁intent	-57.14286
sur	-66.66666
container	-55.55556
iced	-62.5
▁board	-58.33333
astr	-62.5
omial	-60.0
вет	-66.66666
зва	-66.66666
▁cru	-62.5
▁Oktober	-56.25
save	-62.5
▁greater	-56.25
▁inn	-62.5
▁picture	-56.25
▁То	-66.66666
▁obtained	-55.55556
Wikimedia	-55.55556
úblic	-60.0
▁lors	-60.0
▁mont	-60.0
obre	-62.5
▁civil	-58.33333
▁construction	-53.84615
▁Welt	-60.0
▁Under	-58.33333
undert	-58.33333
▁edge	-60.0
▁Liste	-58.33333
csv	-66.66666
▁experiment	-54.54546
localhost	-55.55556
▁Edit	-60.0
greg	-62.5
ová	-66.66666
ља	-75.0
msg	-66.66666
▁Green	-58.33333
Dialog	-58.33333
Ident	-60.0
▁JS	-66.66666
^{(	-66.66666
▁släktet	-56.25
____	-62.5
Project	-57.14286
▁beskre	-57.14286
▁ber	-62.5
▁wouldn	-57.14286
▁react	-58.33333
Hel	-66.66666
zw	-75.0
▁Washington	-54.54546
orie	-62.5
task	-62.5
▁category	-55.55556
▁artist	-57.14286
anno	-62.5
▁ook	-62.5
ammen	-60.0
▁Minister	-55.55556
▁declar	-57.14286
▁Key	-62.5
,.	-75.0
▁mach	-60.0
▁ww	-66.66666
isen	-62.5
Fran	-62.5
▁Росси	-58.33333
бор	-66.66666
три	-66.66666
▁rock	-60.0
quis	-62.5
mos	-66.66666
пера	-62.5
▁esterni	-56.25
▁gold	-60.0
Windows	-57.14286
%%	-75.0
▁partial	-56.25
▁weight	-57.14286
▁spr	-62.5
}).	-66.66666
▁français	-55.55556
fun	-66.66666
▁thous	-58.33333
holder	-58.33333
▁gone	-60.0
▁Č	-75.0
▁rend	-60.0
DA	-75.0
▁answered	-55.55556
▁False	-58.33333
Buffer	-58.33333
▁daugh	-58.33333
.--	-66.66666
▁Show	-60.0
▁rect	-60.0
▁Kre	-62.5
dr	-75.0
osoph	-60.0
▁yield	-58.33333
urity	-60.0
toString	-56.25
aval	-62.5
Pol	-66.66666
▁lock	-60.0
imation	-57.14286
antic	-60.0
Local	-60.0
▁beskrevs	-55.55556
ités	-62.5
grid	-62.5
ут	-75.0
▁_{	-66.66666
сі	-75.0
FILE	-62.5
▁км	-66.66666
▁speak	-58.33333
summary	-57.14286
prop	-62.5
javascript	-55.0
zk	-75.0
izontal	-57.14286
▁trois	-58.33333
▁Rod	-62.5
prise	-60.0
рово	-62.5
▁odd	-62.5
▁gest	-60.0
▁produce	-56.25
▁waar	-60.0
▁Av	-66.66666
ribu	-62.5
вання	-60.0
▁finished	-55.55556
▁adapt	-58.33333
▁Sar	-62.5
textit	-58.33333
▁Ce	-66.66666
▁Fa	-66.66666
osen	-62.5
▁deriv	-58.33333
▁ship	-60.0
▁opin	-60.0
▁Even	-60.0
gesch	-60.0
▁suppose	-56.25
▁Fer	-62.5
ское	-62.5
▁worden	-57.14286
sey	-66.66666
hline	-60.0
▁Union	-58.33333
▁/**	-62.5
▁vez	-62.5
▁Collegamenti	-53.84615
▁Society	-56.25
▁econom	-57.14286
ší	-75.0
oi	-75.0
▁orient	-57.14286
▁Teil	-60.0
rent	-62.5
лекс	-62.5
▁solid	-58.33333
▁cart	-60.0
****************	-53.125
▁cab	-62.5
▁Message	-56.25
dots	-62.5
▁ég	-66.66666
▁twe	-62.5
aga	-66.66666
▁naz	-62.5
▁Microsoft	-55.0
▁underarter	-54.54546
ppen	-62.5
▁recent	-57.14286
▁net	-62.5
▁resources	-55.0
Ste	-66.66666
.\	-75.0
▁SO	-66.66666
лом	-66.66666
▁cele	-60.0
▁lic	-62.5
▁benef	-58.33333
ldots	-60.0
▁serial	-57.14286
Integer	-57.14286
cles	-62.5
▁miles	-58.33333
▁Ale	-62.5
▁entered	-56.25
▁Two	-62.5
wie	-66.66666
▁includes	-55.55556
▁Each	-60.0
elling	-58.33333
quer	-62.5
▁Dom	-62.5
pf	-75.0
WS	-75.0
▁straight	-55.55556
▁Stan	-60.0
▁nos	-62.5
ícul	-62.5
atro	-62.5
▁Center	-57.14286
FT	-75.0
▁Inga	-60.0
ilo	-66.66666
▁www	-62.5
jsfiddle	-56.25
nic	-66.66666
▁European	-55.55556
▁commer	-57.14286
▁girl	-60.0
total	-60.0
▁Star	-60.0
▁suggested	-55.0
pal	-66.66666
▁zwischen	-55.55556
писа	-62.5
IM	-75.0
▁handler	-56.25
▁Program	-56.25
xsl	-66.66666
ály	-66.66666
BU	-75.0
,--	-66.66666
▁vid	-62.5
▁established	-54.16667
▁Spiel	-58.33333
ometry	-58.33333
unes	-62.5
▁sit	-62.5
▁inher	-58.33333
▁puis	-60.0
▁être	-60.0
▁Most	-60.0
Header	-58.33333
insert	-58.33333
▁sist	-60.0
▁favor	-58.33333
dest	-62.5
▁entity	-57.14286
Cal	-66.66666
▁Therefore	-55.0
DD	-75.0
;;	-75.0
▁Dezember	-55.55556
▁Rh	-66.66666
iments	-58.33333
▁returning	-55.0
sto	-66.66666
▁Value	-58.33333
▁liber	-58.33333
▁Result	-57.14286
▁bind	-60.0
voir	-62.5
▁Tim	-62.5
▁Movie	-58.33333
weg	-66.66666
ket	-66.66666
▁исто	-60.0
▁friends	-56.25
▁fn	-66.66666
▁él	-66.66666
▁&=	-66.66666
arden	-60.0
fficial	-57.14286
▁community	-55.0
▁api	-62.5
Args	-62.5
ieren	-60.0
▁dann	-60.0
omorph	-58.33333
adr	-66.66666
loop	-62.5
uman	-62.5
▁vous	-60.0
bst	-66.66666
submit	-58.33333
\|	-75.0
тин	-66.66666
Container	-55.55556
asket	-60.0
?)	-75.0
Sec	-66.66666
▁drive	-58.33333
Ass	-66.66666
▁swe	-62.5
▁amer	-60.0
▁mine	-60.0
▁Ham	-62.5
▁avait	-58.33333
▁Hon	-62.5
▁après	-58.33333
▁Mann	-60.0
ська	-62.5
▁increase	-55.55556
▁ty	-66.66666
sky	-66.66666
▁accur	-58.33333
article	-57.14286
weight	-58.33333
▁sex	-62.5
▁listade	-56.25
/**	-66.66666
▁está	-60.0
}}$	-66.66666
argo	-62.5
define	-58.33333
▁состав	-57.14286
session	-57.14286
ads	-66.66666
стви	-62.5
▁Law	-62.5
▁dialog	-57.14286
▁duplicate	-55.0
▁ép	-66.66666
▁voc	-62.5
fri	-66.66666
▁green	-58.33333
▁hidden	-57.14286
▁Island	-57.14286
▁diag	-60.0
owej	-62.5
mysql	-60.0
teil	-62.5
rä	-75.0
ikan	-62.5
▁José	-60.0
aled	-62.5
Runtime	-57.14286
▁train	-58.33333
▁Division	-55.55556
ниц	-66.66666
▁Span	-60.0
нима	-62.5
)=\	-66.66666
тан	-66.66666
▁stay	-60.0
▁foo	-62.5
▁accom	-58.33333
▁hers	-60.0
▁нау	-62.5
▁Mün	-62.5
ideos	-60.0
static	-58.33333
▁ready	-58.33333
]`	-75.0
▁visible	-56.25
▁Hope	-60.0
ulated	-58.33333
▁Cult	-60.0
стро	-62.5
Co	-75.0
▁smaller	-56.25
atura	-60.0
▁perfectly	-55.0
req	-66.66666
▁proposed	-55.55556
▁degli	-58.33333
Search	-58.33333
▁ich	-62.5
Max	-66.66666
▁volume	-57.14286
execute	-57.14286
gre	-66.66666
▁sport	-58.33333
udad	-62.5
PT	-75.0
▁Records	-56.25
▁cook	-60.0
▁expand	-57.14286
бі	-75.0
▁altri	-58.33333
ppet	-62.5
arse	-62.5
▁wet	-62.5
▁Bob	-62.5
▁FC	-66.66666
▁Association	-54.16667
uje	-66.66666
▁fel	-62.5
▁слу	-62.5
▁Big	-62.5
/\	-75.0
Ge	-75.0
while	-60.0
{(	-75.0
▁sufficient	-54.54546
Position	-56.25
▁understanding	-53.57143
▁nue	-62.5
▁raz	-62.5
▁ye	-66.66666
hem	-66.66666
Num	-66.66666
▁Project	-56.25
▁Its	-62.5
▁hasta	-58.33333
enso	-62.5
▁wire	-60.0
Ret	-66.66666
uj	-75.0
proof	-60.0
▁relevant	-55.55556
▁partir	-57.14286
▁ago	-62.5
ificate	-57.14286
▁domin	-58.33333
▁boy	-62.5
▁plant	-58.33333
▁encoding	-55.55556
▁throws	-57.14286
▁Rock	-60.0
zone	-62.5
gang	-62.5
widget	-58.33333
▁interesting	-54.16667
DER	-66.66666
▁demon	-58.33333
▁office	-57.14286
amt	-66.66666
äter	-62.5
▁White	-58.33333
▁versch	-57.14286
▁dieser	-57.14286
▁Mount	-58.33333
▁students	-55.55556
▁Pub	-62.5
▁Де	-66.66666
ija	-66.66666
▁Cy	-66.66666
▁California	-54.54546
▁abril	-58.33333
äll	-66.66666
▁чем	-62.5
TV	-75.0
▁més	-62.5
▁declared	-55.55556
▁ю	-75.0
ől	-75.0
appa	-62.5
▁Бе	-66.66666
echo	-62.5
numer	-60.0
▁posted	-57.14286
▁вер	-62.5
▁године	-57.14286
▁weak	-60.0
▁Republic	-55.55556
▁champion	-55.55556
ensuremath	-55.0
your	-62.5
▁Ober	-60.0
▁Central	-56.25
isa	-66.66666
анд	-66.66666
yy	-75.0
▁fully	-58.33333
▁SD	-66.66666
▁Linux	-58.33333
▁Scott	-58.33333
partment	-56.25
kon	-66.66666
▁contract	-55.55556
▁OF	-66.66666
▁ale	-62.5
▁Ann	-62.5
▁над	-62.5
lah	-66.66666
▁Next	-60.0
oren	-62.5
▁disk	-60.0
▁eg	-66.66666
atu	-66.66666
логи	-62.5
▁games	-58.33333
Left	-62.5
▁lu	-66.66666
▁finite	-57.14286
▁ки	-66.66666
▁crash	-58.33333
pher	-62.5
exe	-66.66666
ATION	-60.0
▁brother	-56.25
Eng	-66.66666
tat	-66.66666
▁Integer	-56.25
ному	-62.5
▁colon	-58.33333
iqu	-66.66666
)).	-66.66666
ivi	-66.66666
▁Method	-57.14286
arten	-60.0
Uni	-66.66666
vector	-58.33333
▁wood	-60.0
рт	-75.0
▁Ле	-66.66666
▁siècle	-57.14286
▁gent	-60.0
}	-75.0
▁contents	-55.55556
▁compan	-57.14286
Go	-75.0
▁jou	-62.5
uent	-62.5
Async	-60.0
printf	-58.33333
▁Model	-58.33333
▁kept	-60.0
ASE	-66.66666
▁provides	-55.55556
▁Abgerufen	-55.0
▁Gall	-60.0
▁Alf	-62.5
SA	-75.0
▁Mem	-62.5
▁kter	-60.0
▁Bru	-62.5
Android	-57.14286
(:	-75.0
▁Украї	-58.33333
Ne	-75.0
Min	-66.66666
atr	-66.66666
▁Hal	-62.5
delete	-58.33333
odo	-66.66666
▁não	-62.5
ène	-66.66666
▁calculate	-55.0
Json	-62.5
keys	-62.5
ней	-66.66666
▁hence	-58.33333
▁ow	-66.66666
▁Lib	-62.5
eno	-66.66666
▁Love	-60.0
osi	-66.66666
wide	-62.5
▁score	-58.33333
full	-62.5
вод	-66.66666
▁determine	-55.0
▁spaces	-57.14286
лова	-62.5
▁peut	-60.0
éral	-62.5
ół	-75.0
▁appoint	-56.25
▁Tw	-66.66666
<?	-75.0
▁Order	-58.33333
▁hop	-62.5
random	-58.33333
cache	-60.0
▁destroy	-56.25
▁race	-60.0
Tag	-66.66666
▁rid	-62.5
▁negative	-55.55556
Car	-66.66666
ensional	-56.25
dk	-75.0
▁cro	-62.5
▁THEN	-60.0
▁$.	-66.66666
ensk	-62.5
NE	-75.0
HO	-75.0
▁kle	-62.5
ospital	-57.14286
kte	-66.66666
férences	-56.25
udes	-62.5
IR	-75.0
otion	-60.0
▁Real	-60.0
▁Februar	-56.25
ин	-75.0
▁Old	-62.5
кого	-62.5
leich	-60.0
▁р	-75.0
ían	-66.66666
▁га	-66.66666
cide	-62.5
lab	-66.66666
▁pull	-60.0
▁'/	-66.66666
Long	-62.5
,$	-75.0
▁appropriate	-54.16667
▁была	-60.0
führ	-62.5
▁Media	-58.33333
▁manner	-57.14286
▁Ге	-66.66666
description	-54.54546
Bean	-62.5
▁Lar	-62.5
'];	-66.66666
▁relation	-55.55556
▁Sorry	-58.33333
har	-66.66666
cpp	-66.66666
▁Ko	-66.66666
▁execution	-55.0
inos	-62.5
▁bul	-62.5
grade	-60.0
▁Mu	-66.66666
▁pil	-62.5
writ	-62.5
ifications	-55.0
inese	-60.0
▁Phili	-58.33333
dx	-75.0
▁leading	-56.25
▁Journal	-56.25
oved	-62.5
▁contro	-57.14286
нова	-62.5
Yes	-66.66666
▁channel	-56.25
)),	-66.66666
isten	-60.0
aka	-66.66666
ToString	-56.25
mas	-66.66666
▁ett	-62.5
▁forces	-57.14286
ulations	-56.25
▁Call	-60.0
▁explanation	-54.16667
oring	-60.0
ATA	-66.66666
chter	-60.0
when	-62.5
VC	-75.0
▁Jahrh	-58.33333
Case	-62.5
▁commands	-55.55556
▁rich	-60.0
bus	-66.66666
Fe	-75.0
mbox	-62.5
▁recon	-58.33333
ño	-75.0
▁shape	-58.33333
owy	-66.66666
entry	-60.0
itable	-58.33333
▁election	-55.55556
ється	-60.0
▁prep	-60.0
vá	-75.0
▁infin	-58.33333
lot	-66.66666
▁books	-58.33333
▁USA	-62.5
лин	-66.66666
▁pom	-62.5
▁nas	-62.5
▁tags	-60.0
▁executed	-55.55556
aille	-60.0
lung	-62.5
▁JavaScript	-54.54546
▁ball	-60.0
▁ainsi	-58.33333
▁Pri	-62.5
{$	-75.0
▁UN	-66.66666
▁Ram	-62.5
▁hear	-60.0
▁Ubuntu	-57.14286
>();	-62.5
▁pure	-60.0
▁embed	-58.33333
ação	-62.5
controller	-55.0
▁married	-56.25
▁Fol	-62.5
famil	-60.0
▁prec	-60.0
▁recurs	-57.14286
pad	-66.66666
istration	-55.55556
▁respectively	-53.84615
[$	-75.0
autor	-60.0
▁grav	-60.0
iera	-62.5
azioni	-58.33333
▁Bul	-62.5
▁Australia	-55.0
mond	-62.5
▁Tro	-62.5
▁Ele	-62.5
packages	-56.25
msdn	-62.5
▁Als	-62.5
▁przy	-60.0
ART	-66.66666
▁charge	-57.14286
▁applications	-53.84615
Unit	-62.5
aren	-62.5
▁sudden	-57.14286
ometer	-58.33333
▁dot	-62.5
acji	-62.5
ктор	-62.5
imin	-62.5
ening	-60.0
▁donde	-58.33333
▁Ho	-66.66666
tree	-62.5
mb	-75.0
▁drag	-60.0
aje	-66.66666
▁invalid	-56.25
▁finish	-57.14286
laim	-62.5
▁feed	-60.0
▁Nap	-62.5
room	-62.5
images	-58.33333
▁сай	-62.5
▁succ	-60.0
iffer	-60.0
▁año	-62.5
▁cual	-60.0
мери	-62.5
DR	-75.0
▁Bilder	-57.14286
бра	-66.66666
rait	-62.5
pan	-66.66666
ень	-66.66666
▁distinct	-55.55556
▁Kn	-66.66666
önig	-62.5
anced	-60.0
▁loading	-56.25
▁Techn	-58.33333
▁Sel	-62.5
mus	-66.66666
▁rail	-60.0
▁student	-56.25
▁notice	-57.14286
▁sla	-62.5
▁Да	-66.66666
▁guard	-58.33333
▁Day	-62.5
вали	-62.5
Option	-58.33333
aison	-60.0
ipp	-66.66666
▁Jun	-62.5
▁fell	-60.0
▁absolute	-55.55556
ове	-66.66666
debug	-60.0
▁Sud	-62.5
пы	-75.0
ugins	-60.0
▁views	-58.33333
lay	-66.66666
▁surr	-60.0
▁stood	-58.33333
▁ві	-66.66666
selected	-56.25
гі	-75.0
▁attributes	-54.54546
final	-60.0
enda	-62.5
▁Bon	-62.5
ners	-62.5
▁Wer	-62.5
bur	-66.66666
ittel	-60.0
▁moving	-57.14286
▁Plan	-60.0
isches	-58.33333
Java	-62.5
▁basis	-58.33333
▁Bus	-62.5
▁Au	-66.66666
▁Ill	-62.5
▁время	-58.33333
▁цент	-60.0
handle	-58.33333
ступ	-62.5
▁Far	-62.5
▁oraz	-60.0
ocr	-66.66666
▁seit	-60.0
onder	-60.0
дом	-66.66666
:/	-75.0
chor	-62.5
▁Town	-60.0
▁definit	-56.25
react	-60.0
▁piece	-58.33333
▁Karl	-60.0
CI	-75.0
▁Application	-54.16667
unter	-60.0
▁formed	-57.14286
▁пу	-66.66666
Bo	-75.0
▁Daniel	-57.14286
▁пла	-62.5
Body	-62.5
})$	-66.66666
▁были	-60.0
▁earth	-58.33333
гла	-66.66666
There	-60.0
▁стра	-60.0
▁ville	-58.33333
▁centre	-57.14286
)	-75.0
▁helpful	-56.25
▁++	-66.66666
▁CG	-66.66666
izione	-58.33333
▁Game	-60.0
▁Which	-58.33333
▁pip	-62.5
▁Portug	-57.14286
DS	-75.0
▁describe	-55.55556
▁checking	-55.55556
▁manager	-56.25
BO	-75.0
▁Bundes	-57.14286
buch	-62.5
▁decided	-56.25
▁Jahrhundert	-54.16667
▁fif	-62.5
efficient	-55.55556
anci	-62.5
braries	-57.14286
▁fails	-58.33333
▁kernel	-57.14286
▁Gl	-66.66666
▁Nacional	-55.55556
▁proceed	-56.25
▁fuer	-60.0
▁living	-57.14286
▁successfully	-53.84615
▁faster	-57.14286
▁contre	-57.14286
▁prison	-57.14286
ORT	-66.66666
help	-62.5
▁autor	-58.33333
ław	-66.66666
ają	-66.66666
▁Arm	-62.5
▁provin	-57.14286
▁naam	-60.0
/#	-75.0
sed	-66.66666
▁gesch	-58.33333
▁мар	-62.5
esk	-66.66666
term	-62.5
▁Tex	-62.5
iring	-60.0
▁tools	-58.33333
PDF	-66.66666
▁ult	-62.5
issenschaft	-54.54546
▁couldn	-57.14286
ding	-62.5
Dep	-66.66666
{-	-75.0
▁predict	-56.25
antage	-58.33333
▁Like	-60.0
▁Би	-66.66666
tools	-60.0
estra	-60.0
▁ki	-66.66666
▁Jim	-62.5
star	-62.5
▁remark	-57.14286
óg	-75.0
nabla	-60.0
▁Although	-55.55556
mode	-62.5
Host	-62.5
▁strange	-56.25
None	-62.5
black	-60.0
▁Festival	-55.55556
▁IS	-66.66666
anza	-62.5
▁(-	-66.66666
icket	-60.0
кола	-62.5
▁Jes	-62.5
▁flex	-60.0
▁À	-75.0
▁Network	-56.25
▁EX	-66.66666
▁enero	-58.33333
!”	-75.0
▁Ort	-62.5
▁alors	-58.33333
▁Original	-55.55556
▁zo	-66.66666
ными	-62.5
▁spl	-62.5
Draw	-62.5
yond	-62.5
──	-75.0
▁Ot	-66.66666
▁dram	-60.0
▁division	-55.55556
▁efficient	-55.0
▁Га	-66.66666
▁vier	-60.0
nak	-66.66666
LS	-75.0
▁spirit	-57.14286
zeichnet	-56.25
▁dici	-60.0
clear	-60.0
copy	-62.5
yar	-66.66666
▁році	-60.0
usqu	-62.5
▁nous	-60.0
▁blev	-60.0
жде	-66.66666
Arg	-66.66666
▁performed	-55.0
▁Make	-60.0
▁Carol	-58.33333
etto	-62.5
▁Sand	-60.0
▁Disc	-60.0
Enc	-66.66666
rero	-62.5
hash	-62.5
▁focus	-58.33333
▁attention	-55.0
▁agre	-60.0
▁divis	-58.33333
▁было	-60.0
▁ej	-66.66666
▁march	-58.33333
▁phase	-58.33333
ías	-66.66666
▁phil	-60.0
▁Pap	-62.5
▁river	-58.33333
▁caused	-57.14286
plugin	-58.33333
▁Team	-60.0
uler	-62.5
▁$("#	-60.0
iej	-66.66666
ISBN	-62.5
nam	-66.66666
▁fight	-58.33333
vid	-66.66666
▁Lud	-62.5
Selected	-56.25
:@"	-66.66666
▁Pod	-62.5
▁années	-57.14286
arios	-60.0
▁deutscher	-55.0
▁NA	-66.66666
▁ию	-66.66666
▁dictionary	-54.54546
▁Ла	-66.66666
▁Tri	-62.5
èn	-75.0
▁political	-55.0
ridge	-60.0
atten	-60.0
▁circle	-57.14286
▁transport	-55.0
emas	-62.5
FC	-75.0
▁replaced	-55.55556
▁Aud	-62.5
iska	-62.5
Configuration	-53.84615
▁soort	-58.33333
▁Не	-66.66666
▁sequ	-60.0
PRO	-66.66666
▁bud	-62.5
▁{{	-66.66666
ließ	-62.5
▁Mas	-62.5
ders	-62.5
usammen	-57.14286
esa	-66.66666
▁Ly	-66.66666
вро	-66.66666
mac	-66.66666
▁испо	-60.0
▁suc	-62.5
uy	-75.0
▁illustr	-56.25
▁primera	-56.25
ilation	-57.14286
▁storage	-56.25
▁params	-57.14286
kaz	-66.66666
▁terminal	-55.55556
раль	-62.5
▁holds	-58.33333
лось	-62.5
▁nad	-62.5
”.	-75.0
▁octubre	-56.25
bul	-66.66666
▁hus	-62.5
ULT	-66.66666
▁également	-55.0
▁Mill	-60.0
ład	-66.66666
▁contiene	-55.55556
"?	-75.0
▁>>>	-62.5
Que	-66.66666
  	-75.0
▁plain	-58.33333
ativa	-60.0
ocker	-60.0
Names	-60.0
▁Jud	-62.5
▁agree	-58.33333
▁Gemeinde	-55.55556
lare	-62.5
каза	-62.5
▁starts	-57.14286
▁price	-58.33333
Target	-58.33333
cus	-66.66666
▁Instead	-56.25
.;	-75.0
▁alternative	-54.16667
▁вла	-62.5
IE	-75.0
▁organiz	-56.25
inu	-66.66666
▁completed	-55.0
▁carry	-58.33333
atom	-62.5
▁depending	-55.0
▁Our	-62.5
▁insp	-60.0
▁&\	-66.66666
aily	-62.5
irection	-56.25
фа	-75.0
▁defe	-60.0
TAC	-66.66666
▁designed	-55.55556
▁voir	-60.0
break	-60.0
▁partie	-57.14286
▁Jahren	-57.14286
▁studio	-57.14286
▁jour	-60.0
▁Notes	-58.33333
fire	-62.5
house	-60.0
success	-57.14286
▁Juan	-60.0
JS	-75.0
▁Custom	-57.14286
▁besch	-58.33333
▁stated	-57.14286
bootstrap	-55.55556
ött	-66.66666
ozzá	-62.5
▁CON	-62.5
hav	-66.66666
▁sleep	-58.33333
eda	-66.66666
hot	-66.66666
ánd	-66.66666
▁Sy	-66.66666
▁temps	-58.33333
amar	-62.5
▁scal	-60.0
▁ast	-62.5
▁opening	-56.25
clipse	-58.33333
▁programming	-54.16667
▁letters	-56.25
▁profile	-56.25
nah	-66.66666
▁beyond	-57.14286
▁Further	-56.25
faces	-60.0
▁chart	-58.33333
зда	-66.66666
aign	-62.5
ній	-66.66666
▁Rol	-62.5
овано	-60.0
terior	-58.33333
wed	-66.66666
▁herself	-56.25
▁ng	-66.66666
anguages	-56.25
}=\	-66.66666
ynamic	-58.33333
▁jug	-62.5
▁Example	-56.25
▁(†	-66.66666
▁playing	-56.25
▁usage	-58.33333
▁managed	-56.25
▁Natur	-58.33333
тери	-62.5
▁Et	-66.66666
eria	-62.5
▁daughter	-55.55556
нием	-62.5
Fragment	-56.25
▁hol	-62.5
Fl	-75.0
ографи	-58.33333
▁ihn	-62.5
üh	-75.0
instance	-56.25
▁comun	-58.33333
▁truth	-58.33333
▁само	-60.0
▁implemented	-54.16667
▁anyway	-57.14286
▁Cro	-62.5
фе	-75.0
GC	-75.0
ubuntu	-58.33333
types	-60.0
ês	-75.0
.~\	-66.66666
fold	-62.5
▁joined	-57.14286
??	-75.0
▁mé	-66.66666
▁wild	-60.0
клю	-66.66666
rowser	-58.33333
▁Home	-60.0
skiej	-60.0
▁JOIN	-60.0
▁juin	-60.0
hof	-66.66666
▁dataset	-56.25
жду	-66.66666
'))	-66.66666
▁miejs	-58.33333
API	-66.66666
▁edited	-57.14286
ools	-62.5
▁seeing	-57.14286
ijd	-66.66666
▁procedure	-55.0
▁Bras	-60.0
▁signed	-57.14286
▁externos	-55.55556
▁disapp	-57.14286
▁Direct	-57.14286
cyc	-66.66666
▁consult	-56.25
örd	-66.66666
Widget	-58.33333
cious	-60.0
sect	-62.5
▁Ди	-66.66666
▁wind	-60.0
▁Archivado	-55.0
aml	-66.66666
сс	-75.0
Wh	-75.0
kbd	-66.66666
▁Army	-60.0
▁suffer	-57.14286
artifact	-56.25
▁resolve	-56.25
▁Sport	-58.33333
▁це	-66.66666
idas	-62.5
▁tax	-62.5
idi	-66.66666
▁actions	-56.25
пра	-66.66666
pués	-62.5
▁naj	-62.5
False	-60.0
▁chance	-57.14286
▁тако	-60.0
äd	-75.0
▁dol	-62.5
▁env	-62.5
▁basically	-55.0
▁Council	-56.25
zte	-66.66666
▁displayed	-55.0
nil	-66.66666
complete	-56.25
▁Lem	-62.5
iance	-60.0
▁основ	-58.33333
▁depend	-57.14286
plom	-62.5
ensus	-60.0
uts	-66.66666
▁Hot	-62.5
bitr	-62.5
▁validation	-54.54546
abb	-66.66666
▁тре	-62.5
km	-75.0
zd	-75.0
öff	-66.66666
WE	-75.0
▁interested	-54.54546
▁{"	-66.66666
aro	-66.66666
▁correl	-57.14286
▁dedic	-58.33333
▁lists	-58.33333
▁Bibliografia	-53.84615
▁earlier	-56.25
program	-57.14286
▁première	-55.55556
front	-60.0
Tab	-66.66666
ству	-62.5
drop	-62.5
▁fear	-60.0
▁Enlaces	-56.25
▁Capt	-60.0
▁realiz	-57.14286
▁hal	-62.5
▁instances	-55.0
▁susp	-60.0
illing	-58.33333
%;	-75.0
{}	-75.0
||	-75.0
▁partition	-55.0
▁Build	-58.33333
▁wo	-66.66666
▁Пер	-62.5
▁director	-55.55556
▁Sin	-62.5
тия	-66.66666
rsg	-66.66666
ouver	-60.0
▁nearly	-57.14286
oda	-66.66666
ктив	-62.5
▁sir	-62.5
IME	-66.66666
▁janvier	-56.25
▁Win	-62.5
Build	-60.0
ieurs	-60.0
INE	-66.66666
double	-58.33333
Last	-62.5
▁policy	-57.14286
store	-60.0
▁observed	-55.55556
▁familie	-56.25
nica	-62.5
rey	-66.66666
зь	-75.0
▁Year	-60.0
▁developed	-55.0
▁Institute	-55.0
▁reply	-58.33333
Comple	-58.33333
ician	-60.0
▁Guer	-60.0
▁dall	-60.0
▁desp	-60.0
▁Football	-55.55556
Empty	-60.0
cken	-62.5
unda	-62.5
▁Ur	-66.66666
▁ig	-66.66666
▁Atl	-62.5
author	-58.33333
▁Bol	-62.5
zig	-66.66666
nat	-66.66666
št	-75.0
security	-56.25
onic	-62.5
▁pes	-62.5
itan	-62.5
▁Extern	-57.14286
jan	-66.66666
VAL	-66.66666
▁им	-66.66666
bold	-62.5
▁ва	-66.66666
▁Мо	-66.66666
▁disput	-57.14286
▁trick	-58.33333
▁ped	-62.5
)^{	-66.66666
into	-62.5
Sim	-66.66666
▁parallel	-55.55556
fox	-66.66666
normal	-58.33333
inent	-60.0
педи	-62.5
hold	-62.5
OK	-75.0
▁chem	-60.0
▁twice	-58.33333
▁username	-55.55556
ič	-75.0
▁representation	-53.33333
▁journal	-56.25
▁:-	-66.66666
▁batt	-60.0
\%	-75.0
▁certainly	-55.0
▁Exception	-55.0
eps	-66.66666
shot	-62.5
ategy	-60.0
Show	-62.5
▁Carl	-60.0
rig	-66.66666
▁reported	-55.55556
bottom	-58.33333
TF	-75.0
▁Francisco	-55.0
nap	-66.66666
▁Championship	-53.84615
▁court	-58.33333
▁sources	-56.25
iour	-62.5
▁conserv	-56.25
dict	-62.5
▁Ру	-66.66666
IB	-75.0
▁Ve	-66.66666
▁№	-75.0
▁ER	-66.66666
"));	-62.5
▁Point	-58.33333
azine	-60.0
▁internet	-55.55556
дна	-66.66666
▁carried	-56.25
▁Field	-58.33333
axis	-62.5
▁Sun	-62.5
▁ave	-62.5
пис	-66.66666
ян	-75.0
asy	-66.66666
▁julio	-58.33333
▁depuis	-57.14286
▁suggestion	-54.54546
[[	-75.0
▁Archive	-56.25
ęp	-75.0
▁Pra	-62.5
reh	-66.66666
▁demonstr	-55.55556
фі	-75.0
cmd	-66.66666
▁wasn	-60.0
▁phone	-58.33333
upload	-58.33333
aya	-66.66666
тора	-62.5
lines	-60.0
▁indu	-60.0
▁vot	-62.5
▁espa	-60.0
▁bin	-62.5
▁после	-58.33333
plan	-62.5
▁junio	-58.33333
orial	-60.0
free	-62.5
sterreich	-55.55556
▁ду	-66.66666
▁linked	-57.14286
▁enable	-57.14286
PC	-75.0
▁density	-56.25
▁Egy	-62.5
yo	-75.0
endre	-60.0
▁съ	-66.66666
▁italiano	-55.55556
▁AR	-66.66666
▁Pers	-60.0
férés	-60.0
▁скла	-60.0
Var	-66.66666
▁Once	-60.0
Red	-66.66666
buffer	-58.33333
▁Enter	-58.33333
▁Š	-75.0
imiento	-57.14286
Store	-60.0
▁health	-57.14286
vat	-66.66666
IST	-66.66666
Oh	-75.0
▁kw	-66.66666
▁riv	-62.5
▁somewhere	-55.0
ografie	-57.14286
private	-57.14286
кти	-66.66666
▁delay	-58.33333
▁Http	-60.0
job	-66.66666
rael	-62.5
empor	-60.0
▁diciembre	-55.0
ête	-66.66666
цу	-75.0
▁commit	-57.14286
oso	-66.66666
Values	-58.33333
▁headers	-56.25
transform	-55.55556
▁processing	-54.54546
rå	-75.0
▁Ah	-66.66666
▁Node	-60.0
------------	-54.16667
▁faire	-58.33333
▁hun	-62.5
Player	-58.33333
▁review	-57.14286
гда	-66.66666
▁limited	-56.25
▁Property	-55.55556
▁serve	-58.33333
riage	-60.0
▁Master	-57.14286
▁kann	-60.0
crete	-60.0
phere	-60.0
ёр	-75.0
▁chief	-58.33333
▁scene	-58.33333
kin	-66.66666
▁uniform	-56.25
▁febrero	-56.25
"}	-75.0
illo	-62.5
ITE	-66.66666
ouvel	-60.0
usepackage	-55.0
enth	-62.5
▁quickly	-56.25
Lambda	-58.33333
xes	-66.66666
▁cells	-58.33333
rog	-66.66666
amin	-62.5
▁Мар	-62.5
▁mayor	-58.33333
player	-58.33333
++;	-66.66666
▁Насе	-60.0
▁safe	-60.0
▁veloc	-58.33333
▁обра	-60.0
Database	-56.25
neh	-66.66666
Vert	-62.5
▁fle	-62.5
▁фор	-62.5
▁foreign	-56.25
Abstract	-56.25
▁magn	-60.0
▁modified	-55.55556
▁military	-55.55556
▁monde	-58.33333
▁Action	-57.14286
▁bank	-60.0
Serial	-58.33333
▁continuous	-54.54546
▁gel	-62.5
▁physical	-55.55556
▁introduced	-54.54546
uture	-60.0
rick	-62.5
▁presented	-55.0
▁Prov	-60.0
▁Both	-60.0
Pos	-66.66666
super	-60.0
&#	-75.0
▁finding	-56.25
nel	-66.66666
unde	-62.5
▁från	-60.0
skim	-62.5
▁Hill	-60.0
fn	-75.0
▁Canad	-58.33333
▁intended	-55.55556
ozzáférés	-55.55556
▁juillet	-56.25
▁Wars	-60.0
▁successful	-54.54546
▁charg	-58.33333
iele	-62.5
omething	-56.25
oku	-66.66666
fetch	-60.0
▁}}	-66.66666
bank	-62.5
operatorname	-54.16667
▁Color	-58.33333
▁Card	-60.0
tu	-75.0
▁",	-66.66666
wid	-66.66666
▁gep	-62.5
XML	-66.66666
================	-53.125
▁Virgin	-57.14286
ährend	-58.33333
licated	-57.14286
Dir	-66.66666
zero	-62.5
▁Kal	-62.5
▁Party	-58.33333
▁å	-75.0
price	-60.0
don	-66.66666
▁warning	-56.25
▁Bad	-62.5
▁Supp	-60.0
▁Liga	-60.0
▁Pierre	-57.14286
Record	-58.33333
ulator	-58.33333
▁Rome	-60.0
▁theorem	-56.25
▁entirely	-55.55556
ским	-62.5
het	-66.66666
▁dopo	-60.0
Next	-62.5
mlung	-60.0
wig	-66.66666
▁Ath	-62.5
▁Sou	-62.5
licher	-58.33333
▁sudo	-60.0
ests	-62.5
хів	-66.66666
▁septiembre	-54.54546
▁micro	-58.33333
▁trop	-60.0
fit	-66.66666
Core	-62.5
▁Radio	-58.33333
▁Organ	-58.33333
▁Power	-58.33333
CF	-75.0
▁Last	-60.0
▁oppos	-58.33333
▁offset	-57.14286
▁regia	-58.33333
▁minimum	-56.25
▁helped	-57.14286
andon	-60.0
ifying	-58.33333
ruit	-62.5
enschapp	-56.25
▁bere	-60.0
VM	-75.0
▁Awards	-57.14286
▁agr	-62.5
ynomial	-57.14286
enced	-60.0
▁devices	-56.25
▁bot	-62.5
▁firm	-60.0
▁writer	-57.14286
▁ring	-60.0
.-	-75.0
istes	-60.0
lä	-75.0
▁mel	-62.5
entation	-56.25
▁Schw	-60.0
▁nome	-60.0
▁pobla	-58.33333
▁woj	-62.5
▁ul	-66.66666
ento	-62.5
ых	-75.0
▁resist	-57.14286
▁remains	-56.25
▁Ca	-66.66666
aña	-66.66666
▁Court	-58.33333
utable	-58.33333
entially	-56.25
▁trat	-60.0
▁Visual	-57.14286
▁restrict	-55.55556
▁previously	-54.54546
cation	-58.33333
▁осо	-62.5
▁MySQL	-58.33333
för	-66.66666
cala	-62.5
▁culture	-56.25
live	-62.5
▁accepted	-55.55556
Did	-66.66666
▁hous	-60.0
▁selection	-55.0
▁decre	-58.33333
margin	-58.33333
urb	-66.66666
▁Inc	-62.5
▁Many	-60.0
ibt	-66.66666
▁succeed	-56.25
Binding	-57.14286
cí	-75.0
▁Rog	-62.5
▁shouldn	-56.25
cloud	-60.0
▁dz	-66.66666
вав	-66.66666
▁pix	-62.5
small	-60.0
▁projects	-55.55556
▁OK	-66.66666
▁latest	-57.14286
▁references	-54.54546
Program	-57.14286
▁erst	-60.0
▁як	-66.66666
▁kam	-62.5
▁Camb	-60.0
ellt	-62.5
öd	-75.0
none	-62.5
▁jusqu	-58.33333
king	-62.5
▁Ped	-62.5
assert	-58.33333
CS	-75.0
rito	-62.5
essa	-62.5
лько	-62.5
▁Von	-62.5
▁Edward	-57.14286
▁impossible	-54.54546
np	-75.0
words	-60.0
ielt	-62.5
▁Page	-60.0
lers	-62.5
▁pier	-60.0
▁области	-56.25
ittee	-60.0
▁([	-66.66666
▁trust	-58.33333
NG	-75.0
redu	-62.5
<<	-75.0
rial	-62.5
▁products	-55.55556
▁Ern	-62.5
rière	-60.0
гов	-66.66666
▁Reich	-58.33333
▁Road	-60.0
▁nested	-57.14286
Display	-57.14286
▁strength	-55.55556
ografía	-57.14286
▁announced	-55.0
▁Science	-56.25
▁райо	-60.0
Parameter	-55.55556
▁Task	-60.0
uments	-58.33333
▁adopt	-58.33333
▁Only	-60.0
ють	-66.66666
▁cli	-62.5
▁lem	-62.5
stood	-60.0
▁FI	-66.66666
ências	-58.33333
ponents	-57.14286
]$	-75.0
comment	-57.14286
▁ya	-66.66666
should	-58.33333
ike	-66.66666
tim	-66.66666
ellig	-60.0
▁sending	-56.25
▁ajax	-60.0
▁noviembre	-55.0
umes	-62.5
▁weiter	-57.14286
▁Dans	-60.0
opp	-66.66666
▁septembre	-55.0
otimes	-58.33333
ző	-75.0
▁ep	-66.66666
vere	-62.5
▁oh	-66.66666
:=	-75.0
▁Song	-60.0
”,	-75.0
▁viv	-62.5
▁queries	-56.25
▁vá	-66.66666
▁décembre	-55.55556
▁unable	-57.14286
▁erh	-62.5
▁`-	-66.66666
▁Lee	-62.5
▁ersten	-57.14286
ôt	-75.0
стве	-62.5
TS	-75.0
▁fragment	-55.55556
▁wide	-60.0
▁suff	-60.0
▁dut	-62.5
▁Vere	-60.0
іс	-75.0
ading	-60.0
iego	-62.5
icago	-60.0
▁Argent	-57.14286
orer	-62.5
ennes	-60.0
▁Leb	-62.5
linux	-60.0
acing	-60.0
▁broken	-57.14286
tp	-75.0
ío	-75.0
abeth	-60.0
istas	-60.0
gew	-66.66666
ième	-62.5
cas	-66.66666
▁preced	-57.14286
▁Dal	-62.5
▁compared	-55.55556
equiv	-60.0
illy	-62.5
teen	-62.5
▁Console	-56.25
▁strict	-57.14286
itaire	-58.33333
▁ED	-66.66666
entials	-57.14286
▁perman	-57.14286
▁tous	-60.0
▁geme	-60.0
▁extrem	-57.14286
▁окру	-60.0
kg	-75.0
▁heavy	-58.33333
▁avril	-58.33333
▁anti	-60.0
▁octobre	-56.25
utf	-66.66666
helm	-62.5
amples	-58.33333
▁(_	-66.66666
aken	-62.5
▁dear	-60.0
▁opinion	-56.25
▁fish	-60.0
▁Alexander	-55.0
iw	-75.0
им	-75.0
cadem	-60.0
▁reflect	-56.25
▁др	-66.66666
▁trib	-60.0
common	-58.33333
▁clearly	-56.25
▁saf	-62.5
="@+	-62.5
▁Мос	-62.5
сите	-62.5
eqnarray	-56.25
nung	-62.5
▁relationship	-53.84615
▁Sem	-62.5
▁killed	-57.14286
ted	-66.66666
uno	-66.66666
▁лі	-66.66666
▁wid	-62.5
anning	-58.33333
▁panel	-58.33333
▁Leben	-58.33333
▁ruby	-60.0
ansion	-58.33333
▁aren	-60.0
tabular	-57.14286
alet	-62.5
}$$	-66.66666
▁Lake	-60.0
▁suite	-58.33333
▁minor	-58.33333
Hozzáférés	-55.0
▁xmlns	-58.33333
DIR	-66.66666
driver	-58.33333
ints	-62.5
▁vic	-62.5
AND	-66.66666
prim	-62.5
сылки	-60.0
▁Ox	-66.66666
TC	-75.0
rivial	-58.33333
atie	-62.5
▁eight	-58.33333
▁conflic	-56.25
angel	-60.0
▁Begr	-60.0
▁explicitly	-54.54546
ются	-62.5
▁Dev	-62.5
render	-58.33333
▁reprodu	-56.25
▁cré	-62.5
Gu	-75.0
MB	-75.0
▁kön	-62.5
▁remained	-55.55556
▁kl	-66.66666
хов	-66.66666
▁byl	-62.5
Phi	-66.66666
▁detail	-57.14286
jav	-66.66666
▁mouse	-58.33333
Bas	-66.66666
ię	-75.0
asser	-60.0
hs	-75.0
▁shift	-58.33333
▁últ	-62.5
rand	-62.5
▁btn	-62.5
raz	-66.66666
▁pul	-62.5
▁statements	-54.54546
filename	-56.25
▁prompt	-57.14286
élé	-66.66666
ikz	-66.66666
▁Sus	-62.5
▁debut	-58.33333
Stat	-62.5
forms	-60.0
▁Hein	-60.0
stadt	-60.0
ennis	-60.0
пол	-66.66666
arante	-58.33333
цій	-66.66666
▁queue	-58.33333
▁reci	-60.0
▁sta	-62.5
ynchron	-57.14286
centering	-55.55556
Some	-62.5
Graph	-60.0
▁tested	-57.14286
▁Kunst	-58.33333
ом	-75.0
▁Nothing	-56.25
ieu	-66.66666
“.	-75.0
Bundle	-58.33333
▁oficial	-56.25
allow	-60.0
▁React	-58.33333
▁Library	-56.25
blue	-62.5
▁verw	-60.0
▁pare	-60.0
▁Friedrich	-55.0
▁aware	-58.33333
Exp	-66.66666
▁effects	-56.25
▁горо	-60.0
lopedia	-57.14286
▁Ven	-62.5
rale	-62.5
▁Final	-58.33333
▁propos	-57.14286
lacement	-56.25
kten	-62.5
▁novel	-58.33333
orter	-60.0
▁Germany	-56.25
▁django	-57.14286
▁transition	-54.54546
▁happened	-55.55556
▁beautiful	-55.0
▁neither	-56.25
▁libraries	-55.0
▁hide	-60.0
alg	-66.66666
▁aspect	-57.14286
▁forget	-57.14286
cademy	-58.33333
onte	-62.5
refix	-60.0
▁cloud	-58.33333
ned	-66.66666
cdots	-60.0
register	-56.25
nym	-66.66666
.):	-66.66666
▁Jew	-62.5
▁très	-60.0
ниче	-62.5
▁Dor	-62.5
▁proc	-60.0
▁gan	-62.5
▁є	-75.0
▁Sav	-62.5
ví	-75.0
Settings	-56.25
▁Vari	-60.0
▁cours	-58.33333
Ro	-75.0
▁conj	-60.0
▁reasons	-56.25
▁reader	-57.14286
лександ	-57.14286
icate	-60.0
}),	-66.66666
▁tasks	-58.33333
▁Ray	-62.5
▁ric	-62.5
Ke	-75.0
onie	-62.5
rf	-75.0
)[	-75.0
▁subsequ	-56.25
▁Turn	-60.0
▁VIAF	-60.0
mathsf	-58.33333
HE	-75.0
▁declare	-56.25
▁protocol	-55.55556
▁PC	-66.66666
цион	-62.5
ViewById	-56.25
▁animation	-55.0
▁confused	-55.55556
вич	-66.66666
▁enabled	-56.25
owo	-66.66666
ást	-66.66666
öt	-75.0
▁mand	-60.0
▁Rail	-60.0
fields	-58.33333
▁Kap	-62.5
▁algebra	-56.25
▁Су	-66.66666
férence	-57.14286
▁Current	-56.25
сно	-66.66666
▁Lim	-62.5
Params	-58.33333
▁Antonio	-56.25
▁tv	-66.66666
late	-62.5
ifer	-62.5
Entry	-60.0
▁Serv	-60.0
▁musical	-56.25
▁trace	-58.33333
▁scient	-57.14286
fic	-66.66666
▁forgot	-57.14286
video	-60.0
▁older	-58.33333
Tree	-62.5
▁uns	-62.5
ники	-62.5
▁Europa	-57.14286
▁Zwe	-62.5
▁бе	-66.66666
▁vec	-62.5
жу	-75.0
▁▁▁▁▁▁▁▁▁▁▁	-54.54546
Match	-60.0
span	-62.5
▁blank	-58.33333
▁später	-57.14286
▁Ty	-66.66666
▁dict	-60.0
ña	-75.0
▁confirm	-56.25
▁vý	-66.66666
зан	-66.66666
Rel	-66.66666
film	-62.5
▁Rot	-62.5
▁Hy	-66.66666
ках	-66.66666
▁demand	-57.14286
▁minist	-57.14286
▁Madrid	-57.14286
▁usual	-58.33333
spiel	-60.0
eros	-62.5
▁tutorial	-55.55556
▁Ссылки	-57.14286
sys	-66.66666
циаль	-60.0
▁spread	-57.14286
▁convers	-56.25
▁roll	-60.0
artifactId	-55.0
▁Number	-57.14286
▁symmet	-57.14286
▁Mult	-60.0
expected	-56.25
▁axis	-60.0
▁matching	-55.55556
▁food	-60.0
groupId	-57.14286
Mapp	-62.5
▁свя	-62.5
▁vend	-60.0
Found	-60.0
otto	-62.5
Cat	-66.66666
crit	-62.5
istent	-58.33333
▁drei	-60.0
▁ended	-58.33333
▁Tele	-60.0
component	-55.55556
▁involved	-55.55556
▁Estados	-56.25
▁danger	-57.14286
▁chain	-58.33333
▁Prom	-60.0
hom	-66.66666
▁polít	-58.33333
cop	-66.66666
▁nap	-62.5
rif	-66.66666
plements	-56.25
▁vent	-60.0
anna	-62.5
anted	-60.0
dated	-60.0
anth	-62.5
▁threads	-56.25
зова	-62.5
▁станов	-57.14286
▁eerst	-58.33333
buf	-66.66666
heid	-62.5
▁Ru	-66.66666
▁Prim	-60.0
▁migr	-60.0
▁Unidos	-57.14286
▁arbitr	-57.14286
▁roman	-58.33333
ountry	-58.33333
ultur	-60.0
▁König	-58.33333
▁annot	-58.33333
aching	-58.33333
▁Haupt	-58.33333
umin	-62.5
▁hem	-62.5
ckets	-60.0
bau	-66.66666
ection	-58.33333
eft	-66.66666
▁packages	-55.55556
▁Kur	-62.5
thur	-62.5
▁pays	-60.0
liament	-57.14286
▁Бу	-66.66666
▁cada	-60.0
points	-58.33333
ocket	-60.0
▁verb	-60.0
лее	-66.66666
▁submit	-57.14286
▁san	-62.5
ruby	-62.5
▁east	-60.0
kov	-66.66666
▁Verlag	-57.14286
▁spot	-60.0
ppo	-66.66666
Each	-62.5
jekt	-62.5
▁Biographie	-54.54546
▁news	-60.0
▁país	-60.0
ufact	-60.0
▁dia	-62.5
кова	-62.5
▁accompl	-56.25
▁Ét	-66.66666
ilities	-57.14286
▁ihm	-62.5
invoke	-58.33333
▁append	-57.14286
.),	-66.66666
▁lab	-62.5
anging	-58.33333
istan	-60.0
resol	-60.0
▁Section	-56.25
Parent	-58.33333
moz	-66.66666
Mat	-66.66666
styles	-58.33333
unden	-60.0
“,	-75.0
irtschaft	-55.55556
ким	-66.66666
▁Finally	-56.25
phen	-62.5
▁Pac	-62.5
▁ArrayList	-55.0
▁recover	-56.25
▁education	-55.0
models	-58.33333
ped	-66.66666
▁happy	-58.33333
чу	-75.0
▁guerra	-57.14286
media	-60.0
OF	-75.0
▁ensure	-57.14286
Mark	-62.5
database	-56.25
oggle	-60.0
▁publish	-56.25
OW	-75.0
▁Bau	-62.5
?.	-75.0
▁части	-58.33333
▁repository	-54.54546
▁Matt	-60.0
high	-62.5
oven	-62.5
▁ger	-62.5
▁unknown	-56.25
Amer	-62.5
▁Brown	-58.33333
ALL	-66.66666
▁resulting	-55.0
▁bor	-62.5
▁poet	-60.0
ними	-62.5
Email	-60.0
Font	-62.5
▁hist	-60.0
▁today	-58.33333
▁Berg	-60.0
▁buttons	-56.25
тал	-66.66666
▁sni	-62.5
▁челов	-58.33333
Cre	-66.66666
▁union	-58.33333
▁zich	-60.0
ishop	-60.0
▁quando	-57.14286
Po	-75.0
CTION	-60.0
▁Cost	-60.0
судар	-60.0
erved	-60.0
Note	-62.5
Equal	-60.0
лия	-66.66666
бур	-66.66666
▁abstract	-55.55556
stop	-62.5
▁advice	-57.14286
▁icon	-60.0
▁travel	-57.14286
BS	-75.0
vens	-62.5
▁batch	-58.33333
lique	-60.0
sheet	-60.0
▁ihre	-60.0
emon	-62.5
berto	-60.0
▁assigned	-55.55556
ью	-75.0
Phone	-60.0
▁award	-58.33333
▁functionality	-53.57143
alla	-62.5
▁Dam	-62.5
▁ciudad	-57.14286
▁cluster	-56.25
Description	-54.54546
▁sheet	-58.33333
▁Australian	-54.54546
▁».	-66.66666
▁"<	-66.66666
▁wondering	-55.0
aine	-62.5
▁represented	-54.16667
kappa	-60.0
nb	-75.0
▁sy	-66.66666
▁Kö	-66.66666
="#	-66.66666
▁seven	-58.33333
Directory	-55.55556
▁sister	-57.14286
plates	-58.33333
▁luck	-60.0
▁remaining	-55.0
▁Vill	-60.0
werk	-62.5
anni	-62.5
etti	-62.5
func	-62.5
▁ban	-62.5
ims	-66.66666
miss	-62.5
agraph	-58.33333
екси	-62.5
▁Ref	-62.5
nitt	-62.5
▁Gab	-62.5
▁andere	-57.14286
▁jedoch	-57.14286
results	-57.14286
!\	-75.0
▁listed	-57.14286
▁loro	-60.0
▁knows	-58.33333
жно	-66.66666
Rad	-66.66666
▁socket	-57.14286
multi	-60.0
▁рі	-66.66666
rails	-60.0
▁tar	-62.5
▁gentle	-57.14286
sett	-62.5
services	-56.25
bound	-60.0
igkeit	-58.33333
aja	-66.66666
▁cmd	-62.5
agger	-60.0
▁ba	-66.66666
▁Belg	-60.0
▁Kle	-62.5
▁wordt	-58.33333
▁fost	-60.0
▁dimension	-55.0
Ang	-66.66666
uming	-60.0
Obj	-66.66666
нен	-66.66666
▁Marie	-58.33333
exists	-58.33333
тро	-66.66666
▁боль	-60.0
emente	-58.33333
▁Jon	-62.5
SERT	-62.5
▁highest	-56.25
aki	-66.66666
▁tres	-60.0
▁circum	-57.14286
▁Down	-60.0
ommen	-60.0
urer	-62.5
▁causes	-57.14286
venue	-60.0
issance	-57.14286
▁influence	-55.0
▁fat	-62.5
реди	-62.5
}\\	-66.66666
▁entr	-60.0
▁Sign	-60.0
▁кла	-62.5
▁binding	-56.25
essen	-60.0
▁Фран	-60.0
▁Local	-58.33333
▁явля	-60.0
appro	-60.0
▁dependencies	-53.84615
▁talking	-56.25
▁zurück	-57.14286
connection	-55.0
Active	-58.33333
bbe	-66.66666
irls	-62.5
▁Inf	-62.5
wd	-75.0
▁ис	-66.66666
road	-62.5
▁conven	-57.14286
ět	-75.0
вез	-66.66666
▁entries	-56.25
esc	-66.66666
▁bits	-60.0
asso	-62.5
WR	-75.0
ships	-60.0
▁dés	-62.5
esp	-66.66666
Make	-62.5
▁familiar	-55.55556
Art	-66.66666
▁army	-60.0
ctr	-66.66666
éric	-62.5
queue	-60.0
▁\{	-66.66666
uela	-62.5
amiento	-57.14286
ших	-66.66666
▁"""	-62.5
contr	-60.0
лле	-66.66666
FS	-75.0
▁market	-57.14286
ång	-66.66666
citep	-60.0
Ill	-66.66666
rank	-62.5
▁sender	-57.14286
▁beim	-60.0
рак	-66.66666
▁compat	-57.14286
▁occurs	-57.14286
▁diese	-58.33333
ститу	-60.0
awa	-66.66666
▁iOS	-62.5
▁Chinese	-56.25
▁TR	-66.66666
▁Ken	-62.5
▁Une	-62.5
▁creates	-56.25
▁showed	-57.14286
▁év	-66.66666
ologia	-58.33333
▁protest	-56.25
▁Pf	-66.66666
▁squad	-58.33333
++,	-66.66666
áv	-75.0
▁essere	-57.14286
зя	-75.0
kol	-66.66666
▁slightly	-55.55556
addr	-62.5
ân	-75.0
▁reduce	-57.14286
▁\(\	-62.5
▁Dep	-62.5
▁generic	-56.25
Loader	-58.33333
ți	-75.0
▁пос	-62.5
▁occasion	-55.55556
▁Lady	-60.0
entity	-58.33333
▁avant	-58.33333
▁Pas	-62.5
aggio	-60.0
\{	-75.0
пад	-66.66666
atholic	-57.14286
Password	-56.25
▁respond	-56.25
▁Non	-62.5
AG	-75.0
neg	-66.66666
▁ус	-66.66666
blob	-62.5
cke	-66.66666
▁Consider	-55.55556
▁Care	-60.0
iki	-66.66666
▁Chicago	-56.25
inden	-60.0
▁Cop	-62.5
]+	-75.0
öm	-75.0
évrier	-58.33333
кло	-66.66666
alen	-62.5
▁maj	-62.5
racy	-62.5
orte	-62.5
ients	-60.0
ells	-62.5
activity	-56.25
▁runtime	-56.25
NULL	-62.5
▁possibly	-55.55556
▁stri	-60.0
izi	-66.66666
▁mir	-62.5
▁Version	-56.25
prime	-60.0
▁twenty	-57.14286
▁Mah	-62.5
▁sounds	-57.14286
шен	-66.66666
clusion	-57.14286
acz	-66.66666
▁determined	-54.54546
▁Rep	-62.5
▁Landes	-57.14286
▁wall	-60.0
igi	-66.66666
▁reset	-58.33333
шо	-75.0
yan	-66.66666
Met	-66.66666
ei	-75.0
▁appearance	-54.54546
▁fois	-60.0
▁nell	-60.0
esi	-66.66666
ёт	-75.0
loor	-62.5
▁Ul	-66.66666
▁resolution	-54.54546
▁fot	-62.5
▁throughout	-54.54546
▁ri	-66.66666
Level	-60.0
pool	-62.5
▁identity	-55.55556
▁janu	-60.0
▁imper	-58.33333
▁över	-60.0
}`	-75.0
▁infer	-58.33333
▁dates	-58.33333
▁Standard	-55.55556
force	-60.0
ockey	-60.0
tera	-62.5
▁distingu	-55.55556
▁presence	-55.55556
lica	-62.5
▁leaving	-56.25
itung	-60.0
éb	-75.0
▁establish	-55.0
▁maar	-60.0
adi	-66.66666
▁News	-60.0
azon	-62.5
folg	-62.5
▁Hence	-58.33333
▁Ye	-66.66666
▁fab	-62.5
▁führ	-60.0
itmap	-60.0
▁Vers	-60.0
rov	-66.66666
Sign	-62.5
device	-58.33333
Sigma	-60.0
▁wetenschapp	-54.16667
▁Ps	-66.66666
PATH	-62.5
▁torn	-60.0
vest	-62.5
стов	-62.5
account	-57.14286
▁largest	-56.25
▁percent	-56.25
▁Women	-58.33333
▁img	-62.5
tool	-62.5
▁roce	-60.0
▁ay	-66.66666
inet	-62.5
▁août	-60.0
▁polynomial	-54.54546
▁integral	-55.55556
▁areas	-58.33333
}'	-75.0
▁hyp	-62.5
loyee	-60.0
таль	-62.5
▁proxy	-58.33333
▁Wy	-66.66666
▁Мекси	-58.33333
▁escape	-57.14286
olar	-62.5
▁mistake	-56.25
)}{	-66.66666
▁Pot	-62.5
▁processes	-55.0
">	-66.66666
halten	-58.33333
zza	-66.66666
amo	-66.66666
кре	-66.66666
▁Wood	-60.0
ør	-75.0
▁сер	-62.5
ocia	-62.5
two	-66.66666
profile	-57.14286
▁Ast	-62.5
embro	-60.0
▁arms	-60.0
inas	-62.5
innen	-60.0
▁msg	-62.5
INT	-66.66666
▁batter	-57.14286
ignment	-57.14286
▁vy	-66.66666
Hrsg	-62.5
▁Grund	-58.33333
roc	-66.66666
seg	-66.66666
▁decor	-58.33333
▁eventually	-54.54546
>,	-75.0
▁pag	-62.5
anten	-60.0
▁strugg	-57.14286
}^\	-66.66666
daten	-60.0
▁rela	-60.0
пов	-66.66666
▁коро	-60.0
▁Bos	-62.5
▁labor	-58.33333
▁Secret	-57.14286
ugen	-62.5
▁jap	-62.5
▁husband	-56.25
▁Album	-58.33333
▁etwa	-60.0
▁произ	-58.33333
richt	-60.0
rach	-62.5
bat	-66.66666
▁prepar	-57.14286
▁Stock	-58.33333
▁lack	-60.0
хід	-66.66666
▁hogy	-60.0
▁Chrome	-57.14286
▁Admin	-58.33333
▁comparison	-54.54546
▁increasing	-54.54546
нг	-75.0
imi	-66.66666
Db	-75.0
▁gef	-62.5
ucht	-62.5
ése	-66.66666
gence	-60.0
▁Core	-60.0
▁incorrect	-55.0
▁assuming	-55.55556
ourse	-60.0
ieron	-60.0
▁Theorem	-56.25
▁casa	-60.0
jes	-66.66666
▁дере	-60.0
▁`"	-66.66666
LD	-75.0
äß	-75.0
Deb	-66.66666
▁suiv	-60.0
▁Bank	-60.0
libs	-62.5
▁Leon	-60.0
▁quart	-58.33333
▁professional	-53.84615
▁tiene	-58.33333
▁accomp	-57.14286
стер	-62.5
▁UK	-66.66666
NN	-75.0
▁lí	-66.66666
ця	-75.0
kel	-66.66666
▁•	-75.0
▁dise	-60.0
onto	-62.5
▁má	-66.66666
ifs	-66.66666
bild	-62.5
▁compute	-56.25
▁éd	-66.66666
ję	-75.0
▁Mé	-66.66666
▁languages	-55.0
▁Times	-58.33333
cen	-66.66666
▁авто	-60.0
ým	-75.0
enez	-62.5
▁upp	-62.5
▁méd	-62.5
▁cuando	-57.14286
од	-75.0
Intent	-58.33333
eerd	-62.5
▁Tal	-62.5
offset	-58.33333
▁haben	-58.33333
reme	-62.5
▁Stack	-58.33333
▁dri	-62.5
▁seinem	-57.14286
▁février	-56.25
▁combination	-54.16667
▁soll	-60.0
▁movement	-55.55556
Spec	-62.5
кры	-66.66666
retch	-60.0
Offset	-58.33333
Root	-62.5
Ар	-75.0
wart	-62.5
▁Follow	-57.14286
▁Social	-57.14286
ников	-60.0
▁→	-75.0
Don	-66.66666
▁harm	-60.0
agr	-66.66666
nego	-62.5
resource	-56.25
▁Luc	-62.5
▁seinen	-57.14286
▁Department	-54.54546
▁Update	-57.14286
▁Texas	-58.33333
▁reve	-60.0
▁Pos	-62.5
▁shot	-60.0
othe	-62.5
▁repeated	-55.55556
▁recently	-55.55556
ában	-62.5
aks	-66.66666
пан	-66.66666
▁cha	-62.5
ohl	-66.66666
▁tend	-60.0
▁дво	-62.5
chts	-62.5
çaise	-60.0
pling	-60.0
album	-60.0
ej	-75.0
▁`[	-66.66666
maps	-62.5
▁units	-58.33333
▁<!--	-60.0
▁ге	-66.66666
▁Information	-54.16667
ikon	-62.5
▁tan	-62.5
▁docker	-57.14286
▁Stad	-60.0
▁audio	-58.33333
iko	-66.66666
▁coordinates	-54.16667
xs	-75.0
▁replied	-56.25
▁),	-66.66666
▁Government	-54.54546
▁Academy	-56.25
UNT	-66.66666
▁три	-62.5
Bl	-75.0
▁anc	-62.5
шу	-75.0
▁також	-58.33333
▁infinite	-55.55556
RC	-75.0
▁ga	-66.66666
▁adjust	-57.14286
▁merge	-58.33333
;`	-75.0
▁poster	-57.14286
▁Japanese	-55.55556
"];	-66.66666
▁exhib	-58.33333
▁ordered	-56.25
ictures	-57.14286
рос	-66.66666
▁série	-58.33333
lets	-62.5
▁ip	-66.66666
Selector	-56.25
▁existence	-55.0
Rece	-62.5
liga	-62.5
download	-56.25
▁lemma	-58.33333
iev	-66.66666
udent	-60.0
sko	-66.66666
▁Arab	-60.0
itate	-60.0
byte	-62.5
от	-75.0
ikt	-66.66666
ната	-62.5
▁Af	-66.66666
(@	-75.0
▁mad	-62.5
odb	-66.66666
▁elimin	-57.14286
▁spent	-58.33333
Enter	-60.0
▁Mitg	-60.0
When	-62.5
▁départ	-57.14286
MI	-75.0
▁fellow	-57.14286
▁thousand	-55.55556
▁Cu	-66.66666
ktor	-62.5
Cache	-60.0
▁também	-57.14286
▁extended	-55.55556
вест	-62.5
aters	-60.0
▁Lic	-62.5
totype	-58.33333
▁Ga	-66.66666
▁blood	-58.33333
▁mapping	-56.25
▁nomin	-58.33333
▁manifest	-55.55556
▁pens	-60.0
▁rit	-62.5
▁filename	-55.55556
▁filled	-57.14286
vä	-75.0
▁raised	-57.14286
▁mobile	-57.14286
ké	-75.0
▁Right	-58.33333
▁gehör	-58.33333
▁temperature	-54.16667
▁somehow	-56.25
▁Spanish	-56.25
▁kommun	-57.14286
▁chosen	-57.14286
▁horse	-58.33333
;\	-75.0
▁originally	-54.54546
Hash	-62.5
▁citt	-60.0
▁encore	-57.14286
▁Wolf	-60.0
▁nú	-66.66666
▁Young	-58.33333
Vari	-62.5
▁Schwe	-58.33333
▁capture	-56.25
▁Jane	-60.0
Interface	-55.55556
owych	-60.0
▁Deutschland	-54.16667
▁Kol	-62.5
▁boundary	-55.55556
▁GND	-62.5
Now	-66.66666
kehr	-62.5
(*	-75.0
=-	-75.0
▁Wel	-62.5
▁Cat	-62.5
amment	-58.33333
AGE	-66.66666
▁rights	-57.14286
Scroll	-58.33333
▁happening	-55.0
▁Bla	-62.5
▁science	-56.25
aws	-66.66666
▁behaviour	-55.0
▁implies	-56.25
▁Queen	-58.33333
ovan	-62.5
pay	-66.66666
ња	-75.0
aret	-62.5
ership	-58.33333
▁Lang	-60.0
▁год	-62.5
▁recorded	-55.55556
zem	-66.66666
▁Thread	-57.14286
▁todo	-60.0
ogo	-66.66666
▁scenario	-55.55556
▁concent	-56.25
рез	-66.66666
Storage	-57.14286
▁dirig	-58.33333
▁Series	-57.14286
▁gas	-62.5
SET	-66.66666
èce	-66.66666
rate	-62.5
HTTP	-62.5
▁kap	-62.5
Emp	-66.66666
UTF	-66.66666
ání	-66.66666
стави	-60.0
windows	-57.14286
ération	-57.14286
aped	-62.5
▁sistema	-56.25
▁surv	-60.0
▁Western	-56.25
▁gé	-66.66666
▁Such	-60.0
Writer	-58.33333
▁canvas	-57.14286
▁guarante	-55.55556
scroll	-58.33333
aved	-62.5
Ital	-62.5
▁Elect	-58.33333
](#	-66.66666
▁Herm	-60.0
▁Command	-56.25
▁Child	-58.33333
▁pd	-66.66666
utch	-62.5
Sql	-66.66666
*.	-75.0
▁Tag	-62.5
▁Ta	-66.66666
▁mail	-60.0
screen	-58.33333
scr	-66.66666
zial	-62.5
▁Für	-62.5
▁suggestions	-54.16667
chester	-57.14286
)|	-75.0
person	-58.33333
zel	-66.66666
▁waiting	-56.25
▁сле	-62.5
FL	-75.0
▁Albert	-57.14286
▁Hij	-62.5
▁тер	-62.5
ewrite	-58.33333
▁sentence	-55.55556
▁linux	-58.33333
еде	-66.66666
ência	-60.0
▁Italian	-56.25
чка	-66.66666
Files	-60.0
▁noticed	-56.25
bing	-62.5
▁Research	-55.55556
▁alter	-58.33333
heel	-62.5
\<^	-66.66666
▁Process	-56.25
▁battle	-57.14286
мов	-66.66666
▁Africa	-57.14286
▁Anne	-60.0
▁geld	-60.0
}%	-75.0
▁docs	-60.0
Types	-60.0
▁retrieve	-55.55556
▁Official	-55.55556
▁trab	-60.0
цы	-75.0
▁Input	-58.33333
step	-62.5
▁laugh	-58.33333
▁Ха	-66.66666
▁pela	-60.0
Media	-60.0
rough	-60.0
гани	-62.5
▁Should	-57.14286
▁Content	-56.25
лем	-66.66666
osh	-66.66666
▁somewhat	-55.55556
▁Cer	-62.5
Background	-55.0
stru	-62.5
▁inline	-57.14286
▁Neder	-58.33333
▁modules	-56.25
▁Buch	-60.0
ński	-62.5
widet	-60.0
▁zn	-66.66666
poses	-60.0
▁gradu	-58.33333
▁aqu	-62.5
PR	-75.0
▁putting	-56.25
▁поли	-60.0
▁purch	-58.33333
▁smooth	-57.14286
рий	-66.66666
engine	-58.33333
▁lived	-58.33333
Account	-57.14286
Details	-57.14286
▁tells	-58.33333
▁Output	-57.14286
Here	-62.5
▁Foundation	-54.54546
TextView	-56.25
▁decision	-55.55556
▁dependency	-54.54546
ocation	-57.14286
oval	-62.5
feld	-62.5
▁пров	-60.0
▁ends	-60.0
▁ios	-62.5
▁excel	-58.33333
agu	-66.66666
▁eleg	-60.0
▁Element	-56.25
Queue	-60.0
▁fö	-66.66666
версите	-57.14286
▁experien	-55.55556
▁directed	-55.55556
▁camb	-60.0
▁Дж	-66.66666
▁folg	-60.0
▁conce	-58.33333
▁Fab	-62.5
▁Vi	-66.66666
▁advantage	-55.0
▁Bei	-62.5
prod	-62.5
▁XIX	-62.5
▁Face	-60.0
▁vir	-62.5
▁Russian	-56.25
▁span	-60.0
ení	-66.66666
▁zone	-60.0
▁attach	-57.14286
▁без	-62.5
▁management	-54.54546
Ac	-75.0
▁оп	-66.66666
once	-62.5
halt	-62.5
uso	-66.66666
Spe	-66.66666
▁raw	-62.5
éro	-66.66666
idel	-62.5
law	-66.66666
Sheet	-60.0
▁mission	-56.25
▁camera	-57.14286
▁honor	-58.33333
▁appointed	-55.0
▁Roma	-60.0
linear	-58.33333
Rows	-62.5
ferences	-56.25
▁IO	-66.66666
▁covered	-56.25
raj	-66.66666
ствова	-58.33333
▁Sym	-62.5
▁tid	-62.5
isc	-66.66666
▁Rud	-62.5
▁encuent	-56.25
▁failure	-56.25
üss	-66.66666
▁squ	-62.5
▁paint	-58.33333
▁serious	-56.25
▁cursor	-57.14286
tras	-62.5
▁discussion	-54.54546
▁cried	-58.33333
erie	-62.5
▁Develop	-56.25
▁rewrite	-56.25
▁général	-56.25
wait	-62.5
▁Harry	-58.33333
ír	-75.0
▁gepublic	-55.55556
▁иг	-66.66666
іб	-75.0
ят	-75.0
▁Из	-66.66666
▁equations	-55.0
▁plane	-58.33333
▁acqu	-60.0
▁angle	-58.33333
▁trees	-58.33333
▁Кон	-62.5
VD	-75.0
pert	-62.5
▁documents	-55.0
cb	-75.0
▁implements	-54.54546
станов	-58.33333
▁Walter	-57.14286
зыва	-62.5
▁спе	-62.5
▁chap	-60.0
plex	-62.5
▁magnet	-57.14286
▁gepubliceerd	-53.84615
▁highly	-57.14286
▁leurs	-58.33333
▁dress	-58.33333
▁restart	-56.25
Render	-58.33333
Callback	-56.25
iso	-66.66666
▁constitu	-55.55556
▁Ende	-60.0
ZE	-75.0
▁Angeles	-56.25
▁derived	-56.25
="{	-66.66666
]\	-75.0
▁Change	-57.14286
▁Haus	-60.0
▁stad	-60.0
▁Request	-56.25
omo	-66.66666
▁Active	-57.14286
uren	-62.5
▁tourn	-58.33333
▁particularly	-53.84615
Servlet	-57.14286
abc	-66.66666
widetilde	-55.55556
andra	-60.0
Helper	-58.33333
Rule	-62.5
▁plusieurs	-55.0
▁wave	-60.0
neq	-66.66666
▁Те	-66.66666
fre	-66.66666
ské	-66.66666
▁alc	-62.5
▁logs	-60.0
GS	-75.0
▁Mol	-62.5
▁permission	-54.54546
▁soul	-60.0
▁wants	-58.33333
▁guide	-58.33333
▁viene	-58.33333
▁Wilhelm	-56.25
▁evidence	-55.55556
"},	-66.66666
ropol	-60.0
▁authentication	-53.33333
▁occurred	-55.55556
▁IF	-66.66666
noc	-66.66666
IA	-75.0
▁Ban	-62.5
▁кар	-62.5
▁ble	-62.5
▁segment	-56.25
▁players	-56.25
isi	-66.66666
▁stuck	-58.33333
▁Py	-66.66666
Any	-66.66666
hou	-66.66666
▁formatt	-56.25
▁peace	-58.33333
▁Кар	-62.5
etes	-62.5
dfrac	-60.0
(?	-75.0
▁Site	-60.0
▁Live	-60.0
▁Us	-66.66666
▁clim	-60.0
▁Ali	-62.5
рей	-66.66666
▁Prince	-57.14286
▁oblig	-58.33333
ieb	-66.66666
▁Alt	-62.5
▁pros	-60.0
racle	-60.0
▁Cette	-58.33333
kes	-66.66666
zös	-66.66666
ouvelle	-57.14286
////////	-56.25
aby	-66.66666
ére	-66.66666
rane	-62.5
▁powers	-57.14286
▁Path	-60.0
▁Word	-60.0
▁transaction	-54.16667
▁causing	-56.25
ellschaft	-55.55556
ât	-75.0
▁CPU	-62.5
▁depth	-58.33333
STR	-66.66666
▁Conf	-60.0
▁rare	-60.0
▁Ak	-66.66666
▁bon	-62.5
▁Carlos	-57.14286
▁specifically	-53.84615
rics	-62.5
KEY	-66.66666
▁stars	-58.33333
érica	-60.0
▁Лу	-66.66666
▁configure	-55.0
▁agent	-58.33333
▁explained	-55.0
▁coefficient	-54.16667
дь	-75.0
'}	-75.0
▁vida	-60.0
▁Syn	-62.5
▁назва	-58.33333
▁Option	-57.14286
▁rob	-62.5
▁клу	-62.5
:[	-75.0
antly	-60.0
dependency	-55.0
▁Cur	-62.5
▁frances	-56.25
▁ideal	-58.33333
Sw	-75.0
▁груп	-60.0
▁Captain	-56.25
▁todos	-58.33333
Jo	-75.0
▁pelo	-60.0
?](	-66.66666
▁faith	-58.33333
овой	-62.5
▁fresh	-58.33333
▁propri	-57.14286
Timeout	-57.14286
▁veh	-62.5
contents	-56.25
▁Document	-55.55556
collection	-55.0
▁kar	-62.5
ruck	-62.5
Your	-62.5
uma	-66.66666
▁mathemat	-55.55556
Enabled	-57.14286
публи	-60.0
▁Engine	-57.14286
▁München	-56.25
▁посе	-60.0
▁fon	-62.5
archive	-57.14286
▁frequency	-55.0
}+\	-66.66666
âte	-66.66666
▁kor	-62.5
▁Кра	-62.5
Sing	-62.5
month	-60.0
▁Haw	-62.5
▁sys	-62.5
erme	-62.5
▁Would	-58.33333
▁impact	-57.14286
urrency	-57.14286
licht	-60.0
▁apt	-62.5
iere	-62.5
▁motion	-57.14286
ССР	-66.66666
▁Init	-60.0
▁ms	-66.66666
▁MS	-66.66666
shift	-60.0
▁autres	-57.14286
▁bash	-60.0
hidden	-58.33333
orio	-62.5
▁celebr	-57.14286
▁Liber	-58.33333
eto	-66.66666
▁dove	-60.0
▁paths	-58.33333
▁inj	-62.5
Category	-56.25
▁cry	-62.5
▁marked	-57.14286
удо	-66.66666
ashion	-58.33333
ält	-66.66666
▁lan	-62.5
▁teams	-58.33333
▁kv	-66.66666
iams	-62.5
aban	-62.5
▁TABLE	-58.33333
вар	-66.66666
Repos	-60.0
▁Bell	-60.0
▁pubblic	-56.25
▁countries	-55.0
▁spin	-60.0
▁lég	-62.5
▁Krie	-60.0
▁Jones	-58.33333
white	-60.0
Html	-62.5
Press	-60.0
▁Blue	-60.0
Operation	-55.55556
▁Anth	-60.0
▁pse	-62.5
▁Font	-60.0
▁theme	-58.33333
▁blocks	-57.14286
$)	-75.0
▁glad	-60.0
▁manage	-57.14286
orden	-60.0
osten	-60.0
cole	-62.5
▁SP	-66.66666
▁schema	-57.14286
uras	-62.5
▁whenever	-55.55556
ША	-75.0
рито	-62.5
▁discovered	-54.54546
▁prefix	-57.14286
global	-58.33333
roke	-62.5
zes	-66.66666
chte	-62.5
▁Before	-57.14286
мени	-62.5
▁Dig	-62.5
▁rapid	-58.33333
▁lleg	-60.0
equals	-58.33333
▁Hoch	-60.0
forall	-58.33333
вати	-62.5
usz	-66.66666
▁attached	-55.55556
Expression	-55.0
▁stock	-58.33333
üll	-66.66666
pet	-66.66666
essions	-57.14286
colo	-62.5
▁gy	-66.66666
Book	-62.5
▁Jacob	-58.33333
▁Product	-56.25
▁inputs	-57.14286
мир	-66.66666
▁learned	-56.25
ówn	-66.66666
▁police	-57.14286
▁лет	-62.5
▁Item	-60.0
▁eye	-62.5
aient	-60.0
▁Sammlung	-55.55556
▁Lor	-62.5
▁repres	-57.14286
▁fest	-60.0
Cond	-62.5
▁nouve	-58.33333
▁extend	-57.14286
▁Frances	-56.25
▁Find	-60.0
▁deze	-60.0
erna	-62.5
▁había	-58.33333
prü	-66.66666
▁motor	-58.33333
bie	-66.66666
Hello	-60.0
▁resid	-58.33333
▁finale	-57.14286
%)	-75.0
{'	-75.0
▁Hard	-60.0
▁pairs	-58.33333
▁Ell	-62.5
ivot	-62.5
rees	-62.5
▁Force	-58.33333
▁evening	-56.25
▁después	-56.25
rg	-75.0
Why	-66.66666
▁conn	-60.0
schema	-58.33333
ход	-66.66666
▁между	-58.33333
▁flash	-58.33333
skip	-62.5
▁minute	-57.14286
▁ved	-62.5
aylor	-60.0
▁seus	-60.0
▁Major	-58.33333
▁franc	-58.33333
▁rac	-62.5
kw	-75.0
cv	-75.0
Native	-58.33333
▁Button	-57.14286
ници	-62.5
settings	-56.25
▁Access	-57.14286
▁quality	-56.25
props	-60.0
Float	-60.0
▁Scot	-60.0
▁AD	-66.66666
▁allem	-58.33333
&\	-75.0
ustration	-55.55556
pattern	-57.14286
mir	-66.66666
▁incorpor	-55.55556
skich	-60.0
'>	-75.0
Stand	-60.0
▁technique	-55.0
▁Ess	-62.5
▁Oxford	-57.14286
▁ла	-66.66666
tikz	-62.5
лий	-66.66666
Login	-60.0
▁minister	-55.55556
▁curl	-60.0
kan	-66.66666
▁maps	-60.0
inda	-62.5
rieb	-62.5
▁END	-62.5
ifies	-60.0
console	-57.14286
bury	-62.5
▁LE	-66.66666
▁independ	-55.55556
▁ta	-66.66666
▁Ś	-75.0
onel	-62.5
ész	-66.66666
▁Ist	-62.5
utive	-60.0
ёл	-75.0
▁Region	-57.14286
▁(=	-66.66666
▁compact	-56.25
çois	-62.5
▁labels	-57.14286
autorité	-56.25
▁stan	-60.0
▁française	-55.0
▁removing	-55.55556
yc	-75.0
}|	-75.0
▁Exec	-60.0
($_	-66.66666
mag	-66.66666
before	-58.33333
▁stopped	-56.25
мии	-66.66666
▁refresh	-56.25
unkt	-62.5
icio	-62.5
Xml	-66.66666
▁Tab	-62.5
▁founded	-56.25
▁fal	-62.5
fx	-75.0
▁Historia	-55.55556
▁Early	-58.33333
Dom	-66.66666
▁decide	-57.14286
▁understood	-54.54546
▁jur	-62.5
▁Nr	-66.66666
▁capac	-58.33333
was	-66.66666
▁enemy	-58.33333
▁programs	-55.55556
▁mask	-60.0
ске	-66.66666
▁groupe	-57.14286
cam	-66.66666
▁widget	-57.14286
REATE	-60.0
▁seva	-60.0
▁Barcel	-57.14286
▁perd	-60.0
▁Му	-66.66666
rance	-60.0
TYPE	-62.5
▁{'	-66.66666
▁bill	-60.0
▁"_	-66.66666
'`	-75.0
bahn	-62.5
▁contained	-55.0
Close	-60.0
rug	-66.66666
egy	-66.66666
▁sight	-58.33333
▁Provin	-57.14286
ню	-75.0
arz	-66.66666
щен	-66.66666
▁Joe	-62.5
▁deleted	-56.25
▁Auto	-60.0
▁meter	-58.33333
CG	-75.0
ъл	-75.0
▁pent	-60.0
▁bezeichnet	-54.54546
Sum	-66.66666
dbc	-66.66666
▁Platz	-58.33333
ectors	-58.33333
▁Little	-57.14286
QUE	-66.66666
ція	-66.66666
теля	-62.5
night	-60.0
▁ll	-66.66666
▁mostly	-57.14286
UID	-66.66666
▁bez	-62.5
dob	-66.66666
кси	-66.66666
terne	-60.0
▁corner	-57.14286
aty	-66.66666
▁improve	-56.25
▁intr	-60.0
▁`@	-66.66666
arod	-62.5
▁installation	-53.84615
▁Referências	-54.16667
igan	-62.5
▁critic	-57.14286
adel	-62.5
▁село	-60.0
,	-75.0
atori	-60.0
▁Fri	-62.5
▁références	-54.54546
▁Intent	-57.14286
▁tant	-60.0
unci	-62.5
▁levels	-57.14286
eres	-62.5
▁emer	-60.0
safe	-62.5
tk	-75.0
▁cham	-60.0
▁greatly	-56.25
▁weit	-60.0
▁coach	-58.33333
▁toward	-57.14286
Home	-62.5
▁Boolean	-56.25
тел	-66.66666
▁mock	-60.0
▁appreciate	-54.54546
▁Cross	-58.33333
▁Take	-60.0
DP	-75.0
▁sides	-58.33333
▁Normdaten	-55.0
дей	-66.66666
stal	-62.5
▁cout	-60.0
bn	-75.0
▁Vert	-60.0
▁bird	-60.0
▁dynamically	-54.16667
▁Dol	-62.5
▁Burg	-60.0
▁dog	-62.5
ätt	-66.66666
▁nuc	-62.5
EC	-75.0
Bytes	-60.0
▁ak	-66.66666
reland	-58.33333
▁guitar	-57.14286
▁regarding	-55.0
▁Fuß	-62.5
▁дол	-62.5
auss	-62.5
▁jej	-62.5
aco	-66.66666
▁updates	-56.25
рук	-66.66666
('/	-66.66666
▁cold	-60.0
▁Given	-58.33333
hin	-66.66666
▁feeling	-56.25
igli	-62.5
fah	-66.66666
стре	-62.5
bool	-62.5
initial	-57.14286
▁становника	-54.54546
▁Anna	-60.0
▁hors	-60.0
▁doll	-60.0
▁consum	-57.14286
uber	-62.5
standing	-56.25
activ	-60.0
зі	-75.0
checked	-57.14286
▁permissions	-54.16667
▁Monte	-58.33333
WriteLine	-55.55556
plus	-62.5
▁Equ	-62.5
▁их	-66.66666
чки	-66.66666
unque	-60.0
▁LO	-66.66666
ea	-75.0
sample	-58.33333
iesz	-62.5
oral	-62.5
▁Ин	-66.66666
oston	-60.0
▁Simon	-58.33333
fast	-62.5
mk	-75.0
assen	-60.0
▁architecture	-53.84615
enses	-60.0
▁Å	-75.0
▁topic	-58.33333
▁disable	-56.25
▁Cru	-62.5
▁Control	-56.25
▁creation	-55.55556
▁hyper	-58.33333
itud	-62.5
жения	-60.0
aram	-62.5
▁где	-62.5
ienst	-60.0
edule	-60.0
▁Bot	-62.5
▁Ос	-66.66666
▁Their	-58.33333
anne	-62.5
Microsoft	-55.55556
▁PM	-66.66666
ydro	-62.5
entlich	-57.14286
▁Eine	-60.0
CHAR	-62.5
:'	-75.0
Well	-62.5
leton	-60.0
▁supports	-55.55556
'])	-66.66666
manual	-58.33333
▁vice	-60.0
asa	-66.66666
clos	-62.5
vised	-60.0
▁pok	-62.5
track	-60.0
ност	-62.5
........	-56.25
▁'\	-66.66666
².	-75.0
▁orders	-57.14286
etta	-62.5
▁conversion	-54.54546
▁trade	-58.33333
cli	-66.66666
▁Исто	-60.0
▁akt	-62.5
▁subset	-57.14286
▁aug	-62.5
▁leaves	-57.14286
Math	-62.5
anned	-60.0
kal	-66.66666
▁Вели	-60.0
▁nog	-62.5
▁eth	-62.5
▁hair	-60.0
around	-58.33333
▁javax	-58.33333
вой	-66.66666
▁Centre	-57.14286
öß	-75.0
uti	-66.66666
▁navigation	-54.54546
▁PS	-66.66666
▁wa	-66.66666
▁России	-57.14286
usa	-66.66666
zeta	-62.5
▁PDF	-62.5
▁mismo	-58.33333
properties	-55.0
meister	-57.14286
льта	-62.5
forward	-57.14286
▁Ost	-62.5
kins	-62.5
▁sido	-60.0
зов	-66.66666
tags	-62.5
▁actor	-58.33333
▁fly	-62.5
CR	-75.0
agini	-60.0
▁lett	-60.0
eni	-66.66666
tech	-62.5
▁Enc	-62.5
oracle	-58.33333
amilton	-57.14286
zej	-66.66666
fen	-66.66666
umerate	-57.14286
▁questo	-57.14286
dart	-62.5
▁Kore	-60.0
apis	-62.5
eper	-62.5
Screen	-58.33333
wall	-62.5
▁island	-57.14286
she	-66.66666
▁ligger	-57.14286
вся	-66.66666
fang	-62.5
▁tard	-60.0
▁plaats	-57.14286
▁пло	-62.5
▁Office	-57.14286
▁SET	-62.5
▁circuit	-56.25
jed	-66.66666
Save	-62.5
льно	-62.5
Socket	-58.33333
▁Index	-58.33333
ACK	-66.66666
iders	-60.0
erer	-62.5
▁США	-62.5
▁lady	-60.0
▁scheme	-57.14286
ielle	-60.0
▁exerc	-58.33333
)}\	-66.66666
DateTime	-56.25
athan	-60.0
▁Professor	-55.0
▁moins	-58.33333
▁Excel	-58.33333
▁Hay	-62.5
▁Musik	-58.33333
▁ї	-75.0
ęd	-75.0
▁".	-66.66666
▁був	-62.5
▁instrument	-54.54546
пар	-66.66666
▁бере	-60.0
▁politique	-55.0
▁tradition	-55.0
▁VM	-66.66666
▁Arts	-60.0
▁Ci	-66.66666
Use	-66.66666
▁aggreg	-57.14286
▁weeks	-58.33333
▁opport	-57.14286
iting	-60.0
▁vertical	-55.55556
▁Naz	-62.5
...)	-62.5
izo	-66.66666
▁cycle	-58.33333
▁tempo	-58.33333
тре	-66.66666
▁handling	-55.55556
istence	-57.14286
▁paste	-58.33333
▁enjo	-60.0
ROUP	-62.5
▁outer	-58.33333
▁supply	-57.14286
eman	-62.5
▁accident	-55.55556
▁\]	-66.66666
▁тех	-62.5
Pool	-62.5
oting	-60.0
onymous	-57.14286
▁Giov	-60.0
▁ud	-66.66666
▁./	-66.66666
ERROR	-60.0
construct	-55.55556
textwidth	-55.55556
quipe	-60.0
cases	-60.0
▁ад	-66.66666
▁Row	-62.5
Holder	-58.33333
wan	-66.66666
arna	-62.5
Mem	-66.66666
▁Canadian	-55.55556
▁Commission	-54.54546
sun	-66.66666
▁apps	-60.0
▁Blo	-62.5
▁ihrer	-58.33333
▁famille	-56.25
▁mě	-66.66666
▁py	-66.66666
ис	-75.0
▁того	-60.0
▁Again	-58.33333
▁ignore	-57.14286
▁television	-54.54546
Pat	-66.66666
hide	-62.5
▁Rev	-62.5
▁bear	-60.0
phy	-66.66666
▁noise	-58.33333
▁wra	-62.5
ationale	-56.25
▁collabor	-55.55556
border	-58.33333
▁elected	-56.25
▁surpr	-58.33333
▁avoir	-58.33333
▁assembly	-55.55556
▁обще	-60.0
▁arbitrary	-55.0
▁brief	-58.33333
▁---	-62.5
▁Maur	-60.0
gression	-56.25
icia	-62.5
▁liegt	-58.33333
▁Figure	-57.14286
▁onto	-60.0
Repository	-55.0
▁déf	-62.5
▁forth	-58.33333
▁clicked	-56.25
seite	-60.0
▁notes	-58.33333
native	-58.33333
▁EDIT	-60.0
ые	-75.0
MT	-75.0
amental	-57.14286
▁rose	-60.0
▁puede	-58.33333
Delegate	-56.25
uba	-66.66666
neo	-66.66666
xis	-66.66666
▁Arthur	-57.14286
URE	-66.66666
aming	-60.0
Device	-58.33333
▁diam	-60.0
ständ	-60.0
▁pron	-60.0
ois	-66.66666
coming	-58.33333
Parameters	-55.0
uvud	-62.5
▁ability	-56.25
▁mét	-62.5
▁Unfortunately	-53.57143
fd	-75.0
Dictionary	-55.0
socket	-58.33333
▁conoc	-58.33333
contains	-56.25
essed	-60.0
▁geldig	-57.14286
ница	-62.5
▁pointed	-56.25
esti	-62.5
nom	-66.66666
ография	-57.14286
▁represents	-54.54546
▁manip	-58.33333
world	-60.0
▁resolved	-55.55556
tegr	-62.5
▁dort	-60.0
astern	-58.33333
▁campaign	-55.55556
▁primo	-58.33333
▁;;	-66.66666
▁snippet	-56.25
▁Nik	-62.5
Total	-60.0
issement	-56.25
ACE	-66.66666
▁verify	-57.14286
iffe	-62.5
lagen	-60.0
ieur	-62.5
▁converted	-55.0
▁Milit	-58.33333
▁Alg	-62.5
▁Ron	-62.5
▁konn	-60.0
apple	-60.0
▁dispos	-57.14286
stellung	-56.25
▁retain	-57.14286
▁mentre	-57.14286
▁neut	-60.0
▁Night	-58.33333
ché	-66.66666
atti	-62.5
▁obra	-60.0
▁superior	-55.55556
▁Congress	-55.55556
ём	-75.0
▁codes	-58.33333
▁Ama	-62.5
▁Earth	-58.33333
▁opposite	-55.55556
▁pool	-60.0
▁Dun	-62.5
жение	-60.0
▁"${	-62.5
inv	-66.66666
▁уни	-62.5
▁Andrew	-57.14286
телей	-60.0
▁był	-62.5
Univers	-57.14286
▁Angular	-56.25
anim	-62.5
дова	-62.5
BUG	-66.66666
utely	-60.0
▁drawing	-56.25
▁gain	-60.0
▁fourth	-57.14286
▁Problem	-56.25
▁suddenly	-55.55556
▁Ä	-75.0
onna	-62.5
▁Kont	-60.0
▁Bildern	-56.25
▁konnte	-57.14286
že	-75.0
Trace	-60.0
▁secure	-57.14286
▁który	-58.33333
▁eq	-66.66666
▁formal	-57.14286
amerikan	-56.25
▁Anal	-60.0
▁Rewrite	-56.25
▁Double	-57.14286
created	-57.14286
NU	-75.0
MDb	-66.66666
apes	-62.5
Unis	-62.5
▁especial	-55.55556
})\	-66.66666
edom	-62.5
▁categor	-56.25
Return	-58.33333
▁Hamb	-60.0
▁Rio	-62.5
▁Mir	-62.5
▁Geme	-60.0
abilities	-55.55556
trz	-66.66666
uset	-62.5
ierra	-60.0
network	-57.14286
▁doctor	-57.14286
eurs	-62.5
▁listen	-57.14286
дж	-75.0
▁Hö	-66.66666
▁consists	-55.55556
asm	-66.66666
Chr	-66.66666
aland	-60.0
▁исполь	-57.14286
▁lugar	-58.33333
▁definitely	-54.54546
move	-62.5
ública	-58.33333
▁län	-62.5
ismus	-60.0
▁држа	-60.0
▁dt	-66.66666
▁Perhaps	-56.25
▁Brasil	-57.14286
John	-62.5
▁promise	-56.25
łu	-75.0
reens	-60.0
▁psych	-58.33333
▁Who	-62.5
ряд	-66.66666
▁INTO	-60.0
▁People	-57.14286
▁Williams	-55.55556
▁Marg	-60.0
▁дан	-62.5
record	-58.33333
▁Euro	-60.0
▁Virginia	-55.55556
▁Rest	-60.0
▁Corn	-60.0
}},	-66.66666
▁Grid	-60.0
▁inject	-57.14286
нан	-66.66666
▁crow	-60.0
▁Phys	-60.0
▁DO	-66.66666
▁"-	-66.66666
▁increased	-55.0
acher	-60.0
peat	-62.5
Lin	-66.66666
▁Dub	-62.5
rices	-60.0
agnost	-58.33333
dl	-75.0
▁curve	-58.33333
üg	-75.0
rice	-62.5
language	-56.25
ClickListener	-53.84615
▁municipal	-55.0
▁Ori	-62.5
▁Bild	-60.0
▁Cab	-62.5
▁Var	-62.5
▁noted	-58.33333
▁Î	-75.0
▁subs	-60.0
iation	-58.33333
WOR	-66.66666
ingly	-60.0
▁Rus	-62.5
iens	-62.5
INFO	-62.5
ква	-66.66666
ativo	-60.0
gende	-60.0
▁Franz	-58.33333
▁isol	-60.0
edes	-62.5
nier	-62.5
▁NO	-66.66666
▁Has	-62.5
beans	-60.0
▁pandas	-57.14286
("%	-66.66666
віт	-66.66666
утбо	-62.5
▁gather	-57.14286
▁legal	-58.33333
includ	-58.33333
▁circumst	-55.55556
criptor	-57.14286
rible	-60.0
▁Süd	-62.5
▁apro	-60.0
Api	-66.66666
▁най	-62.5
▁African	-56.25
owski	-60.0
▁Johnson	-56.25
iek	-66.66666
▁vote	-60.0
▁Kan	-62.5
▁bibli	-58.33333
▁haar	-60.0
▁vr	-66.66666
]),	-66.66666
subseteq	-56.25
Parser	-58.33333
iani	-62.5
isé	-66.66666
idea	-62.5
Only	-62.5
▁ál	-66.66666
▁Catal	-58.33333
▁Case	-60.0
seh	-66.66666
▁encounter	-55.0
▁reform	-57.14286
мини	-62.5
▁Stre	-60.0
exception	-55.55556
▁Tar	-62.5
тар	-66.66666
trl	-66.66666
▁Александ	-55.55556
лект	-62.5
equal	-60.0
Op	-75.0
▁lif	-62.5
▁його	-60.0
▁voltage	-56.25
shire	-60.0
▁Groß	-60.0
вня	-66.66666
nings	-60.0
нци	-66.66666
▁lag	-62.5
▁anderen	-56.25
▁vac	-62.5
▁macro	-58.33333
=[	-75.0
Then	-62.5
▁controls	-55.55556
seq	-66.66666
ologies	-57.14286
▁selector	-55.55556
▁України	-56.25
хівовано	-56.25
ый	-75.0
allenge	-57.14286
▁IMDb	-60.0
ummy	-62.5
yen	-66.66666
▁beste	-58.33333
▁Box	-62.5
▁chair	-58.33333
▁Sab	-62.5
erde	-62.5
▁nast	-60.0
ivamente	-56.25
▁объ	-62.5
▁requirements	-53.84615
▁meeting	-56.25
▁finan	-58.33333
▁Adam	-60.0
▁televis	-56.25
▁bright	-57.14286
▁Git	-62.5
EG	-75.0
▁Gil	-62.5
rès	-66.66666
▁Cond	-60.0
▁ft	-66.66666
▁було	-60.0
-+	-75.0
END	-66.66666
erne	-62.5
▁Comput	-57.14286
▁ils	-62.5
▁gall	-60.0
▁csv	-62.5
ług	-66.66666
▁summer	-57.14286
game	-62.5
▁posts	-58.33333
Архівовано	-55.0
▁zij	-62.5
▁determin	-55.55556
▁abandon	-56.25
counter	-57.14286
▁requirement	-54.16667
▁Tit	-62.5
irtual	-58.33333
▁Videos	-57.14286
▁quiet	-58.33333
▁Term	-60.0
▁timeout	-56.25
Print	-60.0
▁invent	-57.14286
lais	-62.5
▁monitor	-56.25
halb	-62.5
▁Wild	-60.0
▁leader	-57.14286
▁сель	-60.0
▁utiliz	-57.14286
▁parents	-56.25
▁forced	-57.14286
▁proved	-57.14286
▁effective	-55.0
▁llam	-60.0
▁Спо	-62.5
orb	-66.66666
ggi	-66.66666
▁assumption	-54.54546
▁subm	-60.0
▁вій	-62.5
ilia	-62.5
▁reverse	-56.25
'"	-75.0
▁quotes	-57.14286
▁sites	-58.33333
igung	-60.0
▁Arg	-62.5
Double	-58.33333
▁screens	-56.25
▁clause	-57.14286
▁bundle	-57.14286
▁philosoph	-55.0
▁Num	-62.5
▁gleich	-57.14286
uly	-66.66666
direct	-58.33333
asketball	-55.55556
owany	-60.0
\}$	-66.66666
▁radius	-57.14286
▁Search	-57.14286
Properties	-55.0
▁elev	-60.0
▁prod	-60.0
▁"%	-66.66666
isión	-60.0
Debug	-60.0
Second	-58.33333
(!	-75.0
▁Catholic	-55.55556
рован	-60.0
lez	-66.66666
Pa	-75.0
pson	-62.5
▁erste	-58.33333
▁Fu	-66.66666
▁lit	-62.5
▁Saison	-57.14286
▁Hash	-60.0
▁exem	-60.0
▁представ	-55.55556
)*	-75.0
▁eu	-66.66666
▁│	-75.0
▁gab	-62.5
etailed	-57.14286
Copy	-62.5
▁два	-62.5
even	-62.5
Kind	-62.5
▁Jackson	-56.25
ал	-75.0
▁consec	-57.14286
USER	-62.5
▁Tok	-62.5
(.	-75.0
▁$|	-66.66666
▁Tamb	-60.0
▁Lemma	-58.33333
hang	-62.5
▁contribution	-53.84615
rollers	-57.14286
▁studies	-56.25
▁poi	-62.5
gems	-62.5
▁UP	-66.66666
▁Wol	-62.5
>"	-75.0
▁floor	-58.33333
▁initialize	-54.54546
▁Lew	-62.5
zek	-66.66666
arte	-62.5
▁positions	-55.0
▁portion	-56.25
cover	-60.0
wp	-75.0
ового	-60.0
▁piano	-58.33333
▁metal	-58.33333
▁samples	-56.25
▁Сан	-62.5
variable	-56.25
▁стать	-58.33333
▁integers	-55.55556
Where	-60.0
family	-58.33333
▁nun	-62.5
▁increment	-55.0
ixed	-62.5
▁heeft	-58.33333
fte	-66.66666
▁vil	-62.5
▁otros	-58.33333
Multimedia	-55.0
▁Henri	-58.33333
aded	-62.5
ген	-66.66666
▁capit	-58.33333
▁других	-57.14286
isp	-66.66666
ITY	-66.66666
▁constraints	-54.16667
▁Kirche	-57.14286
found	-60.0
ший	-66.66666
▁pic	-62.5
▁tou	-62.5
cred	-62.5
роб	-66.66666
▁Mess	-60.0
Job	-66.66666
▁Mais	-60.0
▁styles	-57.14286
fall	-62.5
▁Uk	-66.66666
▁street	-57.14286
occer	-60.0
esen	-62.5
▁colors	-57.14286
cean	-62.5
юще	-66.66666
conne	-60.0
▁ratio	-58.33333
anton	-60.0
▁Fel	-62.5
▁customer	-55.55556
▁Prix	-60.0
rás	-66.66666
pred	-62.5
▁electron	-55.55556
sym	-66.66666
▁вели	-60.0
▁overflow	-55.55556
▁$[	-66.66666
▁POST	-60.0
▁Cin	-62.5
scheid	-58.33333
("/	-66.66666
▁searching	-55.0
▁purposes	-55.55556
▁arrived	-56.25
▁punt	-60.0
▁lad	-62.5
Python	-58.33333
▁leads	-58.33333
▁sand	-60.0
пада	-62.5
▁communes	-55.55556
▁CHAP	-60.0
▁caso	-60.0
rz	-75.0
▁dw	-66.66666
aca	-66.66666
▁Columb	-57.14286
children	-56.25
êt	-75.0
schemas	-57.14286
▁instructions	-53.84615
▁-\	-66.66666
▁Israel	-57.14286
ności	-60.0
▁образ	-58.33333
▁совет	-58.33333
▁immagini	-55.55556
▁Fred	-60.0
▁Global	-57.14286
▁thick	-58.33333
▁fueron	-57.14286
▁thrown	-57.14286
▁clock	-58.33333
enable	-58.33333
'''	-66.66666
▁Sund	-60.0
▁contempor	-55.0
answer	-58.33333
▁manufact	-55.55556
▁io	-66.66666
qquad	-60.0
OUT	-66.66666
▁Lab	-62.5
▁Zw	-66.66666
legal	-60.0
▁Vel	-62.5
▁raise	-58.33333
▁deliver	-56.25
▁Voir	-60.0
▁assumed	-56.25
Let	-66.66666
ierten	-58.33333
▁Kong	-60.0
▁Exp	-62.5
▁Jug	-62.5
▁declaration	-54.16667
▁Fish	-60.0
mé	-75.0
▁speech	-57.14286
▁tent	-60.0
▁Route	-58.33333
__(	-66.66666
▁réalis	-57.14286
▁Design	-57.14286
setText	-57.14286
▁Station	-56.25
archy	-60.0
▁като	-60.0
▁dent	-60.0
▁Kl	-66.66666
iß	-75.0
▁risk	-60.0
▁Broad	-58.33333
▁vectors	-56.25
▁Spec	-60.0
▁routes	-57.14286
ymn	-66.66666
▁Greg	-60.0
▁получи	-57.14286
gie	-66.66666
ORM	-66.66666
веде	-62.5
walt	-62.5
▁efter	-58.33333
Ptr	-66.66666
▁subt	-60.0
▁birth	-58.33333
▁drawn	-58.33333
mess	-62.5
мерикан	-57.14286
VE	-75.0
▁Put	-62.5
▁asc	-62.5
▁feder	-58.33333
сли	-66.66666
▁Prin	-60.0
▁stick	-58.33333
reset	-60.0
yk	-75.0
studio	-58.33333
▁Still	-58.33333
Const	-60.0
ació	-62.5
▁Portugal	-55.55556
▁scripts	-56.25
undial	-58.33333
▁lives	-58.33333
▁szer	-60.0
▁estado	-57.14286
folder	-58.33333
▁communication	-53.57143
Route	-60.0
▁swift	-58.33333
тен	-66.66666
▁kill	-60.0
▁PR	-66.66666
joint	-60.0
▁objective	-55.0
▁complicated	-54.16667
▁Über	-60.0
esh	-66.66666
picture	-57.14286
raine	-60.0
comput	-58.33333
▁proport	-56.25
ogs	-66.66666
ült	-66.66666
▁quantum	-56.25
кри	-66.66666
▁sop	-62.5
▁loops	-58.33333
▁Reference	-55.0
▁nei	-62.5
ICE	-66.66666
▁verm	-60.0
▁adj	-62.5
▁però	-60.0
▁trou	-60.0
isions	-58.33333
▁Apple	-58.33333
servable	-56.25
▁Boston	-57.14286
oret	-62.5
oks	-66.66666
▁kg	-66.66666
defined	-57.14286
platform	-56.25
cler	-62.5
ographic	-56.25
ritt	-62.5
▁dic	-62.5
▁Mond	-60.0
▁Ireland	-56.25
▁Una	-62.5
▁commercial	-54.54546
▁Pu	-66.66666
Di	-75.0
▁её	-66.66666
▁precis	-57.14286
народ	-60.0
▁quatre	-57.14286
ustral	-58.33333
▁dag	-62.5
igue	-62.5
▁burn	-60.0
▁officer	-56.25
▁Ав	-66.66666
▁highlight	-55.0
▁Suppose	-56.25
odi	-66.66666
servlet	-57.14286
▁Encyc	-58.33333
▁Range	-58.33333
тий	-66.66666
Please	-58.33333
▁років	-58.33333
quant	-60.0
▁flat	-60.0
▁Référence	-55.0
следова	-57.14286
role	-62.5
▁diesen	-57.14286
}}(	-66.66666
▁Indust	-57.14286
▁númer	-58.33333
▁";	-66.66666
lus	-66.66666
ôle	-66.66666
▁zm	-66.66666
deg	-66.66666
▁rough	-58.33333
Inv	-66.66666
▁hur	-62.5
▁Ress	-60.0
chs	-66.66666
▁turns	-58.33333
nero	-62.5
functions	-55.55556
али	-66.66666
▁habitants	-55.0
ат	-75.0
issues	-58.33333
▁huge	-60.0
Utils	-60.0
▁Sat	-62.5
▁государ	-56.25
▁coast	-58.33333
shape	-60.0
LC	-75.0
▁logging	-56.25
endor	-60.0
▁lies	-60.0
▁difer	-58.33333
▁critical	-55.55556
XT	-75.0
мина	-62.5
ansk	-62.5
Results	-57.14286
kc	-75.0
iverse	-58.33333
EXT	-66.66666
ALSE	-62.5
▁vál	-62.5
Pi	-75.0
compile	-57.14286
hello	-60.0
▁чемпи	-58.33333
▁Italia	-57.14286
коло	-62.5
▁edition	-56.25
grund	-60.0
▁dataframe	-55.0
▁Following	-55.0
reib	-62.5
▁Jeff	-60.0
▁città	-58.33333
ITable	-58.33333
▁$(\	-62.5
▁reduced	-56.25
obil	-62.5
▁anywhere	-55.55556
'(	-75.0
▁phr	-62.5
▁Kh	-66.66666
▁Frame	-58.33333
▁manual	-57.14286
▁cra	-62.5
▁VS	-66.66666
%=	-75.0
InstanceState	-53.84615
▁бра	-62.5
▁Drag	-60.0
▁Herr	-60.0
▁гу	-66.66666
▁mús	-62.5
Tool	-62.5
▁Private	-56.25
▁synchron	-55.55556
iration	-57.14286
▁обо	-62.5
▁typically	-55.0
▁implicit	-55.55556
orient	-58.33333
▁timer	-58.33333
▁können	-57.14286
iest	-62.5
raid	-62.5
▁expressions	-54.16667
▁aim	-62.5
▁stre	-60.0
▁wrap	-60.0
▁Bart	-60.0
▁bron	-60.0
▁keyboard	-55.55556
pow	-66.66666
▁grupo	-58.33333
▁резу	-60.0
▁professor	-55.0
▁Head	-60.0
ною	-66.66666
minus	-60.0
▁Michel	-57.14286
NOT	-66.66666
mor	-66.66666
]}	-75.0
widehat	-57.14286
aris	-62.5
тература	-56.25
defn	-62.5
istrz	-60.0
▁tanto	-58.33333
▁Pow	-62.5
▁indicate	-55.55556
▁Winter	-57.14286
reshold	-57.14286
рів	-66.66666
▁`(	-66.66666
▁owner	-58.33333
▁disp	-60.0
▁кри	-62.5
мет	-66.66666
мент	-62.5
report	-58.33333
require	-57.14286
▁voy	-62.5
▁AP	-66.66666
▁España	-57.14286
▁São	-62.5
jär	-66.66666
Non	-66.66666
Library	-57.14286
ichten	-58.33333
▁structures	-54.54546
▁muy	-62.5
ário	-62.5
▁certificate	-54.16667
чного	-60.0
▁province	-55.55556
pages	-60.0
dal	-66.66666
▁Freder	-57.14286
ье	-75.0
Execute	-57.14286
▁ancient	-56.25
▁films	-58.33333
▁Alfred	-57.14286
Auto	-62.5
▁atom	-60.0
▁ell	-62.5
▁Harr	-60.0
йн	-75.0
▁"#	-66.66666
▁nacional	-55.55556
▁neighbor	-55.55556
ступа	-60.0
▁wit	-62.5
Pop	-66.66666
▁Greek	-58.33333
▁repeat	-57.14286
bad	-66.66666
▁SC	-66.66666
▁DateTime	-55.55556
шти	-66.66666
▁WH	-66.66666
▁прави	-58.33333
▁Ти	-66.66666
▁saison	-57.14286
▁Hart	-60.0
directory	-55.55556
uan	-66.66666
norm	-62.5
▁Philipp	-56.25
▁suspect	-56.25
▁anno	-60.0
bc	-75.0
сла	-66.66666
$(	-75.0
▁befind	-57.14286
ocs	-66.66666
latest	-58.33333
;">	-66.66666
▁afterwards	-54.54546
PUT	-66.66666
▁ja	-66.66666
▁Hil	-62.5
yz	-75.0
▁Bour	-60.0
▁laid	-60.0
▁Дже	-62.5
pie	-66.66666
watch	-60.0
▁Eq	-66.66666
contact	-57.14286
iber	-62.5
checkbox	-56.25
▁españ	-58.33333
anse	-62.5
▁шко	-62.5
eff	-66.66666
xxx	-66.66666
▁GET	-62.5
▁lov	-62.5
itute	-60.0
zech	-62.5
tere	-62.5
▁purs	-60.0
kens	-62.5
iante	-60.0
▁Free	-60.0
▁органи	-57.14286
kreis	-60.0
▁{:	-66.66666
shared	-58.33333
▁Graph	-58.33333
▁connections	-54.16667
▁DOM	-62.5
▁Cart	-60.0
sson	-62.5
▁Hamilton	-55.55556
тели	-62.5
▁restaur	-56.25
Resol	-60.0
Driver	-58.33333
▁enf	-62.5
EDIT	-62.5
▁prev	-60.0
▁ik	-66.66666
▁să	-66.66666
jö	-75.0
▁СССР	-60.0
▁colour	-57.14286
chten	-60.0
▁estad	-58.33333
inois	-60.0
▁confir	-57.14286
▁vé	-66.66666
▁Ces	-62.5
▁Never	-58.33333
omer	-62.5
жда	-66.66666
слу	-66.66666
чения	-60.0
dll	-66.66666
▁youth	-58.33333
emen	-62.5
▁studied	-56.25
▁Kil	-62.5
cion	-62.5
▁navig	-58.33333
required	-56.25
orithms	-57.14286
ilor	-62.5
▁Deutschen	-55.0
▁persons	-56.25
▁Barcelona	-55.0
▁formation	-55.0
abei	-62.5
▁против	-57.14286
Engine	-58.33333
ONE	-66.66666
ográ	-62.5
Cap	-66.66666
rir	-66.66666
▁gate	-60.0
oration	-57.14286
maven	-60.0
▁combined	-55.55556
▁attr	-60.0
▁hook	-60.0
▁который	-56.25
▁servers	-56.25
ucture	-58.33333
ження	-60.0
tv	-75.0
▁req	-62.5
jal	-66.66666
▁locally	-56.25
}}{\	-62.5
Br	-75.0
▁Hier	-60.0
мор	-66.66666
▁apart	-58.33333
"],	-66.66666
▁%>%	-62.5
▁zusammen	-55.55556
▁identify	-55.55556
▁Altern	-57.14286
▁бро	-62.5
▁ци	-66.66666
gh	-75.0
▁Ten	-62.5
RS	-75.0
форма	-60.0
▁nelle	-58.33333
▁Hin	-62.5
ounding	-57.14286
▁représ	-57.14286
aph	-66.66666
▁[\	-66.66666
▁Sports	-57.14286
рал	-66.66666
▁thre	-60.0
▁prin	-60.0
▁Eliz	-60.0
▁Four	-60.0
▁society	-56.25
Transaction	-54.54546
▁veg	-62.5
▁schools	-56.25
▁overall	-56.25
▁tail	-60.0
über	-62.5
▁Sov	-62.5
▁Сер	-62.5
▁rapp	-60.0
▁traffic	-56.25
question	-56.25
▁environ	-56.25
ateien	-58.33333
icus	-62.5
▁narrow	-57.14286
▁pray	-60.0
▁Bou	-62.5
▁Client	-57.14286
abl	-66.66666
▁Audiod	-57.14286
▁npm	-62.5
▁Column	-57.14286
▁Games	-58.33333
aver	-62.5
onymes	-58.33333
▁После	-58.33333
ną	-75.0
▁Nu	-66.66666
▁Dick	-60.0
▁tensor	-57.14286
▁@"	-66.66666
vé	-75.0
Icon	-62.5
▁пода	-60.0
▁Gon	-62.5
/).	-66.66666
istra	-60.0
▁Audiodateien	-53.84615
Delete	-58.33333
}}}	-66.66666
▁jump	-60.0
▁Об	-66.66666
▁principle	-55.0
▁États	-58.33333
oked	-62.5
▁Вла	-62.5
Interval	-56.25
▁sau	-62.5
encode	-58.33333
▁pon	-62.5
catch	-60.0
▁tiem	-60.0
▁Gust	-60.0
MC	-75.0
limits	-58.33333
▁keeping	-56.25
▁songs	-58.33333
▁авгу	-60.0
▁район	-58.33333
▁notification	-53.84615
▁offered	-56.25
Cor	-66.66666
▁shut	-60.0
errors	-58.33333
▁EN	-66.66666
▁latach	-57.14286
▁selbst	-57.14286
▁checkbox	-55.55556
▁cool	-60.0
▁factory	-56.25
▁paid	-60.0
dimensional	-54.54546
niej	-62.5
pton	-62.5
▁pin	-62.5
aked	-62.5
▁reli	-60.0
▁Taylor	-57.14286
▁Something	-55.0
imum	-62.5
▁Vin	-62.5
▁iteration	-55.0
Find	-62.5
кови	-62.5
▁boys	-60.0
▁Simple	-57.14286
▁Crist	-58.33333
▁Was	-62.5
ând	-66.66666
▁Va	-66.66666
▁тра	-62.5
▁destination	-54.16667
limp	-62.5
▁Kat	-62.5
worth	-60.0
▁Kor	-62.5
ição	-62.5
=`	-75.0
▁fairly	-57.14286
falls	-60.0
▁reject	-57.14286
▁dream	-58.33333
bell	-62.5
▁toute	-58.33333
▁$\{	-62.5
▁stone	-58.33333
▁protect	-56.25
▁excell	-57.14286
▁Mexico	-57.14286
▁dash	-60.0
▁fault	-58.33333
pmatrix	-57.14286
aller	-60.0
▁guerre	-57.14286
origin	-58.33333
hibernate	-55.55556
ília	-62.5
▁Register	-55.55556
unto	-62.5
▁Bat	-62.5
▁bow	-62.5
ських	-60.0
età	-66.66666
▁Luis	-60.0
▁fou	-62.5
▁Cambridge	-55.0
▁ott	-62.5
sup	-66.66666
reas	-62.5
▁pointers	-55.55556
▁Board	-58.33333
▁ри	-66.66666
▁driv	-60.0
нин	-66.66666
▁Circ	-60.0
▁thou	-60.0
Div	-66.66666
spark	-60.0
lament	-58.33333
▁VAL	-62.5
Send	-62.5
▁Irish	-58.33333
oy	-75.0
▁Tu	-66.66666
▁trivial	-56.25
Forms	-60.0
▁así	-62.5
▁Imper	-58.33333
▁signature	-55.0
unos	-62.5
▁Neg	-62.5
▁cancel	-57.14286
▁Heinrich	-55.55556
eed	-66.66666
Illustration	-54.16667
▁sulla	-58.33333
▁quarter	-56.25
asz	-66.66666
▁blog	-60.0
fica	-62.5
won	-66.66666
quet	-62.5
]))	-66.66666
▁generation	-54.54546
▁caught	-57.14286
▁lands	-58.33333
▁Kingdom	-56.25
schaften	-56.25
rons	-62.5
annels	-58.33333
▁Special	-56.25
tutorial	-56.25
tip	-66.66666
▁"",	-62.5
▁Azure	-58.33333
▁bounded	-56.25
Sm	-75.0
tar	-66.66666
вен	-66.66666
▁зем	-62.5
▁notation	-55.55556
▁apache	-57.14286
▁gaz	-62.5
ierno	-60.0
angen	-60.0
pective	-57.14286
▁electric	-55.55556
▁semi	-60.0
MAX	-66.66666
ederb	-60.0
objects	-57.14286
▁differences	-54.16667
isted	-60.0
href	-62.5
icip	-62.5
▁numpy	-58.33333
▁футбо	-58.33333
loader	-58.33333
▁dich	-60.0
љу	-75.0
▁Dé	-66.66666
Hz	-75.0
▁Param	-58.33333
documentation	-53.84615
ircraft	-57.14286
EM	-75.0
▁institution	-54.16667
compat	-58.33333
▁аль	-62.5
слав	-62.5
▁Net	-62.5
циональ	-57.14286
▁broadcast	-55.0
datetime	-56.25
async	-60.0
vre	-66.66666
mean	-62.5
▁Chem	-60.0
▁estimate	-55.55556
icana	-60.0
▁grep	-60.0
tek	-66.66666
äm	-75.0
orig	-62.5
▁Victor	-57.14286
utenant	-57.14286
anga	-62.5
pin	-66.66666
▁vertex	-57.14286
▁CHAPTER	-56.25
city	-62.5
ugby	-62.5
green	-60.0
▁Ker	-62.5
▁différ	-57.14286
▁necessarily	-54.16667
DC	-75.0
Linear	-58.33333
alem	-62.5
▁Later	-58.33333
▁meta	-60.0
jem	-66.66666
ragen	-60.0
May	-66.66666
▁Mitglied	-55.55556
▁sorted	-57.14286
ussen	-60.0
▁spoke	-58.33333
▁disabled	-55.55556
▁accomplish	-54.54546
▁Russia	-57.14286
there	-60.0
ees	-66.66666
▁hall	-60.0
▁metric	-57.14286
attribute	-55.55556
того	-62.5
about	-60.0
▁Lam	-62.5
channel	-57.14286
▁episode	-56.25
▁$('.	-60.0
▁ought	-58.33333
▁Este	-60.0
Objects	-57.14286
▁validate	-55.55556
▁rim	-62.5
▁numerous	-55.55556
▁Javascript	-54.54546
▁GL	-66.66666
▁Italy	-58.33333
ederbörd	-56.25
onato	-60.0
books	-60.0
stone	-60.0
ху	-75.0
▁jel	-62.5
iri	-66.66666
▁ASP	-62.5
GA	-75.0
▁stata	-58.33333
▁baz	-62.5
Day	-66.66666
thm	-66.66666
dh	-75.0
▁Files	-58.33333
AndroidRuntime	-53.57143
▁checks	-57.14286
kr	-75.0
▁venne	-58.33333
SL	-75.0
avia	-62.5
kazy	-62.5
▁Three	-58.33333
Admin	-60.0
▁college	-56.25
Global	-58.33333
tion	-62.5
▁curious	-56.25
short	-60.0
▁bass	-60.0
дела	-62.5
▁дея	-62.5
Schema	-58.33333
'\	-75.0
diff	-62.5
▁CA	-66.66666
▁Corpor	-57.14286
▁operators	-55.0
områ	-62.5
▁edges	-58.33333
);`	-66.66666
inds	-62.5
▁ging	-60.0
&&	-75.0
}-\	-66.66666
rano	-62.5
▁são	-62.5
▁adds	-60.0
elor	-62.5
▁unsigned	-55.55556
▁пр	-66.66666
▁Config	-57.14286
▁Esc	-62.5
▁chose	-58.33333
▁pieces	-57.14286
▁regions	-56.25
Est	-66.66666
▁Battle	-57.14286
▁foc	-62.5
▁Light	-58.33333
padding	-57.14286
aben	-62.5
▁europ	-58.33333
illon	-60.0
▁есть	-60.0
▁bord	-60.0
▁отно	-60.0
▁Hong	-60.0
▁vul	-62.5
plugins	-57.14286
▁'<	-66.66666
▁kur	-62.5
region	-58.33333
▁Repub	-58.33333
icher	-60.0
}_\	-66.66666
▁medal	-58.33333
▁Moreover	-55.55556
BI	-75.0
Av	-75.0
uter	-62.5
▁scan	-60.0
▁Municip	-56.25
▁contrast	-55.55556
▁Ig	-66.66666
▁город	-58.33333
related	-57.14286
aling	-60.0
▁мат	-62.5
ünst	-62.5
▁Chris	-58.33333
wy	-75.0
▁Actually	-55.55556
▁Universidad	-54.16667
EventListener	-53.84615
▁temporada	-55.0
▁assignment	-54.54546
▁Mike	-60.0
▁während	-56.25
▁świ	-62.5
▁сред	-60.0
каде	-62.5
▁calculated	-54.54546
▁eller	-58.33333
▁Ash	-62.5
riel	-62.5
▁hardware	-55.55556
▁intens	-57.14286
('.	-66.66666
illi	-62.5
agon	-62.5
▁Gy	-66.66666
▁heute	-58.33333
▁sle	-62.5
▁literature	-54.54546
sem	-66.66666
manager	-57.14286
▁Grande	-57.14286
▁mixed	-58.33333
▁Вер	-62.5
ící	-66.66666
▁soit	-60.0
▁welcome	-56.25
чение	-60.0
▁Universität	-54.16667
▁builder	-56.25
simple	-58.33333
icode	-60.0
ře	-75.0
indent	-58.33333
opo	-66.66666
▁advanced	-55.55556
temper	-58.33333
edge	-62.5
▁datetime	-55.55556
▁donc	-60.0
лання	-60.0
▁verd	-60.0
дно	-66.66666
itos	-62.5
▁heat	-60.0
visible	-57.14286
mel	-66.66666
▁Giovanni	-55.55556
▁variety	-56.25
▁router	-57.14286
Vector	-58.33333
▁Walk	-60.0
▁obviously	-55.0
hein	-62.5
Fin	-66.66666
ITableView	-55.0
Year	-62.5
▁Econom	-57.14286
▁velocity	-55.55556
▁Civil	-58.33333
▁ј	-75.0
alert	-60.0
Identifier	-55.0
ència	-60.0
▁normally	-55.55556
▁Egypt	-58.33333
▁ctx	-62.5
▁Verein	-57.14286
▁Hu	-66.66666
ulture	-58.33333
ните	-62.5
lé	-75.0
▁Wien	-60.0
▁Prz	-62.5
Byte	-62.5
▁nah	-62.5
isms	-62.5
▁Publish	-56.25
▁Herz	-60.0
icul	-62.5
pisode	-58.33333
чі	-75.0
▁diesem	-57.14286
kö	-75.0
Visible	-57.14286
▁rig	-62.5
`).	-66.66666
Parse	-60.0
▁Jacques	-56.25
NI	-75.0
▁glass	-58.33333
---+	-62.5
▁initially	-55.0
▁kr	-66.66666
CCN	-66.66666
plays	-60.0
▁sigu	-60.0
Folder	-58.33333
storage	-57.14286
▁\|	-66.66666
ivos	-62.5
скую	-62.5
▁Moh	-62.5
▁Committee	-55.0
▁Kim	-62.5
eu	-75.0
тем	-66.66666
▁originale	-55.0
irs	-66.66666
▁Reb	-62.5
itut	-62.5
nl	-75.0
▁Pier	-60.0
▁];	-66.66666
▁Fal	-62.5
▁"";	-62.5
mvc	-66.66666
▁female	-57.14286
▁bridge	-57.14286
▁tít	-62.5
ktr	-66.66666
>)	-75.0
▁seat	-60.0
▁vess	-60.0
▁USB	-62.5
▁Articles	-55.55556
▁Description	-54.16667
▁oc	-66.66666
▁houses	-57.14286
▁Пет	-62.5
lon	-66.66666
Notification	-54.16667
▁pressure	-55.55556
▁куль	-60.0
igned	-60.0
▁religious	-55.0
fan	-66.66666
iglia	-60.0
▁classification	-53.33333
ogether	-57.14286
▁SDK	-62.5
▁Human	-58.33333
▁commission	-54.54546
▁Ор	-66.66666
▁antes	-58.33333
DT	-75.0
ète	-66.66666
prés	-62.5
/"	-75.0
▁(«	-66.66666
▁hö	-66.66666
▁час	-62.5
▁jak	-62.5
ienen	-60.0
ugg	-66.66666
WA	-75.0
▁placeholder	-54.16667
Will	-62.5
,,	-75.0
▁Kam	-62.5
▁wen	-62.5
▁Schul	-58.33333
ție	-66.66666
▁aud	-62.5
▁sue	-62.5
▁referred	-55.55556
ват	-66.66666
▁Para	-60.0
▁bla	-62.5
UES	-66.66666
▁statist	-56.25
▁ту	-66.66666
▁Warsza	-57.14286
gue	-66.66666
▁Ide	-62.5
mathscr	-57.14286
▁lieu	-60.0
▁bod	-62.5
▁rus	-62.5
▁boat	-60.0
xspace	-58.33333
▁modal	-58.33333
лек	-66.66666
topic	-60.0
many	-62.5
ský	-66.66666
▁organization	-53.84615
▁гене	-60.0
▁Wilson	-57.14286
▁comfort	-56.25
ibil	-62.5
:-	-75.0
▁animal	-57.14286
Report	-58.33333
ками	-62.5
jon	-66.66666
▁ker	-62.5
▁кни	-62.5
mozilla	-57.14286
Price	-60.0
antin	-60.0
emento	-58.33333
may	-66.66666
▁lung	-60.0
▁blow	-60.0
edeut	-60.0
▁typed	-58.33333
▁december	-55.55556
▁....	-60.0
liance	-58.33333
▁viel	-60.0
▁Фи	-66.66666
presa	-60.0
▁осіб	-60.0
▁Nam	-62.5
▁Gren	-60.0
силання	-57.14286
VID	-66.66666
stre	-62.5
weis	-62.5
▁protection	-54.54546
taient	-58.33333
▁officers	-55.55556
тно	-66.66666
▁Brig	-60.0
▁intellig	-55.55556
ях	-75.0
ITH	-66.66666
▁separated	-55.0
▁LCCN	-60.0
ním	-66.66666
clock	-60.0
▁apare	-58.33333
яви	-66.66666
▁Elizabeth	-55.0
▁Water	-58.33333
gebiet	-58.33333
▁convent	-56.25
furt	-62.5
▁beiden	-57.14286
bash	-62.5
▁через	-58.33333
▁ub	-66.66666
▁Statist	-56.25
▁limits	-57.14286
Vol	-66.66666
ctx	-66.66666
▁нов	-62.5
guide	-60.0
mic	-66.66666
iesa	-62.5
▁huvud	-58.33333
RT	-75.0
Fig	-66.66666
▁lect	-60.0
conn	-62.5
imit	-62.5
гар	-66.66666
▁bajo	-60.0
scribe	-58.33333
regex	-60.0
▁Cass	-60.0
▁propag	-57.14286
'$	-75.0
▁profes	-57.14286
unique	-58.33333
▁Sql	-62.5
union	-60.0
rios	-62.5
pip	-66.66666
--+	-66.66666
kadem	-60.0
columns	-57.14286
▁vary	-60.0
▁bereits	-56.25
▁doi	-62.5
▁Common	-57.14286
▁Robin	-58.33333
▁×	-75.0
▁sei	-62.5
▁syst	-60.0
▁vä	-66.66666
▁Default	-56.25
▁tym	-62.5
pel	-66.66666
▁believed	-55.55556
▁provider	-55.55556
▁minimal	-56.25
тали	-62.5
aines	-60.0
Kit	-66.66666
izio	-62.5
issen	-60.0
pressed	-57.14286
▁stag	-60.0
▁uint	-60.0
kor	-66.66666
▁распо	-58.33333
▁inherit	-56.25
▁compiled	-55.55556
▁febru	-58.33333
▁tmp	-62.5
works	-60.0
чна	-66.66666
drawable	-56.25
▁Nav	-62.5
▁thoughts	-55.55556
route	-60.0
▁concert	-56.25
▁optional	-55.55556
▁bras	-60.0
▁providing	-55.0
сом	-66.66666
idx	-66.66666
emplo	-60.0
▁коли	-60.0
▁Bere	-60.0
▁Els	-62.5
ремен	-60.0
▁дека	-60.0
cout	-62.5
layer	-60.0
▁glob	-60.0
foreach	-57.14286
▁Education	-55.0
PO	-75.0
▁improv	-57.14286
▁clients	-56.25
groups	-58.33333
▁kont	-60.0
Del	-66.66666
rett	-62.5
▁sup	-62.5
▁mog	-62.5
tan	-66.66666
▁compl	-58.33333
irty	-62.5
▁nouveau	-56.25
osz	-66.66666
▁Navy	-60.0
bere	-62.5
mask	-62.5
ové	-66.66666
zil	-66.66666
PER	-66.66666
▁población	-55.0
▁detailed	-55.55556
лет	-66.66666
▁families	-55.55556
abet	-62.5
евич	-62.5
änder	-60.0
▁år	-66.66666
▁pendant	-56.25
▁bil	-62.5
▁hint	-60.0
oden	-62.5
▁expansion	-55.0
▁pont	-60.0
asant	-60.0
▁Kind	-60.0
iji	-66.66666
▁Auth	-60.0
laimed	-58.33333
reflect	-57.14286
]=	-75.0
bytes	-60.0
hover	-60.0
▁цер	-62.5
gradle	-58.33333
Arch	-62.5
apest	-60.0
ása	-66.66666
Card	-62.5
▁temporary	-55.0
▁département	-54.16667
classes	-57.14286
жива	-62.5
▁худо	-60.0
▁mole	-60.0
RY	-75.0
LP	-75.0
▁pec	-62.5
roduction	-55.55556
▁Guard	-58.33333
▁Parliament	-54.54546
▁instanti	-55.55556
▁notamment	-55.0
▁Doug	-60.0
▁Marsh	-58.33333
.~	-75.0
▁\"	-66.66666
▁thé	-62.5
▁libre	-58.33333
does	-62.5
▁début	-58.33333
▁Unit	-60.0
▁сту	-62.5
▁league	-57.14286
▁quale	-58.33333
▁составля	-55.55556
Security	-56.25
▁apparently	-54.54546
▁troops	-57.14286
icano	-60.0
▁MB	-66.66666
enze	-62.5
loading	-57.14286
▁distributed	-54.16667
writer	-58.33333
resources	-55.55556
hö	-75.0
utils	-60.0
▁prepared	-55.55556
cier	-62.5
opol	-62.5
▁länkar	-57.14286
hes	-66.66666
нва	-66.66666
▁opens	-58.33333
agog	-62.5
interface	-55.55556
▁Fund	-60.0
▁pentru	-57.14286
ních	-62.5
▁configured	-54.54546
▁Website	-56.25
▁listener	-55.55556
ivel	-62.5
nę	-75.0
mina	-62.5
▁invest	-57.14286
▁міс	-62.5
▁dav	-62.5
▁patch	-58.33333
pieler	-58.33333
▁Externa	-56.25
tf	-75.0
▁ered	-60.0
▁Assembly	-55.55556
▁sout	-60.0
▁verk	-60.0
mers	-62.5
toggle	-58.33333
▁updating	-55.55556
▁Kent	-60.0
eca	-66.66666
FAULT	-60.0
▁titre	-58.33333
▁Kenn	-60.0
▁Миха	-60.0
стор	-62.5
▁pode	-60.0
▁Seb	-62.5
цев	-66.66666
EY	-75.0
▁silver	-57.14286
▁capacity	-55.55556
▁completion	-54.54546
▁Pedro	-58.33333
fel	-66.66666
vano	-62.5
zeug	-62.5
▁interior	-55.55556
▁Response	-55.55556
édia	-62.5
▁WorldCat	-55.55556
▁că	-66.66666
quel	-62.5
Sol	-66.66666
ісля	-62.5
▁Domin	-58.33333
▁cum	-62.5
cep	-66.66666
▁Muse	-60.0
▁María	-58.33333
▁functional	-54.54546
▁adapter	-56.25
configuration	-53.84615
▁tipo	-60.0
▁Bry	-62.5
vy	-75.0
UL	-75.0
▁travers	-56.25
!(	-75.0
▁absolutely	-54.54546
лта	-66.66666
ття	-66.66666
▁IT	-66.66666
▁воен	-60.0
ycle	-62.5
best	-62.5
▁constructed	-54.16667
▁филь	-60.0
cido	-62.5
exit	-62.5
gart	-62.5
▁provincia	-55.0
vez	-66.66666
cipl	-62.5
▁Facebook	-55.55556
▁yellow	-57.14286
▁Summer	-57.14286
▁pointing	-55.55556
▁possibility	-54.16667
▁legisl	-57.14286
▁мож	-62.5
dern	-62.5
коно	-62.5
▁mechanism	-55.0
▁Bernard	-56.25
expr	-62.5
лови	-62.5
▁digits	-57.14286
▁delegate	-55.55556
ogram	-60.0
▁Dictionary	-54.54546
isy	-66.66666
▁spo	-62.5
/$	-75.0
cluded	-58.33333
▁MVC	-62.5
▁tém	-62.5
▁printed	-56.25
▁Gott	-60.0
▁Om	-66.66666
ansas	-60.0
▁Durch	-58.33333
▁Ident	-58.33333
QU	-75.0
htm	-66.66666
▁Sul	-62.5
'].	-66.66666
▁duty	-60.0
▁Author	-57.14286
▁ně	-66.66666
owego	-60.0
pus	-66.66666
embl	-62.5
Executor	-56.25
BL	-75.0
▁Mens	-60.0
dispatch	-56.25
▁Mid	-62.5
apps	-62.5
Transform	-55.55556
▁Dat	-62.5
▁impl	-60.0
oux	-66.66666
holm	-62.5
▁Ins	-62.5
▁Empire	-57.14286
руп	-66.66666
▁Apache	-57.14286
SION	-62.5
▁passage	-56.25
################	-53.125
▁expressed	-55.0
над	-66.66666
▁ol	-66.66666
▁havia	-58.33333
▁более	-58.33333
▁enjoy	-58.33333
formance	-56.25
▁dimensions	-54.54546
▁чер	-62.5
See	-66.66666
▁mouth	-58.33333
▁gau	-62.5
iency	-60.0
▁Carolina	-55.55556
Dist	-62.5
radio	-60.0
limit	-60.0
/?	-75.0
▁Ball	-60.0
ність	-60.0
Member	-58.33333
water	-60.0
▁murder	-57.14286
▁standing	-55.55556
▁VII	-62.5
Center	-58.33333
ppa	-66.66666
ureau	-60.0
▁Leip	-60.0
▁objet	-58.33333
▁Activity	-55.55556
embers	-58.33333
vr	-75.0
▁condu	-58.33333
Cells	-60.0
inus	-62.5
▁',	-66.66666
▁afraid	-57.14286
▁ха	-66.66666
▁Vic	-62.5
testing	-57.14286
Tube	-62.5
▁vast	-60.0
PM	-75.0
nih	-66.66666
SSN	-66.66666
▁Chile	-58.33333
ylvan	-60.0
▁Bow	-62.5
▁religion	-55.55556
opher	-60.0
▁Coll	-60.0
▁digital	-56.25
zioni	-60.0
Section	-57.14286
▁результа	-55.55556
Foot	-62.5
convert	-57.14286
▁receiving	-55.0
Contact	-57.14286
▁hero	-60.0
sam	-66.66666
▁posterior	-55.0
owi	-66.66666
Ant	-66.66666
▁flags	-58.33333
▁Zealand	-56.25
▁bounds	-57.14286
▁whereas	-56.25
infl	-62.5
Play	-62.5
▁demo	-60.0
▁gibt	-60.0
▁hospital	-55.55556
▁volta	-58.33333
лё	-75.0
▁fashion	-56.25
▁exceed	-57.14286
elenium	-57.14286
Iter	-62.5
krie	-62.5
▁integration	-54.16667
▁Otherwise	-55.0
adu	-66.66666
She	-66.66666
onde	-62.5
uint	-62.5
radius	-58.33333
▁ram	-62.5
▁álbum	-58.33333
▁тур	-62.5
▁dy	-66.66666
▁Ott	-62.5
▁пери	-60.0
rev	-66.66666
rior	-62.5
íd	-75.0
irat	-62.5
▁вклю	-60.0
▁importante	-54.54546
▁Duke	-60.0
▁causa	-58.33333
▁Mathemat	-55.55556
▁diplom	-57.14286
▁Nicol	-58.33333
▁exclus	-57.14286
▁debugging	-55.0
▁Gh	-66.66666
original	-56.25
lyn	-66.66666
▁Pla	-62.5
suite	-60.0
chat	-62.5
▁estud	-58.33333
uelle	-60.0
▁pert	-60.0
▁importance	-54.54546
▁approaches	-54.54546
▁dla	-62.5
▁проф	-60.0
Pres	-62.5
<\	-75.0
prefix	-58.33333
SSION	-60.0
роди	-62.5
country	-57.14286
itzer	-60.0
▁кор	-62.5
▁singular	-55.55556
gov	-66.66666
рин	-66.66666
▁FA	-66.66666
▁matrices	-55.55556
olare	-60.0
nika	-62.5
power	-60.0
lla	-66.66666
▁desire	-57.14286
▁familia	-56.25
дор	-66.66666
▁fan	-62.5
generated	-55.55556
▁Cos	-62.5
▁że	-66.66666
▁Diese	-58.33333
mov	-66.66666
▁denote	-57.14286
")]	-66.66666
ouvern	-58.33333
aman	-62.5
▁inser	-58.33333
ijk	-66.66666
otta	-62.5
eral	-62.5
дель	-62.5
()->	-62.5
▁poder	-58.33333
iges	-62.5
▁Online	-57.14286
▁weird	-58.33333
iac	-66.66666
▁quelques	-55.55556
èrent	-60.0
▁tel	-62.5
▁Latin	-58.33333
verter	-58.33333
ляр	-66.66666
рои	-66.66666
▁pdf	-62.5
▁keyword	-56.25
Handle	-58.33333
After	-60.0
rece	-62.5
▁identical	-55.0
stylesheet	-55.0
▁станови	-56.25
▁ka	-66.66666
cement	-58.33333
тет	-66.66666
▁chat	-60.0
▁Mun	-62.5
ała	-66.66666
ANT	-66.66666
ológ	-62.5
▁fant	-60.0
▁forest	-57.14286
▁вико	-60.0
cuss	-62.5
▁sehr	-60.0
pag	-66.66666
otic	-62.5
▁áll	-62.5
мати	-62.5
▁"'	-66.66666
+"	-75.0
Animation	-55.55556
ходит	-60.0
azu	-66.66666
▁plays	-58.33333
izioni	-58.33333
миче	-62.5
▁bomb	-60.0
▁merely	-57.14286
▁holding	-56.25
▁wenn	-60.0
▁medic	-58.33333
▁speaking	-55.55556
ongodb	-58.33333
▁Campe	-58.33333
inity	-60.0
▁янва	-60.0
()`.	-62.5
luss	-62.5
▁Histoire	-55.55556
▁operating	-55.0
Channel	-57.14286
▁accuracy	-55.55556
▁bos	-62.5
▁evident	-56.25
цию	-66.66666
events	-58.33333
textrm	-58.33333
oreign	-58.33333
▁ii	-66.66666
hren	-62.5
lower	-60.0
▁том	-62.5
▁About	-58.33333
▁aj	-66.66666
eri	-66.66666
ступи	-60.0
▁digit	-58.33333
▁Spain	-58.33333
▁Daten	-58.33333
▁forme	-58.33333
▁шта	-62.5
▁Bach	-60.0
nonumber	-56.25
▁recommended	-54.16667
▁reads	-58.33333
histoire	-56.25
▁sang	-60.0
▁??	-66.66666
▁стал	-60.0
score	-60.0
fas	-66.66666
▁cub	-62.5
▁grew	-60.0
▁centro	-57.14286
▁bekannt	-56.25
Events	-58.33333
BER	-66.66666
hew	-66.66666
сса	-66.66666
▁majority	-55.55556
ître	-62.5
enci	-62.5
▁Query	-58.33333
▁które	-58.33333
ić	-75.0
▁complexity	-54.54546
▁François	-55.55556
constraint	-55.0
урна	-62.5
══	-75.0
▁iterate	-56.25
lett	-62.5
peror	-60.0
▁Nederland	-55.0
share	-60.0
▁inclu	-58.33333
änger	-60.0
▁Nic	-62.5
чо	-75.0
Full	-62.5
▁rapport	-56.25
eclipse	-57.14286
▁industry	-55.55556
headers	-57.14286
▁Ри	-66.66666
chsel	-60.0
▁polic	-58.33333
schied	-58.33333
%,	-75.0
OD	-75.0
▁Jak	-62.5
({\	-66.66666
aligned	-57.14286
▁frequently	-54.54546
▁suoi	-60.0
▁essentially	-54.16667
▁Ric	-62.5
▁reports	-56.25
▁decimal	-56.25
rar	-66.66666
▁Foo	-62.5
▁Ka	-66.66666
▁DC	-66.66666
▁simpler	-56.25
Pane	-62.5
?}	-75.0
Sort	-62.5
▁posit	-58.33333
cdn	-66.66666
ktur	-62.5
▁awk	-62.5
зер	-66.66666
PF	-75.0
uur	-66.66666
▁Ross	-60.0
▁mant	-60.0
Na	-75.0
Cons	-62.5
))))	-62.5
▁techniques	-54.54546
impl	-62.5
▁dropped	-56.25
▁Lista	-58.33333
▁Basically	-55.0
ental	-60.0
▁celui	-58.33333
▁strategy	-55.55556
▁Wales	-58.33333
nan	-66.66666
▁gmin	-60.0
▁größ	-60.0
▁eerste	-57.14286
Tim	-66.66666
nten	-62.5
resp	-62.5
▁stable	-57.14286
nov	-66.66666
rob	-66.66666
ној	-66.66666
▁marriage	-55.55556
getString	-55.55556
Author	-58.33333
▁Graf	-60.0
▁diagram	-56.25
gia	-66.66666
Network	-57.14286
▁composed	-55.55556
▁missed	-57.14286
▁Meg	-62.5
▁право	-58.33333
▁homonymes	-55.0
▁Books	-58.33333
▁encou	-58.33333
porte	-60.0
▁rotation	-55.55556
▁fir	-62.5
тельно	-58.33333
▁gun	-62.5
▁Aff	-62.5
нок	-66.66666
▁Fußball	-56.25
▁Story	-58.33333
▁Chap	-60.0
▁).	-66.66666
▁Seit	-60.0
мон	-66.66666
▁télé	-60.0
▁copied	-57.14286
▁consistent	-54.54546
▁drink	-58.33333
▁Cham	-60.0
▁matters	-56.25
▁rendered	-55.55556
▁hypoth	-57.14286
œuv	-66.66666
▁meer	-60.0
▁parsing	-56.25
▁PRO	-62.5
series	-58.33333
▁zá	-66.66666
straße	-58.33333
▁Boot	-60.0
▁repo	-60.0
wor	-66.66666
▁Stream	-57.14286
▁AN	-66.66666
▁пів	-62.5
▁SM	-66.66666
▁Arn	-62.5
▁Ž	-75.0
▁[];	-62.5
Resources	-55.55556
▁elabor	-57.14286
▁Eth	-62.5
▁liste	-58.33333
▁relatively	-54.54546
chant	-60.0
=""	-66.66666
▁lift	-60.0
CN	-75.0
Services	-56.25
MENT	-62.5
▁игра	-60.0
бре	-66.66666
▁Jord	-60.0
▁tec	-62.5
шка	-66.66666
▁Sup	-62.5
▁influen	-56.25
onds	-62.5
handler	-57.14286
▁banda	-58.33333
▁vertices	-55.55556
▁zap	-62.5
▁cord	-60.0
alter	-60.0
zenia	-60.0
âteau	-60.0
▁knowing	-56.25
▁Argentina	-55.0
Area	-62.5
ане	-66.66666
fc	-75.0
="/	-66.66666
▁Mik	-62.5
ată	-66.66666
ieux	-62.5
▁deutschen	-55.0
▁traditional	-54.16667
decode	-58.33333
vex	-66.66666
▁sizeof	-57.14286
▁Fun	-62.5
▁parser	-57.14286
▁Florida	-56.25
▁buildings	-55.0
▁Manuel	-57.14286
rile	-62.5
▁logged	-57.14286
▁strongly	-55.55556
▁revol	-58.33333
нее	-66.66666
xico	-62.5
▁Fair	-60.0
cart	-62.5
▁Wort	-60.0
▁Jesus	-58.33333
emes	-62.5
schrift	-57.14286
InputStream	-54.54546
wad	-66.66666
▁grandes	-56.25
▁número	-57.14286
▁Otto	-60.0
ientes	-58.33333
▁famous	-57.14286
ologne	-58.33333
Je	-75.0
ниш	-66.66666
▁Guerra	-57.14286
bara	-62.5
▁cad	-62.5
elve	-62.5
brace	-60.0
▁Jr	-66.66666
stable	-58.33333
ECT	-66.66666
lemma	-60.0
mediate	-57.14286
▁vin	-62.5
▁monument	-55.55556
▁cv	-66.66666
▁winter	-57.14286
▁transformation	-53.33333
▁Nick	-60.0
stronom	-57.14286
▁frag	-60.0
▁intel	-58.33333
raction	-57.14286
▁considering	-54.16667
▁Fle	-62.5
▁ло	-66.66666
▁Après	-58.33333
▁AM	-66.66666
▁Hum	-62.5
▁mundo	-58.33333
NER	-66.66666
▁Below	-58.33333
▁города	-57.14286
arters	-58.33333
--"	-66.66666
▁Пе	-66.66666
ît	-75.0
▁txt	-62.5
angers	-58.33333
▁thy	-62.5
CLA	-66.66666
ibles	-60.0
▁requested	-55.0
▁Alexand	-56.25
▁factors	-56.25
▁produces	-55.55556
ningen	-58.33333
▁состоя	-57.14286
▁optimization	-53.84615
chod	-62.5
>`	-75.0
▁Wikip	-58.33333
nosti	-60.0
▁competition	-54.16667
▁Hann	-60.0
▁zona	-60.0
dc	-75.0
design	-58.33333
▁Zu	-66.66666
▁espec	-58.33333
equality	-56.25
▁Abb	-62.5
▁developer	-55.0
▁"^	-66.66666
▁Short	-58.33333
▁plans	-58.33333
▁vit	-62.5
izable	-58.33333
burgh	-60.0
agem	-62.5
▁Print	-58.33333
ív	-75.0
▁suitable	-55.55556
picker	-58.33333
Profile	-57.14286
andy	-62.5
▁quot	-60.0
▁Durante	-56.25
▁Francia	-56.25
▁tart	-60.0
▁Venez	-58.33333
▁dispatch	-55.55556
▁observations	-53.84615
▁ż	-75.0
Invalid	-57.14286
▁occurr	-57.14286
тки	-66.66666
Memento	-57.14286
▁Syd	-62.5
▁tiempo	-57.14286
▁staff	-58.33333
▁sections	-55.55556
▁ssh	-62.5
▁NGC	-62.5
ël	-75.0
▁erre	-60.0
▁divided	-56.25
▁Without	-56.25
▁durant	-57.14286
▁jaar	-60.0
▁−	-75.0
▁soldiers	-55.55556
унк	-66.66666
lapse	-60.0
▁Valley	-57.14286
▁(:	-66.66666
rera	-62.5
▁dével	-58.33333
▁péri	-60.0
▁calculation	-54.16667
▁keine	-58.33333
ertain	-58.33333
▁теле	-60.0
руд	-66.66666
▁cul	-62.5
▁cloth	-58.33333
;}	-75.0
▁przed	-58.33333
Month	-60.0
Picker	-58.33333
▁SV	-66.66666
arian	-60.0
▁Review	-57.14286
▁hang	-60.0
▁окт	-62.5
▁Front	-58.33333
otlin	-60.0
▁translation	-54.16667
▁modo	-60.0
▁statistics	-54.54546
▁Nue	-62.5
▁Никола	-57.14286
NUM	-66.66666
▁ships	-58.33333
▁Report	-57.14286
{[	-75.0
Effect	-58.33333
ieri	-62.5
▁parties	-56.25
pla	-66.66666
rw	-75.0
▁Works	-58.33333
▁iron	-60.0
▁attract	-56.25
▁cort	-60.0
ná	-75.0
▁Steve	-58.33333
▁bene	-60.0
тон	-66.66666
ícula	-60.0
Two	-66.66666
▁глав	-60.0
▁Video	-58.33333
▁powerful	-55.55556
auch	-62.5
mande	-60.0
ächst	-60.0
Lat	-66.66666
▁zna	-62.5
▁figures	-56.25
▁alias	-58.33333
nex	-66.66666
▁categories	-54.54546
called	-58.33333
▁Similar	-56.25
▁girls	-58.33333
pez	-66.66666
▁joint	-58.33333
рого	-62.5
iken	-62.5
чина	-62.5
ancia	-60.0
▁tijd	-60.0
▁Rose	-60.0
▁algorithms	-54.54546
▁printing	-55.55556
nea	-66.66666
▁executing	-55.0
▁lambda	-57.14286
▁regional	-55.55556
▁Copa	-60.0
Foo	-66.66666
phys	-62.5
zm	-75.0
▁Laur	-60.0
▁candidate	-55.0
▁Ja	-66.66666
zym	-66.66666
Example	-57.14286
▁spiel	-58.33333
▁дей	-62.5
nehmen	-58.33333
keiten	-58.33333
▁сент	-60.0
intent	-58.33333
.(	-75.0
▁первы	-58.33333
prom	-62.5
▁nat	-62.5
▁imagine	-56.25
callback	-56.25
components	-55.0
without	-57.14286
▁aquest	-57.14286
Support	-57.14286
▁responsible	-54.16667
▁jego	-60.0
lj	-75.0
will	-62.5
lean	-62.5
eland	-60.0
ología	-58.33333
mc	-75.0
Proxy	-60.0
▁ocup	-60.0
▁находи	-57.14286
▁rub	-62.5
нів	-66.66666
▁Fall	-60.0
amos	-62.5
▁Ep	-66.66666
entre	-60.0
fail	-62.5
World	-60.0
▁Editor	-57.14286
▁expos	-58.33333
▁finds	-58.33333
▁Culture	-56.25
LEASE	-60.0
▁movie	-58.33333
<=	-75.0
ometric	-57.14286
eling	-60.0
numerable	-55.55556
ourd	-62.5
▁Sea	-62.5
▁bild	-60.0
▁оста	-60.0
blo	-66.66666
▁lose	-60.0
ateurs	-58.33333
oured	-60.0
▁Batt	-60.0
();	-62.5
▁poz	-62.5
posts	-60.0
pend	-62.5
certain	-57.14286
ником	-60.0
Just	-62.5
webkit	-58.33333
demás	-60.0
~~~~	-62.5
▁indicates	-55.0
▁park	-60.0
rique	-60.0
vod	-66.66666
▁Champ	-58.33333
ftware	-58.33333
OPT	-66.66666
django	-58.33333
release	-57.14286
▁È	-75.0
SR	-75.0
▁politician	-54.54546
▁roi	-62.5
aturen	-58.33333
▁Deutsche	-55.55556
tagon	-60.0
▁Mov	-62.5
obierno	-57.14286
▁daß	-62.5
uther	-60.0
indi	-62.5
▁Wikipedia	-55.0
▁anos	-60.0
▁observe	-56.25
elly	-62.5
▁railway	-56.25
aton	-62.5
▁enum	-60.0
hus	-66.66666
▁inhab	-58.33333
Psi	-66.66666
oire	-62.5
▁Хо	-66.66666
▁Space	-58.33333
▁Архи	-60.0
▁anterior	-55.55556
▁Ł	-75.0
isons	-60.0
Il	-75.0
▁améric	-57.14286
laps	-62.5
▁BBC	-62.5
QUEST	-60.0
Constra	-57.14286
mont	-62.5
äft	-66.66666
▁även	-60.0
ubern	-60.0
<!--	-62.5
▁coding	-57.14286
theory	-58.33333
athed	-60.0
▁Arbe	-60.0
▁ши	-66.66666
forEach	-57.14286
omorphism	-55.55556
details	-57.14286
achsen	-58.33333
integr	-58.33333
Vor	-66.66666
Unknown	-57.14286
aceae	-60.0
inue	-62.5
esome	-60.0
▁Fir	-62.5
chain	-60.0
▁extremely	-55.0
multicol	-56.25
▁Swift	-58.33333
▁addresses	-55.0
hspace	-58.33333
▁Roger	-58.33333
▁dessen	-57.14286
▁consequ	-56.25
ualmente	-56.25
▁Premier	-56.25
▁Record	-57.14286
▁Bron	-60.0
kir	-66.66666
sex	-66.66666
intern	-58.33333
▁benefit	-56.25
umen	-62.5
▁becoming	-55.55556
▁lig	-62.5
▁popula	-57.14286
osc	-66.66666
▁civ	-62.5
▁greatest	-55.55556
▁proces	-57.14286
]*	-75.0
▁место	-58.33333
▁'$	-66.66666
hell	-62.5
("\	-66.66666
▁nine	-60.0
▁Fac	-62.5
ulpt	-62.5
jours	-60.0
▁Copy	-60.0
▁activities	-54.54546
▁Democr	-57.14286
Es	-75.0
Success	-57.14286
▁Esta	-60.0
itul	-62.5
isti	-62.5
▁Bed	-62.5
jas	-66.66666
▁тем	-62.5
▁Hung	-60.0
Game	-62.5
▁heav	-60.0
onnées	-58.33333
▁branches	-55.55556
borg	-62.5
▁vl	-66.66666
▁slowly	-57.14286
Fa	-75.0
Google	-58.33333
emi	-66.66666
▁circumstances	-53.57143
▁'%	-66.66666
▁Und	-62.5
▁Victoria	-55.55556
▁Typ	-62.5
rupted	-58.33333
▁relativ	-56.25
▁slo	-62.5
▁padre	-58.33333
▁daily	-58.33333
▁orth	-60.0
чний	-62.5
▁französ	-56.25
▁teil	-60.0
▁Security	-55.55556
ordon	-60.0
▁sweet	-58.33333
SIZE	-62.5
▁Cel	-62.5
ètres	-60.0
ommes	-60.0
▁сі	-66.66666
▁efforts	-56.25
ąz	-75.0
▁ohne	-60.0
▁Southern	-55.55556
▁approximately	-53.57143
цен	-66.66666
('#	-66.66666
▁saving	-57.14286
nbsp	-62.5
▁translate	-55.0
▁În	-66.66666
member	-58.33333
▁laws	-60.0
▁жен	-62.5
▁систе	-58.33333
tc	-75.0
>\	-75.0
elte	-62.5
▁ehem	-60.0
▁contrad	-56.25
▁рус	-62.5
ья	-75.0
▁Middle	-57.14286
quip	-62.5
▁chez	-60.0
Fields	-58.33333
▁permit	-57.14286
ikel	-62.5
▁wir	-62.5
▁trial	-58.33333
▁verschied	-55.0
▁фев	-62.5
▁male	-60.0
▁язы	-62.5
▁nyel	-60.0
akter	-60.0
▁denomin	-56.25
ceptor	-58.33333
▁Wat	-62.5
▁fino	-60.0
▁XVIII	-58.33333
ryption	-57.14286
desc	-62.5
apa	-66.66666
лена	-62.5
▁kol	-62.5
▁Є	-75.0
▁dependent	-55.0
▁Cra	-62.5
▁storm	-58.33333
▁Гер	-62.5
▁pipe	-60.0
▁attended	-55.55556
▁vita	-60.0
uzione	-58.33333
czas	-62.5
onda	-62.5
▁bold	-60.0
Columns	-57.14286
ició	-62.5
▁czę	-62.5
▁извест	-57.14286
▁Cloud	-58.33333
▁warm	-60.0
▁сы	-66.66666
▁сте	-62.5
▁producer	-55.55556
▁Ludwig	-57.14286
▁Northern	-55.55556
łą	-75.0
NSString	-56.25
▁Had	-62.5
▁Иван	-60.0
▁Eg	-66.66666
▁Imp	-62.5
ші	-75.0
▁Auch	-60.0
ток	-66.66666
▁Hit	-62.5
▁quien	-58.33333
▁department	-54.54546
▁erhielt	-56.25
▁ui	-66.66666
▁Spr	-62.5
сер	-66.66666
ourt	-62.5
▁Stephen	-56.25
team	-62.5
▁zip	-62.5
▁Bang	-60.0
▁growth	-57.14286
▁jam	-62.5
▁Kais	-60.0
bmatrix	-57.14286
▁Asia	-60.0
▁région	-57.14286
=/	-75.0
▁Pacific	-56.25
▁authority	-55.0
▁#[	-66.66666
тами	-62.5
▁everyone	-55.55556
▁attend	-57.14286
▁timestamp	-55.0
▁tries	-58.33333
▁ff	-66.66666
шей	-66.66666
▁developing	-54.54546
olt	-66.66666
ups	-66.66666
▁momento	-56.25
▁Sain	-60.0
Term	-62.5
▁celle	-58.33333
GR	-75.0
Mouse	-60.0
▁человек	-56.25
▁Collection	-54.54546
âtre	-62.5
▁Write	-58.33333
▁Pom	-62.5
[-	-75.0
Cam	-66.66666
▁locations	-55.0
▁Json	-60.0
elled	-60.0
selector	-56.25
repeat	-58.33333
ctors	-60.0
otte	-62.5
визи	-62.5
ände	-62.5
▁achieved	-55.55556
▁mainly	-57.14286
________	-56.25
!)	-75.0
▁является	-55.55556
▁cities	-57.14286
single	-58.33333
гре	-66.66666
▁Pak	-62.5
▁allowing	-55.55556
ferred	-58.33333
▁апре	-60.0
ходя	-62.5
▁browsers	-55.55556
▁escrit	-57.14286
▁mountain	-55.55556
▁networks	-55.55556
kind	-62.5
liver	-60.0
▁closing	-56.25
▁skip	-60.0
út	-75.0
▁duration	-55.55556
était	-60.0
▁scr	-62.5
BB	-75.0
ória	-62.5
▁Kultur	-57.14286
▁outputs	-56.25
multicolumn	-54.54546
▁belongs	-56.25
feature	-57.14286
ucky	-62.5
▁juli	-60.0
▁района	-57.14286
зво	-66.66666
factory	-57.14286
Func	-62.5
▁utter	-58.33333
▁TODO	-60.0
▁obt	-62.5
ategories	-55.55556
▁combine	-56.25
▁Wall	-60.0
▁underlying	-54.54546
arono	-60.0
▁Prote	-58.33333
ców	-66.66666
stan	-62.5
▁Gew	-62.5
▁optimal	-56.25
▁Archivlink	-54.54546
▁Script	-57.14286
▁destroyed	-55.0
хе	-75.0
▁Firefox	-56.25
▁sole	-60.0
Layer	-60.0
тку	-66.66666
▁stores	-57.14286
▁displays	-55.55556
ishing	-58.33333
▁ост	-62.5
▁instant	-56.25
▁elő	-62.5
▁habitantes	-54.54546
▁Einwo	-58.33333
▁ali	-62.5
▁ERROR	-58.33333
▁ahead	-58.33333
▁goals	-58.33333
▁már	-62.5
▁są	-66.66666
▁mart	-60.0
министра	-56.25
Fr	-75.0
▁Villa	-58.33333
▁Marc	-60.0
ropy	-62.5
agram	-60.0
hape	-62.5
мей	-66.66666
▁AL	-66.66666
▁connexes	-55.55556
▁Entre	-58.33333
Step	-62.5
лів	-66.66666
▁Death	-58.33333
▁rise	-60.0
▁fos	-62.5
▁lev	-62.5
gabe	-62.5
▁broke	-58.33333
products	-56.25
▁medi	-60.0
▁dispon	-57.14286
Package	-57.14286
ImageView	-55.55556
▁Nag	-62.5
ują	-66.66666
Word	-62.5
▁kole	-60.0
ßer	-66.66666
)`.	-66.66666
▁rol	-62.5
▁í	-75.0
тей	-66.66666
Progress	-56.25
bean	-62.5
▁sempre	-57.14286
Statement	-55.55556
UPDATE	-58.33333
▁mondiale	-55.55556
▁wrapper	-56.25
▁Chart	-58.33333
▁onClick	-56.25
чення	-60.0
LOG	-66.66666
something	-55.55556
▁INSERT	-57.14286
щения	-60.0
uet	-66.66666
werp	-62.5
round	-60.0
ichen	-60.0
▁XVI	-62.5
зни	-66.66666
▁aveva	-58.33333
▁Store	-58.33333
▁xs	-66.66666
racht	-60.0
scar	-62.5
▁opera	-58.33333
▁degrees	-56.25
▁citiz	-58.33333
äsident	-57.14286
▁classical	-55.0
▁Jersey	-57.14286
▁ersch	-58.33333
▁treatment	-55.0
▁насеље	-57.14286
ння	-66.66666
▁boost	-58.33333
amount	-58.33333
▁созда	-58.33333
érieur	-58.33333
▁telling	-56.25
Has	-66.66666
▁initi	-58.33333
▁Пи	-66.66666
eval	-62.5
▁Match	-58.33333
▁corre	-58.33333
Pointer	-57.14286
▁passes	-57.14286
company	-57.14286
▁ан	-66.66666
aches	-60.0
▁siglo	-58.33333
нем	-66.66666
▁exchange	-55.55556
cito	-62.5
▁Bab	-62.5
Doc	-66.66666
ześ	-66.66666
▁народ	-58.33333
▁conflict	-55.55556
▁november	-55.55556
eau	-66.66666
öv	-75.0
▁Hub	-62.5
▁poco	-60.0
ensa	-62.5
schließ	-57.14286
lasse	-60.0
datas	-60.0
▁сти	-62.5
univers	-57.14286
eks	-66.66666
▁Cho	-62.5
▁cô	-66.66666
▁(.	-66.66666
ewnę	-62.5
▁Chief	-58.33333
▁chef	-60.0
▁управ	-58.33333
uli	-66.66666
▁'''	-62.5
napshot	-57.14286
▁relac	-58.33333
ége	-66.66666
wt	-75.0
wend	-62.5
osing	-60.0
▁hacer	-58.33333
▁фран	-60.0
autres	-58.33333
▁fils	-60.0
ered	-62.5
▁Посилання	-55.0
▁therm	-58.33333
ержа	-62.5
such	-62.5
▁ihren	-58.33333
▁encontr	-56.25
▁lots	-60.0
logo	-62.5
▁Wi	-66.66666
/(	-75.0
шње	-66.66666
DATA	-62.5
▁Player	-57.14286
▁Leipzig	-56.25
▁relatives	-55.0
рев	-66.66666
▁newsp	-58.33333
?,	-75.0
▁Stutt	-58.33333
▁dual	-60.0
▁companies	-55.0
▁zam	-62.5
putation	-56.25
▁inequality	-54.54546
▁trem	-60.0
hips	-62.5
anch	-62.5
▁Ż	-75.0
бург	-62.5
▁copies	-57.14286
dash	-62.5
вор	-66.66666
spieler	-57.14286
▁Revolution	-54.54546
esty	-62.5
▁junto	-58.33333
▁Indeed	-57.14286
okal	-62.5
ctrine	-58.33333
▁Ford	-60.0
▁CREATE	-57.14286
▁walls	-58.33333
▁aute	-60.0
SU	-75.0
why	-66.66666
plementation	-54.16667
rout	-62.5
Matrix	-58.33333
▁sad	-62.5
ана	-66.66666
▁Pic	-62.5
.“	-75.0
▁AC	-66.66666
▁Fest	-60.0
▁desktop	-56.25
▁Pay	-62.5
ometimes	-56.25
▁Tak	-62.5
раб	-66.66666
▁Sever	-58.33333
▁northern	-55.55556
anter	-60.0
▁Modern	-57.14286
wal	-66.66666
{	-75.0
online	-58.33333
ök	-75.0
▁britann	-56.25
$_	-75.0
▁jar	-62.5
TL	-75.0
xxxx	-62.5
merge	-60.0
▁Namen	-58.33333
▁KEY	-62.5
▁refers	-57.14286
▁hin	-62.5
▁Volks	-58.33333
steller	-57.14286
viation	-57.14286
onio	-62.5
ighter	-58.33333
Compat	-58.33333
▁CE	-66.66666
▁pró	-62.5
▁encuentra	-55.0
theorem	-57.14286
▁publi	-58.33333
▁Development	-54.16667
нд	-75.0
▁ros	-62.5
▁shr	-62.5
seau	-62.5
▁generating	-54.54546
▁difficulty	-54.54546
▁Express	-56.25
Alignment	-55.55556
deutsch	-57.14286
▁Влади	-58.33333
▁suggests	-55.55556
▁Family	-57.14286
bbi	-66.66666
]).	-66.66666
staw	-62.5
▁presidente	-54.54546
▁stesso	-57.14286
inx	-66.66666
setup	-60.0
▁conform	-56.25
▁fro	-62.5
=\"	-66.66666
▁då	-66.66666
iciones	-57.14286
▁evolution	-55.0
prote	-60.0
▁prints	-57.14286
▁Pont	-60.0
▁confusion	-55.0
▁Й	-75.0
▁dello	-58.33333
▁manif	-58.33333
Definition	-55.0
ára	-66.66666
mals	-62.5
▁sale	-60.0
▁dropdown	-55.55556
Chain	-60.0
American	-56.25
▁mk	-66.66666
▁Bez	-62.5
▁Fue	-62.5
▁NE	-66.66666
графи	-60.0
docker	-58.33333
▁^{	-66.66666
Assert	-58.33333
▁horizontal	-54.54546
(@"	-66.66666
▁дву	-62.5
[...]
