<unk>	0.0
<s>	0.0
</s>	0.0
<0x00>	0.0
<0x01>	0.0
<0x02>	0.0
<0x03>	0.0
<0x04>	0.0
<0x05>	0.0
<0x06>	0.0
<0x07>	0.0
<0x08>	0.0
<0x09>	0.0
<0x0A>	0.0
<0x0B>	0.0
<0x0C>	0.0
<0x0D>	0.0
<0x0E>	0.0
<0x0F>	0.0
<0x10>	0.0
<0x11>	0.0
<0x12>	0.0
<0x13>	0.0
<0x14>	0.0
<0x15>	0.0
<0x16>	0.0
<0x17>	0.0
<0x18>	0.0
<0x19>	0.0
<0x1A>	0.0
<0x1B>	0.0
<0x1C>	0.0
<0x1D>	0.0
<0x1E>	0.0
<0x1F>	0.0
<0x20>	0.0
<0x21>	0.0
<0x22>	0.0
<0x23>	0.0
<0x24>	0.0
<0x25>	0.0
<0x26>	0.0
<0x27>	0.0
<0x28>	0.0
<0x29>	0.0
<0x2A>	0.0
<0x2B>	0.0
<0x2C>	0.0
<0x2D>	0.0
<0x2E>	0.0
<0x2F>	0.0
<0x30>	0.0
<0x31>	0.0
<0x32>	0.0
<0x33>	0.0
<0x34>	0.0
<0x35>	0.0
<0x36>	0.0
<0x37>	0.0
<0x38>	0.0
<0x39>	0.0
<0x3A>	0.0
<0x3B>	0.0
<0x3C>	0.0
<0x3D>	0.0
<0x3E>	0.0
<0x3F>	0.0
<0x40>	0.0
<0x41>	0.0
<0x42>	0.0
<0x43>	0.0
<0x44>	0.0
<0x45>	0.0
<0x46>	0.0
<0x47>	0.0
<0x48>	0.0
<0x49>	0.0
<0x4A>	0.0
<0x4B>	0.0
<0x4C>	0.0
<0x4D>	0.0
<0x4E>	0.0
<0x4F>	0.0
<0x50>	0.0
<0x51>	0.0
<0x52>	0.0
<0x53>	0.0
<0x54>	0.0
<0x55>	0.0
<0x56>	0.0
<0x57>	0.0
<0x58>	0.0
<0x59>	0.0
<0x5A>	0.0
<0x5B>	0.0
<0x5C>	0.0
<0x5D>	0.0
<0x5E>	0.0
<0x5F>	0.0
<0x60>	0.0
<0x61>	0.0
<0x62>	0.0
<0x63>	0.0
<0x64>	0.0
<0x65>	0.0
<0x66>	0.0
<0x67>	0.0
<0x68>	0.0
<0x69>	0.0
<0x6A>	0.0
<0x6B>	0.0
<0x6C>	0.0
<0x6D>	0.0
<0x6E>	0.0
<0x6F>	0.0
<0x70>	0.0
<0x71>	0.0
<0x72>	0.0
<0x73>	0.0
<0x74>	0.0
<0x75>	0.0
<0x76>	0.0
<0x77>	0.0
<0x78>	0.0
<0x79>	0.0
<0x7A>	0.0
<0x7B>	0.0
<0x7C>	0.0
<0x7D>	0.0
<0x7E>	0.0
<0x7F>	0.0
<0x80>	0.0
<0x81>	0.0
<0x82>	0.0
<0x83>	0.0
<0x84>	0.0
<0x85>	0.0
<0x86>	0.0
<0x87>	0.0
<0x88>	0.0
<0x89>	0.0
<0x8A>	0.0
<0x8B>	0.0
<0x8C>	0.0
<0x8D>	0.0
<0x8E>	0.0
<0x8F>	0.0
<0x90>	0.0
<0x91>	0.0
<0x92>	0.0
<0x93>	0.0
<0x94>	0.0
<0x95>	0.0
<0x96>	0.0
<0x97>	0.0
<0x98>	0.0
<0x99>	0.0
<0x9A>	0.0
<0x9B>	0.0
<0x9C>	0.0
<0x9D>	0.0
<0x9E>	0.0
<0x9F>	0.0
<0xA0>	0.0
<0xA1>	0.0
<0xA2>	0.0
<0xA3>	0.0
<0xA4>	0.0
<0xA5>	0.0
<0xA6>	0.0
<0xA7>	0.0
<0xA8>	0.0
<0xA9>	0.0
<0xAA>	0.0
<0xAB>	0.0
<0xAC>	0.0
<0xAD>	0.0
<0xAE>	0.0
<0xAF>	0.0
<0xB0>	0.0
<0xB1>	0.0
<0xB2>	0.0
<0xB3>	0.0
<0xB4>	0.0
<0xB5>	0.0
<0xB6>	0.0
<0xB7>	0.0
<0xB8>	0.0
<0xB9>	0.0
<0xBA>	0.0
<0xBB>	0.0
<0xBC>	0.0
<0xBD>	0.0
<0xBE>	0.0
<0xBF>	0.0
<0xC0>	0.0
<0xC1>	0.0
<0xC2>	0.0
<0xC3>	0.0
<0xC4>	0.0
<0xC5>	0.0
<0xC6>	0.0
<0xC7>	0.0
<0xC8>	0.0
<0xC9>	0.0
<0xCA>	0.0
<0xCB>	0.0
<0xCC>	0.0
<0xCD>	0.0
<0xCE>	0.0
<0xCF>	0.0
<0xD0>	0.0
<0xD1>	0.0
<0xD2>	0.0
<0xD3>	0.0
<0xD4>	0.0
<0xD5>	0.0
<0xD6>	0.0
<0xD7>	0.0
<0xD8>	0.0
<0xD9>	0.0
<0xDA>	0.0
<0xDB>	0.0
<0xDC>	0.0
<0xDD>	0.0
<0xDE>	0.0
<0xDF>	0.0
<0xE0>	0.0
<0xE1>	0.0
<0xE2>	0.0
<0xE3>	0.0
<0xE4>	0.0
<0xE5>	0.0
<0xE6>	0.0
<0xE7>	0.0
<0xE8>	0.0
<0xE9>	0.0
<0xEA>	0.0
<0xEB>	0.0
<0xEC>	0.0
<0xED>	0.0
<0xEE>	0.0
<0xEF>	0.0
<0xF0>	0.0
<0xF1>	0.0
<0xF2>	0.0
<0xF3>	0.0
<0xF4>	0.0
<0xF5>	0.0
<0xF6>	0.0
<0xF7>	0.0
<0xF8>	0.0
<0xF9>	0.0
<0xFA>	0.0
<0xFB>	0.0
<0xFC>	0.0
<0xFD>	0.0
<0xFE>	0.0
<0xFF>	0.0
▁▁	-1000000000.0
▁t	-1.0
er	-2.0
in	-3.0
▁a	-4.0
en	-5.0
on	-6.0
▁th	-7.0
es	-8.0
▁▁▁▁	-1000000000.0
▁s	-10.0
▁d	-11.0
at	-12.0
or	-13.0
an	-14.0
▁c	-15.0
is	-16.0
re	-17.0
it	-18.0
▁the	-19.0
ar	-20.0
le	-21.0
▁w	-22.0
▁p	-23.0
ou	-24.0
al	-25.0
▁f	-26.0
▁m	-27.0
ed	-28.0
▁o	-29.0
▁b	-30.0
om	-31.0
ion	-32.0
ing	-33.0
ic	-34.0
as	-35.0
el	-36.0
ent	-37.0
▁in	-38.0
▁h	-39.0
nd	-40.0
et	-41.0
▁l	-42.0
▁n	-43.0
st	-44.0
▁to	-45.0
ch	-46.0
▁I	-47.0
ro	-48.0
▁▁▁▁▁▁▁▁	-1000000000.0
il	-50.0
▁of	-51.0
de	-52.0
ct	-53.0
▁(	-54.0
am	-55.0
▁C	-56.0
▁de	-57.0
▁S	-58.0
▁u	-59.0
▁A	-60.0
▁\	-61.0
▁e	-62.0
▁and	-63.0
▁T	-64.0
ol	-65.0
▁v	-66.0
im	-67.0
ot	-68.0
ad	-69.0
ut	-70.0
▁g	-71.0
em	-72.0
ur	-73.0
id	-74.0
▁*	-75.0
ig	-76.0
ra	-77.0
▁re	-78.0
▁is	-79.0
qu	-80.0
ow	-81.0
▁M	-82.0
est	-83.0
▁y	-84.0
se	-85.0
ve	-86.0
ce	-87.0
ie	-88.0
un	-89.0
▁P	-90.0
▁B	-91.0
ag	-92.0
ul	-93.0
▁=	-94.0
he	-95.0
end	-96.0
ode	-97.0
ter	-98.0
ment	-99.0
os	-100.0
▁D	-101.0
if	-102.0
ation	-103.0
▁for	-104.0
▁r	-105.0
▁L	-106.0
▁you	-107.0
▁be	-108.0
ly	-109.0
ver	-110.0
ab	-111.0
te	-112.0
▁it	-113.0
▁on	-114.0
ri	-115.0
us	-116.0
▁"	-117.0
▁wh	-118.0
▁con	-119.0
▁H	-120.0
▁st	-121.0
ir	-122.0
▁E	-123.0
▁F	-124.0
ck	-125.0
▁an	-126.0
th	-127.0
eg	-128.0
ay	-129.0
ith	-130.0
▁R	-131.0
ist	-132.0
and	-133.0
▁that	-134.0
▁al	-135.0
▁$	-136.0
▁#	-137.0
od	-138.0
um	-139.0
▁W	-140.0
ht	-141.0
code	-142.0
▁G	-143.0
ate	-144.0
ess	-145.0
▁N	-146.0
ere	-147.0
pp	-148.0
▁as	-149.0
▁se	-150.0
▁pro	-151.0
▁with	-152.0
pe	-153.0
▁k	-154.0
ers	-155.0
pt	-156.0
);	-157.0
lo	-158.0
▁▁▁▁▁	-1000000000.0
▁com	-160.0
ame	-161.0
▁`	-162.0
▁Com	-163.0
ia	-164.0
ant	-165.0
▁la	-166.0
▁{	-167.0
▁en	-168.0
ction	-169.0
▁ex	-170.0
ld	-171.0
ub	-172.0
▁j	-173.0
la	-174.0
ue	-175.0
▁J	-176.0
ich	-177.0
▁do	-178.0
▁O	-179.0
▁qu	-180.0
iv	-181.0
ort	-182.0
art	-183.0
▁un	-184.0
▁##	-185.0
▁this	-186.0
ke	-187.0
▁ha	-188.0
▁-	-189.0
out	-190.0
▁The	-191.0
▁not	-192.0
▁ne	-193.0
ill	-194.0
▁le	-195.0
ci	-196.0
rom	-197.0
ine	-198.0
//	-199.0
op	-200.0
egin	-201.0
▁Comment	-202.0
▁▁▁▁▁▁▁▁▁▁▁▁▁▁▁▁	-1000000000.0
begin	-204.0
ст	-205.0
ass	-206.0
iz	-207.0
).	-208.0
og	-209.0
▁п	-210.0
▁or	-211.0
▁was	-212.0
▁at	-213.0
our	-214.0
▁i	-215.0
ain	-216.0
▁K	-217.0
на	-218.0
▁V	-219.0
ge	-220.0
▁su	-221.0
ap	-222.0
age	-223.0
ould	-224.0
ne	-225.0
av	-226.0
xt	-227.0
ore	-228.0
ile	-229.0
--	-230.0
▁в	-231.0
▁by	-232.0
li	-233.0
ath	-234.0
ра	-235.0
ber	-236.0
ach	-237.0
all	-238.0
▁Th	-239.0
ult	-240.0
▁}	-241.0
▁U	-242.0
▁us	-243.0
▁z	-244.0
ust	-245.0
▁have	-246.0
lic	-247.0
ни	-248.0
▁can	-249.0
tr	-250.0
com	-251.0
),	-252.0
▁In	-253.0
ind	-254.0
ell	-255.0
▁from	-256.0
ов	-257.0
to	-258.0
▁[	-259.0
able	-260.0
ost	-261.0
▁ch	-262.0
ect	-263.0
ight	-264.0
int	-265.0
▁'	-266.0
▁are	-267.0
▁im	-268.0
▁sh	-269.0
▁<	-270.0
▁An	-271.0
▁с	-272.0
ata	-273.0
ire	-274.0
▁tr	-275.0
con	-276.0
ord	-277.0
ity	-278.0
ard	-279.0
▁▁▁▁▁▁	-1000000000.0
▁he	-281.0
▁but	-282.0
oc	-283.0
="	-284.0
▁pr	-285.0
ure	-286.0
per	-287.0
ack	-288.0
ork	-289.0
ong	-290.0
ans	-291.0
ко	-292.0
ple	-293.0
▁des	-294.0
ok	-295.0
orm	-296.0
wer	-297.0
ak	-298.0
pr	-299.0
ase	-300.0
▁el	-301.0
ph	-302.0
ac	-303.0
▁und	-304.0
▁ar	-305.0
▁if	-306.0
ud	-307.0
ps	-308.0
ite	-309.0
ble	-310.0
но	-311.0
fer	-312.0
pl	-313.0
ive	-314.0
ang	-315.0
ens	-316.0
ро	-317.0
▁so	-318.0
so	-319.0
ast	-320.0
()	-321.0
swer	-322.0
ru	-323.0
ies	-324.0
▁:	-325.0
au	-326.0
ov	-327.0
ре	-328.0
го	-329.0
▁der	-330.0
▁my	-331.0
▁we	-332.0
▁me	-333.0
nt	-334.0
▁ad	-335.0
urn	-336.0
▁your	-337.0
://	-338.0
are	-339.0
▁all	-340.0
ff	-341.0
io	-342.0
estion	-343.0
ime	-344.0
▁er	-345.0
lass	-346.0
▁и	-347.0
▁which	-348.0
ome	-349.0
ont	-350.0
▁par	-351.0
▁ma	-352.0
▁Y	-353.0
",	-354.0
▁о	-355.0
ft	-356.0
ial	-357.0
cc	-358.0
ound	-359.0
▁li	-360.0
▁res	-361.0
eth	-362.0
ject	-363.0
▁app	-364.0
▁St	-365.0
ice	-366.0
▁am	-367.0
act	-368.0
▁del	-369.0
gr	-370.0
ated	-371.0
ier	-372.0
▁▁▁▁▁▁▁▁▁▁▁▁	-1000000000.0
▁ab	-374.0
▁et	-375.0
ally	-376.0
..	-377.0
port	-378.0
ik	-379.0
▁per	-380.0
▁cont	-381.0
ри	-382.0
ка	-383.0
ser	-384.0
ли	-385.0
ll	-386.0
iew	-387.0
ign	-388.0
_{	-389.0
put	-390.0
one	-391.0
unction	-392.0
▁di	-393.0
ary	-394.0
ition	-395.0
ma	-396.0
ен	-397.0
get	-398.0
▁lo	-399.0
▁val	-400.0
▁Q	-401.0
ran	-402.0
▁д	-403.0
ence	-404.0
▁work	-405.0
▁на	-406.0
ip	-407.0
item	-408.0
ype	-409.0
▁&	-410.0
▁his	-411.0
▁use	-412.0
der	-413.0
▁Answer	-414.0
▁will	-415.0
ize	-416.0
та	-417.0
low	-418.0
▁Ch	-419.0
▁get	-420.0
ide	-421.0
ous	-422.0
ink	-423.0
ption	-424.0
ла	-425.0
turn	-426.0
ung	-427.0
ec	-428.0
ug	-429.0
form	-430.0
res	-431.0
htt	-432.0
oug	-433.0
ль	-434.0
▁no	-435.0
cl	-436.0
▁ro	-437.0
▁one	-438.0
tt	-439.0
cri	-440.0
du	-441.0
▁up	-442.0
то	-443.0
("	-444.0
▁ob	-445.0
we	-446.0
ory	-447.0
▁est	-448.0
ery	-449.0
iel	-450.0
str	-451.0
ob	-452.0
▁que	-453.0
ian	-454.0
▁out	-455.0
▁pl	-456.0
▁new	-457.0
ки	-458.0
▁+	-459.0
ry	-460.0
oth	-461.0
ther	-462.0
▁var	-463.0
▁would	-464.0
▁ser	-465.0
tern	-466.0
text	-467.0
▁there	-468.0
ish	-469.0
ror	-470.0
те	-471.0
▁set	-472.0
▁@	-473.0
▁по	-474.0
▁te	-475.0
ex	-476.0
▁return	-477.0
ail	-478.0
▁any	-479.0
▁It	-480.0
▁function	-481.0
{\	-482.0
',	-483.0
és	-484.0
ale	-485.0
ан	-486.0
▁when	-487.0
ib	-488.0
▁go	-489.0
ance	-490.0
▁had	-491.0
▁Qu	-492.0
▁comp	-493.0
ле	-494.0
▁з	-495.0
math	-496.0
▁has	-497.0
▁м	-498.0
▁pre	-499.0
ener	-500.0
▁part	-501.0
elf	-502.0
▁die	-503.0
▁like	-504.0
ray	-505.0
irst	-506.0
▁dis	-507.0
▁man	-508.0
rit	-509.0
▁then	-510.0
▁class	-511.0
pro	-512.0
▁po	-513.0
▁using	-514.0
eb	-515.0
▁code	-516.0
own	-517.0
▁some	-518.0
ces	-519.0
▁$\	-520.0
ер	-521.0
lect	-522.0
▁au	-523.0
isch	-524.0
▁col	-525.0
▁–	-526.0
up	-527.0
ons	-528.0
▁add	-529.0
ild	-530.0
iss	-531.0
val	-532.0
ount	-533.0
les	-534.0
vent	-535.0
▁▁▁▁▁▁▁▁▁▁▁▁▁	-1000000000.0
▁Z	-537.0
In	-538.0
row	-539.0
ear	-540.0
ations	-541.0
ah	-542.0
que	-543.0
ublic	-544.0
ank	-545.0
▁sp	-546.0
▁Wh	-547.0
----	-548.0
sk	-549.0
ew	-550.0
ags	-551.0
ти	-552.0
ann	-553.0
▁—	-554.0
ert	-555.0
ace	-556.0
sch	-557.0
▁need	-558.0
▁à	-559.0
ien	-560.0
ough	-561.0
не	-562.0
▁def	-563.0
ij	-564.0
ern	-565.0
▁what	-566.0
▁Ar	-567.0
wo	-568.0
ml	-569.0
</	-570.0
▁Re	-571.0
▁es	-572.0
▁inst	-573.0
bo	-574.0
az	-575.0
▁###	-576.0
▁б	-577.0
erm	-578.0
▁Al	-579.0
led	-580.0
да	-581.0
ten	-582.0
set	-583.0
ло	-584.0
▁comm	-585.0
sh	-586.0
ва	-587.0
▁/	-588.0
▁data	-589.0
▁//	-590.0
](	-591.0
▁str	-592.0
ose	-593.0
▁Un	-594.0
ven	-595.0
St	-596.0
...	-597.0
▁С	-598.0
yst	-599.0
▁«	-600.0
ick	-601.0
ix	-602.0
par	-603.0
▁у	-604.0
▁want	-605.0
ng	-606.0
ote	-607.0
▁gr	-608.0
▁du	-609.0
▁.	-610.0
und	-611.0
▁only	-612.0
▁sa	-613.0
ely	-614.0
vers	-615.0
▁ent	-616.0
))	-617.0
('	-618.0
▁mod	-619.0
ava	-620.0
ton	-621.0
▁should	-622.0
ement	-623.0
▁form	-624.0
▁also	-625.0
▁sc	-626.0
ings	-627.0
▁You	-628.0
ón	-629.0
▁kn	-630.0
();	-631.0
▁|	-632.0
▁were	-633.0
ss	-634.0
▁Question	-635.0
ise	-636.0
▁they	-637.0
▁De	-638.0
ond	-639.0
▁sol	-640.0
▁fol	-641.0
▁more	-642.0
▁her	-643.0
▁_	-644.0
▁é	-645.0
atch	-646.0
fter	-647.0
▁cre	-648.0
lock	-649.0
tring	-650.0
▁This	-651.0
ze	-652.0
ado	-653.0
ull	-654.0
ger	-655.0
be	-656.0
▁other	-657.0
▁Tags	-658.0
ution	-659.0
ict	-660.0
▁how	-661.0
▁x	-662.0
▁Se	-663.0
▁che	-664.0
cript	-665.0
▁just	-666.0
▁pos	-667.0
ange	-668.0
ific	-669.0
ree	-670.0
}}	-671.0
▁time	-672.0
app	-673.0
ны	-674.0
▁file	-675.0
ark	-676.0
ical	-677.0
▁first	-678.0
▁int	-679.0
▁В	-680.0
▁He	-681.0
ta	-682.0
ument	-683.0
ors	-684.0
lement	-685.0
rac	-686.0
▁ag	-687.0
▁does	-688.0
yn	-689.0
read	-690.0
ual	-691.0
▁Le	-692.0
ys	-693.0
▁em	-694.0
▁num	-695.0
vel	-696.0
ди	-697.0
over	-698.0
▁dif	-699.0
ethod	-700.0
▁If	-701.0
▁spe	-702.0
ym	-703.0
▁them	-704.0
▁into	-705.0
▁▁▁▁▁▁▁▁▁▁	-1000000000.0
▁les	-707.0
▁its	-708.0
ese	-709.0
ield	-710.0
▁public	-711.0
▁П	-712.0
▁den	-713.0
ystem	-714.0
of	-715.0
▁over	-716.0
->	-717.0
▁fil	-718.0
name	-719.0
inal	-720.0
▁il	-721.0
ample	-722.0
▁way	-723.0
ica	-724.0
во	-725.0
cess	-726.0
itt	-727.0
uch	-728.0
▁where	-729.0
ми	-730.0
org	-731.0
https	-732.0
▁vo	-733.0
ient	-734.0
ove	-735.0
▁value	-736.0
eng	-737.0
▁La	-738.0
^{	-739.0
ref	-740.0
ied	-741.0
ER	-742.0
▁stat	-743.0
fig	-744.0
me	-745.0
▁von	-746.0
▁inter	-747.0
roid	-748.0
ater	-749.0
▁their	-750.0
▁bet	-751.0
▁ein	-752.0
}\	-753.0
">	-754.0
▁sub	-755.0
▁op	-756.0
▁don	-757.0
ty	-758.0
▁try	-759.0
▁Pro	-760.0
▁tra	-761.0
▁same	-762.0
ep	-763.0
▁two	-764.0
▁name	-765.0
old	-766.0
let	-767.0
▁sim	-768.0
sp	-769.0
▁av	-770.0
bre	-771.0
blem	-772.0
ey	-773.0
▁could	-774.0
▁cor	-775.0
▁acc	-776.0
ays	-777.0
cre	-778.0
urr	-779.0
si	-780.0
▁const	-781.0
ues	-782.0
}$	-783.0
View	-784.0
▁act	-785.0
▁bo	-786.0
▁ко	-787.0
▁som	-788.0
▁about	-789.0
land	-790.0
mer	-791.0
▁list	-792.0
cal	-793.0
▁import	-794.0
col	-795.0
▁na	-796.0
na	-797.0
::	-798.0
▁who	-799.0
▁error	-800.0
▁X	-801.0
ator	-802.0
ext	-803.0
▁been	-804.0
ér	-805.0
▁run	-806.0
pos	-807.0
▁cl	-808.0
**	-809.0
▁К	-810.0
ular	-811.0
ause	-812.0
▁reg	-813.0
▁know	-814.0
▁see	-815.0
▁him	-816.0
ning	-817.0
▁за	-818.0
ates	-819.0
fore	-820.0
ions	-821.0
▁hel	-822.0
ute	-823.0
▁rem	-824.0
▁го	-825.0
▁Mar	-826.0
ру	-827.0
vice	-828.0
irect	-829.0
ner	-830.0
▁under	-831.0
rib	-832.0
hr	-833.0
че	-834.0
▁As	-835.0
▁end	-836.0
ember	-837.0
▁а	-838.0
▁att	-839.0
ina	-840.0
son	-841.0
▁follow	-842.0
▁Sch	-843.0
pect	-844.0
▁rel	-845.0
▁So	-846.0
▁look	-847.0
abel	-848.0
▁problem	-849.0
▁van	-850.0
strong	-851.0
co	-852.0
pon	-853.0
ca	-854.0
ada	-855.0
":	-856.0
cond	-857.0
amb	-858.0
},	-859.0
quest	-860.0
▁aut	-861.0
▁result	-862.0
▁may	-863.0
Re	-864.0
http	-865.0
):	-866.0
▁And	-867.0
red	-868.0
▁How	-869.0
po	-870.0
ско	-871.0
att	-872.0
oup	-873.0
ced	-874.0
▁type	-875.0
▁than	-876.0
▁cons	-877.0
uf	-878.0
ци	-879.0
▁question	-880.0
raph	-881.0
igh	-882.0
▁М	-883.0
▁htt	-884.0
ins	-885.0
den	-886.0
▁da	-887.0
▁ver	-888.0
oh	-889.0
▁=>	-890.0
riv	-891.0
ude	-892.0
▁For	-893.0
▁ra	-894.0
frac	-895.0
ма	-896.0
▁after	-897.0
}{	-898.0
▁method	-899.0
")	-900.0
amp	-901.0
ash	-902.0
▁rec	-903.0
▁differ	-904.0
ON	-905.0
ax	-906.0
ament	-907.0
ource	-908.0
Con	-909.0
its	-910.0
Name	-911.0
man	-912.0
▁bec	-913.0
che	-914.0
▁En	-915.0
aj	-916.0
▁gener	-917.0
IN	-918.0
▁id	-919.0
ages	-920.0
▁loc	-921.0
fo	-922.0
br	-923.0
▁she	-924.0
Pro	-925.0
▁una	-926.0
▁к	-927.0
eta	-928.0
log	-929.0
olog	-930.0
▁sur	-931.0
arg	-932.0
▁--	-933.0
kt	-934.0
(\	-935.0
min	-936.0
▁line	-937.0
▁vari	-938.0
ся	-939.0
ics	-940.0
ня	-941.0
very	-942.0
add	-943.0
▁object	-944.0
Id	-945.0
▁But	-946.0
▁case	-947.0
▁make	-948.0
▁cal	-949.0
▁pass	-950.0
сь	-951.0
ession	-952.0
net	-953.0
."	-954.0
▁г	-955.0
är	-956.0
де	-957.0
no	-958.0
ating	-959.0
ato	-960.0
line	-961.0
ви	-962.0
▁Ex	-963.0
▁ass	-964.0
▁vers	-965.0
ля	-966.0
▁ed	-967.0
umn	-968.0
other	-969.0
ста	-970.0
ative	-971.0
String	-972.0
▁los	-973.0
wn	-974.0
▁answer	-975.0
▁let	-976.0
▁pe	-977.0
ents	-978.0
▁fe	-979.0
ince	-980.0
ni	-981.0
ider	-982.0
ows	-983.0
▁test	-984.0
▁here	-985.0
roll	-986.0
▁call	-987.0
ruct	-988.0
▁pol	-989.0
ait	-990.0
▁back	-991.0
ho	-992.0
Ex	-993.0
ress	-994.0
ST	-995.0
ried	-996.0
date	-997.0
ет	-998.0
▁did	-999.0
ting	-1000.0
▁El	-1001.0
▁dem	-1002.0
)$	-1003.0
ова	-1004.0
urrent	-1005.0
lace	-1006.0
right	-1007.0
ren	-1008.0
по	-1009.0
▁each	-1010.0
cy	-1011.0
block	-1012.0
data	-1013.0
▁%	-1014.0
▁ac	-1015.0
▁==	-1016.0
ür	-1017.0
▁por	-1018.0
ask	-1019.0
arch	-1020.0
ames	-1021.0
▁Con	-1022.0
ча	-1023.0
▁off	-1024.0
▁find	-1025.0
cont	-1026.0
▁now	-1027.0
work	-1028.0
ational	-1029.0
dd	-1030.0
ción	-1031.0
▁А	-1032.0
ault	-1033.0
List	-1034.0
▁ext	-1035.0
urs	-1036.0
ake	-1037.0
ule	-1038.0
▁point	-1039.0
AT	-1040.0
aut	-1041.0
▁trans	-1042.0
▁co	-1043.0
▁read	-1044.0
▁used	-1045.0
ски	-1046.0
ari	-1047.0
LE	-1048.0
eter	-1049.0
oun	-1050.0
ever	-1051.0
self	-1052.0
ined	-1053.0
idth	-1054.0
ux	-1055.0
js	-1056.0
▁such	-1057.0
▁Is	-1058.0
ée	-1059.0
ful	-1060.0
▁dist	-1061.0
▁bu	-1062.0
itemize	-1063.0
Cont	-1064.0
je	-1065.0
си	-1066.0
▁prov	-1067.0
bb	-1068.0
ward	-1069.0
esent	-1070.0
erson	-1071.0
anks	-1072.0
wh	-1073.0
not	-1074.0
▁We	-1075.0
ka	-1076.0
rop	-1077.0
atur	-1078.0
als	-1079.0
▁bel	-1080.0
ör	-1081.0
fr	-1082.0
▁example	-1083.0
▁incl	-1084.0
amil	-1085.0
▁ра	-1086.0
▁“	-1087.0
▁string	-1088.0
▁think	-1089.0
Th	-1090.0
▁tem	-1091.0
ave	-1092.0
▁Fran	-1093.0
▁number	-1094.0
▁si	-1095.0
imes	-1096.0
tem	-1097.0
my	-1098.0
ler	-1099.0
load	-1100.0
==	-1101.0
▁hand	-1102.0
za	-1103.0
▁because	-1104.0
▁sch	-1105.0
vo	-1106.0
this	-1107.0
ID	-1108.0
ão	-1109.0
▁start	-1110.0
▁war	-1111.0
▁help	-1112.0
ts	-1113.0
▁char	-1114.0
▁ph	-1115.0
▁min	-1116.0
til	-1117.0
rite	-1118.0
--------	-1119.0
els	-1120.0
▁mit	-1121.0
edia	-1122.0
ку	-1123.0
▁Sh	-1124.0
any	-1125.0
];	-1126.0
▁Б	-1127.0
ique	-1128.0
da	-1129.0
ef	-1130.0
dex	-1131.0
▁produ	-1132.0
▁Н	-1133.0
gram	-1134.0
▁Or	-1135.0
▁gre	-1136.0
quote	-1137.0
leg	-1138.0
orn	-1139.0
▁ind	-1140.0
▁post	-1141.0
▁dep	-1142.0
],	-1143.0
vi	-1144.0
▁user	-1145.0
▁>	-1146.0
lick	-1147.0
▁very	-1148.0
ething	-1149.0
▁array	-1150.0
▁gu	-1151.0
▁dur	-1152.0
`.	-1153.0
ть	-1154.0
lication	-1155.0
сти	-1156.0
ek	-1157.0
ico	-1158.0
▁dat	-1159.0
ор	-1160.0
html	-1161.0
ione	-1162.0
▁different	-1163.0
▁check	-1164.0
▁fr	-1165.0
▁Er	-1166.0
▁text	-1167.0
ні	-1168.0
icht	-1169.0
stack	-1170.0
EN	-1171.0
rag	-1172.0
▁every	-1173.0
Ar	-1174.0
▁before	-1175.0
alse	-1176.0
▁fin	-1177.0
▁dé	-1178.0
▁these	-1179.0
▁det	-1180.0
Val	-1181.0
ception	-1182.0
▁android	-1183.0
blockquote	-1184.0
▁je	-1185.0
file	-1186.0
ats	-1187.0
▁до	-1188.0
essage	-1189.0
▁again	-1190.0
aw	-1191.0
Ch	-1192.0
ween	-1193.0
▁Д	-1194.0
for	-1195.0
cial	-1196.0
play	-1197.0
pre	-1198.0
ida	-1199.0
▁Par	-1200.0
ny	-1201.0
ract	-1202.0
▁supp	-1203.0
ased	-1204.0
lection	-1205.0
▁dans	-1206.0
air	-1207.0
rol	-1208.0
▁thr	-1209.0
Data	-1210.0
lich	-1211.0
▁про	-1212.0
▁long	-1213.0
▁second	-1214.0
ually	-1215.0
ines	-1216.0
▁found	-1217.0
ength	-1218.0
yp	-1219.0
ead	-1220.0
▁log	-1221.0
ui	-1222.0
new	-1223.0
▁Р	-1224.0
go	-1225.0
aus	-1226.0
ody	-1227.0
▁son	-1228.0
ме	-1229.0
ero	-1230.0
ved	-1231.0
sub	-1232.0
▁right	-1233.0
view	-1234.0
▁following	-1235.0
')	-1236.0
");	-1237.0
▁said	-1238.0
же	-1239.0
чи	-1240.0
ту	-1241.0
ott	-1242.0
се	-1243.0
ars	-1244.0
$.	-1245.0
gg	-1246.0
▁br	-1247.0
ool	-1248.0
yle	-1249.0
use	-1250.0
▁show	-1251.0
lease	-1252.0
cia	-1253.0
▁direct	-1254.0
doc	-1255.0
ар	-1256.0
ms	-1257.0
▁giv	-1258.0
▁exp	-1259.0
ql	-1260.0
ду	-1261.0
ве	-1262.0
▁Be	-1263.0
Com	-1264.0
iter	-1265.0
RE	-1266.0
mp	-1267.0
men	-1268.0
▁Ro	-1269.0
MA	-1270.0
▁Col	-1271.0
ister	-1272.0
▁well	-1273.0
▁</	-1274.0
ayout	-1275.0
ature	-1276.0
ivers	-1277.0
zy	-1278.0
▁не	-1279.0
▁met	-1280.0
une	-1281.0
yth	-1282.0
Type	-1283.0
▁element	-1284.0
▁link	-1285.0
mod	-1286.0
▁between	-1287.0
cept	-1288.0
quire	-1289.0
▁through	-1290.0
▁while	-1291.0
▁On	-1292.0
the	-1293.0
ía	-1294.0
▁something	-1295.0
vol	-1296.0
▁most	-1297.0
sc	-1298.0
uss	-1299.0
▁car	-1300.0
▁sm	-1301.0
▁ро	-1302.0
ano	-1303.0
left	-1304.0
va	-1305.0
▁true	-1306.0
($	-1307.0
ems	-1308.0
▁much	-1309.0
ás	-1310.0
▁New	-1311.0
▁proper	-1312.0
era	-1313.0
ited	-1314.0
▁doc	-1315.0
ices	-1316.0
The	-1317.0
▁?	-1318.0
сто	-1319.0
fl	-1320.0
▁spec	-1321.0
ender	-1322.0
way	-1323.0
▁self	-1324.0
▁even	-1325.0
ів	-1326.0
▁се	-1327.0
ния	-1328.0
▁Pr	-1329.0
▁ke	-1330.0
emb	-1331.0
▁table	-1332.0
▁equ	-1333.0
lient	-1334.0
td	-1335.0
part	-1336.0
▁print	-1337.0
▁une	-1338.0
ify	-1339.0
▁->	-1340.0
ene	-1341.0
▁mon	-1342.0
▁dec	-1343.0
▁still	-1344.0
▁об	-1345.0
▁Tr	-1346.0
▁ф	-1347.0
ife	-1348.0
ism	-1349.0
by	-1350.0
raw	-1351.0
ior	-1352.0
▁med	-1353.0
orld	-1354.0
▁comple	-1355.0
ww	-1356.0
▁art	-1357.0
ron	-1358.0
▁Г	-1359.0
▁My	-1360.0
▁als	-1361.0
rect	-1362.0
▁auf	-1363.0
▁down	-1364.0
ather	-1365.0
Col	-1366.0
Text	-1367.0
back	-1368.0
$,	-1369.0
▁year	-1370.0
мо	-1371.0
pi	-1372.0
▁Gr	-1373.0
ream	-1374.0
▁rep	-1375.0
bf	-1376.0
www	-1377.0
▁wur	-1378.0
▁org	-1379.0
inter	-1380.0
▁Die	-1381.0
▁being	-1382.0
".	-1383.0
label	-1384.0
▁cent	-1385.0
java	-1386.0
bar	-1387.0
ante	-1388.0
ana	-1389.0
__	-1390.0
▁solution	-1391.0
▁О	-1392.0
▁fl	-1393.0
▁create	-1394.0
ici	-1395.0
ste	-1396.0
ython	-1397.0
unt	-1398.0
ason	-1399.0
ference	-1400.0
SE	-1401.0
▁non	-1402.0
ane	-1403.0
▁ins	-1404.0
ader	-1405.0
_{\	-1406.0
Res	-1407.0
▁main	-1408.0
пи	-1409.0
▁▁▁▁▁▁▁▁▁▁▁▁▁▁	-1000000000.0
▁There	-1411.0
▁pour	-1412.0
RO	-1413.0
`,	-1414.0
lish	-1415.0
bject	-1416.0
ccess	-1417.0
▁orig	-1418.0
▁▁▁	-1000000000.0
ischen	-1420.0
ower	-1421.0
▁het	-1422.0
uc	-1423.0
▁else	-1424.0
».	-1425.0
▁от	-1426.0
equ	-1427.0
sible	-1428.0
test	-1429.0
stand	-1430.0
én	-1431.0
ets	-1432.0
GE	-1433.0
ident	-1434.0
▁е	-1435.0
▁при	-1436.0
.,	-1437.0
▁das	-1438.0
ock	-1439.0
,"	-1440.0
▁vol	-1441.0
▁fo	-1442.0
▁para	-1443.0
▁Т	-1444.0
▁Car	-1445.0
ral	-1446.0
▁Sp	-1447.0
var	-1448.0
▁play	-1449.0
ouse	-1450.0
▁та	-1451.0
ically	-1452.0
▁contain	-1453.0
ponse	-1454.0
▁String	-1455.0
án	-1456.0
▁both	-1457.0
ken	-1458.0
AR	-1459.0
ере	-1460.0
▁Il	-1461.0
▁iss	-1462.0
▁open	-1463.0
▁)	-1464.0
▁What	-1465.0
fe	-1466.0
rivate	-1467.0
reg	-1468.0
▁without	-1469.0
▁zu	-1470.0
vis	-1471.0
flow	-1472.0
▁http	-1473.0
abase	-1474.0
▁word	-1475.0
▁change	-1476.0
▁works	-1477.0
▁ge	-1478.0
▁!	-1479.0
▁een	-1480.0
itle	-1481.0
▁event	-1482.0
word	-1483.0
ando	-1484.0
SB	-1485.0
rem	-1486.0
▁field	-1487.0
ving	-1488.0
Ser	-1489.0
▁our	-1490.0
▁qui	-1491.0
▁oper	-1492.0
▁ist	-1493.0
def	-1494.0
▁made	-1495.0
ние	-1496.0
px	-1497.0
▁men	-1498.0
rm	-1499.0
ais	-1500.0
cent	-1501.0
list	-1502.0
To	-1503.0
▁To	-1504.0
ja	-1505.0
vert	-1506.0
▁mar	-1507.0
value	-1508.0
▁„	-1509.0
";	-1510.0
▁aus	-1511.0
▁Br	-1512.0
ole	-1513.0
▁mult	-1514.0
ought	-1515.0
▁mat	-1516.0
▁view	-1517.0
fil	-1518.0
▁со	-1519.0
га	-1520.0
▁void	-1521.0
▁good	-1522.0
бо	-1523.0
CT	-1524.0
▁many	-1525.0
ben	-1526.0
▁во	-1527.0
▁ка	-1528.0
▁system	-1529.0
ino	-1530.0
▁another	-1531.0
▁rest	-1532.0
user	-1533.0
ility	-1534.0
ai	-1535.0
▁might	-1536.0
ustom	-1537.0
▁order	-1538.0
▁Ver	-1539.0
SS	-1540.0
})	-1541.0
▁eff	-1542.0
до	-1543.0
ett	-1544.0
▁sign	-1545.0
му	-1546.0
IT	-1547.0
string	-1548.0
elle	-1549.0
▁sing	-1550.0
cul	-1551.0
▁trying	-1552.0
▁beg	-1553.0
▁page	-1554.0
хо	-1555.0
▁Can	-1556.0
▁Ser	-1557.0
++	-1558.0
▁must	-1559.0
▁values	-1560.0
▁key	-1561.0
ible	-1562.0
].	-1563.0
ird	-1564.0
▁program	-1565.0
roller	-1566.0
▁conne	-1567.0
▁say	-1568.0
▁param	-1569.0
ache	-1570.0
velop	-1571.0
▁select	-1572.0
▁famil	-1573.0
▁last	-1574.0
▁Thanks	-1575.0
▁pop	-1576.0
}.	-1577.0
eq	-1578.0
▁doesn	-1579.0
['	-1580.0
▁term	-1581.0
▁ré	-1582.0
▁document	-1583.0
па	-1584.0
лу	-1585.0
ateg	-1586.0
.)	-1587.0
ling	-1588.0
ional	-1589.0
ables	-1590.0
▁tak	-1591.0
utton	-1592.0
▁arg	-1593.0
type	-1594.0
▁sure	-1595.0
▁real	-1596.0
▁web	-1597.0
▁current	-1598.0
▁Pl	-1599.0
cho	-1600.0
ments	-1601.0
▁Joh	-1602.0
ots	-1603.0
▁exist	-1604.0
ну	-1605.0
▁für	-1606.0
▁из	-1607.0
do	-1608.0
ного	-1609.0
▁las	-1610.0
▁null	-1611.0
▁inform	-1612.0
▁Л	-1613.0
▁version	-1614.0
▁chang	-1615.0
ager	-1616.0
▁Comm	-1617.0
лі	-1618.0
ush	-1619.0
▁Ge	-1620.0
▁high	-1621.0
▁input	-1622.0
ogle	-1623.0
ros	-1624.0
box	-1625.0
gen	-1626.0
▁ste	-1627.0
▁local	-1628.0
Im	-1629.0
▁process	-1630.0
ternal	-1631.0
ized	-1632.0
ги	-1633.0
ét	-1634.0
▁Ind	-1635.0
▁och	-1636.0
lt	-1637.0
▁column	-1638.0
▁tried	-1639.0
▁command	-1640.0
▁best	-1641.0
aster	-1642.0
за	-1643.0
▁prim	-1644.0
▁model	-1645.0
▁і	-1646.0
▁those	-1647.0
ities	-1648.0
ère	-1649.0
▁ре	-1650.0
је	-1651.0
ши	-1652.0
ques	-1653.0
▁Am	-1654.0
▁own	-1655.0
lin	-1656.0
зи	-1657.0
Value	-1658.0
thing	-1659.0
▁,	-1660.0
▁Te	-1661.0
▁stud	-1662.0
▁um	-1663.0
▁server	-1664.0
ille	-1665.0
▁put	-1666.0
ativ	-1667.0
gy	-1668.0
ови	-1669.0
raf	-1670.0
ово	-1671.0
▁wurde	-1672.0
▁When	-1673.0
▁div	-1674.0
ants	-1675.0
▁ter	-1676.0
▁partic	-1677.0
▁т	-1678.0
▁Do	-1679.0
▁No	-1680.0
sert	-1681.0
ido	-1682.0
mathcal	-1683.0
ade	-1684.0
▁II	-1685.0
lear	-1686.0
ograph	-1687.0
ense	-1688.0
▁row	-1689.0
num	-1690.0
▁possible	-1691.0
▁since	-1692.0
▁Bo	-1693.0
ctions	-1694.0
▁Im	-1695.0
OR	-1696.0
ці	-1697.0
▁ide	-1698.0
map	-1699.0
▁correct	-1700.0
ves	-1701.0
php	-1702.0
▁output	-1703.0
▁Ph	-1704.0
AL	-1705.0
ared	-1706.0
\\	-1707.0
▁image	-1708.0
esch	-1709.0
жи	-1710.0
▁conf	-1711.0
por	-1712.0
query	-1713.0
ures	-1714.0
ium	-1715.0
ends	-1716.0
▁Ab	-1717.0
SBN	-1718.0
ід	-1719.0
ether	-1720.0
ptions	-1721.0
itu	-1722.0
lib	-1723.0
ns	-1724.0
ki	-1725.0
▁working	-1726.0
▁como	-1727.0
▁Then	-1728.0
ML	-1729.0
key	-1730.0
class	-1731.0
ople	-1732.0
ittle	-1733.0
▁match	-1734.0
ways	-1735.0
mathbb	-1736.0
▁require	-1737.0
alt	-1738.0
▁vis	-1739.0
▁bl	-1740.0
▁called	-1741.0
Item	-1742.0
ura	-1743.0
vec	-1744.0
eme	-1745.0
▁della	-1746.0
embre	-1747.0
urg	-1748.0
Se	-1749.0
▁request	-1750.0
ische	-1751.0
▁port	-1752.0
▁instead	-1753.0
=\	-1754.0
▁У	-1755.0
hor	-1756.0
ente	-1757.0
ume	-1758.0
erd	-1759.0
са	-1760.0
▁why	-1761.0
rist	-1762.0
▁person	-1763.0
▁...	-1764.0
▁private	-1765.0
▁tot	-1766.0
pha	-1767.0
ift	-1768.0
ita	-1769.0
loc	-1770.0
▁old	-1771.0
он	-1772.0
▁nel	-1773.0
']	-1774.0
ti	-1775.0
iet	-1776.0
cite	-1777.0
plement	-1778.0
▁above	-1779.0
ks	-1780.0
ready	-1781.0
▁come	-1782.0
section	-1783.0
▁Pol	-1784.0
▁writ	-1785.0
▁https	-1786.0
▁$$	-1787.0
▁»	-1788.0
▁build	-1789.0
ito	-1790.0
▁consider	-1791.0
aft	-1792.0
App	-1793.0
,\	-1794.0
indows	-1795.0
comm	-1796.0
▁;	-1797.0
ground	-1798.0
▁place	-1799.0
By	-1800.0
▁project	-1801.0
Object	-1802.0
▁repr	-1803.0
ences	-1804.0
indow	-1805.0
zt	-1806.0
▁files	-1807.0
cz	-1808.0
ivity	-1809.0
▁init	-1810.0
▁prob	-1811.0
▁sk	-1812.0
orth	-1813.0
iment	-1814.0
ouble	-1815.0
atal	-1816.0
irc	-1817.0
▁è	-1818.0
▁bre	-1819.0
ista	-1820.0
input	-1821.0
▁И	-1822.0
ной	-1823.0
sum	-1824.0
path	-1825.0
▁cour	-1826.0
▁too	-1827.0
▁Ad	-1828.0
▁Gu	-1829.0
▁false	-1830.0
▁fun	-1831.0
▁ст	-1832.0
ood	-1833.0
ès	-1834.0
▁enc	-1835.0
bol	-1836.0
rl	-1837.0
arget	-1838.0
order	-1839.0
▁mean	-1840.0
пе	-1841.0
igen	-1842.0
▁пре	-1843.0
width	-1844.0
;	-1845.0
itor	-1846.0
▁state	-1847.0
▁great	-1848.0
enn	-1849.0
bin	-1850.0
Er	-1851.0
Mod	-1852.0
oz	-1853.0
▁won	-1854.0
▁fact	-1855.0
▁java	-1856.0
▁Univers	-1857.0
▁cap	-1858.0
istor	-1859.0
}(	-1860.0
ku	-1861.0
ither	-1862.0
ales	-1863.0
▁ou	-1864.0
ross	-1865.0
▁take	-1866.0
rix	-1867.0
lob	-1868.0
▁eine	-1869.0
ases	-1870.0
▁access	-1871.0
ité	-1872.0
istr	-1873.0
ization	-1874.0
▁appro	-1875.0
ball	-1876.0
▁mak	-1877.0
}^	-1878.0
▁Cons	-1879.0
press	-1880.0
serv	-1881.0
().	-1882.0
af	-1883.0
▁ref	-1884.0
)\	-1885.0
▁contin	-1886.0
su	-1887.0
iver	-1888.0
▁cond	-1889.0
▁expect	-1890.0
▁charact	-1891.0
bert	-1892.0
elt	-1893.0
ters	-1894.0
script	-1895.0
▁Ed	-1896.0
apt	-1897.0
');	-1898.0
print	-1899.0
▁size	-1900.0
▁sich	-1901.0
face	-1902.0
enden	-1903.0
▁Amer	-1904.0
ified	-1905.0
ów	-1906.0
▁Su	-1907.0
tes	-1908.0
med	-1909.0
▁Reg	-1910.0
sole	-1911.0
▁includ	-1912.0
ini	-1913.0
inci	-1914.0
▁pla	-1915.0
▁left	-1916.0
df	-1917.0
Par	-1918.0
▁All	-1919.0
▁occ	-1920.0
▁At	-1921.0
▁cr	-1922.0
Qu	-1923.0
▁given	-1924.0
▁System	-1925.0
ican	-1926.0
▁final	-1927.0
itions	-1928.0
▁бы	-1929.0
▁perform	-1930.0
AN	-1931.0
▁Me	-1932.0
uro	-1933.0
▁That	-1934.0
гра	-1935.0
▁По	-1936.0
▁ви	-1937.0
ably	-1938.0
▁present	-1939.0
duct	-1940.0
ric	-1941.0
▁Eng	-1942.0
try	-1943.0
▁lar	-1944.0
bl	-1945.0
idd	-1946.0
▁är	-1947.0
ora	-1948.0
LL	-1949.0
oss	-1950.0
▁ISBN	-1951.0
▁three	-1952.0
jo	-1953.0
ní	-1954.0
rc	-1955.0
▁far	-1956.0
▁Not	-1957.0
▁little	-1958.0
dis	-1959.0
ati	-1960.0
function	-1961.0
▁able	-1962.0
less	-1963.0
со	-1964.0
▁path	-1965.0
▁pres	-1966.0
lose	-1967.0
PI	-1968.0
▁issue	-1969.0
ackage	-1970.0
time	-1971.0
ige	-1972.0
ams	-1973.0
▁Cl	-1974.0
ails	-1975.0
alk	-1976.0
ii	-1977.0
ше	-1978.0
pen	-1979.0
QL	-1980.0
▁eas	-1981.0
RL	-1982.0
cel	-1983.0
▁sl	-1984.0
▁ask	-1985.0
▁nom	-1986.0
▁top	-1987.0
ides	-1988.0
index	-1989.0
ém	-1990.0
▁happ	-1991.0
ox	-1992.0
cd	-1993.0
▁better	-1994.0
▁load	-1995.0
ados	-1996.0
zen	-1997.0
▁ce	-1998.0
▁fa	-1999.0
▁John	-2000.0
IMA	-2001.0
▁Bar	-2002.0
overflow	-2003.0
▁де	-2004.0
ness	-2005.0
cer	-2006.0
▁Here	-2007.0
ret	-2008.0
▁sz	-2009.0
ambda	-2010.0
opy	-2011.0
url	-2012.0
py	-2013.0
rt	-2014.0
▁understand	-2015.0
ał	-2016.0
her	-2017.0
##	-2018.0
▁child	-2019.0
▁exec	-2020.0
▁application	-2021.0
▁struct	-2022.0
▁я	-2023.0
File	-2024.0
▁cert	-2025.0
ison	-2026.0
▁variable	-2027.0
DE	-2028.0
rs	-2029.0
▁really	-2030.0
Port	-2031.0
ba	-2032.0
▁Ber	-2033.0
▁inte	-2034.0
▁static	-2035.0
▁config	-2036.0
▁She	-2037.0
estions	-2038.0
▁plus	-2039.0
▁hab	-2040.0
ope	-2041.0
▁mus	-2042.0
▁count	-2043.0
ME	-2044.0
▁support	-2045.0
▁people	-2046.0
▁beh	-2047.0
▁already	-2048.0
Tr	-2049.0
▁done	-2050.0
dem	-2051.0
size	-2052.0
alpha	-2053.0
▁disc	-2054.0
])	-2055.0
▁Man	-2056.0
▁mil	-2057.0
▁stand	-2058.0
▁group	-2059.0
▁small	-2060.0
▁mag	-2061.0
сть	-2062.0
▁default	-2063.0
▁single	-2064.0
link	-2065.0
clude	-2066.0
▁ear	-2067.0
ilar	-2068.0
****	-2069.0
▁fix	-2070.0
ley	-2071.0
▁pas	-2072.0
ний	-2073.0
ission	-2074.0
▁implement	-2075.0
itch	-2076.0
▁года	-2077.0
▁always	-2078.0
▁Jah	-2079.0
pring	-2080.0
ção	-2081.0
plate	-2082.0
▁descri	-2083.0
▁head	-2084.0
init	-2085.0
ograf	-2086.0
▁query	-2087.0
ived	-2088.0
▁ing	-2089.0
pty	-2090.0
ha	-2091.0
▁mov	-2092.0
▁э	-2093.0
ette	-2094.0
ily	-2095.0
▁got	-2096.0
iled	-2097.0
icro	-2098.0
▁wr	-2099.0
ря	-2100.0
▁never	-2101.0
ores	-2102.0
▁bas	-2103.0
ios	-2104.0
lack	-2105.0
aint	-2106.0
vious	-2107.0
▁give	-2108.0
idad	-2109.0
En	-2110.0
ный	-2111.0
table	-2112.0
▁На	-2113.0
▁pat	-2114.0
тор	-2115.0
angu	-2116.0
loy	-2117.0
▁seg	-2118.0
array	-2119.0
▁Fl	-2120.0
▁index	-2121.0
▁sw	-2122.0
IMAGE	-2123.0
▁km	-2124.0
би	-2125.0
Class	-2126.0
ena	-2127.0
мен	-2128.0
comp	-2129.0
atus	-2130.0
rap	-2131.0
▁List	-2132.0
Error	-2133.0
▁typ	-2134.0
▁ма	-2135.0
cs	-2136.0
':	-2137.0
ji	-2138.0
▁However	-2139.0
▁те	-2140.0
▁below	-2141.0
▁App	-2142.0
ще	-2143.0
}_	-2144.0
bum	-2145.0
vir	-2146.0
ées	-2147.0
▁record	-2148.0
tain	-2149.0
lem	-2150.0
ital	-2151.0
▁imp	-2152.0
ego	-2153.0
▁od	-2154.0
▁rece	-2155.0
mit	-2156.0
ffic	-2157.0
stackoverflow	-2158.0
ieve	-2159.0
▁З	-2160.0
▁nov	-2161.0
це	-2162.0
▁Intern	-2163.0
bu	-2164.0
▁sugg	-2165.0
▁loop	-2166.0
ride	-2167.0
▁$(	-2168.0
▁super	-2169.0
rid	-2170.0
ных	-2171.0
▁Per	-2172.0
▁dom	-2173.0
='	-2174.0
utsch	-2175.0
len	-2176.0
▁write	-2177.0
▁inv	-2178.0
outh	-2179.0
▁Her	-2180.0
▁years	-2181.0
▁original	-2182.0
ega	-2183.0
▁Ste	-2184.0
▁seems	-2185.0
ég	-2186.0
▁next	-2187.0
eder	-2188.0
▁Ne	-2189.0
avas	-2190.0
ification	-2191.0
Exception	-2192.0
▁Der	-2193.0
▁ve	-2194.0
atic	-2195.0
hat	-2196.0
brary	-2197.0
return	-2198.0
urch	-2199.0
ision	-2200.0
mi	-2201.0
oint	-2202.0
▁day	-2203.0
iction	-2204.0
ál	-2205.0
▁és	-2206.0
▁though	-2207.0
action	-2208.0
ít	-2209.0
ungen	-2210.0
ours	-2211.0
▁script	-2212.0
▁information	-2213.0
▁multi	-2214.0
▁\\	-2215.0
ster	-2216.0
ке	-2217.0
AC	-2218.0
cies	-2219.0
▁display	-2220.0
oman	-2221.0
Time	-2222.0
ius	-2223.0
));	-2224.0
tre	-2225.0
▁lim	-2226.0
ately	-2227.0
éd	-2228.0
iste	-2229.0
▁са	-2230.0
post	-2231.0
uel	-2232.0
img	-2233.0
▁ч	-2234.0
ска	-2235.0
eld	-2236.0
pper	-2237.0
ula	-2238.0
▁general	-2239.0
Al	-2240.0
Form	-2241.0
▁upon	-2242.0
zo	-2243.0
amente	-2244.0
▁prom	-2245.0
▁ü	-2246.0
lex	-2247.0
▁turn	-2248.0
▁ме	-2249.0
ention	-2250.0
лен	-2251.0
▁af	-2252.0
icle	-2253.0
ств	-2254.0
▁Fil	-2255.0
▁Ф	-2256.0
avascript	-2257.0
Man	-2258.0
ara	-2259.0
ware	-2260.0
align	-2261.0
angle	-2262.0
▁Sc	-2263.0
unic	-2264.0
▁fran	-2265.0
Un	-2266.0
zi	-2267.0
met	-2268.0
Add	-2269.0
▁pub	-2270.0
ков	-2271.0
▁gen	-2272.0
▁pod	-2273.0
▁sum	-2274.0
▁having	-2275.0
▁avec	-2276.0
sl	-2277.0
▁fig	-2278.0
▁Res	-2279.0
Date	-2280.0
ules	-2281.0
with	-2282.0
ский	-2283.0
gu	-2284.0
ET	-2285.0
▁bro	-2286.0
rie	-2287.0
aps	-2288.0
ending	-2289.0
mail	-2290.0
ook	-2291.0
▁success	-2292.0
berg	-2293.0
▁deb	-2294.0
elta	-2295.0
()`	-2296.0
ential	-2297.0
frame	-2298.0
Key	-2299.0
inn	-2300.0
▁simple	-2301.0
ival	-2302.0
▁care	-2303.0
▁Web	-2304.0
").	-2305.0
></	-2306.0
▁database	-2307.0
▁Now	-2308.0
Ind	-2309.0
▁мо	-2310.0
cht	-2311.0
ban	-2312.0
ram	-2313.0
equation	-2314.0
ski	-2315.0
ief	-2316.0
lim	-2317.0
Get	-2318.0
▁tre	-2319.0
aten	-2320.0
bed	-2321.0
▁Je	-2322.0
▁results	-2323.0
лю	-2324.0
тель	-2325.0
db	-2326.0
▁bit	-2327.0
body	-2328.0
Array	-2329.0
mu	-2330.0
pression	-2331.0
▁ста	-2332.0
ony	-2333.0
iff	-2334.0
▁bar	-2335.0
▁Arch	-2336.0
bers	-2337.0
){	-2338.0
▁Mon	-2339.0
▁doing	-2340.0
▁prof	-2341.0
▁install	-2342.0
▁position	-2343.0
ema	-2344.0
▁});	-2345.0
Path	-2346.0
ali	-2347.0
▁&&	-2348.0
lev	-2349.0
▁cannot	-2350.0
▁May	-2351.0
inst	-2352.0
-\	-2353.0
▁coun	-2354.0
▁ang	-2355.0
▁appear	-2356.0
cor	-2357.0
ció	-2358.0
ided	-2359.0
questions	-2360.0
atter	-2361.0
▁Pa	-2362.0
select	-2363.0
▁princi	-2364.0
Event	-2365.0
▁side	-2366.0
▁mem	-2367.0
▁Jan	-2368.0
ario	-2369.0
▁within	-2370.0
▁Val	-2371.0
odes	-2372.0
iddle	-2373.0
uration	-2374.0
bra	-2375.0
▁date	-2376.0
[]	-2377.0
▁entre	-2378.0
ili	-2379.0
Portail	-2380.0
docs	-2381.0
ской	-2382.0
Element	-2383.0
▁message	-2384.0
▁nach	-2385.0
▁during	-2386.0
▁gra	-2387.0
etwork	-2388.0
▁By	-2389.0
▁tell	-2390.0
ete	-2391.0
~\	-2392.0
▁bis	-2393.0
▁pu	-2394.0
▁red	-2395.0
▁thing	-2396.0
▁sort	-2397.0
xim	-2398.0
ires	-2399.0
User	-2400.0
iod	-2401.0
▁Est	-2402.0
osed	-2403.0
oute	-2404.0
▁Les	-2405.0
▁sent	-2406.0
ribute	-2407.0
utes	-2408.0
istory	-2409.0
▁service	-2410.0
';	-2411.0
field	-2412.0
▁IN	-2413.0
ension	-2414.0
rel	-2415.0
▁going	-2416.0
web	-2417.0
Context	-2418.0
▁later	-2419.0
uk	-2420.0
layout	-2421.0
ona	-2422.0
át	-2423.0
----------------	-2424.0
▁exact	-2425.0
andom	-2426.0
▁sie	-2427.0
II	-2428.0
▁They	-2429.0
mente	-2430.0
ibli	-2431.0
▁fine	-2432.0
UT	-2433.0
▁develop	-2434.0
▁Ein	-2435.0
soft	-2436.0
off	-2437.0
Set	-2438.0
▁az	-2439.0
eters	-2440.0
ilder	-2441.0
ples	-2442.0
▁specific	-2443.0
▁om	-2444.0
error	-2445.0
ently	-2446.0
▁film	-2447.0
uck	-2448.0
ains	-2449.0
ación	-2450.0
ges	-2451.0
жа	-2452.0
▁things	-2453.0
Sh	-2454.0
▁thought	-2455.0
▁added	-2456.0
dep	-2457.0
ского	-2458.0
▁Li	-2459.0
ils	-2460.0
ync	-2461.0
▁то	-2462.0
ries	-2463.0
▁cu	-2464.0
chen	-2465.0
ION	-2466.0
▁Des	-2467.0
ultado	-2468.0
irt	-2469.0
▁based	-2470.0
▁mo	-2471.0
▁dest	-2472.0
png	-2473.0
reen	-2474.0
▁running	-2475.0
amma	-2476.0
oud	-2477.0
▁refer	-2478.0
ious	-2479.0
▁Jul	-2480.0
▁search	-2481.0
ald	-2482.0
ede	-2483.0
▁wrong	-2484.0
An	-2485.0
▁until	-2486.0
site	-2487.0
ayer	-2488.0
▁once	-2489.0
arr	-2490.0
▁against	-2491.0
====	-2492.0
▁source	-2493.0
arn	-2494.0
api	-2495.0
▁represent	-2496.0
▁aff	-2497.0
▁sein	-2498.0
▁allow	-2499.0
ormal	-2500.0
ended	-2501.0
▁control	-2502.0
mathbf	-2503.0
come	-2504.0
cur	-2505.0
endo	-2506.0
wa	-2507.0
▁update	-2508.0
▁inside	-2509.0
▁reason	-2510.0
omen	-2511.0
▁вы	-2512.0
De	-2513.0
▁је	-2514.0
sw	-2515.0
▁sever	-2516.0
Of	-2517.0
▁instance	-2518.0
▁mer	-2519.0
▁effect	-2520.0
color	-2521.0
ugust	-2522.0
ilt	-2523.0
des	-2524.0
itz	-2525.0
ulation	-2526.0
nie	-2527.0
▁World	-2528.0
▁similar	-2529.0
ymbol	-2530.0
hing	-2531.0
▁mark	-2532.0
State	-2533.0
▁content	-2534.0
▁means	-2535.0
amed	-2536.0
▁End	-2537.0
ND	-2538.0
count	-2539.0
▁Inst	-2540.0
perty	-2541.0
ctor	-2542.0
▁{\	-2543.0
▁Let	-2544.0
▁!=	-2545.0
▁getting	-2546.0
uth	-2547.0
umber	-2548.0
▁Consultado	-2549.0
schaft	-2550.0
lete	-2551.0
▁Will	-2552.0
▁Em	-2553.0
head	-2554.0
▁leg	-2555.0
ном	-2556.0
Or	-2557.0
arm	-2558.0
pond	-2559.0
▁Christ	-2560.0
▁around	-2561.0
▁clear	-2562.0
▁href	-2563.0
▁See	-2564.0
').	-2565.0
▁created	-2566.0
▁button	-2567.0
ining	-2568.0
▁click	-2569.0
iam	-2570.0
plit	-2571.0
For	-2572.0
▁polit	-2573.0
▁seem	-2574.0
▁life	-2575.0
нов	-2576.0
▁intern	-2577.0
щи	-2578.0
sel	-2579.0
soci	-2580.0
▁stor	-2581.0
cle	-2582.0
earch	-2583.0
android	-2584.0
}^{	-2585.0
▁either	-2586.0
▁few	-2587.0
▁initial	-2588.0
length	-2589.0
ria	-2590.0
sql	-2591.0
wik	-2592.0
▁ét	-2593.0
uer	-2594.0
▁valid	-2595.0
And	-2596.0
include	-2597.0
ury	-2598.0
▁sus	-2599.0
ired	-2600.0
▁After	-2601.0
▁due	-2602.0
▁bei	-2603.0
ources	-2604.0
▁Nov	-2605.0
Act	-2606.0
▁Cont	-2607.0
▁break	-2608.0
ested	-2609.0
▁actually	-2610.0
else	-2611.0
tml	-2612.0
rer	-2613.0
ones	-2614.0
▁design	-2615.0
▁property	-2616.0
phi	-2617.0
ality	-2618.0
och	-2619.0
ists	-2620.0
▁·	-2621.0
udio	-2622.0
AB	-2623.0
ala	-2624.0
iones	-2625.0
фи	-2626.0
find	-2627.0
As	-2628.0
▁custom	-2629.0
▁ann	-2630.0
ES	-2631.0
OT	-2632.0
lambda	-2633.0
▁ident	-2634.0
▁organ	-2635.0
▁Cent	-2636.0
▁Char	-2637.0
▁os	-2638.0
▁hard	-2639.0
ров	-2640.0
▁/>	-2641.0
ko	-2642.0
▁exper	-2643.0
▁separ	-2644.0
yl	-2645.0
ourn	-2646.0
▁dev	-2647.0
▁auch	-2648.0
▁block	-2649.0
book	-2650.0
▁map	-2651.0
illa	-2652.0
▁comput	-2653.0
▁space	-2654.0
result	-2655.0
)}	-2656.0
▁echo	-2657.0
config	-2658.0
hi	-2659.0
▁large	-2660.0
▁width	-2661.0
▁Go	-2662.0
mat	-2663.0
▁diff	-2664.0
▁kind	-2665.0
ances	-2666.0
ynam	-2667.0
▁color	-2668.0
Int	-2669.0
sol	-2670.0
▁pi	-2671.0
▁character	-2672.0
oment	-2673.0
▁response	-2674.0
igma	-2675.0
wards	-2676.0
arrow	-2677.0
су	-2678.0
ties	-2679.0
▁über	-2680.0
Image	-2681.0
yd	-2682.0
▁пере	-2683.0
▁node	-2684.0
▁item	-2685.0
achine	-2686.0
ima	-2687.0
▁va	-2688.0
▁approach	-2689.0
▁wer	-2690.0
▁че	-2691.0
On	-2692.0
ollow	-2693.0
она	-2694.0
cted	-2695.0
ured	-2696.0
Controller	-2697.0
lied	-2698.0
▁jo	-2699.0
▁dal	-2700.0
unk	-2701.0
▁î	-2702.0
start	-2703.0
ola	-2704.0
▁compon	-2705.0
IC	-2706.0
bit	-2707.0
▁base	-2708.0
пу	-2709.0
▁idea	-2710.0
▁dire	-2711.0
▁rad	-2712.0
group	-2713.0
▁With	-2714.0
server	-2715.0
side	-2716.0
sing	-2717.0
▁dies	-2718.0
▁near	-2719.0
▁voor	-2720.0
▁argument	-2721.0
▁},	-2722.0
▁land	-2723.0
▁names	-2724.0
▁option	-2725.0
ithub	-2726.0
pped	-2727.0
aug	-2728.0
▁links	-2729.0
▁full	-2730.0
▁situ	-2731.0
▁console	-2732.0
▁etc	-2733.0
aux	-2734.0
▁Cor	-2735.0
icrosoft	-2736.0
▁came	-2737.0
local	-2738.0
▁known	-2739.0
▁multiple	-2740.0
anguage	-2741.0
▁total	-2742.0
ology	-2743.0
ät	-2744.0
▁Х	-2745.0
▁fre	-2746.0
▁ten	-2747.0
ideo	-2748.0
▁bes	-2749.0
true	-2750.0
Query	-2751.0
omm	-2752.0
▁Art	-2753.0
▁keep	-2754.0
▁University	-2755.0
reate	-2756.0
pport	-2757.0
▁python	-2758.0
tra	-2759.0
ector	-2760.0
рі	-2761.0
oph	-2762.0
▁conc	-2763.0
▁four	-2764.0
viron	-2765.0
▁via	-2766.0
?"	-2767.0
image	-2768.0
oll	-2769.0
ные	-2770.0
▁context	-2771.0
▁sem	-2772.0
._	-2773.0
▁eng	-2774.0
mar	-2775.0
AD	-2776.0
▁mor	-2777.0
▁Cal	-2778.0
▁cell	-2779.0
imal	-2780.0
ATE	-2781.0
▁inf	-2782.0
ön	-2783.0
uffer	-2784.0
sq	-2785.0
....	-2786.0
▁zur	-2787.0
With	-2788.0
ран	-2789.0
chn	-2790.0
▁door	-2791.0
content	-2792.0
▁miss	-2793.0
▁simp	-2794.0
ár	-2795.0
ira	-2796.0
▁hat	-2797.0
Test	-2798.0
▁certain	-2799.0
NS	-2800.0
▁cho	-2801.0
▁adv	-2802.0
where	-2803.0
▁looking	-2804.0
▁times	-2805.0
них	-2806.0
uto	-2807.0
▁É	-2808.0
can	-2809.0
host	-2810.0
▁(*	-2811.0
loat	-2812.0
▁nicht	-2813.0
Field	-2814.0
burg	-2815.0
const	-2816.0
ades	-2817.0
▁Mus	-2818.0
▁nothing	-2819.0
▁incre	-2820.0
▁Min	-2821.0
▁power	-2822.0
▁American	-2823.0
ln	-2824.0
valid	-2825.0
ungs	-2826.0
▁National	-2827.0
▁San	-2828.0
▁York	-2829.0
Request	-2830.0
char	-2831.0
▁Ze	-2832.0
button	-2833.0
▁alg	-2834.0
SON	-2835.0
▁ap	-2836.0
uff	-2837.0
ability	-2838.0
ем	-2839.0
▁anything	-2840.0
ela	-2841.0
())	-2842.0
ба	-2843.0
ampion	-2844.0
▁pot	-2845.0
▁fut	-2846.0
ailable	-2847.0
▁prop	-2848.0
"]	-2849.0
▁less	-2850.0
lag	-2851.0
▁August	-2852.0
It	-2853.0
▁please	-2854.0
▁style	-2855.0
▁Also	-2856.0
bt	-2857.0
▁probably	-2858.0
▁One	-2859.0
▁poss	-2860.0
UI	-2861.0
uit	-2862.0
▁West	-2863.0
hn	-2864.0
+\	-2865.0
Button	-2866.0
json	-2867.0
err	-2868.0
rame	-2869.0
dom	-2870.0
ilon	-2871.0
alf	-2872.0
▁client	-2873.0
▁continu	-2874.0
xml	-2875.0
pec	-2876.0
ador	-2877.0
ls	-2878.0
▁however	-2879.0
▁Any	-2880.0
änd	-2881.0
mathrm	-2882.0
▁url	-2883.0
▁book	-2884.0
▁gl	-2885.0
ives	-2886.0
gi	-2887.0
▁tro	-2888.0
▁US	-2889.0
point	-2890.0
open	-2891.0
▁cur	-2892.0
▁era	-2893.0
▁particular	-2894.0
▁HT	-2895.0
oot	-2896.0
ello	-2897.0
lobal	-2898.0
▁action	-2899.0
▁Int	-2900.0
▁include	-2901.0
▁elements	-2902.0
ная	-2903.0
ards	-2904.0
▁Bl	-2905.0
▁hum	-2906.0
from	-2907.0
change	-2908.0
▁functions	-2909.0
hen	-2910.0
Service	-2911.0
▁height	-2912.0
▁Land	-2913.0
ias	-2914.0
gs	-2915.0
ión	-2916.0
лов	-2917.0
node	-2918.0
.”	-2919.0
hand	-2920.0
▁бу	-2921.0
▁amb	-2922.0
▁Lu	-2923.0
▁throw	-2924.0
▁mot	-2925.0
▁Act	-2926.0
▁world	-2927.0
_\	-2928.0
base	-2929.0
▁Co	-2930.0
▁arch	-2931.0
▁####	-2932.0
ged	-2933.0
pril	-2934.0
older	-2935.0
Model	-2936.0
▁several	-2937.0
lie	-2938.0
check	-2939.0
]{	-2940.0
cons	-2941.0
▁Tra	-2942.0
heck	-2943.0
▁least	-2944.0
down	-2945.0
ebru	-2946.0
Def	-2947.0
param	-2948.0
ischer	-2949.0
▁cas	-2950.0
CH	-2951.0
▁address	-2952.0
▁раз	-2953.0
ufen	-2954.0
urope	-2955.0
ей	-2956.0
▁bound	-2957.0
CO	-2958.0
▁Ang	-2959.0
▁Ma	-2960.0
Index	-2961.0
core	-2962.0
ouch	-2963.0
atabase	-2964.0
ribution	-2965.0
document	-2966.0
Le	-2967.0
}_{	-2968.0
vern	-2969.0
▁statement	-2970.0
▁Brit	-2971.0
ono	-2972.0
psilon	-2973.0
▁level	-2974.0
▁product	-2975.0
IS	-2976.0
▁course	-2977.0
▁Mr	-2978.0
>	-2979.0
▁background	-2980.0
▁ret	-2981.0
ering	-2982.0
most	-2983.0
сько	-2984.0
▁thread	-2985.0
itional	-2986.0
ites	-2987.0
Pl	-2988.0
▁dos	-2989.0
ga	-2990.0
day	-2991.0
▁Gener	-2992.0
▁tw	-2993.0
Ad	-2994.0
"><	-2995.0
▁($	-2996.0
▁moment	-2997.0
title	-2998.0
create	-2999.0
version	-3000.0
Manager	-3001.0
▁fur	-3002.0
pping	-3003.0
ijn	-3004.0
ос	-3005.0
▁rather	-3006.0
ptember	-3007.0
OS	-3008.0
▁site	-3009.0
▁caus	-3010.0
ani	-3011.0
▁home	-3012.0
мі	-3013.0
▁short	-3014.0
pa	-3015.0
▁lead	-3016.0
ished	-3017.0
cing	-3018.0
ording	-3019.0
▁prote	-3020.0
сле	-3021.0
LECT	-3022.0
▁didn	-3023.0
position	-3024.0
","	-3025.0
(),	-3026.0
trans	-3027.0
▁lot	-3028.0
▁од	-3029.0
AS	-3030.0
▁sat	-3031.0
▁points	-3032.0
github	-3033.0
style	-3034.0
▁году	-3035.0
▁Dis	-3036.0
ponent	-3037.0
omet	-3038.0
zer	-3039.0
ULL	-3040.0
▁pa	-3041.0
AP	-3042.0
aces	-3043.0
▁United	-3044.0
ama	-3045.0
ety	-3046.0
Color	-3047.0
▁enough	-3048.0
US	-3049.0
▁length	-3050.0
());	-3051.0
^{\	-3052.0
fty	-3053.0
Box	-3054.0
apter	-3055.0
▁complet	-3056.0
ник	-3057.0
max	-3058.0
object	-3059.0
({	-3060.0
imgur	-3061.0
itive	-3062.0
unch	-3063.0
▁Sub	-3064.0
ende	-3065.0
гу	-3066.0
ategory	-3067.0
ты	-3068.0
iano	-3069.0
▁upd	-3070.0
▁Aust	-3071.0
}{\	-3072.0
top	-3073.0
las	-3074.0
pis	-3075.0
iness	-3076.0
▁{	-3077.0
▁Е	-3078.0
Gr	-3079.0
▁AS	-3080.0
▁ве	-3081.0
thers	-3082.0
▁defined	-3083.0
azione	-3084.0
▁offic	-3085.0
▁autom	-3086.0
ün	-3087.0
▁brow	-3088.0
▁serv	-3089.0
▁remove	-3090.0
iro	-3091.0
▁Bibli	-3092.0
ED	-3093.0
▁whole	-3094.0
▁ш	-3095.0
▁Java	-3096.0
▁zum	-3097.0
ua	-3098.0
pm	-3099.0
dev	-3100.0
кра	-3101.0
olds	-3102.0
▁War	-3103.0
än	-3104.0
pass	-3105.0
uz	-3106.0
["	-3107.0
▁tri	-3108.0
ised	-3109.0
ха	-3110.0
▁memory	-3111.0
▁Port	-3112.0
oper	-3113.0
Up	-3114.0
▁Thank	-3115.0
▁Mich	-3116.0
ych	-3117.0
board	-3118.0
бу	-3119.0
Inst	-3120.0
▁begin	-3121.0
ination	-3122.0
▁Mod	-3123.0
_,	-3124.0
▁Den	-3125.0
option	-3126.0
▁construct	-3127.0
▁Just	-3128.0
Map	-3129.0
run	-3130.0
▁respect	-3131.0
ham	-3132.0
ман	-3133.0
imedia	-3134.0
▁apply	-3135.0
cription	-3136.0
main	-3137.0
▁Ка	-3138.0
oid	-3139.0
Code	-3140.0
};	-3141.0
Info	-3142.0
▁format	-3143.0
Log	-3144.0
▁су	-3145.0
▁lat	-3146.0
utor	-3147.0
▁reference	-3148.0
▁calcul	-3149.0
onn	-3150.0
Lo	-3151.0
infty	-3152.0
▁along	-3153.0
▁č	-3154.0
▁task	-3155.0
▁ev	-3156.0
theta	-3157.0
ras	-3158.0
jor	-3159.0
▁бо	-3160.0
▁princip	-3161.0
My	-3162.0
▁einer	-3163.0
▁Es	-3164.0
omb	-3165.0
quad	-3166.0
^{-	-3167.0
ump	-3168.0
▁till	-3169.0
ді	-3170.0
▁looks	-3171.0
▁ok	-3172.0
ца	-3173.0
nu	-3174.0
Fil	-3175.0
▁sont	-3176.0
▁Med	-3177.0
ague	-3178.0
▁cost	-3179.0
▁Sim	-3180.0
▁comment	-3181.0
▁(\	-3182.0
egen	-3183.0
▁parameter	-3184.0
▁France	-3185.0
rep	-3186.0
▁TH	-3187.0
▁yet	-3188.0
▁away	-3189.0
▁circ	-3190.0
▁API	-3191.0
emp	-3192.0
ві	-3193.0
Layout	-3194.0
▁lines	-3195.0
▁Part	-3196.0
empt	-3197.0
▁Bi	-3198.0
▁mind	-3199.0
ky	-3200.0
ging	-3201.0
▁report	-3202.0
▁Add	-3203.0
род	-3204.0
▁range	-3205.0
cias	-3206.0
lip	-3207.0
▁Kar	-3208.0
▁Commons	-3209.0
gerufen	-3210.0
aff	-3211.0
sec	-3212.0
▁html	-3213.0
lig	-3214.0
▁window	-3215.0
inition	-3216.0
cis	-3217.0
▁ut	-3218.0
eln	-3219.0
▁aux	-3220.0
▁neg	-3221.0
Hand	-3222.0
▁);	-3223.0
▁anal	-3224.0
▁fri	-3225.0
▁си	-3226.0
etch	-3227.0
md	-3228.0
page	-3229.0
▁library	-3230.0
▁:=	-3231.0
ROM	-3232.0
You	-3233.0
space	-3234.0
▁durch	-3235.0
▁host	-3236.0
aven	-3237.0
▁File	-3238.0
alle	-3239.0
тив	-3240.0
▁pap	-3241.0
ство	-3242.0
mark	-3243.0
▁mais	-3244.0
erman	-3245.0
Size	-3246.0
ек	-3247.0
▁Ма	-3248.0
▁isn	-3249.0
▁copy	-3250.0
sten	-3251.0
river	-3252.0
▁went	-3253.0
▁javascript	-3254.0
▁sam	-3255.0
▁frame	-3256.0
▁vi	-3257.0
▁previous	-3258.0
rodu	-3259.0
▁methods	-3260.0
▁necess	-3261.0
NA	-3262.0
cket	-3263.0
▁opt	-3264.0
Loc	-3265.0
how	-3266.0
▁în	-3267.0
ship	-3268.0
▁itself	-3269.0
▁Please	-3270.0
iene	-3271.0
вер	-3272.0
▁<<	-3273.0
▁mill	-3274.0
▁trad	-3275.0
pace	-3276.0
▁Har	-3277.0
iten	-3278.0
wise	-3279.0
write	-3280.0
ции	-3281.0
ры	-3282.0
Line	-3283.0
olo	-3284.0
▁accept	-3285.0
height	-3286.0
▁elect	-3287.0
ella	-3288.0
▁på	-3289.0
Select	-3290.0
▁ли	-3291.0
▁\<	-3292.0
((	-3293.0
▁ID	-3294.0
ops	-3295.0
ван	-3296.0
ió	-3297.0
TP	-3298.0
»,	-3299.0
nection	-3300.0
parent	-3301.0
▁Mag	-3302.0
Table	-3303.0
Over	-3304.0
▁network	-3305.0
спо	-3306.0
▁assign	-3307.0
igger	-3308.0
irm	-3309.0
)`	-3310.0
ottom	-3311.0
beta	-3312.0
▁dell	-3313.0
▁body	-3314.0
▁да	-3315.0
▁Your	-3316.0
▁fue	-3317.0
▁package	-3318.0
▁light	-3319.0
▁**	-3320.0
MP	-3321.0
▁cou	-3322.0
yes	-3323.0
:\	-3324.0
▁Ч	-3325.0
▁mention	-3326.0
ensch	-3327.0
▁deg	-3328.0
▁convert	-3329.0
▁Dav	-3330.0
adt	-3331.0
Result	-3332.0
though	-3333.0
▁bus	-3334.0
xy	-3335.0
▁seen	-3336.0
All	-3337.0
public	-3338.0
ively	-3339.0
▁Rec	-3340.0
▁His	-3341.0
sim	-3342.0
▁för	-3343.0
▁histor	-3344.0
▁sett	-3345.0
rat	-3346.0
abled	-3347.0
▁»,	-3348.0
google	-3349.0
Web	-3350.0
él	-3351.0
▁title	-3352.0
▁Janu	-3353.0
ја	-3354.0
▁took	-3355.0
iden	-3356.0
sz	-3357.0
▁Get	-3358.0
▁objects	-3359.0
▁common	-3360.0
▁changes	-3361.0
▁Lond	-3362.0
▁extern	-3363.0
▁ju	-3364.0
Is	-3365.0
▁available	-3366.0
tri	-3367.0
▁más	-3368.0
osa	-3369.0
Be	-3370.0
▁Data	-3371.0
ural	-3372.0
▁hom	-3373.0
▁account	-3374.0
oo	-3375.0
▁perm	-3376.0
respond	-3377.0
yt	-3378.0
▁send	-3379.0
▁returns	-3380.0
ivid	-3381.0
▁expla	-3382.0
ín	-3383.0
▁nor	-3384.0
If	-3385.0
▁From	-3386.0
▁target	-3387.0
fect	-3388.0
ент	-3389.0
▁uit	-3390.0
▁Jo	-3391.0
▁variables	-3392.0
▁series	-3393.0
▁func	-3394.0
▁himself	-3395.0
▁ча	-3396.0
anti	-3397.0
▁ach	-3398.0
ialog	-3399.0
▁std	-3400.0
ae	-3401.0
▁foot	-3402.0
▁unter	-3403.0
gress	-3404.0
Not	-3405.0
rad	-3406.0
fér	-3407.0
▁util	-3408.0
orem	-3409.0
▁sou	-3410.0
opt	-3411.0
▁og	-3412.0
▁uma	-3413.0
itar	-3414.0
▁Ok	-3415.0
ück	-3416.0
sqrt	-3417.0
▁ant	-3418.0
▁werden	-3419.0
år	-3420.0
});	-3421.0
▁Paris	-3422.0
▁exception	-3423.0
▁determ	-3424.0
▁Vol	-3425.0
▁Sam	-3426.0
▁ess	-3427.0
lies	-3428.0
ioni	-3429.0
oding	-3430.0
idget	-3431.0
▁pri	-3432.0
▁whether	-3433.0
▁под	-3434.0
▁numbers	-3435.0
▁~	-3436.0
event	-3437.0
▁shows	-3438.0
atures	-3439.0
▁house	-3440.0
▁face	-3441.0
▁się	-3442.0
vironment	-3443.0
van	-3444.0
▁including	-3445.0
▁<-	-3446.0
times	-3447.0
now	-3448.0
▁pur	-3449.0
ifier	-3450.0
▁emp	-3451.0
▁cla	-3452.0
mon	-3453.0
▁Das	-3454.0
ady	-3455.0
▁від	-3456.0
▁ц	-3457.0
abor	-3458.0
OST	-3459.0
▁band	-3460.0
▁ú	-3461.0
▁exactly	-3462.0
iert	-3463.0
avig	-3464.0
▁redu	-3465.0
▁SE	-3466.0
lished	-3467.0
Bu	-3468.0
Message	-3469.0
cell	-3470.0
fully	-3471.0
▁sv	-3472.0
▁makes	-3473.0
pol	-3474.0
▁required	-3475.0
ferrer	-3476.0
▁pers	-3477.0
▁mi	-3478.0
FI	-3479.0
▁Paul	-3480.0
▁UI	-3481.0
▁Bel	-3482.0
inc	-3483.0
▁contains	-3484.0
Out	-3485.0
asure	-3486.0
pu	-3487.0
oto	-3488.0
▁game	-3489.0
zn	-3490.0
▁Why	-3491.0
orith	-3492.0
big	-3493.0
кий	-3494.0
sigma	-3495.0
▁quite	-3496.0
▁jed	-3497.0
rec	-3498.0
▁SQL	-3499.0
бе	-3500.0
▁Mart	-3501.0
ya	-3502.0
▁school	-3503.0
▁simply	-3504.0
▁vor	-3505.0
▁double	-3506.0
рав	-3507.0
▁Str	-3508.0
iem	-3509.0
▁album	-3510.0
▁resol	-3511.0
▁dei	-3512.0
▁Wik	-3513.0
▁aw	-3514.0
umb	-3515.0
ols	-3516.0
▁*/	-3517.0
▁ze	-3518.0
▁anim	-3519.0
/>	-3520.0
ris	-3521.0
resh	-3522.0
No	-3523.0
iques	-3524.0
current	-3525.0
▁period	-3526.0
▁April	-3527.0
▁store	-3528.0
','	-3529.0
▁Set	-3530.0
={	-3531.0
ached	-3532.0
▁Mal	-3533.0
▁Pal	-3534.0
antes	-3535.0
aterial	-3536.0
▁worked	-3537.0
leq	-3538.0
oreferrer	-3539.0
▁happen	-3540.0
▁box	-3541.0
ney	-3542.0
▁close	-3543.0
▁gran	-3544.0
▁lie	-3545.0
▁ir	-3546.0
▁expected	-3547.0
▁для	-3548.0
click	-3549.0
și	-3550.0
▁parte	-3551.0
ogn	-3552.0
▁Form	-3553.0
▁memb	-3554.0
▁plan	-3555.0
▁team	-3556.0
][	-3557.0
▁commun	-3558.0
orry	-3559.0
ency	-3560.0
gl	-3561.0
inary	-3562.0
cdot	-3563.0
^\	-3564.0
▁First	-3565.0
ander	-3566.0
▁Dec	-3567.0
request	-3568.0
ства	-3569.0
▁structure	-3570.0
▁||	-3571.0
▁Comp	-3572.0
actory	-3573.0
▁Mil	-3574.0
▁Some	-3575.0
Stream	-3576.0
▁assum	-3577.0
uen	-3578.0
▁words	-3579.0
▁September	-3580.0
▁Ко	-3581.0
▁days	-3582.0
ories	-3583.0
став	-3584.0
sm	-3585.0
vin	-3586.0
partial	-3587.0
▁parent	-3588.0
oj	-3589.0
нии	-3590.0
!"	-3591.0
ugin	-3592.0
▁Windows	-3593.0
Ed	-3594.0
:}	-3595.0
▁q	-3596.0
▁ben	-3597.0
iana	-3598.0
▁label	-3599.0
state	-3600.0
uted	-3601.0
▁()	-3602.0
▁сво	-3603.0
▁edit	-3604.0
uring	-3605.0
▁NS	-3606.0
▁Jahr	-3607.0
▁provide	-3608.0
He	-3609.0
▁Yes	-3610.0
anel	-3611.0
ename	-3612.0
▁Don	-3613.0
isk	-3614.0
gra	-3615.0
elij	-3616.0
▁root	-3617.0
*/	-3618.0
▁Fre	-3619.0
▁Mor	-3620.0
used	-3621.0
range	-3622.0
▁tamb	-3623.0
▁module	-3624.0
▁directory	-3625.0
ounds	-3626.0
Activity	-3627.0
▁mu	-3628.0
info	-3629.0
▁free	-3630.0
orge	-3631.0
tab	-3632.0
)=	-3633.0
lang	-3634.0
▁ос	-3635.0
▁FROM	-3636.0
▁enter	-3637.0
▁became	-3638.0
idae	-3639.0
хи	-3640.0
▁States	-3641.0
verse	-3642.0
▁expl	-3643.0
ynt	-3644.0
UN	-3645.0
ee	-3646.0
endent	-3647.0
▁making	-3648.0
▁"$	-3649.0
uni	-3650.0
quence	-3651.0
▁lui	-3652.0
HT	-3653.0
▁uses	-3654.0
zie	-3655.0
nia	-3656.0
Content	-3657.0
▁Count	-3658.0
▁standard	-3659.0
ENT	-3660.0
▁кон	-3661.0
fort	-3662.0
adas	-3663.0
зу	-3664.0
System	-3665.0
▁Sw	-3666.0
▁ever	-3667.0
LO	-3668.0
▁correspond	-3669.0
▁Po	-3670.0
argin	-3671.0
кт	-3672.0
ій	-3673.0
▁remain	-3674.0
cio	-3675.0
▁actual	-3676.0
сту	-3677.0
▁sind	-3678.0
▁Pe	-3679.0
▁changed	-3680.0
▁Note	-3681.0
skie	-3682.0
▁family	-3683.0
ità	-3684.0
cos	-3685.0
txt	-3686.0
ker	-3687.0
ceed	-3688.0
▁arr	-3689.0
▁cam	-3690.0
izer	-3691.0
▁Dan	-3692.0
hel	-3693.0
icult	-3694.0
HP	-3695.0
iler	-3696.0
▁Sal	-3697.0
▁connection	-3698.0
usion	-3699.0
kn	-3700.0
RI	-3701.0
▁vom	-3702.0
Listener	-3703.0
▁ö	-3704.0
▁dim	-3705.0
▁press	-3706.0
▁esc	-3707.0
▁Try	-3708.0
atalog	-3709.0
▁thanks	-3710.0
DO	-3711.0
▁written	-3712.0
dir	-3713.0
rew	-3714.0
▁fire	-3715.0
▁Nach	-3716.0
▁á	-3717.0
enc	-3718.0
▁origin	-3719.0
▁November	-3720.0
▁};	-3721.0
Count	-3722.0
▁За	-3723.0
▁graph	-3724.0
▁mis	-3725.0
▁External	-3726.0
▁▁▁▁▁▁▁▁▁	-1000000000.0
▁options	-3728.0
▁URL	-3729.0
▁php	-3730.0
▁integr	-3731.0
Config	-3732.0
▁Text	-3733.0
inner	-3734.0
▁crit	-3735.0
,”	-3736.0
▁tog	-3737.0
$$	-3738.0
nof	-3739.0
▁ses	-3740.0
ühr	-3741.0
▁Since	-3742.0
Des	-3743.0
ube	-3744.0
▁section	-3745.0
▁gi	-3746.0
ford	-3747.0
▁Ass	-3748.0
ainer	-3749.0
ttp	-3750.0
▁behav	-3751.0
ports	-3752.0
draw	-3753.0
This	-3754.0
ranch	-3755.0
inding	-3756.0
▁estab	-3757.0
▁obtain	-3758.0
rich	-3759.0
licit	-3760.0
ев	-3761.0
▁qual	-3762.0
▁za	-3763.0
▁har	-3764.0
▁fac	-3765.0
aar	-3766.0
jet	-3767.0
icles	-3768.0
▁Aus	-3769.0
▁hor	-3770.0
▁remov	-3771.0
▁wie	-3772.0
Client	-3773.0
▁natur	-3774.0
hip	-3775.0
Sub	-3776.0
▁random	-3777.0
DF	-3778.0
▁area	-3779.0
tag	-3780.0
Pr	-3781.0
▁Ital	-3782.0
▁roku	-3783.0
nofollow	-3784.0
*}	-3785.0
▁others	-3786.0
▁limit	-3787.0
▁sil	-3788.0
▁sav	-3789.0
▁often	-3790.0
▁render	-3791.0
DB	-3792.0
▁Mc	-3793.0
▁zijn	-3794.0
жен	-3795.0
▁tag	-3796.0
ming	-3797.0
lichen	-3798.0
pack	-3799.0
▁Ag	-3800.0
▁sense	-3801.0
pg	-3802.0
Method	-3803.0
aged	-3804.0
ág	-3805.0
ła	-3806.0
▁interest	-3807.0
▁associ	-3808.0
volution	-3809.0
▁empty	-3810.0
iche	-3811.0
▁gro	-3812.0
▁types	-3813.0
▁Sie	-3814.0
Inter	-3815.0
▁noreferrer	-3816.0
▁gives	-3817.0
hal	-3818.0
▁save	-3819.0
▁font	-3820.0
ruction	-3821.0
Script	-3822.0
▁alla	-3823.0
▁says	-3824.0
▁fu	-3825.0
ape	-3826.0
▁language	-3827.0
iger	-3828.0
▁King	-3829.0
bor	-3830.0
uv	-3831.0
▁shall	-3832.0
▁Europe	-3833.0
▁einem	-3834.0
▁water	-3835.0
▁govern	-3836.0
anz	-3837.0
ators	-3838.0
▁month	-3839.0
ye	-3840.0
▁important	-3841.0
atz	-3842.0
first	-3843.0
▁Trans	-3844.0
▁Mad	-3845.0
▁bra	-3846.0
ika	-3847.0
▁Saint	-3848.0
oria	-3849.0
kre	-3850.0
ements	-3851.0
▁Ben	-3852.0
lav	-3853.0
▁admin	-3854.0
▁Hen	-3855.0
ril	-3856.0
▁Sm	-3857.0
cat	-3858.0
▁Refer	-3859.0
▁Ш	-3860.0
▁pract	-3861.0
▁Pat	-3862.0
▁Gre	-3863.0
▁young	-3864.0
▁Inter	-3865.0
oma	-3866.0
teger	-3867.0
ibility	-3868.0
▁parameters	-3869.0
▁everything	-3870.0
dat	-3871.0
urop	-3872.0
olean	-3873.0
▁returned	-3874.0
▁Class	-3875.0
acy	-3876.0
####	-3877.0
▁př	-3878.0
▁folder	-3879.0
▁kon	-3880.0
▁guess	-3881.0
gt	-3882.0
jen	-3883.0
annel	-3884.0
icon	-3885.0
▁comb	-3886.0
rict	-3887.0
▁hij	-3888.0
▁author	-3889.0
see	-3890.0
here	-3891.0
stra	-3892.0
▁entire	-3893.0
▁directly	-3894.0
raft	-3895.0
heet	-3896.0
ester	-3897.0
▁ми	-3898.0
▁mass	-3899.0
untu	-3900.0
▁users	-3901.0
chi	-3902.0
PE	-3903.0
▁component	-3904.0
Click	-3905.0
Att	-3906.0
▁sobre	-3907.0
ands	-3908.0
▁Hol	-3909.0
▁Sant	-3910.0
ori	-3911.0
▁sua	-3912.0
std	-3913.0
entic	-3914.0
CC	-3915.0
▁filter	-3916.0
SQL	-3917.0
▁God	-3918.0
At	-3919.0
▁му	-3920.0
▁performance	-3921.0
delta	-3922.0
ande	-3923.0
amer	-3924.0
ды	-3925.0
▁cult	-3926.0
▁Nor	-3927.0
but	-3928.0
▁lik	-3929.0
********	-3930.0
ствен	-3931.0
▁comme	-3932.0
▁dr	-3933.0
imer	-3934.0
ordin	-3935.0
▁condition	-3936.0
este	-3937.0
([	-3938.0
FF	-3939.0
ться	-3940.0
imo	-3941.0
rab	-3942.0
іль	-3943.0
▁half	-3944.0
each	-3945.0
Dis	-3946.0
▁rows	-3947.0
▁hon	-3948.0
▁together	-3949.0
▁și	-3950.0
medi	-3951.0
agn	-3952.0
alled	-3953.0
▁vill	-3954.0
ING	-3955.0
idden	-3956.0
▁draw	-3957.0
yntax	-3958.0
▁attempt	-3959.0
URL	-3960.0
pose	-3961.0
▁indic	-3962.0
ника	-3963.0
▁English	-3964.0
▁déc	-3965.0
▁needs	-3966.0
▁normal	-3967.0
urt	-3968.0
▁но	-3969.0
}}\	-3970.0
last	-3971.0
▁Fin	-3972.0
▁Febru	-3973.0
ila	-3974.0
▁country	-3975.0
▁fields	-3976.0
▁max	-3977.0
lés	-3978.0
owie	-3979.0
▁deux	-3980.0
▁built	-3981.0
▁Main	-3982.0
▁camp	-3983.0
ivo	-3984.0
iva	-3985.0
icy	-3986.0
zione	-3987.0
Node	-3988.0
▁:)	-3989.0
▁among	-3990.0
▁Ob	-3991.0
▁cases	-3992.0
haps	-3993.0
sers	-3994.0
arter	-3995.0
ści	-3996.0
▁iter	-3997.0
▁named	-3998.0
exec	-3999.0
▁season	-4000.0
tot	-4001.0
=>	-4002.0
graph	-4003.0
▁nil	-4004.0
acional	-4005.0
▁NULL	-4006.0
▁special	-4007.0
сте	-4008.0
css	-4009.0
▁\(	-4010.0
vs	-4011.0
ael	-4012.0
▁city	-4013.0
ova	-4014.0
▁article	-4015.0
▁South	-4016.0
Action	-4017.0
ça	-4018.0
spring	-4019.0
itude	-4020.0
▁complex	-4021.0
▁что	-4022.0
build	-4023.0
gamma	-4024.0
▁Ent	-4025.0
iers	-4026.0
'.	-4027.0
car	-4028.0
apache	-4029.0
ingen	-4030.0
Input	-4031.0
: 	-4032.0
▁dynam	-4033.0
alls	-4034.0
show	-4035.0
|\	-4036.0
▁wird	-4037.0
Bar	-4038.0
alth	-4039.0
model	-4040.0
Trans	-4041.0
Row	-4042.0
abe	-4043.0
▁lib	-4044.0
null	-4045.0
ragment	-4046.0
▁State	-4047.0
▁law	-4048.0
Frame	-4049.0
▁Lo	-4050.0
geb	-4051.0
}$.	-4052.0
▁needed	-4053.0
▁contr	-4054.0
aries	-4055.0
▁screen	-4056.0
yr	-4057.0
mm	-4058.0
▁shown	-4059.0
▁bad	-4060.0
▁cast	-4061.0
▁Test	-4062.0
▁Auf	-4063.0
▁quant	-4064.0
iga	-4065.0
▁ren	-4066.0
▁Mac	-4067.0
▁transform	-4068.0
▁difference	-4069.0
▁tit	-4070.0
TE	-4071.0
▁step	-4072.0
▁capt	-4073.0
▁collection	-4074.0
ictionary	-4075.0
▁Tom	-4076.0
rier	-4077.0
▁move	-4078.0
cope	-4079.0
ords	-4080.0
▁further	-4081.0
▁columns	-4082.0
▁Lin	-4083.0
▁fixed	-4084.0
▁children	-4085.0
MS	-4086.0
mo	-4087.0
una	-4088.0
▁individ	-4089.0
tty	-4090.0
aste	-4091.0
src	-4092.0
match	-4093.0
wi	-4094.0
▁х	-4095.0
▁ди	-4096.0
▁ord	-4097.0
iving	-4098.0
▁Bro	-4099.0
▁almost	-4100.0
▁Pres	-4101.0
reci	-4102.0
aring	-4103.0
▁///	-4104.0
ется	-4105.0
▁sig	-4106.0
light	-4107.0
▁Red	-4108.0
▁suggest	-4109.0
olf	-4110.0
▁été	-4111.0
isation	-4112.0
зна	-4113.0
New	-4114.0
стан	-4115.0
LA	-4116.0
unicip	-4117.0
▁figure	-4118.0
mt	-4119.0
iale	-4120.0
▁catch	-4121.0
default	-4122.0
▁tele	-4123.0
▁matter	-4124.0
cast	-4125.0
▁Rich	-4126.0
▁handle	-4127.0
valu	-4128.0
$-	-4129.0
об	-4130.0
▁json	-4131.0
Create	-4132.0
▁exam	-4133.0
аль	-4134.0
ют	-4135.0
ored	-4136.0
idos	-4137.0
append	-4138.0
▁Array	-4139.0
кс	-4140.0
}[	-4141.0
rive	-4142.0
▁club	-4143.0
mann	-4144.0
▁este	-4145.0
esta	-4146.0
▁Gi	-4147.0
▁Jap	-4148.0
▁Name	-4149.0
Column	-4150.0
oups	-4151.0
ismo	-4152.0
▁City	-4153.0
▁classes	-4154.0
▁infl	-4155.0
hl	-4156.0
ром	-4157.0
▁adding	-4158.0
▁fail	-4159.0
xx	-4160.0
ões	-4161.0
Sc	-4162.0
util	-4163.0
▁location	-4164.0
lege	-4165.0
ago	-4166.0
▁properties	-4167.0
abil	-4168.0
vas	-4169.0
}$,	-4170.0
itted	-4171.0
ód	-4172.0
▁Dem	-4173.0
▁asked	-4174.0
▁tab	-4175.0
Source	-4176.0
▁errors	-4177.0
ographie	-4178.0
▁жи	-4179.0
▁mal	-4180.0
stract	-4181.0
▁dro	-4182.0
rak	-4183.0
▁note	-4184.0
▁setting	-4185.0
▁fem	-4186.0
▁saw	-4187.0
iar	-4188.0
HER	-4189.0
ес	-4190.0
▁pred	-4191.0
▁Out	-4192.0
▁items	-4193.0
лан	-4194.0
▁werd	-4195.0
ersion	-4196.0
lia	-4197.0
▁sin	-4198.0
ichte	-4199.0
▁feel	-4200.0
▁пра	-4201.0
▁oder	-4202.0
UE	-4203.0
ocument	-4204.0
▁mode	-4205.0
▁Na	-4206.0
ден	-4207.0
mes	-4208.0
framework	-4209.0
▁auto	-4210.0
ным	-4211.0
uby	-4212.0
▁template	-4213.0
▁mess	-4214.0
ieder	-4215.0
▁related	-4216.0
oken	-4217.0
▁follows	-4218.0
search	-4219.0
ami	-4220.0
▁wait	-4221.0
igr	-4222.0
▁low	-4223.0
ских	-4224.0
ская	-4225.0
▁Mark	-4226.0
▁ill	-4227.0
amento	-4228.0
\<	-4229.0
▁df	-4230.0
osition	-4231.0
▁Ви	-4232.0
isf	-4233.0
▁Deutsch	-4234.0
ahl	-4235.0
war	-4236.0
itect	-4237.0
▁sal	-4238.0
elen	-4239.0
ById	-4240.0
▁gru	-4241.0
sv	-4242.0
▁passed	-4243.0
▁añ	-4244.0
Sch	-4245.0
▁solve	-4246.0
weise	-4247.0
atos	-4248.0
▁meg	-4249.0
▁member	-4250.0
ername	-4251.0
▁connect	-4252.0
ips	-4253.0
▁round	-4254.0
▁]	-4255.0
nes	-4256.0
▁dir	-4257.0
▁London	-4258.0
dy	-4259.0
FA	-4260.0
▁received	-4261.0
reet	-4262.0
▁Log	-4263.0
▁School	-4264.0
ango	-4265.0
▁These	-4266.0
▁Mont	-4267.0
▁ener	-4268.0
lad	-4269.0
▁define	-4270.0
sign	-4271.0
▁cle	-4272.0
figure	-4273.0
▁View	-4274.0
textbf	-4275.0
$\	-4276.0
зы	-4277.0
number	-4278.0
▁din	-4279.0
eller	-4280.0
orithm	-4281.0
false	-4282.0
fol	-4283.0
fficient	-4284.0
▁HTML	-4285.0
liche	-4286.0
▁Mo	-4287.0
▁introdu	-4288.0
exp	-4289.0
▁strong	-4290.0
▁thus	-4291.0
/)	-4292.0
▁ele	-4293.0
▁так	-4294.0
▁па	-4295.0
▁dont	-4296.0
▁cause	-4297.0
Number	-4298.0
▁images	-4299.0
▁sample	-4300.0
▁sci	-4301.0
like	-4302.0
▁Lou	-4303.0
div	-4304.0
anc	-4305.0
▁front	-4306.0
nen	-4307.0
▁missing	-4308.0
aria	-4309.0
pres	-4310.0
▁пред	-4311.0
DI	-4312.0
filter	-4313.0
▁Mit	-4314.0
UR	-4315.0
▁opp	-4316.0
▁sql	-4317.0
▁року	-4318.0
eren	-4319.0
emat	-4320.0
ís	-4321.0
▁Jean	-4322.0
éc	-4323.0
▁ci	-4324.0
enne	-4325.0
atform	-4326.0
▁taken	-4327.0
▁Of	-4328.0
▁насе	-4329.0
▁err	-4330.0
OP	-4331.0
From	-4332.0
Default	-4333.0
▁General	-4334.0
wiki	-4335.0
▁grand	-4336.0
▁einen	-4337.0
Reg	-4338.0
Handler	-4339.0
conom	-4340.0
anger	-4341.0
▁был	-4342.0
▁Los	-4343.0
▁expression	-4344.0
ша	-4345.0
yal	-4346.0
▁$('	-4347.0
▁switch	-4348.0
▁vector	-4349.0
▁Thom	-4350.0
▁virt	-4351.0
leased	-4352.0
▁cover	-4353.0
▁resp	-4354.0
ako	-4355.0
rench	-4356.0
ota	-4357.0
Cell	-4358.0
anged	-4359.0
▁+=	-4360.0
lac	-4361.0
ska	-4362.0
next	-4363.0
▁International	-4364.0
▁Wil	-4365.0
▁ont	-4366.0
ibr	-4367.0
ustr	-4368.0
▁black	-4369.0
▁selected	-4370.0
cher	-4371.0
▁liter	-4372.0
root	-4373.0
лся	-4374.0
▁Life	-4375.0
▁insert	-4376.0
▁matrix	-4377.0
ises	-4378.0
)]	-4379.0
▁pel	-4380.0
Override	-4381.0
rypt	-4382.0
▁former	-4383.0
▁Film	-4384.0
▁North	-4385.0
client	-4386.0
▁night	-4387.0
ходи	-4388.0
▁Austral	-4389.0
▁Ret	-4390.0
rho	-4391.0
▁пер	-4392.0
ipedia	-4393.0
▁express	-4394.0
▁third	-4395.0
▁major	-4396.0
▁grad	-4397.0
owe	-4398.0
▁believe	-4399.0
ournal	-4400.0
▁status	-4401.0
unc	-4402.0
▁dou	-4403.0
▁JSON	-4404.0
uis	-4405.0
▁population	-4406.0
enz	-4407.0
▁William	-4408.0
sf	-4409.0
▁Object	-4410.0
▁cin	-4411.0
▁Di	-4412.0
curity	-4413.0
▁Open	-4414.0
▁ле	-4415.0
lar	-4416.0
adding	-4417.0
▁kom	-4418.0
}(\	-4419.0
▁kil	-4420.0
umer	-4421.0
"/>	-4422.0
▁feature	-4423.0
▁Are	-4424.0
cks	-4425.0
▁Internet	-4426.0
▁ih	-4427.0
▁started	-4428.0
▁early	-4429.0
▁began	-4430.0
TH	-4431.0
python	-4432.0
asp	-4433.0
▁Fr	-4434.0
▁clos	-4435.0
istic	-4436.0
▁music	-4437.0
▁dig	-4438.0
▁ital	-4439.0
▁David	-4440.0
▁website	-4441.0
▁controller	-4442.0
▁Mer	-4443.0
context	-4444.0
product	-4445.0
osp	-4446.0
▁▁▁▁▁▁▁	-1000000000.0
▁jun	-4448.0
rown	-4449.0
▁Az	-4450.0
":"	-4451.0
▁aan	-4452.0
▁Date	-4453.0
mult	-4454.0
▁browser	-4455.0
ред	-4456.0
which	-4457.0
RA	-4458.0
quare	-4459.0
▁Russ	-4460.0
▁soon	-4461.0
▁Pre	-4462.0
tau	-4463.0
▁week	-4464.0
▁ба	-4465.0
▁oct	-4466.0
▁town	-4467.0
roy	-4468.0
▁els	-4469.0
blic	-4470.0
undle	-4471.0
▁Histor	-4472.0
▁foi	-4473.0
▁models	-4474.0
зо	-4475.0
onym	-4476.0
Param	-4477.0
▁Met	-4478.0
gener	-4479.0
ją	-4480.0
▁espe	-4481.0
CE	-4482.0
▁device	-4483.0
ellow	-4484.0
▁debug	-4485.0
érie	-4486.0
using	-4487.0
анг	-4488.0
▁*)	-4489.0
udi	-4490.0
▁Miss	-4491.0
ком	-4492.0
posed	-4493.0
▁zwe	-4494.0
ін	-4495.0
▁Robert	-4496.0
▁Oct	-4497.0
lop	-4498.0
jar	-4499.0
▁aver	-4500.0
▁habit	-4501.0
▁::	-4502.0
äng	-4503.0
Start	-4504.0
▁pow	-4505.0
▁src	-4506.0
▁pattern	-4507.0
▁Э	-4508.0
▁bi	-4509.0
otes	-4510.0
▁__	-4511.0
▁sens	-4512.0
▁avoid	-4513.0
example	-4514.0
utt	-4515.0
Label	-4516.0
tex	-4517.0
boot	-4518.0
esto	-4519.0
▁March	-4520.0
▁easy	-4521.0
icture	-4522.0
Group	-4523.0
▁father	-4524.0
▁updated	-4525.0
▁Vo	-4526.0
▁III	-4527.0
omega	-4528.0
▁alle	-4529.0
Rec	-4530.0
yg	-4531.0
зе	-4532.0
▁Dim	-4533.0
nect	-4534.0
▁Tor	-4535.0
▁deutsch	-4536.0
▁white	-4537.0
▁national	-4538.0
ppe	-4539.0
▁air	-4540.0
▁password	-4541.0
det	-4542.0
▁big	-4543.0
▁Use	-4544.0
call	-4545.0
▁extra	-4546.0
We	-4547.0
ania	-4548.0
▁hold	-4549.0
Control	-4550.0
▁CO	-4551.0
▁мі	-4552.0
iti	-4553.0
▁Ke	-4554.0
enu	-4555.0
▁Park	-4556.0
том	-4557.0
▁auth	-4558.0
▁center	-4559.0
Ph	-4560.0
тов	-4561.0
iding	-4562.0
▁across	-4563.0
▁song	-4564.0
▁phys	-4565.0
▁numer	-4566.0
ща	-4567.0
▁Alex	-4568.0
▁problems	-4569.0
▁Error	-4570.0
format	-4571.0
▁Acc	-4572.0
▁six	-4573.0
▁db	-4574.0
▁Cast	-4575.0
oms	-4576.0
project	-4577.0
▁vert	-4578.0
cret	-4579.0
▁header	-4580.0
▁stream	-4581.0
ids	-4582.0
▁tor	-4583.0
▁sept	-4584.0
▁estim	-4585.0
▁decl	-4586.0
▁gave	-4587.0
▁player	-4588.0
ysis	-4589.0
▁дру	-4590.0
amm	-4591.0
що	-4592.0
▁("	-4593.0
▁ax	-4594.0
Property	-4595.0
usr	-4596.0
▁someone	-4597.0
▁impro	-4598.0
aden	-4599.0
rote	-4600.0
▁Ми	-4601.0
ih	-4602.0
++)	-4603.0
▁video	-4604.0
▁exists	-4605.0
кла	-4606.0
▁complete	-4607.0
▁session	-4608.0
▁constant	-4609.0
icos	-4610.0
▁pack	-4611.0
rome	-4612.0
egr	-4613.0
Application	-4614.0
▁yes	-4615.0
▁elle	-4616.0
▁email	-4617.0
orf	-4618.0
case	-4619.0
▁pointer	-4620.0
▁regard	-4621.0
sen	-4622.0
status	-4623.0
▁mes	-4624.0
▁delle	-4625.0
ington	-4626.0
▁Bas	-4627.0
)^	-4628.0
develop	-4629.0
▁force	-4630.0
▁characters	-4631.0
▁cross	-4632.0
▁death	-4633.0
▁takes	-4634.0
éri	-4635.0
igne	-4636.0
чен	-4637.0
UP	-4638.0
.:	-4639.0
Thread	-4640.0
ju	-4641.0
iny	-4642.0
▁details	-4643.0
▁xml	-4644.0
tait	-4645.0
output	-4646.0
message	-4647.0
''	-4648.0
▁British	-4649.0
ville	-4650.0
▁Div	-4651.0
▁User	-4652.0
cm	-4653.0
чно	-4654.0
column	-4655.0
eqref	-4656.0
ór	-4657.0
onom	-4658.0
▁Post	-4659.0
ellen	-4660.0
Ab	-4661.0
ulté	-4662.0
▁perfect	-4663.0
(){	-4664.0
vision	-4665.0
active	-4666.0
lier	-4667.0
rij	-4668.0
sd	-4669.0
▁kö	-4670.0
▁nie	-4671.0
▁relig	-4672.0
▁ot	-4673.0
▁machine	-4674.0
▁held	-4675.0
)$.	-4676.0
========	-4677.0
cker	-4678.0
вы	-4679.0
born	-4680.0
▁past	-4681.0
рия	-4682.0
▁Dr	-4683.0
▁regular	-4684.0
▁provided	-4685.0
TER	-4686.0
▁univers	-4687.0
▁gets	-4688.0
▁nu	-4689.0
▁/*	-4690.0
ober	-4691.0
fin	-4692.0
▁nella	-4693.0
▁become	-4694.0
▁``	-4695.0
▁history	-4696.0
▁Sol	-4697.0
▁Rad	-4698.0
▁terms	-4699.0
▁events	-4700.0
lymp	-4701.0
)))	-4702.0
рова	-4703.0
▁absol	-4704.0
▁soft	-4705.0
links	-4706.0
▁hope	-4707.0
▁subject	-4708.0
"),	-4709.0
▁creating	-4710.0
▁}	-4711.0
▁Sk	-4712.0
▁flow	-4713.0
▁Ра	-4714.0
▁assert	-4715.0
zet	-4716.0
▁Frank	-4717.0
sa	-4718.0
▁distribution	-4719.0
cu	-4720.0
band	-4721.0
izz	-4722.0
▁job	-4723.0
iner	-4724.0
struct	-4725.0
ák	-4726.0
TO	-4727.0
auf	-4728.0
▁extends	-4729.0
▁Gra	-4730.0
display	-4731.0
▁signific	-4732.0
oney	-4733.0
source	-4734.0
microsoft	-4735.0
inder	-4736.0
▁quick	-4737.0
▁wonder	-4738.0
Instance	-4739.0
elles	-4740.0
ème	-4741.0
▁company	-4742.0
uß	-4743.0
.}	-4744.0
▁separate	-4745.0
UM	-4746.0
HERE	-4747.0
▁writing	-4748.0
itution	-4749.0
▁Gesch	-4750.0
мя	-4751.0
▁James	-4752.0
▁DE	-4753.0
▁Spe	-4754.0
process	-4755.0
Str	-4756.0
▁sym	-4757.0
▁ao	-4758.0
▁wy	-4759.0
▁anyone	-4760.0
▁Up	-4761.0
useum	-4762.0
aron	-4763.0
▁definition	-4764.0
▁`$	-4765.0
▁fav	-4766.0
ributes	-4767.0
▁Ré	-4768.0
ografia	-4769.0
element	-4770.0
cap	-4771.0
pat	-4772.0
▁Bra	-4773.0
)(	-4774.0
▁according	-4775.0
ге	-4776.0
▁pie	-4777.0
eli	-4778.0
}"	-4779.0
▁activ	-4780.0
▁stop	-4781.0
patch	-4782.0
ті	-4783.0
▁Jose	-4784.0
End	-4785.0
▁prze	-4786.0
▁age	-4787.0
itory	-4788.0
▁PHP	-4789.0
agement	-4790.0
▁`.	-4791.0
▁pretty	-4792.0
▁recomm	-4793.0
▁sud	-4794.0
▁requ	-4795.0
▁обла	-4796.0
atives	-4797.0
▁High	-4798.0
áz	-4799.0
oul	-4800.0
rest	-4801.0
▁Ter	-4802.0
under	-4803.0
thern	-4804.0
center	-4805.0
▁ur	-4806.0
lat	-4807.0
▁interface	-4808.0
▁ин	-4809.0
▁whose	-4810.0
icas	-4811.0
amen	-4812.0
Filter	-4813.0
▁station	-4814.0
Page	-4815.0
▁arm	-4816.0
▁eyes	-4817.0
▁рай	-4818.0
▁seu	-4819.0
oli	-4820.0
win	-4821.0
lik	-4822.0
gex	-4823.0
chan	-4824.0
idence	-4825.0
args	-4826.0
aking	-4827.0
▁Google	-4828.0
▁Stud	-4829.0
▁ho	-4830.0
торы	-4831.0
Su	-4832.0
▁automat	-4833.0
ême	-4834.0
▁cy	-4835.0
lor	-4836.0
▁stack	-4837.0
▁SELECT	-4838.0
AF	-4839.0
▁>>	-4840.0
▁compet	-4841.0
▁pair	-4842.0
▁inglés	-4843.0
Response	-4844.0
▁Fig	-4845.0
grad	-4846.0
▁documentation	-4847.0
▁cant	-4848.0
▁appreci	-4849.0
ån	-4850.0
▁learn	-4851.0
▁indep	-4852.0
▁pal	-4853.0
package	-4854.0
ares	-4855.0
▁Berlin	-4856.0
бли	-4857.0
reich	-4858.0
ён	-4859.0
▁satisf	-4860.0
▁region	-4861.0
▁friend	-4862.0
▁George	-4863.0
▁Во	-4864.0
▁""	-4865.0
▁desde	-4866.0
Factory	-4867.0
▁County	-4868.0
ouv	-4869.0
▁‘	-4870.0
▁installed	-4871.0
▁wanted	-4872.0
▁Python	-4873.0
▁interpre	-4874.0
▁included	-4875.0
▁((	-4876.0
▁altern	-4877.0
isto	-4878.0
gn	-4879.0
▁border	-4880.0
pdf	-4881.0
▁dup	-4882.0
▁download	-4883.0
just	-4884.0
▁members	-4885.0
child	-4886.0
▁pay	-4887.0
▁cer	-4888.0
▁looked	-4889.0
▁correctly	-4890.0
auth	-4891.0
▁стан	-4892.0
▁esp	-4893.0
▁desc	-4894.0
eben	-4895.0
▁questions	-4896.0
mal	-4897.0
▁abgerufen	-4898.0
▁Band	-4899.0
▁[]	-4900.0
Base	-4901.0
▁ris	-4902.0
▁fort	-4903.0
▁Id	-4904.0
▁various	-4905.0
▁League	-4906.0
▁Hand	-4907.0
▁Type	-4908.0
irl	-4909.0
▁Fe	-4910.0
ién	-4911.0
itter	-4912.0
▁fast	-4913.0
sta	-4914.0
▁except	-4915.0
icz	-4916.0
▁French	-4917.0
▁environment	-4918.0
▁conse	-4919.0
ур	-4920.0
ого	-4921.0
▁necessary	-4922.0
target	-4923.0
▁reading	-4924.0
home	-4925.0
zeich	-4926.0
▁equal	-4927.0
▁più	-4928.0
▁prem	-4929.0
▁difficult	-4930.0
▁unit	-4931.0
▁replace	-4932.0
▁heart	-4933.0
▁talk	-4934.0
AM	-4935.0
▁RE	-4936.0
▁Person	-4937.0
endency	-4938.0
▁imm	-4939.0
▁human	-4940.0
dn	-4941.0
▁Kir	-4942.0
▁Aut	-4943.0
known	-4944.0
▁frequ	-4945.0
system	-4946.0
лав	-4947.0
▁Sz	-4948.0
▁Gal	-4949.0
ное	-4950.0
selves	-4951.0
rightarrow	-4952.0
▁Са	-4953.0
="@	-4954.0
▁building	-4955.0
import	-4956.0
▁fam	-4957.0
▁delete	-4958.0
aire	-4959.0
mary	-4960.0
▁fund	-4961.0
▁particip	-4962.0
▁syn	-4963.0
sin	-4964.0
▁lower	-4965.0
▁zero	-4966.0
▁sec	-4967.0
▁fra	-4968.0
Point	-4969.0
▁failed	-4970.0
iento	-4971.0
cup	-4972.0
▁slow	-4973.0
▁nation	-4974.0
ähr	-4975.0
▁info	-4976.0
▁Public	-4977.0
▁decla	-4978.0
▁Та	-4979.0
▁sold	-4980.0
▁Rem	-4981.0
▁Phil	-4982.0
стра	-4983.0
▁mehr	-4984.0
▁Work	-4985.0
▁Nord	-4986.0
▁fait	-4987.0
▁gew	-4988.0
println	-4989.0
obile	-4990.0
▁Kon	-4991.0
▁assume	-4992.0
lands	-4993.0
▁amount	-4994.0
▁Press	-4995.0
ých	-4996.0
▁maxim	-4997.0
▁Champion	-4998.0
library	-4999.0
añ	-5000.0
▁Wal	-5001.0
Comm	-5002.0
]]	-5003.0
▁zw	-5004.0
▁social	-5005.0
LI	-5006.0
▁Unter	-5007.0
vor	-5008.0
Delta	-5009.0
email	-5010.0
raint	-5011.0
oni	-5012.0
▁alt	-5013.0
▁né	-5014.0
ция	-5015.0
ography	-5016.0
▁mentioned	-5017.0
▁<=	-5018.0
▁cette	-5019.0
▁currently	-5020.0
vare	-5021.0
izing	-5022.0
▁Def	-5023.0
icol	-5024.0
ünd	-5025.0
▁configuration	-5026.0
estig	-5027.0
III	-5028.0
lam	-5029.0
ière	-5030.0
▁Ear	-5031.0
▁tu	-5032.0
Ent	-5033.0
▁Using	-5034.0
▁ком	-5035.0
cie	-5036.0
▁proof	-5037.0
▁invol	-5038.0
▁History	-5039.0
><	-5040.0
▁AND	-5041.0
avy	-5042.0
▁relations	-5043.0
${	-5044.0
▁comes	-5045.0
▁direction	-5046.0
▁June	-5047.0
▁Way	-5048.0
Component	-5049.0
ech	-5050.0
▁Peter	-5051.0
sg	-5052.0
▁stra	-5053.0
uct	-5054.0
▁implementation	-5055.0
attle	-5056.0
▁cz	-5057.0
plot	-5058.0
▁played	-5059.0
"></	-5060.0
▁five	-5061.0
▁coll	-5062.0
▁Charles	-5063.0
Tra	-5064.0
▁suo	-5065.0
files	-5066.0
entes	-5067.0
response	-5068.0
How	-5069.0
▁Soci	-5070.0
▁ign	-5071.0
▁led	-5072.0
▁German	-5073.0
udo	-5074.0
▁Du	-5075.0
▁tim	-5076.0
ounter	-5077.0
▁attack	-5078.0
uri	-5079.0
▁ар	-5080.0
esse	-5081.0
ivil	-5082.0
▁Ju	-5083.0
▁vel	-5084.0
matrix	-5085.0
▁Mat	-5086.0
gio	-5087.0
▁Zeit	-5088.0
VER	-5089.0
has	-5090.0
Connection	-5091.0
▁ihr	-5092.0
▁attribute	-5093.0
▁discuss	-5094.0
▁domain	-5095.0
bind	-5096.0
▁Sec	-5097.0
rik	-5098.0
close	-5099.0
gin	-5100.0
▁love	-5101.0
anto	-5102.0
gent	-5103.0
aba	-5104.0
jango	-5105.0
bi	-5106.0
▁obser	-5107.0
itting	-5108.0
▁ру	-5109.0
}=	-5110.0
agen	-5111.0
BC	-5112.0
some	-5113.0
▁Bu	-5114.0
▁soci	-5115.0
▁individual	-5116.0
▁deal	-5117.0
▁outside	-5118.0
rio	-5119.0
Exec	-5120.0
andid	-5121.0
▁business	-5122.0
▁tempor	-5123.0
▁Tur	-5124.0
▁(!	-5125.0
riter	-5126.0
▁google	-5127.0
]:	-5128.0
itte	-5129.0
xi	-5130.0
▁Па	-5131.0
hol	-5132.0
нь	-5133.0
ring	-5134.0
▁sul	-5135.0
ности	-5136.0
_.	-5137.0
gar	-5138.0
Task	-5139.0
▁Check	-5140.0
▁modern	-5141.0
▁win	-5142.0
uster	-5143.0
han	-5144.0
formation	-5145.0
void	-5146.0
▁фи	-5147.0
▁useful	-5148.0
▁England	-5149.0
los	-5150.0
etime	-5151.0
eur	-5152.0
▁unique	-5153.0
▁как	-5154.0
ying	-5155.0
obj	-5156.0
uid	-5157.0
▁windows	-5158.0
▁distance	-5159.0
▁nombre	-5160.0
ія	-5161.0
ocus	-5162.0
ahn	-5163.0
ierte	-5164.0
▁dar	-5165.0
SI	-5166.0
long	-5167.0
asta	-5168.0
iven	-5169.0
▁told	-5170.0
▁Gru	-5171.0
foo	-5172.0
▁calling	-5173.0
iembre	-5174.0
▁future	-5175.0
près	-5176.0
leep	-5177.0
avigation	-5178.0
POST	-5179.0
▁described	-5180.0
▁noch	-5181.0
unit	-5182.0
allen	-5183.0
▁branch	-5184.0
fa	-5185.0
▁fill	-5186.0
▁obj	-5187.0
▁tree	-5188.0
▁wurden	-5189.0
▁Liter	-5190.0
rot	-5191.0
split	-5192.0
emein	-5193.0
module	-5194.0
CA	-5195.0
▁operator	-5196.0
▁wrote	-5197.0
▁Jack	-5198.0
ologie	-5199.0
▁Ant	-5200.0
тер	-5201.0
stream	-5202.0
▁Que	-5203.0
epsilon	-5204.0
non	-5205.0
stein	-5206.0
▁simpl	-5207.0
pub	-5208.0
▁July	-5209.0
▁nature	-5210.0
▁Database	-5211.0
ól	-5212.0
ним	-5213.0
▁VI	-5214.0
être	-5215.0
iles	-5216.0
▁wel	-5217.0
'),	-5218.0
▁mut	-5219.0
location	-5220.0
▁therefore	-5221.0
elli	-5222.0
▁І	-5223.0
né	-5224.0
▁ав	-5225.0
ledge	-5226.0
▁conver	-5227.0
ím	-5228.0
▁XV	-5229.0
vider	-5230.0
▁January	-5231.0
▁usually	-5232.0
▁released	-5233.0
▁Mi	-5234.0
Head	-5235.0
iller	-5236.0
▁jan	-5237.0
▁letter	-5238.0
produ	-5239.0
rd	-5240.0
▁Cam	-5241.0
,'	-5242.0
▁Ц	-5243.0
▁push	-5244.0
update	-5245.0
▁maybe	-5246.0
Http	-5247.0
@"	-5248.0
мер	-5249.0
service	-5250.0
parse	-5251.0
▁dass	-5252.0
ên	-5253.0
)"	-5254.0
more	-5255.0
/*	-5256.0
▁mas	-5257.0
▁likely	-5258.0
▁material	-5259.0
▁[[	-5260.0
▁longer	-5261.0
bal	-5262.0
▁Archiv	-5263.0
igt	-5264.0
▁egy	-5265.0
idge	-5266.0
igu	-5267.0
conf	-5268.0
▁inc	-5269.0
consulté	-5270.0
▁mai	-5271.0
Work	-5272.0
▁гра	-5273.0
▁October	-5274.0
▁global	-5275.0
▁sel	-5276.0
▁municip	-5277.0
▁viol	-5278.0
▁Does	-5279.0
▁\[	-5280.0
ском	-5281.0
▁compos	-5282.0
бря	-5283.0
вя	-5284.0
▁respons	-5285.0
▁considered	-5286.0
▁Japan	-5287.0
pes	-5288.0
osto	-5289.0
▁milit	-5290.0
SP	-5291.0
сы	-5292.0
attr	-5293.0
cil	-5294.0
irectory	-5295.0
aving	-5296.0
▁Del	-5297.0
▁prevent	-5298.0
idade	-5299.0
git	-5300.0
iform	-5301.0
outer	-5302.0
inct	-5303.0
level	-5304.0
atever	-5305.0
▁repe	-5306.0
▁exc	-5307.0
дар	-5308.0
Style	-5309.0
▁Thomas	-5310.0
eline	-5311.0
▁ж	-5312.0
untime	-5313.0
▁larg	-5314.0
True	-5315.0
.*	-5316.0
creen	-5317.0
yles	-5318.0
▁transl	-5319.0
▁Со	-5320.0
ensions	-5321.0
äl	-5322.0
isse	-5323.0
▁volt	-5324.0
cially	-5325.0
nik	-5326.0
.]	-5327.0
▁Stadt	-5328.0
мы	-5329.0
fill	-5330.0
lov	-5331.0
▁"/	-5332.0
Sp	-5333.0
▁Air	-5334.0
Call	-5335.0
▁nur	-5336.0
Check	-5337.0
ience	-5338.0
efined	-5339.0
▁вре	-5340.0
ło	-5341.0
dz	-5342.0
▁ор	-5343.0
iker	-5344.0
owa	-5345.0
ович	-5346.0
ré	-5347.0
OL	-5348.0
▁linear	-5349.0
▁export	-5350.0
ahr	-5351.0
icial	-5352.0
Rep	-5353.0
▁natural	-5354.0
▁cop	-5355.0
▁})	-5356.0
ções	-5357.0
zz	-5358.0
What	-5359.0
▁House	-5360.0
Ref	-5361.0
inger	-5362.0
▁taking	-5363.0
ně	-5364.0
▁Einz	-5365.0
▁dam	-5366.0
▁issues	-5367.0
Builder	-5368.0
edit	-5369.0
▁prz	-5370.0
password	-5371.0
Gener	-5372.0
rim	-5373.0
▁parts	-5374.0
---	-5375.0
iginal	-5376.0
▁Sci	-5377.0
▁mother	-5378.0
rea	-5379.0
▁container	-5380.0
дя	-5381.0
▁IP	-5382.0
▁none	-5383.0
▁followed	-5384.0
▁ple	-5385.0
▁measure	-5386.0
▁tout	-5387.0
Ext	-5388.0
▁TV	-5389.0
▁explain	-5390.0
▁paper	-5391.0
сті	-5392.0
ws	-5393.0
Wik	-5394.0
▁mm	-5395.0
▁Norm	-5396.0
▁Server	-5397.0
font	-5398.0
ecause	-5399.0
TR	-5400.0
▁би	-5401.0
La	-5402.0
▁ens	-5403.0
▁retr	-5404.0
▁Sil	-5405.0
▁sequence	-5406.0
arc	-5407.0
IV	-5408.0
zá	-5409.0
▁Android	-5410.0
▁Super	-5411.0
▁roz	-5412.0
ovie	-5413.0
Om	-5414.0
▁Well	-5415.0
make	-5416.0
orph	-5417.0
▁Jer	-5418.0
▁Ros	-5419.0
reference	-5420.0
▁features	-5421.0
▁Ger	-5422.0
▁Leg	-5423.0
▁late	-5424.0
▁additional	-5425.0
▁flo	-5426.0
▁его	-5427.0
▁algorithm	-5428.0
BA	-5429.0
kar	-5430.0
IP	-5431.0
]);	-5432.0
▁appears	-5433.0
yw	-5434.0
▁temp	-5435.0
▁aussi	-5436.0
method	-5437.0
▁pet	-5438.0
strap	-5439.0
arning	-5440.0
▁cut	-5441.0
▁Sa	-5442.0
▁track	-5443.0
▁employ	-5444.0
▁inde	-5445.0
rav	-5446.0
▁generate	-5447.0
bes	-5448.0
arts	-5449.0
Status	-5450.0
uge	-5451.0
alis	-5452.0
▁override	-5453.0
▁fi	-5454.0
▁lost	-5455.0
oted	-5456.0
▁room	-5457.0
▁calls	-5458.0
▁consist	-5459.0
рен	-5460.0
▁village	-5461.0
dist	-5462.0
▁techn	-5463.0
enza	-5464.0
▁роз	-5465.0
▁Catalog	-5466.0
▁becom	-5467.0
rows	-5468.0
▁Nel	-5469.0
comple	-5470.0
▁premi	-5471.0
▁rot	-5472.0
▁Weblinks	-5473.0
▁football	-5474.0
▁compar	-5475.0
▁live	-5476.0
ких	-5477.0
▁equival	-5478.0
cape	-5479.0
▁Gen	-5480.0
nder	-5481.0
▁Vis	-5482.0
▁behind	-5483.0
gers	-5484.0
voke	-5485.0
▁media	-5486.0
EX	-5487.0
that	-5488.0
▁sono	-5489.0
▁mysql	-5490.0
ev	-5491.0
▁rule	-5492.0
дов	-5493.0
acc	-5494.0
▁WHERE	-5495.0
ене	-5496.0
Grid	-5497.0
▁jul	-5498.0
▁mort	-5499.0
▁generated	-5500.0
encia	-5501.0
acter	-5502.0
clud	-5503.0
▁scen	-5504.0
▁closed	-5505.0
▁Michael	-5506.0
▁mount	-5507.0
)$,	-5508.0
▁drop	-5509.0
▁combin	-5510.0
tocol	-5511.0
▁goes	-5512.0
▁geb	-5513.0
MD	-5514.0
▁Anton	-5515.0
▁$("	-5516.0
Tem	-5517.0
▁ca	-5518.0
▁instru	-5519.0
eds	-5520.0
▁tool	-5521.0
mys	-5522.0
▁route	-5523.0
"))	-5524.0
пре	-5525.0
▁float	-5526.0
▁services	-5527.0
▁чи	-5528.0
кі	-5529.0
embly	-5530.0
aker	-5531.0
▁Son	-5532.0
▁Math	-5533.0
asse	-5534.0
ously	-5535.0
lications	-5536.0
▁ru	-5537.0
▁що	-5538.0
▁Const	-5539.0
▁immedi	-5540.0
FO	-5541.0
oro	-5542.0
▁production	-5543.0
rei	-5544.0
▁jquery	-5545.0
annt	-5546.0
▁While	-5547.0
▁sn	-5548.0
▁годи	-5549.0
Format	-5550.0
▁star	-5551.0
▁Sen	-5552.0
▁ko	-5553.0
NAME	-5554.0
▁prés	-5555.0
cha	-5556.0
what	-5557.0
omin	-5558.0
endant	-5559.0
hy	-5560.0
▁observ	-5561.0
▁prefer	-5562.0
ун	-5563.0
▁constructor	-5564.0
bs	-5565.0
▁mac	-5566.0
▁Bre	-5567.0
▁Instit	-5568.0
▁story	-5569.0
▁symbol	-5570.0
eles	-5571.0
ße	-5572.0
asing	-5573.0
▁west	-5574.0
ians	-5575.0
▁master	-5576.0
ез	-5577.0
▁ways	-5578.0
bm	-5579.0
▁pick	-5580.0
▁depart	-5581.0
Back	-5582.0
enk	-5583.0
lipse	-5584.0
▁math	-5585.0
▁Francis	-5586.0
▁December	-5587.0
fs	-5588.0
rum	-5589.0
▁development	-5590.0
LT	-5591.0
ernel	-5592.0
▁True	-5593.0
▁More	-5594.0
rangle	-5595.0
▁conditions	-5596.0
Options	-5597.0
▁gli	-5598.0
▁operation	-5599.0
ék	-5600.0
acht	-5601.0
ights	-5602.0
▁mist	-5603.0
anda	-5604.0
▁energy	-5605.0
▁же	-5606.0
▁women	-5607.0
akt	-5608.0
▁CH	-5609.0
gebra	-5610.0
▁meet	-5611.0
iu	-5612.0
well	-5613.0
öl	-5614.0
▁government	-5615.0
▁Jos	-5616.0
ieg	-5617.0
▁syntax	-5618.0
fix	-5619.0
▁Pet	-5620.0
jquery	-5621.0
▁card	-5622.0
▁principal	-5623.0
▁dru	-5624.0
▁territ	-5625.0
▁пов	-5626.0
▁SS	-5627.0
рии	-5628.0
tres	-5629.0
agne	-5630.0
lying	-5631.0
tilde	-5632.0
bern	-5633.0
enter	-5634.0
Per	-5635.0
▁somet	-5636.0
Load	-5637.0
lice	-5638.0
▁sous	-5639.0
▁Louis	-5640.0
▁logic	-5641.0
▁Other	-5642.0
▁cir	-5643.0
év	-5644.0
chron	-5645.0
▁han	-5646.0
▁margin	-5647.0
Window	-5648.0
ères	-5649.0
nych	-5650.0
push	-5651.0
bolds	-5652.0
▁layout	-5653.0
▁[`	-5654.0
Char	-5655.0
▁Cap	-5656.0
boldsymbol	-5657.0
▁Roman	-5658.0
▁Max	-5659.0
:(	-5660.0
▁Code	-5661.0
ising	-5662.0
▁states	-5663.0
▁existing	-5664.0
support	-5665.0
▁research	-5666.0
licate	-5667.0
vari	-5668.0
▁bij	-5669.0
▁appe	-5670.0
▁happens	-5671.0
\"	-5672.0
▁concern	-5673.0
west	-5674.0
▁saying	-5675.0
pid	-5676.0
▁recogn	-5677.0
▁Het	-5678.0
Child	-5679.0
▁cs	-5680.0
\,	-5681.0
▁clean	-5682.0
lections	-5683.0
access	-5684.0
ву	-5685.0
про	-5686.0
acity	-5687.0
▁Off	-5688.0
▁easily	-5689.0
èque	-5690.0
▁jako	-5691.0
▁iz	-5692.0
▁Ha	-5693.0
▁Det	-5694.0
▁forma	-5695.0
sche	-5696.0
swers	-5697.0
▁offer	-5698.0
quired	-5699.0
Users	-5700.0
▁subst	-5701.0
>(	-5702.0
▁ground	-5703.0
unn	-5704.0
rod	-5705.0
spe	-5706.0
ursor	-5707.0
▁leave	-5708.0
erk	-5709.0
▁tal	-5710.0
▁bottom	-5711.0
IO	-5712.0
▁popular	-5713.0
igo	-5714.0
▁Time	-5715.0
values	-5716.0
▁Loc	-5717.0
▁Club	-5718.0
▁anche	-5719.0
iał	-5720.0
ії	-5721.0
Omega	-5722.0
▁located	-5723.0
Url	-5724.0
▁Esp	-5725.0
лы	-5726.0
ць	-5727.0
ulate	-5728.0
▁join	-5729.0
aves	-5730.0
vet	-5731.0
lio	-5732.0
remove	-5733.0
▁token	-5734.0
▁optim	-5735.0
▁claim	-5736.0
ological	-5737.0
▁css	-5738.0
▁although	-5739.0
▁priv	-5740.0
▁Ba	-5741.0
ül	-5742.0
entication	-5743.0
▁ven	-5744.0
Server	-5745.0
▁Cong	-5746.0
NET	-5747.0
CON	-5748.0
dt	-5749.0
perties	-5750.0
▁epis	-5751.0
wikipedia	-5752.0
▁engine	-5753.0
▁fer	-5754.0
getElement	-5755.0
▁Cla	-5756.0
ří	-5757.0
▁rom	-5758.0
varepsilon	-5759.0
▁prime	-5760.0
istry	-5761.0
pected	-5762.0
orage	-5763.0
▁touch	-5764.0
▁['	-5765.0
▁dan	-5766.0
Em	-5767.0
aciones	-5768.0
Can	-5769.0
▁whom	-5770.0
▁behavior	-5771.0
▁strings	-5772.0
▁Europ	-5773.0
▁Rom	-5774.0
circ	-5775.0
▁pun	-5776.0
▁register	-5777.0
buntu	-5778.0
rain	-5779.0
Ob	-5780.0
TA	-5781.0
▁sometimes	-5782.0
▁ment	-5783.0
▁integer	-5784.0
▁Jac	-5785.0
legate	-5786.0
othing	-5787.0
▁sound	-5788.0
laces	-5789.0
▁Ба	-5790.0
rb	-5791.0
di	-5792.0
ления	-5793.0
▁themselves	-5794.0
▁Black	-5795.0
▁settings	-5796.0
▁norm	-5797.0
▁runs	-5798.0
▁NOT	-5799.0
KE	-5800.0
▁perhaps	-5801.0
▁Я	-5802.0
▁mol	-5803.0
▁ans	-5804.0
atre	-5805.0
▁Dies	-5806.0
Token	-5807.0
anie	-5808.0
▁allowed	-5809.0
Range	-5810.0
▁Gro	-5811.0
via	-5812.0
utorial	-5813.0
ensor	-5814.0
estival	-5815.0
);	-5816.0
краї	-5817.0
▁turned	-5818.0
scope	-5819.0
▁bien	-5820.0
=$	-5821.0
▁extension	-5822.0
atore	-5823.0
▁Ро	-5824.0
▁specify	-5825.0
edu	-5826.0
Datos	-5827.0
▁stored	-5828.0
▁parse	-5829.0
▁answers	-5830.0
ills	-5831.0
▁heard	-5832.0
lu	-5833.0
▁THE	-5834.0
▁gén	-5835.0
▁ful	-5836.0
ez	-5837.0
▁Prem	-5838.0
then	-5839.0
dp	-5840.0
ського	-5841.0
▁Si	-5842.0
ço	-5843.0
Edit	-5844.0
ків	-5845.0
▁Ли	-5846.0
▁Sing	-5847.0
▁categ	-5848.0
Equ	-5849.0
▁guer	-5850.0
Width	-5851.0
▁Christian	-5852.0
stat	-5853.0
Write	-5854.0
▁woman	-5855.0
wood	-5856.0
Vis	-5857.0
раз	-5858.0
▁$$\	-5859.0
oder	-5860.0
▁bool	-5861.0
▁international	-5862.0
ность	-5863.0
▁Richard	-5864.0
▁addition	-5865.0
▁Music	-5866.0
▁aber	-5867.0
tó	-5868.0
▁hier	-5869.0
ugh	-5870.0
▁pob	-5871.0
▁tables	-5872.0
Do	-5873.0
▁higher	-5874.0
psi	-5875.0
rá	-5876.0
▁active	-5877.0
▁Table	-5878.0
ње	-5879.0
▁description	-5880.0
▁seemed	-5881.0
íst	-5882.0
▁myself	-5883.0
▁menu	-5884.0
del	-5885.0
▁ž	-5886.0
ele	-5887.0
Aut	-5888.0
▁гру	-5889.0
mut	-5890.0
oon	-5891.0
asc	-5892.0
bug	-5893.0
▁moved	-5894.0
CL	-5895.0
▁datas	-5896.0
SO	-5897.0
оло	-5898.0
▁Georg	-5899.0
▁reach	-5900.0
:"	-5901.0
▁evalu	-5902.0
▁Hel	-5903.0
▁River	-5904.0
▁Ар	-5905.0
////	-5906.0
▁sets	-5907.0
▁Olymp	-5908.0
Adapter	-5909.0
.'	-5910.0
overn	-5911.0
▁Lord	-5912.0
!--	-5913.0
jpg	-5914.0
imento	-5915.0
▁Prof	-5916.0
▁achieve	-5917.0
}:	-5918.0
▁incor	-5919.0
▁onder	-5920.0
engl	-5921.0
ABLE	-5922.0
▁Mary	-5923.0
▁waren	-5924.0
lage	-5925.0
Dec	-5926.0
англ	-5927.0
encias	-5928.0
лей	-5929.0
▁Machine	-5930.0
▁Ан	-5931.0
uda	-5932.0
▁ś	-5933.0
▁XX	-5934.0
only	-5935.0
ление	-5936.0
▁también	-5937.0
nej	-5938.0
▁relative	-5939.0
▁hours	-5940.0
▁indeed	-5941.0
undo	-5942.0
ingu	-5943.0
area	-5944.0
▁Create	-5945.0
beit	-5946.0
▁removed	-5947.0
master	-5948.0
haus	-5949.0
▁Bern	-5950.0
▁speed	-5951.0
▁Bay	-5952.0
▁Att	-5953.0
▁None	-5954.0
application	-5955.0
üd	-5956.0
▁fit	-5957.0
▁Maria	-5958.0
▁nord	-5959.0
▁split	-5960.0
▁stru	-5961.0
▁official	-5962.0
▁execute	-5963.0
ouve	-5964.0
{{	-5965.0
▁Ap	-5966.0
▁ку	-5967.0
IL	-5968.0
▁^	-5969.0
dim	-5970.0
▁setup	-5971.0
ск	-5972.0
▁share	-5973.0
▁minutes	-5974.0
gle	-5975.0
oco	-5976.0
stell	-5977.0
▁Coun	-5978.0
▁temper	-5979.0
keit	-5980.0
ський	-5981.0
ao	-5982.0
▁Long	-5983.0
(&	-5984.0
кан	-5985.0
▁dens	-5986.0
But	-5987.0
XX	-5988.0
DATE	-5989.0
gan	-5990.0
.).	-5991.0
▁entry	-5992.0
install	-5993.0
▁зна	-5994.0
▁Som	-5995.0
Command	-5996.0
ßen	-5997.0
▁starting	-5998.0
▁sto	-5999.0
IG	-6000.0
▁minim	-6001.0
▁explicit	-6002.0
▁bytes	-6003.0
▁party	-6004.0
tober	-6005.0
▁Grand	-6006.0
▁Vor	-6007.0
▁leur	-6008.0
Document	-6009.0
erc	-6010.0
ensive	-6011.0
CP	-6012.0
env	-6013.0
▁arguments	-6014.0
▁Gran	-6015.0
arily	-6016.0
▁lin	-6017.0
tn	-6018.0
(-	-6019.0
geq	-6020.0
▁Famil	-6021.0
▁Бо	-6022.0
▁tour	-6023.0
▁nav	-6024.0
▁properly	-6025.0
▁Mrs	-6026.0
▁Mel	-6027.0
▁scale	-6028.0
astic	-6029.0
ds	-6030.0
▁Sir	-6031.0
▁Church	-6032.0
}^{\	-6033.0
you	-6034.0
/.	-6035.0
So	-6036.0
▁brought	-6037.0
▁role	-6038.0
▁Sur	-6039.0
▁fond	-6040.0
▁ges	-6041.0
że	-6042.0
eten	-6043.0
▁était	-6044.0
SER	-6045.0
▁которы	-6046.0
▁equation	-6047.0
aspx	-6048.0
▁Afr	-6049.0
▁dit	-6050.0
empty	-6051.0
alement	-6052.0
wrap	-6053.0
▁Bet	-6054.0
▁collect	-6055.0
▁git	-6056.0
▁vie	-6057.0
▁..	-6058.0
рой	-6059.0
▁<?	-6060.0
▁educ	-6061.0
kl	-6062.0
ensis	-6063.0
▁OR	-6064.0
▁Hi	-6065.0
▁Cour	-6066.0
бы	-6067.0
cert	-6068.0
▁Ges	-6069.0
essor	-6070.0
Main	-6071.0
▁лю	-6072.0
cade	-6073.0
dot	-6074.0
augh	-6075.0
hib	-6076.0
▁automatically	-6077.0
▁spir	-6078.0
present	-6079.0
▁February	-6080.0
▁Elle	-6081.0
custom	-6082.0
▁proget	-6083.0
▁administr	-6084.0
AA	-6085.0
▁born	-6086.0
▁College	-6087.0
athol	-6088.0
`)	-6089.0
ierre	-6090.0
▁ran	-6091.0
▁profession	-6092.0
ogen	-6093.0
}_{\	-6094.0
▁activity	-6095.0
▁scroll	-6096.0
▁prove	-6097.0
ibrary	-6098.0
eries	-6099.0
Read	-6100.0
year	-6101.0
▁lang	-6102.0
Det	-6103.0
▁knew	-6104.0
▁protected	-6105.0
▁wor	-6106.0
▁effic	-6107.0
▁rég	-6108.0
▁theory	-6109.0
▁published	-6110.0
real	-6111.0
▁Tour	-6112.0
▁durante	-6113.0
äs	-6114.0
▁positive	-6115.0
▁forward	-6116.0
▁Rel	-6117.0
{"	-6118.0
park	-6119.0
▁Um	-6120.0
▁eer	-6121.0
enta	-6122.0
▁imag	-6123.0
ної	-6124.0
piel	-6125.0
▁jQuery	-6126.0
isme	-6127.0
chni	-6128.0
organ	-6129.0
▁args	-6130.0
oir	-6131.0
heim	-6132.0
rian	-6133.0
eless	-6134.0
uses	-6135.0
дин	-6136.0
ición	-6137.0
▁indust	-6138.0
▁wish	-6139.0
ány	-6140.0
oca	-6141.0
▁angular	-6142.0
ieved	-6143.0
▁occur	-6144.0
SELECT	-6145.0
onia	-6146.0
admin	-6147.0
▁Best	-6148.0
▁это	-6149.0
огра	-6150.0
▁loss	-6151.0
▁bal	-6152.0
▁Рос	-6153.0
▁career	-6154.0
▁пе	-6155.0
IX	-6156.0
▁fall	-6157.0
▁Rob	-6158.0
▁OP	-6159.0
ened	-6160.0
graphics	-6161.0
▁coming	-6162.0
Update	-6163.0
▁died	-6164.0
eden	-6165.0
▁abs	-6166.0
▁inner	-6167.0
▁trav	-6168.0
стоя	-6169.0
zą	-6170.0
ép	-6171.0
▁Group	-6172.0
▁cel	-6173.0
▁stuff	-6174.0
▁situation	-6175.0
▁${	-6176.0
acle	-6177.0
▁purpose	-6178.0
▁Fire	-6179.0
▁Oh	-6180.0
▁Second	-6181.0
▁upload	-6182.0
ostał	-6183.0
ющи	-6184.0
Auth	-6185.0
▁showing	-6186.0
▁completely	-6187.0
avel	-6188.0
bd	-6189.0
▁proced	-6190.0
▁Ö	-6191.0
control	-6192.0
▁thank	-6193.0
undred	-6194.0
▁tom	-6195.0
▁examples	-6196.0
▁remember	-6197.0
▁рабо	-6198.0
▁possib	-6199.0
▁detect	-6200.0
▁poor	-6201.0
▁Op	-6202.0
▁century	-6203.0
utter	-6204.0
▁login	-6205.0
unst	-6206.0
Output	-6207.0
▁otherwise	-6208.0
lan	-6209.0
тур	-6210.0
▁сов	-6211.0
▁groups	-6212.0
rip	-6213.0
▁shell	-6214.0
▁district	-6215.0
▁records	-6216.0
▁siè	-6217.0
fortun	-6218.0
enty	-6219.0
▁Tre	-6220.0
▁changing	-6221.0
след	-6222.0
aught	-6223.0
▁deep	-6224.0
subset	-6225.0
agy	-6226.0
endar	-6227.0
jax	-6228.0
OM	-6229.0
El	-6230.0
imate	-6231.0
ardo	-6232.0
▁plot	-6233.0
▁visit	-6234.0
▁bug	-6235.0
▁все	-6236.0
▁opened	-6237.0
▁repla	-6238.0
▁Henry	-6239.0
▁pp	-6240.0
bas	-6241.0
▁dark	-6242.0
▁Martin	-6243.0
▁resource	-6244.0
iling	-6245.0
▁watch	-6246.0
replace	-6247.0
▁release	-6248.0
Location	-6249.0
▁learning	-6250.0
menu	-6251.0
▁allows	-6252.0
ър	-6253.0
Length	-6254.0
▁whatever	-6255.0
▁pages	-6256.0
▁compiler	-6257.0
▁также	-6258.0
▁Pan	-6259.0
command	-6260.0
▁road	-6261.0
▁unless	-6262.0
`?	-6263.0
▁discover	-6264.0
▁он	-6265.0
}]	-6266.0
bour	-6267.0
▁Could	-6268.0
▁regex	-6269.0
▁ps	-6270.0
CD	-6271.0
из	-6272.0
▁wife	-6273.0
amenti	-6274.0
▁fair	-6275.0
▁DB	-6276.0
▁Cup	-6277.0
enen	-6278.0
ajax	-6279.0
othèque	-6280.0
▁seiner	-6281.0
icker	-6282.0
ám	-6283.0
exchange	-6284.0
oles	-6285.0
IF	-6286.0
▁До	-6287.0
ohn	-6288.0
▁grow	-6289.0
▁Thus	-6290.0
spec	-6291.0
▁hatte	-6292.0
#,	-6293.0
allel	-6294.0
▁rate	-6295.0
▁central	-6296.0
▁Van	-6297.0
iforn	-6298.0
Run	-6299.0
▁study	-6300.0
▁XML	-6301.0
▁Che	-6302.0
▁beaut	-6303.0
mid	-6304.0
▁advance	-6305.0
Ver	-6306.0
тя	-6307.0
▁hands	-6308.0
▁lay	-6309.0
▁š	-6310.0
▁OS	-6311.0
▁{}	-6312.0
Pre	-6313.0
▁Hall	-6314.0
imp	-6315.0
▁sun	-6316.0
▁steps	-6317.0
▁jud	-6318.0
qui	-6319.0
▁boot	-6320.0
▁%>	-6321.0
▁Ва	-6322.0
nost	-6323.0
▁nem	-6324.0
▁pen	-6325.0
Open	-6326.0
▁church	-6327.0
кон	-6328.0
▁average	-6329.0
▁comments	-6330.0
▁corresponding	-6331.0
levant	-6332.0
▁bed	-6333.0
▁meaning	-6334.0
Version	-6335.0
Link	-6336.0
bel	-6337.0
▁extract	-6338.0
ść	-6339.0
▁IV	-6340.0
▁Ir	-6341.0
▁computer	-6342.0
▁affect	-6343.0
▁Ста	-6344.0
AX	-6345.0
sort	-6346.0
▁species	-6347.0
▁Oper	-6348.0
▁hash	-6349.0
ches	-6350.0
▁Einzeln	-6351.0
▁keys	-6352.0
▁marzo	-6353.0
▁interpret	-6354.0
hood	-6355.0
▁coordin	-6356.0
ös	-6357.0
rage	-6358.0
etz	-6359.0
iza	-6360.0
дер	-6361.0
üt	-6362.0
^*	-6363.0
▁modify	-6364.0
▁termin	-6365.0
▁cred	-6366.0
zon	-6367.0
ную	-6368.0
▁mie	-6369.0
▁''	-6370.0
▁Mos	-6371.0
▁connected	-6372.0
NO	-6373.0
▁compile	-6374.0
▁"\	-6375.0
▁cat	-6376.0
fiddle	-6377.0
uta	-6378.0
Access	-6379.0
▁Sto	-6380.0
▁Bur	-6381.0
▁north	-6382.0
Gamma	-6383.0
▁alloc	-6384.0
Init	-6385.0
▁Link	-6386.0
ialize	-6387.0
Impl	-6388.0
oupe	-6389.0
ropri	-6390.0
▁Gold	-6391.0
▁solo	-6392.0
▁Dist	-6393.0
,-	-6394.0
nav	-6395.0
▁alert	-6396.0
esis	-6397.0
▁Os	-6398.0
///	-6399.0
▁feb	-6400.0
▁-->	-6401.0
foot	-6402.0
▁Fried	-6403.0
▁Einzelnach	-6404.0
▁rev	-6405.0
zeit	-6406.0
▁Stat	-6407.0
▁Seg	-6408.0
▁blo	-6409.0
wick	-6410.0
EL	-6411.0
caption	-6412.0
header	-6413.0
▁president	-6414.0
▁multip	-6415.0
▁Einzelnachweise	-6416.0
▁seine	-6417.0
?”	-6418.0
Function	-6419.0
▁Stand	-6420.0
▁Function	-6421.0
▁?>	-6422.0
▁Bill	-6423.0
▁spect	-6424.0
▁redirect	-6425.0
rupt	-6426.0
▁walk	-6427.0
вши	-6428.0
springframework	-6429.0
place	-6430.0
ého	-6431.0
Entity	-6432.0
▁Service	-6433.0
inte	-6434.0
▁training	-6435.0
▁(`	-6436.0
фор	-6437.0
▁кра	-6438.0
aur	-6439.0
▁fetch	-6440.0
▁†	-6441.0
▁même	-6442.0
▁('	-6443.0
atively	-6444.0
▁execut	-6445.0
äch	-6446.0
▁Catalogue	-6447.0
based	-6448.0
Attribute	-6449.0
▁spring	-6450.0
phone	-6451.0
тра	-6452.0
▁пи	-6453.0
тера	-6454.0
▁`\	-6455.0
▁Od	-6456.0
One	-6457.0
send	-6458.0
bon	-6459.0
▁°	-6460.0
MO	-6461.0
▁asking	-6462.0
▁où	-6463.0
▁ingår	-6464.0
▁testing	-6465.0
▁фа	-6466.0
▁Book	-6467.0
imm	-6468.0
▁progress	-6469.0
bro	-6470.0
First	-6471.0
▁phot	-6472.0
▁ON	-6473.0
Template	-6474.0
developer	-6475.0
annot	-6476.0
▁>=	-6477.0
mission	-6478.0
▁któ	-6479.0
pc	-6480.0
bach	-6481.0
zent	-6482.0
ued	-6483.0
▁ones	-6484.0
ји	-6485.0
▁rout	-6486.0
▁Ки	-6487.0
Post	-6488.0
ції	-6489.0
▁Vir	-6490.0
nek	-6491.0
aging	-6492.0
▁ок	-6493.0
izont	-6494.0
▁agosto	-6495.0
▁choose	-6496.0
▁	-6497.0
▁systems	-6498.0
loss	-6499.0
iente	-6500.0
▁Cre	-6501.0
▁contra	-6502.0
ums	-6503.0
▁beginning	-6504.0
emy	-6505.0
istics	-6506.0
▁served	-6507.0
Down	-6508.0
options	-6509.0
▁Govern	-6510.0
▁BY	-6511.0
▁jest	-6512.0
té	-6513.0
▁continue	-6514.0
pers	-6515.0
▁easier	-6516.0
▁cos	-6517.0
esso	-6518.0
>>	-6519.0
Net	-6520.0
▁Bor	-6521.0
▁Cr	-6522.0
▁transfer	-6523.0
▁CSS	-6524.0
▁finns	-6525.0
▁хо	-6526.0
username	-6527.0
▁constru	-6528.0
▁pain	-6529.0
▁Tem	-6530.0
▁specified	-6531.0
▁brit	-6532.0
ские	-6533.0
irk	-6534.0
rapper	-6535.0
▁counter	-6536.0
▁["	-6537.0
oded	-6538.0
дан	-6539.0
property	-6540.0
hard	-6541.0
istrict	-6542.0
)/	-6543.0
▁Pour	-6544.0
▁Where	-6545.0
▁===	-6546.0
▁sowie	-6547.0
▁Про	-6548.0
▁dess	-6549.0
▁tras	-6550.0
▁уча	-6551.0
▁Over	-6552.0
note	-6553.0
▁America	-6554.0
cp	-6555.0
▁grande	-6556.0
Me	-6557.0
)-	-6558.0
Mode	-6559.0
▁passing	-6560.0
▁giving	-6561.0
Cl	-6562.0
}/	-6563.0
Menu	-6564.0
!!	-6565.0
angular	-6566.0
▁launch	-6567.0
varphi	-6568.0
▁Johann	-6569.0
▁foreach	-6570.0
ró	-6571.0
sequ	-6572.0
ifi	-6573.0
Am	-6574.0
arp	-6575.0
▁buffer	-6576.0
▁ni	-6577.0
▁mix	-6578.0
▁Museum	-6579.0
▁meant	-6580.0
asi	-6581.0
▁kan	-6582.0
прав	-6583.0
Comp	-6584.0
istoire	-6585.0
iful	-6586.0
jer	-6587.0
issions	-6588.0
Resource	-6589.0
▁воз	-6590.0
▁ST	-6591.0
▁solutions	-6592.0
▁belong	-6593.0
▁Associ	-6594.0
cf	-6595.0
▁Mär	-6596.0
▁grid	-6597.0
Mult	-6598.0
▁requires	-6599.0
kk	-6600.0
▁teach	-6601.0
emeinde	-6602.0
▁square	-6603.0
▁коман	-6604.0
▁Event	-6605.0
▁rules	-6606.0
▁bur	-6607.0
▁eing	-6608.0
▁Mai	-6609.0
▁nam	-6610.0
▁slä	-6611.0
hör	-6612.0
▁tip	-6613.0
▁Literatur	-6614.0
▁scope	-6615.0
overline	-6616.0
▁exit	-6617.0
)?	-6618.0
bet	-6619.0
▁vict	-6620.0
Off	-6621.0
▁approxim	-6622.0
▁Geb	-6623.0
ktop	-6624.0
heit	-6625.0
▁Ю	-6626.0
template	-6627.0
рон	-6628.0
▁uno	-6629.0
Serv	-6630.0
▁framework	-6631.0
operator	-6632.0
▁generally	-6633.0
▁hundred	-6634.0
▁divers	-6635.0
ovi	-6636.0
▁rés	-6637.0
abs	-6638.0
▁gal	-6639.0
çais	-6640.0
▁feet	-6641.0
▁virtual	-6642.0
czy	-6643.0
ску	-6644.0
./	-6645.0
hu	-6646.0
ancy	-6647.0
▁recommend	-6648.0
▁під	-6649.0
▁money	-6650.0
▁versions	-6651.0
▁helps	-6652.0
▁Hor	-6653.0
Items	-6654.0
look	-6655.0
connect	-6656.0
anges	-6657.0
ViewController	-6658.0
elijk	-6659.0
▁occup	-6660.0
▁editor	-6661.0
auto	-6662.0
ög	-6663.0
▁seconds	-6664.0
▁obvious	-6665.0
vm	-6666.0
akes	-6667.0
▁gegen	-6668.0
▁til	-6669.0
jection	-6670.0
лення	-6671.0
▁operations	-6672.0
▁East	-6673.0
ogy	-6674.0
▁Polit	-6675.0
uten	-6676.0
▁Joseph	-6677.0
"`	-6678.0
▁Company	-6679.0
▁callback	-6680.0
▁sen	-6681.0
cción	-6682.0
▁associated	-6683.0
▁containing	-6684.0
▁practice	-6685.0
elijke	-6686.0
oke	-6687.0
éra	-6688.0
uns	-6689.0
anta	-6690.0
vey	-6691.0
zu	-6692.0
▁Bes	-6693.0
▁Flor	-6694.0
mem	-6695.0
ycz	-6696.0
▁architect	-6697.0
▁anni	-6698.0
▁contact	-6699.0
YPE	-6700.0
▁Cas	-6701.0
▁полу	-6702.0
ovo	-6703.0
▁bring	-6704.0
▁concept	-6705.0
▁js	-6706.0
▁Referencias	-6707.0
emble	-6708.0
▁н	-6709.0
▁supported	-6710.0
Big	-6711.0
▁Hans	-6712.0
erv	-6713.0
▁Maj	-6714.0
▁arriv	-6715.0
▁Have	-6716.0
▁probability	-6717.0
▁Pop	-6718.0
▁Pass	-6719.0
token	-6720.0
Provider	-6721.0
▁Ra	-6722.0
Reader	-6723.0
ooth	-6724.0
lap	-6725.0
▁assist	-6726.0
adow	-6727.0
▁tests	-6728.0
сси	-6729.0
▁king	-6730.0
langle	-6731.0
▁Sum	-6732.0
OIN	-6733.0
▁security	-6734.0
nis	-6735.0
../	-6736.0
▁basic	-6737.0
unity	-6738.0
`:	-6739.0
▁кото	-6740.0
kow	-6741.0
▁Bibliothèque	-6742.0
asion	-6743.0
alo	-6744.0
ifest	-6745.0
▁novembre	-6746.0
▁peu	-6747.0
▁Ж	-6748.0
enschaft	-6749.0
clus	-6750.0
ју	-6751.0
Height	-6752.0
ún	-6753.0
▁tur	-6754.0
▁ideas	-6755.0
▁ces	-6756.0
frak	-6757.0
▁premier	-6758.0
itation	-6759.0
▁sé	-6760.0
HTML	-6761.0
▁Royal	-6762.0
ської	-6763.0
▁byte	-6764.0
PS	-6765.0
▁segu	-6766.0
inen	-6767.0
▁Great	-6768.0
▁Ку	-6769.0
▁external	-6770.0
Title	-6771.0
Top	-6772.0
Process	-6773.0
ität	-6774.0
▁`/	-6775.0
▁secret	-6776.0
pository	-6777.0
▁potential	-6778.0
▁Bud	-6779.0
names	-6780.0
asons	-6781.0
stackexchange	-6782.0
background	-6783.0
пер	-6784.0
сов	-6785.0
after	-6786.0
▁pero	-6787.0
▁software	-6788.0
▁sed	-6789.0
▁arrays	-6790.0
tmp	-6791.0
▁asp	-6792.0
scale	-6793.0
▁Lat	-6794.0
anal	-6795.0
▁gem	-6796.0
PU	-6797.0
▁Altri	-6798.0
That	-6799.0
▁Ни	-6800.0
ifact	-6801.0
Address	-6802.0
▁south	-6803.0
▁formula	-6804.0
▁Colleg	-6805.0
▁ін	-6806.0
ktion	-6807.0
▁sac	-6808.0
SH	-6809.0
ajo	-6810.0
etc	-6811.0
vc	-6812.0
`](	-6813.0
▁Dur	-6814.0
▁Ме	-6815.0
▁Smith	-6816.0
items	-6817.0
CK	-6818.0
elo	-6819.0
▁plugin	-6820.0
▁serie	-6821.0
ienne	-6822.0
▁или	-6823.0
Mar	-6824.0
▁Image	-6825.0
got	-6826.0
andas	-6827.0
▁matches	-6828.0
▁worth	-6829.0
▁Deb	-6830.0
▁cache	-6831.0
▁felt	-6832.0
ersch	-6833.0
izes	-6834.0
Oper	-6835.0
▁Jahre	-6836.0
▁commune	-6837.0
thread	-6838.0
▁ny	-6839.0
dec	-6840.0
ouw	-6841.0
▁surface	-6842.0
▁Por	-6843.0
▁Street	-6844.0
при	-6845.0
▁candid	-6846.0
▁Return	-6847.0
▁Kom	-6848.0
gru	-6849.0
▁ти	-6850.0
[\	-6851.0
▁depends	-6852.0
▁influ	-6853.0
▁towards	-6854.0
ained	-6855.0
▁rank	-6856.0
▁Januar	-6857.0
▁components	-6858.0
gest	-6859.0
getElementById	-6860.0
▁checked	-6861.0
airs	-6862.0
join	-6863.0
▁dead	-6864.0
▁hit	-6865.0
ény	-6866.0
▁equivalent	-6867.0
▁Пре	-6868.0
▁appropri	-6869.0
Pass	-6870.0
▁primer	-6871.0
englisch	-6872.0
▁appar	-6873.0
▁During	-6874.0
▁knowledge	-6875.0
▁trigger	-6876.0
▁core	-6877.0
▁Ol	-6878.0
▁Produ	-6879.0
▁Fern	-6880.0
▁нача	-6881.0
Te	-6882.0
▁Mot	-6883.0
erve	-6884.0
тво	-6885.0
▁mid	-6886.0
▁finally	-6887.0
aires	-6888.0
▁especially	-6889.0
▁tut	-6890.0
▁receive	-6891.0
adre	-6892.0
▁neigh	-6893.0
ktet	-6894.0
ilde	-6895.0
▁radio	-6896.0
▁driver	-6897.0
лись	-6898.0
endencies	-6899.0
▁IE	-6900.0
▁saved	-6901.0
ffect	-6902.0
▁Wayback	-6903.0
iat	-6904.0
▁padding	-6905.0
window	-6906.0
тиче	-6907.0
▁mur	-6908.0
actor	-6909.0
▁Han	-6910.0
ональ	-6911.0
▁gar	-6912.0
▁familjen	-6913.0
ós	-6914.0
▁nationale	-6915.0
▁pré	-6916.0
ded	-6917.0
onal	-6918.0
▁President	-6919.0
▁\,	-6920.0
▁placed	-6921.0
erni	-6922.0
▁signal	-6923.0
nab	-6924.0
hm	-6925.0
Mon	-6926.0
▁vs	-6927.0
SC	-6928.0
▁progetti	-6929.0
▁Ü	-6930.0
▁forms	-6931.0
▁messages	-6932.0
inf	-6933.0
users	-6934.0
GET	-6935.0
▁dels	-6936.0
Collection	-6937.0
▁Good	-6938.0
▁Maybe	-6939.0
▁compr	-6940.0
▁larger	-6941.0
gres	-6942.0
aper	-6943.0
▁При	-6944.0
undes	-6945.0
▁sea	-6946.0
▁Spring	-6947.0
ulo	-6948.0
▁mechan	-6949.0
▁sans	-6950.0
GB	-6951.0
Valid	-6952.0
▁communic	-6953.0
▁pra	-6954.0
vier	-6955.0
▁Се	-6956.0
▁ain	-6957.0
тура	-6958.0
kom	-6959.0
skiego	-6960.0
ково	-6961.0
adata	-6962.0
▁Ре	-6963.0
▁boolean	-6964.0
sets	-6965.0
▁effort	-6966.0
.[	-6967.0
▁został	-6968.0
PA	-6969.0
▁Vict	-6970.0
SD	-6971.0
ował	-6972.0
▁emb	-6973.0
▁prima	-6974.0
▁hour	-6975.0
subsection	-6976.0
▁Fort	-6977.0
mathfrak	-6978.0
igin	-6979.0
GL	-6980.0
)+	-6981.0
fi	-6982.0
▁anci	-6983.0
▁pan	-6984.0
\)	-6985.0
▁lug	-6986.0
▁deploy	-6987.0
domain	-6988.0
▁slight	-6989.0
JSON	-6990.0
▁morning	-6991.0
▁hi	-6992.0
▁compare	-6993.0
ije	-6994.0
▁blue	-6995.0
▁Ac	-6996.0
▁middle	-6997.0
anden	-6998.0
▁shared	-6999.0
▁Camp	-7000.0
▁Á	-7001.0
ounded	-7002.0
uw	-7003.0
ierung	-7004.0
Stack	-7005.0
▁eines	-7006.0
▁Da	-7007.0
lij	-7008.0
enti	-7009.0
▁й	-7010.0
Util	-7011.0
▁experience	-7012.0
▁await	-7013.0
uls	-7014.0
▁requests	-7015.0
▁impos	-7016.0
▁constraint	-7017.0
Change	-7018.0
emph	-7019.0
бер	-7020.0
▁Another	-7021.0
Custom	-7022.0
▁significant	-7023.0
cr	-7024.0
▁million	-7025.0
reek	-7026.0
▁dalla	-7027.0
▁Germ	-7028.0
otal	-7029.0
ateur	-7030.0
btn	-7031.0
▁thinking	-7032.0
▁interval	-7033.0
onne	-7034.0
▁liv	-7035.0
():	-7036.0
▁Ве	-7037.0
oe	-7038.0
▁Ev	-7039.0
meta	-7040.0
▁broad	-7041.0
Rem	-7042.0
apply	-7043.0
▁couple	-7044.0
▁techni	-7045.0
idades	-7046.0
▁goal	-7047.0
▁CD	-7048.0
hab	-7049.0
▁explan	-7050.0
anner	-7051.0
▁Because	-7052.0
blog	-7053.0
includegraphics	-7054.0
▁voice	-7055.0
▁Map	-7056.0
vention	-7057.0
Session	-7058.0
▁Liens	-7059.0
▁sor	-7060.0
category	-7061.0
ashington	-7062.0
▁März	-7063.0
pop	-7064.0
illet	-7065.0
▁zwei	-7066.0
▁Lie	-7067.0
Null	-7068.0
address	-7069.0
▁factor	-7070.0
▁ligne	-7071.0
▁HTTP	-7072.0
▁suf	-7073.0
▁personal	-7074.0
cip	-7075.0
▁Dar	-7076.0
▁adm	-7077.0
кой	-7078.0
▁Ext	-7079.0
▁god	-7080.0
aa	-7081.0
Right	-7082.0
été	-7083.0
▁dynamic	-7084.0
▁maintain	-7085.0
tor	-7086.0
########	-7087.0
▁Fra	-7088.0
▁choice	-7089.0
▁сто	-7090.0
СР	-7091.0
▁Feder	-7092.0
ston	-7093.0
▁flag	-7094.0
kit	-7095.0
Module	-7096.0
▁спо	-7097.0
▁Stra	-7098.0
icks	-7099.0
▁haven	-7100.0
▁Mass	-7101.0
▁Emp	-7102.0
▁Pi	-7103.0
▁Pen	-7104.0
Rect	-7105.0
▁Kr	-7106.0
itat	-7107.0
eler	-7108.0
ября	-7109.0
itet	-7110.0
▁Start	-7111.0
▁produced	-7112.0
▁пол	-7113.0
(_	-7114.0
▁delet	-7115.0
▁hot	-7116.0
▁Geschichte	-7117.0
~~	-7118.0
▁months	-7119.0
▁tod	-7120.0
▁ни	-7121.0
ús	-7122.0
temp	-7123.0
▁Dez	-7124.0
ypes	-7125.0
▁cui	-7126.0
ommun	-7127.0
actions	-7128.0
▁eigen	-7129.0
▁immediately	-7130.0
PL	-7131.0
▁Го	-7132.0
▁Bal	-7133.0
ље	-7134.0
ului	-7135.0
▁online	-7136.0
▁años	-7137.0
▁namespace	-7138.0
▁mond	-7139.0
▁Base	-7140.0
▁Canada	-7141.0
etzt	-7142.0
}-	-7143.0
▁defin	-7144.0
▁doubt	-7145.0
▁investig	-7146.0
views	-7147.0
▁Line	-7148.0
▁stage	-7149.0
ettings	-7150.0
ubre	-7151.0
float	-7152.0
▁Play	-7153.0
▁Las	-7154.0
ptr	-7155.0
▁becomes	-7156.0
estamp	-7157.0
▁independent	-7158.0
▁analysis	-7159.0
▁Look	-7160.0
lain	-7161.0
▁рас	-7162.0
Reference	-7163.0
▁sorry	-7164.0
▁supposed	-7165.0
ût	-7166.0
▁degree	-7167.0
utz	-7168.0
MM	-7169.0
▁desired	-7170.0
ły	-7171.0
▁len	-7172.0
▁alone	-7173.0
signed	-7174.0
▁Sta	-7175.0
Person	-7176.0
▁applied	-7177.0
▁Back	-7178.0
▁mars	-7179.0
Part	-7180.0
▁Did	-7181.0
▁externes	-7182.0
▁np	-7183.0
ongo	-7184.0
▁esta	-7185.0
Block	-7186.0
▁pou	-7187.0
adores	-7188.0
▁Studio	-7189.0
.$	-7190.0
▁reached	-7191.0
bot	-7192.0
▁Juni	-7193.0
tons	-7194.0
itel	-7195.0
▁Gar	-7196.0
▁articles	-7197.0
▁District	-7198.0
▁trouble	-7199.0
lide	-7200.0
▁Found	-7201.0
ád	-7202.0
▁equip	-7203.0
▁internal	-7204.0
'],	-7205.0
▁async	-7206.0
UB	-7207.0
gel	-7208.0
▁ai	-7209.0
ensure	-7210.0
▁appeared	-7211.0
▁$_	-7212.0
▁maximum	-7213.0
▁Си	-7214.0
рь	-7215.0
▁announ	-7216.0
лась	-7217.0
▁cm	-7218.0
ган	-7219.0
aupt	-7220.0
▁latter	-7221.0
▁platform	-7222.0
▁dra	-7223.0
▁capital	-7224.0
▁solved	-7225.0
riz	-7226.0
edic	-7227.0
▁Mur	-7228.0
▁Top	-7229.0
тся	-7230.0
Panel	-7231.0
rule	-7232.0
etic	-7233.0
▁Ren	-7234.0
▁Wikimedia	-7235.0
▁TO	-7236.0
second	-7237.0
isl	-7238.0
▁hy	-7239.0
▁niet	-7240.0
▁loaded	-7241.0
dig	-7242.0
▁mayo	-7243.0
[:	-7244.0
Acc	-7245.0
▁bek	-7246.0
нию	-7247.0
login	-7248.0
tx	-7249.0
▁Fur	-7250.0
▁Santa	-7251.0
azz	-7252.0
▁conduct	-7253.0
▁India	-7254.0
Order	-7255.0
irth	-7256.0
tw	-7257.0
}+	-7258.0
▁wieder	-7259.0
▁Edu	-7260.0
AV	-7261.0
▁```	-7262.0
▁manually	-7263.0
▁Read	-7264.0
fortunately	-7265.0
▁Run	-7266.0
▁Award	-7267.0
▁Foot	-7268.0
*)	-7269.0
params	-7270.0
пі	-7271.0
▁native	-7272.0
rift	-7273.0
▁ä	-7274.0
ATH	-7275.0
▁yourself	-7276.0
▁prior	-7277.0
▁cit	-7278.0
äh	-7279.0
▁treat	-7280.0
▁meas	-7281.0
ributed	-7282.0
▁clar	-7283.0
card	-7284.0
ROR	-7285.0
illes	-7286.0
▁layer	-7287.0
auer	-7288.0
▁rat	-7289.0
bernate	-7290.0
▁stato	-7291.0
▁China	-7292.0
▁$('#	-7293.0
▁naar	-7294.0
zip	-7295.0
▁${\	-7296.0
▁appreciated	-7297.0
▁име	-7298.0
ży	-7299.0
▁przez	-7300.0
▁Indian	-7301.0
▁Tod	-7302.0
▁Source	-7303.0
▁други	-7304.0
internal	-7305.0
ionale	-7306.0
Product	-7307.0
▁Men	-7308.0
▁upper	-7309.0
▁Every	-7310.0
},\	-7311.0
▁printf	-7312.0
▁continued	-7313.0
▁nodes	-7314.0
лки	-7315.0
▁nice	-7316.0
modules	-7317.0
eign	-7318.0
▁Mex	-7319.0
▁According	-7320.0
▁undefined	-7321.0
▁binary	-7322.0
cut	-7323.0
Current	-7324.0
edy	-7325.0
}}{	-7326.0
bles	-7327.0
▁вой	-7328.0
scri	-7329.0
eqn	-7330.0
Changed	-7331.0
▁köz	-7332.0
▁remote	-7333.0
вля	-7334.0
▁quel	-7335.0
▁align	-7336.0
▁пар	-7337.0
SV	-7338.0
yer	-7339.0
▁Californ	-7340.0
▁places	-7341.0
▁primary	-7342.0
▁conv	-7343.0
▁Juli	-7344.0
▁visual	-7345.0
▁Select	-7346.0
atory	-7347.0
=(	-7348.0
iser	-7349.0
▁intent	-7350.0
sur	-7351.0
container	-7352.0
iced	-7353.0
▁board	-7354.0
astr	-7355.0
omial	-7356.0
вет	-7357.0
зва	-7358.0
▁cru	-7359.0
▁Oktober	-7360.0
save	-7361.0
▁greater	-7362.0
▁inn	-7363.0
▁picture	-7364.0
▁То	-7365.0
▁obtained	-7366.0
Wikimedia	-7367.0
úblic	-7368.0
▁lors	-7369.0
▁mont	-7370.0
obre	-7371.0
▁civil	-7372.0
▁construction	-7373.0
▁Welt	-7374.0
▁Under	-7375.0
undert	-7376.0
▁edge	-7377.0
▁Liste	-7378.0
csv	-7379.0
▁experiment	-7380.0
localhost	-7381.0
▁Edit	-7382.0
greg	-7383.0
ová	-7384.0
ља	-7385.0
msg	-7386.0
▁Green	-7387.0
Dialog	-7388.0
Ident	-7389.0
▁JS	-7390.0
^{(	-7391.0
▁släktet	-7392.0
____	-7393.0
Project	-7394.0
▁beskre	-7395.0
▁ber	-7396.0
▁wouldn	-7397.0
▁react	-7398.0
Hel	-7399.0
zw	-7400.0
▁Washington	-7401.0
orie	-7402.0
task	-7403.0
▁category	-7404.0
▁artist	-7405.0
anno	-7406.0
▁ook	-7407.0
ammen	-7408.0
▁Minister	-7409.0
▁declar	-7410.0
▁Key	-7411.0
,.	-7412.0
▁mach	-7413.0
▁ww	-7414.0
isen	-7415.0
Fran	-7416.0
▁Росси	-7417.0
бор	-7418.0
три	-7419.0
▁rock	-7420.0
quis	-7421.0
mos	-7422.0
пера	-7423.0
▁esterni	-7424.0
▁gold	-7425.0
Windows	-7426.0
%%	-7427.0
▁partial	-7428.0
▁weight	-7429.0
▁spr	-7430.0
}).	-7431.0
▁français	-7432.0
fun	-7433.0
▁thous	-7434.0
holder	-7435.0
▁gone	-7436.0
▁Č	-7437.0
▁rend	-7438.0
DA	-7439.0
▁answered	-7440.0
▁False	-7441.0
Buffer	-7442.0
▁daugh	-7443.0
.--	-7444.0
▁Show	-7445.0
▁rect	-7446.0
▁Kre	-7447.0
dr	-7448.0
osoph	-7449.0
▁yield	-7450.0
urity	-7451.0
toString	-7452.0
aval	-7453.0
Pol	-7454.0
▁lock	-7455.0
imation	-7456.0
antic	-7457.0
Local	-7458.0
▁beskrevs	-7459.0
ités	-7460.0
grid	-7461.0
ут	-7462.0
▁_{	-7463.0
сі	-7464.0
FILE	-7465.0
▁км	-7466.0
▁speak	-7467.0
summary	-7468.0
prop	-7469.0
javascript	-7470.0
zk	-7471.0
izontal	-7472.0
▁trois	-7473.0
▁Rod	-7474.0
prise	-7475.0
рово	-7476.0
▁odd	-7477.0
▁gest	-7478.0
▁produce	-7479.0
▁waar	-7480.0
▁Av	-7481.0
ribu	-7482.0
вання	-7483.0
▁finished	-7484.0
▁adapt	-7485.0
▁Sar	-7486.0
textit	-7487.0
▁Ce	-7488.0
▁Fa	-7489.0
osen	-7490.0
▁deriv	-7491.0
▁ship	-7492.0
▁opin	-7493.0
▁Even	-7494.0
gesch	-7495.0
▁suppose	-7496.0
▁Fer	-7497.0
ское	-7498.0
▁worden	-7499.0
sey	-7500.0
hline	-7501.0
▁Union	-7502.0
▁/**	-7503.0
▁vez	-7504.0
▁Collegamenti	-7505.0
▁Society	-7506.0
▁econom	-7507.0
ší	-7508.0
oi	-7509.0
▁orient	-7510.0
▁Teil	-7511.0
rent	-7512.0
лекс	-7513.0
▁solid	-7514.0
▁cart	-7515.0
****************	-7516.0
▁cab	-7517.0
▁Message	-7518.0
dots	-7519.0
▁ég	-7520.0
▁twe	-7521.0
aga	-7522.0
▁naz	-7523.0
▁Microsoft	-7524.0
▁underarter	-7525.0
ppen	-7526.0
▁recent	-7527.0
▁net	-7528.0
▁resources	-7529.0
Ste	-7530.0
.\	-7531.0
▁SO	-7532.0
лом	-7533.0
▁cele	-7534.0
▁lic	-7535.0
▁benef	-7536.0
ldots	-7537.0
▁serial	-7538.0
Integer	-7539.0
cles	-7540.0
▁miles	-7541.0
▁Ale	-7542.0
▁entered	-7543.0
▁Two	-7544.0
wie	-7545.0
▁includes	-7546.0
▁Each	-7547.0
elling	-7548.0
quer	-7549.0
▁Dom	-7550.0
pf	-7551.0
WS	-7552.0
▁straight	-7553.0
▁Stan	-7554.0
▁nos	-7555.0
ícul	-7556.0
atro	-7557.0
▁Center	-7558.0
FT	-7559.0
▁Inga	-7560.0
ilo	-7561.0
▁www	-7562.0
jsfiddle	-7563.0
nic	-7564.0
▁European	-7565.0
▁commer	-7566.0
▁girl	-7567.0
total	-7568.0
▁Star	-7569.0
▁suggested	-7570.0
pal	-7571.0
▁zwischen	-7572.0
писа	-7573.0
IM	-7574.0
▁handler	-7575.0
▁Program	-7576.0
xsl	-7577.0
ály	-7578.0
BU	-7579.0
,--	-7580.0
▁vid	-7581.0
▁established	-7582.0
▁Spiel	-7583.0
ometry	-7584.0
unes	-7585.0
▁sit	-7586.0
▁inher	-7587.0
▁puis	-7588.0
▁être	-7589.0
▁Most	-7590.0
Header	-7591.0
insert	-7592.0
▁sist	-7593.0
▁favor	-7594.0
dest	-7595.0
▁entity	-7596.0
Cal	-7597.0
▁Therefore	-7598.0
DD	-7599.0
;;	-7600.0
▁Dezember	-7601.0
▁Rh	-7602.0
iments	-7603.0
▁returning	-7604.0
sto	-7605.0
▁Value	-7606.0
▁liber	-7607.0
▁Result	-7608.0
▁bind	-7609.0
voir	-7610.0
▁Tim	-7611.0
▁Movie	-7612.0
weg	-7613.0
ket	-7614.0
▁исто	-7615.0
▁friends	-7616.0
▁fn	-7617.0
▁él	-7618.0
▁&=	-7619.0
arden	-7620.0
fficial	-7621.0
▁community	-7622.0
▁api	-7623.0
Args	-7624.0
ieren	-7625.0
▁dann	-7626.0
omorph	-7627.0
adr	-7628.0
loop	-7629.0
uman	-7630.0
▁vous	-7631.0
bst	-7632.0
submit	-7633.0
\|	-7634.0
тин	-7635.0
Container	-7636.0
asket	-7637.0
?)	-7638.0
Sec	-7639.0
▁drive	-7640.0
Ass	-7641.0
▁swe	-7642.0
▁amer	-7643.0
▁mine	-7644.0
▁Ham	-7645.0
▁avait	-7646.0
▁Hon	-7647.0
▁après	-7648.0
▁Mann	-7649.0
ська	-7650.0
▁increase	-7651.0
▁ty	-7652.0
sky	-7653.0
▁accur	-7654.0
article	-7655.0
weight	-7656.0
▁sex	-7657.0
▁listade	-7658.0
/**	-7659.0
▁está	-7660.0
}}$	-7661.0
argo	-7662.0
define	-7663.0
▁состав	-7664.0
session	-7665.0
ads	-7666.0
стви	-7667.0
▁Law	-7668.0
▁dialog	-7669.0
▁duplicate	-7670.0
▁ép	-7671.0
▁voc	-7672.0
fri	-7673.0
▁green	-7674.0
▁hidden	-7675.0
▁Island	-7676.0
▁diag	-7677.0
owej	-7678.0
mysql	-7679.0
teil	-7680.0
rä	-7681.0
ikan	-7682.0
▁José	-7683.0
aled	-7684.0
Runtime	-7685.0
▁train	-7686.0
▁Division	-7687.0
ниц	-7688.0
▁Span	-7689.0
нима	-7690.0
)=\	-7691.0
тан	-7692.0
▁stay	-7693.0
▁foo	-7694.0
▁accom	-7695.0
▁hers	-7696.0
▁нау	-7697.0
▁Mün	-7698.0
ideos	-7699.0
static	-7700.0
▁ready	-7701.0
]`	-7702.0
▁visible	-7703.0
▁Hope	-7704.0
ulated	-7705.0
▁Cult	-7706.0
стро	-7707.0
Co	-7708.0
▁smaller	-7709.0
atura	-7710.0
▁perfectly	-7711.0
req	-7712.0
▁proposed	-7713.0
▁degli	-7714.0
Search	-7715.0
▁ich	-7716.0
Max	-7717.0
▁volume	-7718.0
execute	-7719.0
gre	-7720.0
▁sport	-7721.0
udad	-7722.0
PT	-7723.0
▁Records	-7724.0
▁cook	-7725.0
▁expand	-7726.0
бі	-7727.0
▁altri	-7728.0
ppet	-7729.0
arse	-7730.0
▁wet	-7731.0
▁Bob	-7732.0
▁FC	-7733.0
▁Association	-7734.0
uje	-7735.0
▁fel	-7736.0
▁слу	-7737.0
▁Big	-7738.0
/\	-7739.0
Ge	-7740.0
while	-7741.0
{(	-7742.0
▁sufficient	-7743.0
Position	-7744.0
▁understanding	-7745.0
▁nue	-7746.0
▁raz	-7747.0
▁ye	-7748.0
hem	-7749.0
Num	-7750.0
▁Project	-7751.0
▁Its	-7752.0
▁hasta	-7753.0
enso	-7754.0
▁wire	-7755.0
Ret	-7756.0
uj	-7757.0
proof	-7758.0
▁relevant	-7759.0
▁partir	-7760.0
▁ago	-7761.0
ificate	-7762.0
▁domin	-7763.0
▁boy	-7764.0
▁plant	-7765.0
▁encoding	-7766.0
▁throws	-7767.0
▁Rock	-7768.0
zone	-7769.0
gang	-7770.0
widget	-7771.0
▁interesting	-7772.0
DER	-7773.0
▁demon	-7774.0
▁office	-7775.0
amt	-7776.0
äter	-7777.0
▁White	-7778.0
▁versch	-7779.0
▁dieser	-7780.0
▁Mount	-7781.0
▁students	-7782.0
▁Pub	-7783.0
▁Де	-7784.0
ija	-7785.0
▁Cy	-7786.0
▁California	-7787.0
▁abril	-7788.0
äll	-7789.0
▁чем	-7790.0
TV	-7791.0
▁més	-7792.0
▁declared	-7793.0
▁ю	-7794.0
ől	-7795.0
appa	-7796.0
▁Бе	-7797.0
echo	-7798.0
numer	-7799.0
▁posted	-7800.0
▁вер	-7801.0
▁године	-7802.0
▁weak	-7803.0
▁Republic	-7804.0
▁champion	-7805.0
ensuremath	-7806.0
your	-7807.0
▁Ober	-7808.0
▁Central	-7809.0
isa	-7810.0
анд	-7811.0
yy	-7812.0
▁fully	-7813.0
▁SD	-7814.0
▁Linux	-7815.0
▁Scott	-7816.0
partment	-7817.0
kon	-7818.0
▁contract	-7819.0
▁OF	-7820.0
▁ale	-7821.0
▁Ann	-7822.0
▁над	-7823.0
lah	-7824.0
▁Next	-7825.0
oren	-7826.0
▁disk	-7827.0
▁eg	-7828.0
atu	-7829.0
логи	-7830.0
▁games	-7831.0
Left	-7832.0
▁lu	-7833.0
▁finite	-7834.0
▁ки	-7835.0
▁crash	-7836.0
pher	-7837.0
exe	-7838.0
ATION	-7839.0
▁brother	-7840.0
Eng	-7841.0
tat	-7842.0
▁Integer	-7843.0
ному	-7844.0
▁colon	-7845.0
iqu	-7846.0
)).	-7847.0
ivi	-7848.0
▁Method	-7849.0
arten	-7850.0
Uni	-7851.0
vector	-7852.0
▁wood	-7853.0
рт	-7854.0
▁Ле	-7855.0
▁siècle	-7856.0
▁gent	-7857.0
}	-7858.0
▁contents	-7859.0
▁compan	-7860.0
Go	-7861.0
▁jou	-7862.0
uent	-7863.0
Async	-7864.0
printf	-7865.0
▁Model	-7866.0
▁kept	-7867.0
ASE	-7868.0
▁provides	-7869.0
▁Abgerufen	-7870.0
▁Gall	-7871.0
▁Alf	-7872.0
SA	-7873.0
▁Mem	-7874.0
▁kter	-7875.0
▁Bru	-7876.0
Android	-7877.0
(:	-7878.0
▁Украї	-7879.0
Ne	-7880.0
Min	-7881.0
atr	-7882.0
▁Hal	-7883.0
delete	-7884.0
odo	-7885.0
▁não	-7886.0
ène	-7887.0
▁calculate	-7888.0
Json	-7889.0
keys	-7890.0
ней	-7891.0
▁hence	-7892.0
▁ow	-7893.0
▁Lib	-7894.0
eno	-7895.0
▁Love	-7896.0
osi	-7897.0
wide	-7898.0
▁score	-7899.0
full	-7900.0
вод	-7901.0
▁determine	-7902.0
▁spaces	-7903.0
лова	-7904.0
▁peut	-7905.0
éral	-7906.0
ół	-7907.0
▁appoint	-7908.0
▁Tw	-7909.0
<?	-7910.0
▁Order	-7911.0
▁hop	-7912.0
random	-7913.0
cache	-7914.0
▁destroy	-7915.0
▁race	-7916.0
Tag	-7917.0
▁rid	-7918.0
▁negative	-7919.0
Car	-7920.0
ensional	-7921.0
dk	-7922.0
▁cro	-7923.0
▁THEN	-7924.0
▁$.	-7925.0
ensk	-7926.0
NE	-7927.0
HO	-7928.0
▁kle	-7929.0
ospital	-7930.0
kte	-7931.0
férences	-7932.0
udes	-7933.0
IR	-7934.0
otion	-7935.0
▁Real	-7936.0
▁Februar	-7937.0
ин	-7938.0
▁Old	-7939.0
кого	-7940.0
leich	-7941.0
▁р	-7942.0
ían	-7943.0
▁га	-7944.0
cide	-7945.0
lab	-7946.0
▁pull	-7947.0
▁'/	-7948.0
Long	-7949.0
,$	-7950.0
▁appropriate	-7951.0
▁была	-7952.0
führ	-7953.0
▁Media	-7954.0
▁manner	-7955.0
▁Ге	-7956.0
description	-7957.0
Bean	-7958.0
▁Lar	-7959.0
'];	-7960.0
▁relation	-7961.0
▁Sorry	-7962.0
har	-7963.0
cpp	-7964.0
▁Ko	-7965.0
▁execution	-7966.0
inos	-7967.0
▁bul	-7968.0
grade	-7969.0
▁Mu	-7970.0
▁pil	-7971.0
writ	-7972.0
ifications	-7973.0
inese	-7974.0
▁Phili	-7975.0
dx	-7976.0
▁leading	-7977.0
▁Journal	-7978.0
oved	-7979.0
▁contro	-7980.0
нова	-7981.0
Yes	-7982.0
▁channel	-7983.0
)),	-7984.0
isten	-7985.0
aka	-7986.0
ToString	-7987.0
mas	-7988.0
▁ett	-7989.0
▁forces	-7990.0
ulations	-7991.0
▁Call	-7992.0
▁explanation	-7993.0
oring	-7994.0
ATA	-7995.0
chter	-7996.0
when	-7997.0
VC	-7998.0
▁Jahrh	-7999.0
Case	-8000.0
▁commands	-8001.0
▁rich	-8002.0
bus	-8003.0
Fe	-8004.0
mbox	-8005.0
▁recon	-8006.0
ño	-8007.0
▁shape	-8008.0
owy	-8009.0
entry	-8010.0
itable	-8011.0
▁election	-8012.0
ється	-8013.0
▁prep	-8014.0
vá	-8015.0
▁infin	-8016.0
lot	-8017.0
▁books	-8018.0
▁USA	-8019.0
лин	-8020.0
▁pom	-8021.0
▁nas	-8022.0
▁tags	-8023.0
▁executed	-8024.0
aille	-8025.0
lung	-8026.0
▁JavaScript	-8027.0
▁ball	-8028.0
▁ainsi	-8029.0
▁Pri	-8030.0
{$	-8031.0
▁UN	-8032.0
▁Ram	-8033.0
▁hear	-8034.0
▁Ubuntu	-8035.0
>();	-8036.0
▁pure	-8037.0
▁embed	-8038.0
ação	-8039.0
controller	-8040.0
▁married	-8041.0
▁Fol	-8042.0
famil	-8043.0
▁prec	-8044.0
▁recurs	-8045.0
pad	-8046.0
istration	-8047.0
▁respectively	-8048.0
[$	-8049.0
autor	-8050.0
▁grav	-8051.0
iera	-8052.0
azioni	-8053.0
▁Bul	-8054.0
▁Australia	-8055.0
mond	-8056.0
▁Tro	-8057.0
▁Ele	-8058.0
packages	-8059.0
msdn	-8060.0
▁Als	-8061.0
▁przy	-8062.0
ART	-8063.0
▁charge	-8064.0
▁applications	-8065.0
Unit	-8066.0
aren	-8067.0
▁sudden	-8068.0
ometer	-8069.0
▁dot	-8070.0
acji	-8071.0
ктор	-8072.0
imin	-8073.0
ening	-8074.0
▁donde	-8075.0
▁Ho	-8076.0
tree	-8077.0
mb	-8078.0
▁drag	-8079.0
aje	-8080.0
▁invalid	-8081.0
▁finish	-8082.0
laim	-8083.0
▁feed	-8084.0
▁Nap	-8085.0
room	-8086.0
images	-8087.0
▁сай	-8088.0
▁succ	-8089.0
iffer	-8090.0
▁año	-8091.0
▁cual	-8092.0
мери	-8093.0
DR	-8094.0
▁Bilder	-8095.0
бра	-8096.0
rait	-8097.0
pan	-8098.0
ень	-8099.0
▁distinct	-8100.0
▁Kn	-8101.0
önig	-8102.0
anced	-8103.0
▁loading	-8104.0
▁Techn	-8105.0
▁Sel	-8106.0
mus	-8107.0
▁rail	-8108.0
▁student	-8109.0
▁notice	-8110.0
▁sla	-8111.0
▁Да	-8112.0
▁guard	-8113.0
▁Day	-8114.0
вали	-8115.0
Option	-8116.0
aison	-8117.0
ipp	-8118.0
▁Jun	-8119.0
▁fell	-8120.0
▁absolute	-8121.0
ове	-8122.0
debug	-8123.0
▁Sud	-8124.0
пы	-8125.0
ugins	-8126.0
▁views	-8127.0
lay	-8128.0
▁surr	-8129.0
▁stood	-8130.0
▁ві	-8131.0
selected	-8132.0
гі	-8133.0
▁attributes	-8134.0
final	-8135.0
enda	-8136.0
▁Bon	-8137.0
ners	-8138.0
▁Wer	-8139.0
bur	-8140.0
ittel	-8141.0
▁moving	-8142.0
▁Plan	-8143.0
isches	-8144.0
Java	-8145.0
▁basis	-8146.0
▁Bus	-8147.0
▁Au	-8148.0
▁Ill	-8149.0
▁время	-8150.0
▁цент	-8151.0
handle	-8152.0
ступ	-8153.0
▁Far	-8154.0
▁oraz	-8155.0
ocr	-8156.0
▁seit	-8157.0
onder	-8158.0
дом	-8159.0
:/	-8160.0
chor	-8161.0
▁Town	-8162.0
▁definit	-8163.0
react	-8164.0
▁piece	-8165.0
▁Karl	-8166.0
CI	-8167.0
▁Application	-8168.0
unter	-8169.0
▁formed	-8170.0
▁пу	-8171.0
Bo	-8172.0
▁Daniel	-8173.0
▁пла	-8174.0
Body	-8175.0
})$	-8176.0
▁были	-8177.0
▁earth	-8178.0
гла	-8179.0
There	-8180.0
▁стра	-8181.0
▁ville	-8182.0
▁centre	-8183.0
)	-8184.0
▁helpful	-8185.0
▁++	-8186.0
▁CG	-8187.0
izione	-8188.0
▁Game	-8189.0
▁Which	-8190.0
▁pip	-8191.0
▁Portug	-8192.0
DS	-8193.0
▁describe	-8194.0
▁checking	-8195.0
▁manager	-8196.0
BO	-8197.0
▁Bundes	-8198.0
buch	-8199.0
▁decided	-8200.0
▁Jahrhundert	-8201.0
▁fif	-8202.0
efficient	-8203.0
anci	-8204.0
braries	-8205.0
▁fails	-8206.0
▁kernel	-8207.0
▁Gl	-8208.0
▁Nacional	-8209.0
▁proceed	-8210.0
▁fuer	-8211.0
▁living	-8212.0
▁successfully	-8213.0
▁faster	-8214.0
▁contre	-8215.0
▁prison	-8216.0
ORT	-8217.0
help	-8218.0
▁autor	-8219.0
ław	-8220.0
ają	-8221.0
▁Arm	-8222.0
▁provin	-8223.0
▁naam	-8224.0
/#	-8225.0
sed	-8226.0
▁gesch	-8227.0
▁мар	-8228.0
esk	-8229.0
term	-8230.0
▁Tex	-8231.0
iring	-8232.0
▁tools	-8233.0
PDF	-8234.0
▁ult	-8235.0
issenschaft	-8236.0
▁couldn	-8237.0
ding	-8238.0
Dep	-8239.0
{-	-8240.0
▁predict	-8241.0
antage	-8242.0
▁Like	-8243.0
▁Би	-8244.0
tools	-8245.0
estra	-8246.0
▁ki	-8247.0
▁Jim	-8248.0
star	-8249.0
▁remark	-8250.0
óg	-8251.0
nabla	-8252.0
▁Although	-8253.0
mode	-8254.0
Host	-8255.0
▁strange	-8256.0
None	-8257.0
black	-8258.0
▁Festival	-8259.0
▁IS	-8260.0
anza	-8261.0
▁(-	-8262.0
icket	-8263.0
кола	-8264.0
▁Jes	-8265.0
▁flex	-8266.0
▁À	-8267.0
▁Network	-8268.0
▁EX	-8269.0
▁enero	-8270.0
!”	-8271.0
▁Ort	-8272.0
▁alors	-8273.0
▁Original	-8274.0
▁zo	-8275.0
ными	-8276.0
▁spl	-8277.0
Draw	-8278.0
yond	-8279.0
──	-8280.0
▁Ot	-8281.0
▁dram	-8282.0
▁division	-8283.0
▁efficient	-8284.0
▁Га	-8285.0
▁vier	-8286.0
nak	-8287.0
LS	-8288.0
▁spirit	-8289.0
zeichnet	-8290.0
▁dici	-8291.0
clear	-8292.0
copy	-8293.0
yar	-8294.0
▁році	-8295.0
usqu	-8296.0
▁nous	-8297.0
▁blev	-8298.0
жде	-8299.0
Arg	-8300.0
▁performed	-8301.0
▁Make	-8302.0
▁Carol	-8303.0
etto	-8304.0
▁Sand	-8305.0
▁Disc	-8306.0
Enc	-8307.0
rero	-8308.0
hash	-8309.0
▁focus	-8310.0
▁attention	-8311.0
▁agre	-8312.0
▁divis	-8313.0
▁было	-8314.0
▁ej	-8315.0
▁march	-8316.0
▁phase	-8317.0
ías	-8318.0
▁phil	-8319.0
▁Pap	-8320.0
▁river	-8321.0
▁caused	-8322.0
plugin	-8323.0
▁Team	-8324.0
uler	-8325.0
▁$("#	-8326.0
iej	-8327.0
ISBN	-8328.0
nam	-8329.0
▁fight	-8330.0
vid	-8331.0
▁Lud	-8332.0
Selected	-8333.0
:@"	-8334.0
▁Pod	-8335.0
▁années	-8336.0
arios	-8337.0
▁deutscher	-8338.0
▁NA	-8339.0
▁ию	-8340.0
▁dictionary	-8341.0
▁Ла	-8342.0
▁Tri	-8343.0
èn	-8344.0
▁political	-8345.0
ridge	-8346.0
atten	-8347.0
▁circle	-8348.0
▁transport	-8349.0
emas	-8350.0
FC	-8351.0
▁replaced	-8352.0
▁Aud	-8353.0
iska	-8354.0
Configuration	-8355.0
▁soort	-8356.0
▁Не	-8357.0
▁sequ	-8358.0
PRO	-8359.0
▁bud	-8360.0
▁{{	-8361.0
ließ	-8362.0
▁Mas	-8363.0
ders	-8364.0
usammen	-8365.0
esa	-8366.0
▁Ly	-8367.0
вро	-8368.0
mac	-8369.0
▁испо	-8370.0
▁suc	-8371.0
uy	-8372.0
▁illustr	-8373.0
▁primera	-8374.0
ilation	-8375.0
▁storage	-8376.0
▁params	-8377.0
kaz	-8378.0
▁terminal	-8379.0
раль	-8380.0
▁holds	-8381.0
лось	-8382.0
▁nad	-8383.0
”.	-8384.0
▁octubre	-8385.0
bul	-8386.0
▁hus	-8387.0
ULT	-8388.0
▁également	-8389.0
▁Mill	-8390.0
ład	-8391.0
▁contiene	-8392.0
"?	-8393.0
▁>>>	-8394.0
Que	-8395.0
  	-8396.0
▁plain	-8397.0
ativa	-8398.0
ocker	-8399.0
Names	-8400.0
▁Jud	-8401.0
▁agree	-8402.0
▁Gemeinde	-8403.0
lare	-8404.0
каза	-8405.0
▁starts	-8406.0
▁price	-8407.0
Target	-8408.0
cus	-8409.0
▁Instead	-8410.0
.;	-8411.0
▁alternative	-8412.0
▁вла	-8413.0
IE	-8414.0
▁organiz	-8415.0
inu	-8416.0
▁completed	-8417.0
▁carry	-8418.0
atom	-8419.0
▁depending	-8420.0
▁Our	-8421.0
▁insp	-8422.0
▁&\	-8423.0
aily	-8424.0
irection	-8425.0
фа	-8426.0
▁defe	-8427.0
TAC	-8428.0
▁designed	-8429.0
▁voir	-8430.0
break	-8431.0
▁partie	-8432.0
▁Jahren	-8433.0
▁studio	-8434.0
▁jour	-8435.0
▁Notes	-8436.0
fire	-8437.0
house	-8438.0
success	-8439.0
▁Juan	-8440.0
JS	-8441.0
▁Custom	-8442.0
▁besch	-8443.0
▁stated	-8444.0
bootstrap	-8445.0
ött	-8446.0
ozzá	-8447.0
▁CON	-8448.0
hav	-8449.0
▁sleep	-8450.0
eda	-8451.0
hot	-8452.0
ánd	-8453.0
▁Sy	-8454.0
▁temps	-8455.0
amar	-8456.0
▁scal	-8457.0
▁ast	-8458.0
▁opening	-8459.0
clipse	-8460.0
▁programming	-8461.0
▁letters	-8462.0
▁profile	-8463.0
nah	-8464.0
▁beyond	-8465.0
▁Further	-8466.0
faces	-8467.0
▁chart	-8468.0
зда	-8469.0
aign	-8470.0
ній	-8471.0
▁Rol	-8472.0
овано	-8473.0
terior	-8474.0
wed	-8475.0
▁herself	-8476.0
▁ng	-8477.0
anguages	-8478.0
}=\	-8479.0
ynamic	-8480.0
▁jug	-8481.0
▁Example	-8482.0
▁(†	-8483.0
▁playing	-8484.0
▁usage	-8485.0
▁managed	-8486.0
▁Natur	-8487.0
тери	-8488.0
▁Et	-8489.0
eria	-8490.0
▁daughter	-8491.0
нием	-8492.0
Fragment	-8493.0
▁hol	-8494.0
Fl	-8495.0
ографи	-8496.0
▁ihn	-8497.0
üh	-8498.0
instance	-8499.0
▁comun	-8500.0
▁truth	-8501.0
▁само	-8502.0
▁implemented	-8503.0
▁anyway	-8504.0
▁Cro	-8505.0
фе	-8506.0
GC	-8507.0
ubuntu	-8508.0
types	-8509.0
ês	-8510.0
.~\	-8511.0
fold	-8512.0
▁joined	-8513.0
??	-8514.0
▁mé	-8515.0
▁wild	-8516.0
клю	-8517.0
rowser	-8518.0
▁Home	-8519.0
skiej	-8520.0
▁JOIN	-8521.0
▁juin	-8522.0
hof	-8523.0
▁dataset	-8524.0
жду	-8525.0
'))	-8526.0
▁miejs	-8527.0
API	-8528.0
▁edited	-8529.0
ools	-8530.0
▁seeing	-8531.0
ijd	-8532.0
▁procedure	-8533.0
▁Bras	-8534.0
▁signed	-8535.0
▁externos	-8536.0
▁disapp	-8537.0
▁Direct	-8538.0
cyc	-8539.0
▁consult	-8540.0
örd	-8541.0
Widget	-8542.0
cious	-8543.0
sect	-8544.0
▁Ди	-8545.0
▁wind	-8546.0
▁Archivado	-8547.0
aml	-8548.0
сс	-8549.0
Wh	-8550.0
kbd	-8551.0
▁Army	-8552.0
▁suffer	-8553.0
artifact	-8554.0
▁resolve	-8555.0
▁Sport	-8556.0
▁це	-8557.0
idas	-8558.0
▁tax	-8559.0
idi	-8560.0
▁actions	-8561.0
пра	-8562.0
pués	-8563.0
▁naj	-8564.0
False	-8565.0
▁chance	-8566.0
▁тако	-8567.0
äd	-8568.0
▁dol	-8569.0
▁env	-8570.0
▁basically	-8571.0
▁Council	-8572.0
zte	-8573.0
▁displayed	-8574.0
nil	-8575.0
complete	-8576.0
▁Lem	-8577.0
iance	-8578.0
▁основ	-8579.0
▁depend	-8580.0
plom	-8581.0
ensus	-8582.0
uts	-8583.0
▁Hot	-8584.0
bitr	-8585.0
▁validation	-8586.0
abb	-8587.0
▁тре	-8588.0
km	-8589.0
zd	-8590.0
öff	-8591.0
WE	-8592.0
▁interested	-8593.0
▁{"	-8594.0
aro	-8595.0
▁correl	-8596.0
▁dedic	-8597.0
▁lists	-8598.0
▁Bibliografia	-8599.0
▁earlier	-8600.0
program	-8601.0
▁première	-8602.0
front	-8603.0
Tab	-8604.0
ству	-8605.0
drop	-8606.0
▁fear	-8607.0
▁Enlaces	-8608.0
▁Capt	-8609.0
▁realiz	-8610.0
▁hal	-8611.0
▁instances	-8612.0
▁susp	-8613.0
illing	-8614.0
%;	-8615.0
{}	-8616.0
||	-8617.0
▁partition	-8618.0
▁Build	-8619.0
▁wo	-8620.0
▁Пер	-8621.0
▁director	-8622.0
▁Sin	-8623.0
тия	-8624.0
rsg	-8625.0
ouver	-8626.0
▁nearly	-8627.0
oda	-8628.0
ктив	-8629.0
▁sir	-8630.0
IME	-8631.0
▁janvier	-8632.0
▁Win	-8633.0
Build	-8634.0
ieurs	-8635.0
INE	-8636.0
double	-8637.0
Last	-8638.0
▁policy	-8639.0
store	-8640.0
▁observed	-8641.0
▁familie	-8642.0
nica	-8643.0
rey	-8644.0
зь	-8645.0
▁Year	-8646.0
▁developed	-8647.0
▁Institute	-8648.0
▁reply	-8649.0
Comple	-8650.0
ician	-8651.0
▁Guer	-8652.0
▁dall	-8653.0
▁desp	-8654.0
▁Football	-8655.0
Empty	-8656.0
cken	-8657.0
unda	-8658.0
▁Ur	-8659.0
▁ig	-8660.0
▁Atl	-8661.0
author	-8662.0
▁Bol	-8663.0
zig	-8664.0
nat	-8665.0
št	-8666.0
security	-8667.0
onic	-8668.0
▁pes	-8669.0
itan	-8670.0
▁Extern	-8671.0
jan	-8672.0
VAL	-8673.0
▁им	-8674.0
bold	-8675.0
▁ва	-8676.0
▁Мо	-8677.0
▁disput	-8678.0
▁trick	-8679.0
▁ped	-8680.0
)^{	-8681.0
into	-8682.0
Sim	-8683.0
▁parallel	-8684.0
fox	-8685.0
normal	-8686.0
inent	-8687.0
педи	-8688.0
hold	-8689.0
OK	-8690.0
▁chem	-8691.0
▁twice	-8692.0
▁username	-8693.0
ič	-8694.0
▁representation	-8695.0
▁journal	-8696.0
▁:-	-8697.0
▁batt	-8698.0
\%	-8699.0
▁certainly	-8700.0
▁Exception	-8701.0
eps	-8702.0
shot	-8703.0
ategy	-8704.0
Show	-8705.0
▁Carl	-8706.0
rig	-8707.0
▁reported	-8708.0
bottom	-8709.0
TF	-8710.0
▁Francisco	-8711.0
nap	-8712.0
▁Championship	-8713.0
▁court	-8714.0
▁sources	-8715.0
iour	-8716.0
▁conserv	-8717.0
dict	-8718.0
▁Ру	-8719.0
IB	-8720.0
▁Ve	-8721.0
▁№	-8722.0
▁ER	-8723.0
"));	-8724.0
▁Point	-8725.0
azine	-8726.0
▁internet	-8727.0
дна	-8728.0
▁carried	-8729.0
▁Field	-8730.0
axis	-8731.0
▁Sun	-8732.0
▁ave	-8733.0
пис	-8734.0
ян	-8735.0
asy	-8736.0
▁julio	-8737.0
▁depuis	-8738.0
▁suggestion	-8739.0
[[	-8740.0
▁Archive	-8741.0
ęp	-8742.0
▁Pra	-8743.0
reh	-8744.0
▁demonstr	-8745.0
фі	-8746.0
cmd	-8747.0
▁wasn	-8748.0
▁phone	-8749.0
upload	-8750.0
aya	-8751.0
тора	-8752.0
lines	-8753.0
▁indu	-8754.0
▁vot	-8755.0
▁espa	-8756.0
▁bin	-8757.0
▁после	-8758.0
plan	-8759.0
▁junio	-8760.0
orial	-8761.0
free	-8762.0
sterreich	-8763.0
▁ду	-8764.0
▁linked	-8765.0
▁enable	-8766.0
PC	-8767.0
▁density	-8768.0
▁Egy	-8769.0
yo	-8770.0
endre	-8771.0
▁съ	-8772.0
▁italiano	-8773.0
▁AR	-8774.0
▁Pers	-8775.0
férés	-8776.0
▁скла	-8777.0
Var	-8778.0
▁Once	-8779.0
Red	-8780.0
buffer	-8781.0
▁Enter	-8782.0
▁Š	-8783.0
imiento	-8784.0
Store	-8785.0
▁health	-8786.0
vat	-8787.0
IST	-8788.0
Oh	-8789.0
▁kw	-8790.0
▁riv	-8791.0
▁somewhere	-8792.0
ografie	-8793.0
private	-8794.0
кти	-8795.0
▁delay	-8796.0
▁Http	-8797.0
job	-8798.0
rael	-8799.0
empor	-8800.0
▁diciembre	-8801.0
ête	-8802.0
цу	-8803.0
▁commit	-8804.0
oso	-8805.0
Values	-8806.0
▁headers	-8807.0
transform	-8808.0
▁processing	-8809.0
rå	-8810.0
▁Ah	-8811.0
▁Node	-8812.0
------------	-8813.0
▁faire	-8814.0
▁hun	-8815.0
Player	-8816.0
▁review	-8817.0
гда	-8818.0
▁limited	-8819.0
▁Property	-8820.0
▁serve	-8821.0
riage	-8822.0
▁Master	-8823.0
▁kann	-8824.0
crete	-8825.0
phere	-8826.0
ёр	-8827.0
▁chief	-8828.0
▁scene	-8829.0
kin	-8830.0
▁uniform	-8831.0
▁febrero	-8832.0
"}	-8833.0
illo	-8834.0
ITE	-8835.0
ouvel	-8836.0
usepackage	-8837.0
enth	-8838.0
▁quickly	-8839.0
Lambda	-8840.0
xes	-8841.0
▁cells	-8842.0
rog	-8843.0
amin	-8844.0
▁Мар	-8845.0
▁mayor	-8846.0
player	-8847.0
++;	-8848.0
▁Насе	-8849.0
▁safe	-8850.0
▁veloc	-8851.0
▁обра	-8852.0
Database	-8853.0
neh	-8854.0
Vert	-8855.0
▁fle	-8856.0
▁фор	-8857.0
▁foreign	-8858.0
Abstract	-8859.0
▁magn	-8860.0
▁modified	-8861.0
▁military	-8862.0
▁monde	-8863.0
▁Action	-8864.0
▁bank	-8865.0
Serial	-8866.0
▁continuous	-8867.0
▁gel	-8868.0
▁physical	-8869.0
▁introduced	-8870.0
uture	-8871.0
rick	-8872.0
▁presented	-8873.0
▁Prov	-8874.0
▁Both	-8875.0
Pos	-8876.0
super	-8877.0
&#	-8878.0
▁finding	-8879.0
nel	-8880.0
unde	-8881.0
▁från	-8882.0
skim	-8883.0
▁Hill	-8884.0
fn	-8885.0
▁Canad	-8886.0
▁intended	-8887.0
ozzáférés	-8888.0
▁juillet	-8889.0
▁Wars	-8890.0
▁successful	-8891.0
▁charg	-8892.0
iele	-8893.0
omething	-8894.0
oku	-8895.0
fetch	-8896.0
▁}}	-8897.0
bank	-8898.0
operatorname	-8899.0
▁Color	-8900.0
▁Card	-8901.0
tu	-8902.0
▁",	-8903.0
wid	-8904.0
▁gep	-8905.0
XML	-8906.0
================	-8907.0
▁Virgin	-8908.0
ährend	-8909.0
licated	-8910.0
Dir	-8911.0
zero	-8912.0
▁Kal	-8913.0
▁Party	-8914.0
▁å	-8915.0
price	-8916.0
don	-8917.0
▁warning	-8918.0
▁Bad	-8919.0
▁Supp	-8920.0
▁Liga	-8921.0
▁Pierre	-8922.0
Record	-8923.0
ulator	-8924.0
▁Rome	-8925.0
▁theorem	-8926.0
▁entirely	-8927.0
ским	-8928.0
het	-8929.0
▁dopo	-8930.0
Next	-8931.0
mlung	-8932.0
wig	-8933.0
▁Ath	-8934.0
▁Sou	-8935.0
licher	-8936.0
▁sudo	-8937.0
ests	-8938.0
хів	-8939.0
▁septiembre	-8940.0
▁micro	-8941.0
▁trop	-8942.0
fit	-8943.0
Core	-8944.0
▁Radio	-8945.0
▁Organ	-8946.0
▁Power	-8947.0
CF	-8948.0
▁Last	-8949.0
▁oppos	-8950.0
▁offset	-8951.0
▁regia	-8952.0
▁minimum	-8953.0
▁helped	-8954.0
andon	-8955.0
ifying	-8956.0
ruit	-8957.0
enschapp	-8958.0
▁bere	-8959.0
VM	-8960.0
▁Awards	-8961.0
▁agr	-8962.0
ynomial	-8963.0
enced	-8964.0
▁devices	-8965.0
▁bot	-8966.0
▁firm	-8967.0
▁writer	-8968.0
▁ring	-8969.0
.-	-8970.0
istes	-8971.0
lä	-8972.0
▁mel	-8973.0
entation	-8974.0
▁Schw	-8975.0
▁nome	-8976.0
▁pobla	-8977.0
▁woj	-8978.0
▁ul	-8979.0
ento	-8980.0
ых	-8981.0
▁resist	-8982.0
▁remains	-8983.0
▁Ca	-8984.0
aña	-8985.0
▁Court	-8986.0
utable	-8987.0
entially	-8988.0
▁trat	-8989.0
▁Visual	-8990.0
▁restrict	-8991.0
▁previously	-8992.0
cation	-8993.0
▁осо	-8994.0
▁MySQL	-8995.0
för	-8996.0
cala	-8997.0
▁culture	-8998.0
live	-8999.0
▁accepted	-9000.0
Did	-9001.0
▁hous	-9002.0
▁selection	-9003.0
▁decre	-9004.0
margin	-9005.0
urb	-9006.0
▁Inc	-9007.0
▁Many	-9008.0
ibt	-9009.0
▁succeed	-9010.0
Binding	-9011.0
cí	-9012.0
▁Rog	-9013.0
▁shouldn	-9014.0
cloud	-9015.0
▁dz	-9016.0
вав	-9017.0
▁pix	-9018.0
small	-9019.0
▁projects	-9020.0
▁OK	-9021.0
▁latest	-9022.0
▁references	-9023.0
Program	-9024.0
▁erst	-9025.0
▁як	-9026.0
▁kam	-9027.0
▁Camb	-9028.0
ellt	-9029.0
öd	-9030.0
none	-9031.0
▁jusqu	-9032.0
king	-9033.0
▁Ped	-9034.0
assert	-9035.0
CS	-9036.0
rito	-9037.0
essa	-9038.0
лько	-9039.0
▁Von	-9040.0
▁Edward	-9041.0
▁impossible	-9042.0
np	-9043.0
words	-9044.0
ielt	-9045.0
▁Page	-9046.0
lers	-9047.0
▁pier	-9048.0
▁области	-9049.0
ittee	-9050.0
▁([	-9051.0
▁trust	-9052.0
NG	-9053.0
redu	-9054.0
<<	-9055.0
rial	-9056.0
▁products	-9057.0
▁Ern	-9058.0
rière	-9059.0
гов	-9060.0
▁Reich	-9061.0
▁Road	-9062.0
▁nested	-9063.0
Display	-9064.0
▁strength	-9065.0
ografía	-9066.0
▁announced	-9067.0
▁Science	-9068.0
▁райо	-9069.0
Parameter	-9070.0
▁Task	-9071.0
uments	-9072.0
▁adopt	-9073.0
▁Only	-9074.0
ють	-9075.0
▁cli	-9076.0
▁lem	-9077.0
stood	-9078.0
▁FI	-9079.0
ências	-9080.0
ponents	-9081.0
]$	-9082.0
comment	-9083.0
▁ya	-9084.0
should	-9085.0
ike	-9086.0
tim	-9087.0
ellig	-9088.0
▁sending	-9089.0
▁ajax	-9090.0
▁noviembre	-9091.0
umes	-9092.0
▁weiter	-9093.0
▁Dans	-9094.0
opp	-9095.0
▁septembre	-9096.0
otimes	-9097.0
ző	-9098.0
▁ep	-9099.0
vere	-9100.0
▁oh	-9101.0
:=	-9102.0
▁Song	-9103.0
”,	-9104.0
▁viv	-9105.0
▁queries	-9106.0
▁vá	-9107.0
▁décembre	-9108.0
▁unable	-9109.0
▁erh	-9110.0
▁`-	-9111.0
▁Lee	-9112.0
▁ersten	-9113.0
ôt	-9114.0
стве	-9115.0
TS	-9116.0
▁fragment	-9117.0
▁wide	-9118.0
▁suff	-9119.0
▁dut	-9120.0
▁Vere	-9121.0
іс	-9122.0
ading	-9123.0
iego	-9124.0
icago	-9125.0
▁Argent	-9126.0
orer	-9127.0
ennes	-9128.0
▁Leb	-9129.0
linux	-9130.0
acing	-9131.0
▁broken	-9132.0
tp	-9133.0
ío	-9134.0
abeth	-9135.0
istas	-9136.0
gew	-9137.0
ième	-9138.0
cas	-9139.0
▁preced	-9140.0
▁Dal	-9141.0
▁compared	-9142.0
equiv	-9143.0
illy	-9144.0
teen	-9145.0
▁Console	-9146.0
▁strict	-9147.0
itaire	-9148.0
▁ED	-9149.0
entials	-9150.0
▁perman	-9151.0
▁tous	-9152.0
▁geme	-9153.0
▁extrem	-9154.0
▁окру	-9155.0
kg	-9156.0
▁heavy	-9157.0
▁avril	-9158.0
▁anti	-9159.0
▁octobre	-9160.0
utf	-9161.0
helm	-9162.0
amples	-9163.0
▁(_	-9164.0
aken	-9165.0
▁dear	-9166.0
▁opinion	-9167.0
▁fish	-9168.0
▁Alexander	-9169.0
iw	-9170.0
им	-9171.0
cadem	-9172.0
▁reflect	-9173.0
▁др	-9174.0
▁trib	-9175.0
common	-9176.0
▁clearly	-9177.0
▁saf	-9178.0
="@+	-9179.0
▁Мос	-9180.0
сите	-9181.0
eqnarray	-9182.0
nung	-9183.0
▁relationship	-9184.0
▁Sem	-9185.0
▁killed	-9186.0
ted	-9187.0
uno	-9188.0
▁лі	-9189.0
▁wid	-9190.0
anning	-9191.0
▁panel	-9192.0
▁Leben	-9193.0
▁ruby	-9194.0
ansion	-9195.0
▁aren	-9196.0
tabular	-9197.0
alet	-9198.0
}$$	-9199.0
▁Lake	-9200.0
▁suite	-9201.0
▁minor	-9202.0
Hozzáférés	-9203.0
▁xmlns	-9204.0
DIR	-9205.0
driver	-9206.0
ints	-9207.0
▁vic	-9208.0
AND	-9209.0
prim	-9210.0
сылки	-9211.0
▁Ox	-9212.0
TC	-9213.0
rivial	-9214.0
atie	-9215.0
▁eight	-9216.0
▁conflic	-9217.0
angel	-9218.0
▁Begr	-9219.0
▁explicitly	-9220.0
ются	-9221.0
▁Dev	-9222.0
render	-9223.0
▁reprodu	-9224.0
▁cré	-9225.0
Gu	-9226.0
MB	-9227.0
▁kön	-9228.0
▁remained	-9229.0
▁kl	-9230.0
хов	-9231.0
▁byl	-9232.0
Phi	-9233.0
▁detail	-9234.0
jav	-9235.0
▁mouse	-9236.0
Bas	-9237.0
ię	-9238.0
asser	-9239.0
hs	-9240.0
▁shift	-9241.0
▁últ	-9242.0
rand	-9243.0
▁btn	-9244.0
raz	-9245.0
▁pul	-9246.0
▁statements	-9247.0
filename	-9248.0
▁prompt	-9249.0
élé	-9250.0
ikz	-9251.0
▁Sus	-9252.0
▁debut	-9253.0
Stat	-9254.0
forms	-9255.0
▁Hein	-9256.0
stadt	-9257.0
ennis	-9258.0
пол	-9259.0
arante	-9260.0
цій	-9261.0
▁queue	-9262.0
▁reci	-9263.0
▁sta	-9264.0
ynchron	-9265.0
centering	-9266.0
Some	-9267.0
Graph	-9268.0
▁tested	-9269.0
▁Kunst	-9270.0
ом	-9271.0
▁Nothing	-9272.0
ieu	-9273.0
“.	-9274.0
Bundle	-9275.0
▁oficial	-9276.0
allow	-9277.0
▁React	-9278.0
▁Library	-9279.0
blue	-9280.0
▁verw	-9281.0
▁pare	-9282.0
▁Friedrich	-9283.0
▁aware	-9284.0
Exp	-9285.0
▁effects	-9286.0
▁горо	-9287.0
lopedia	-9288.0
▁Ven	-9289.0
rale	-9290.0
▁Final	-9291.0
▁propos	-9292.0
lacement	-9293.0
kten	-9294.0
▁novel	-9295.0
orter	-9296.0
▁Germany	-9297.0
▁django	-9298.0
▁transition	-9299.0
▁happened	-9300.0
▁beautiful	-9301.0
▁neither	-9302.0
▁libraries	-9303.0
▁hide	-9304.0
alg	-9305.0
▁aspect	-9306.0
▁forget	-9307.0
cademy	-9308.0
onte	-9309.0
refix	-9310.0
▁cloud	-9311.0
ned	-9312.0
cdots	-9313.0
register	-9314.0
nym	-9315.0
.):	-9316.0
▁Jew	-9317.0
▁très	-9318.0
ниче	-9319.0
▁Dor	-9320.0
▁proc	-9321.0
▁gan	-9322.0
▁є	-9323.0
▁Sav	-9324.0
ví	-9325.0
Settings	-9326.0
▁Vari	-9327.0
▁cours	-9328.0
Ro	-9329.0
▁conj	-9330.0
▁reasons	-9331.0
▁reader	-9332.0
лександ	-9333.0
icate	-9334.0
}),	-9335.0
▁tasks	-9336.0
▁Ray	-9337.0
▁ric	-9338.0
Ke	-9339.0
onie	-9340.0
rf	-9341.0
)[	-9342.0
▁subsequ	-9343.0
▁Turn	-9344.0
▁VIAF	-9345.0
mathsf	-9346.0
HE	-9347.0
▁declare	-9348.0
▁protocol	-9349.0
▁PC	-9350.0
цион	-9351.0
ViewById	-9352.0
▁animation	-9353.0
▁confused	-9354.0
вич	-9355.0
▁enabled	-9356.0
owo	-9357.0
ást	-9358.0
öt	-9359.0
▁mand	-9360.0
▁Rail	-9361.0
fields	-9362.0
▁Kap	-9363.0
▁algebra	-9364.0
▁Су	-9365.0
férence	-9366.0
▁Current	-9367.0
сно	-9368.0
▁Lim	-9369.0
Params	-9370.0
▁Antonio	-9371.0
▁tv	-9372.0
late	-9373.0
ifer	-9374.0
Entry	-9375.0
▁Serv	-9376.0
▁musical	-9377.0
▁trace	-9378.0
▁scient	-9379.0
fic	-9380.0
▁forgot	-9381.0
video	-9382.0
▁older	-9383.0
Tree	-9384.0
▁uns	-9385.0
ники	-9386.0
▁Europa	-9387.0
▁Zwe	-9388.0
▁бе	-9389.0
▁vec	-9390.0
жу	-9391.0
▁▁▁▁▁▁▁▁▁▁▁	-1000000000.0
Match	-9393.0
span	-9394.0
▁blank	-9395.0
▁später	-9396.0
▁Ty	-9397.0
▁dict	-9398.0
ña	-9399.0
▁confirm	-9400.0
▁vý	-9401.0
зан	-9402.0
Rel	-9403.0
film	-9404.0
▁Rot	-9405.0
▁Hy	-9406.0
ках	-9407.0
▁demand	-9408.0
▁minist	-9409.0
▁Madrid	-9410.0
▁usual	-9411.0
spiel	-9412.0
eros	-9413.0
▁tutorial	-9414.0
▁Ссылки	-9415.0
sys	-9416.0
циаль	-9417.0
▁spread	-9418.0
▁convers	-9419.0
▁roll	-9420.0
artifactId	-9421.0
▁Number	-9422.0
▁symmet	-9423.0
▁Mult	-9424.0
expected	-9425.0
▁axis	-9426.0
▁matching	-9427.0
▁food	-9428.0
groupId	-9429.0
Mapp	-9430.0
▁свя	-9431.0
▁vend	-9432.0
Found	-9433.0
otto	-9434.0
Cat	-9435.0
crit	-9436.0
istent	-9437.0
▁drei	-9438.0
▁ended	-9439.0
▁Tele	-9440.0
component	-9441.0
▁involved	-9442.0
▁Estados	-9443.0
▁danger	-9444.0
▁chain	-9445.0
▁Prom	-9446.0
hom	-9447.0
▁polít	-9448.0
cop	-9449.0
▁nap	-9450.0
rif	-9451.0
plements	-9452.0
▁vent	-9453.0
anna	-9454.0
anted	-9455.0
dated	-9456.0
anth	-9457.0
▁threads	-9458.0
зова	-9459.0
▁станов	-9460.0
▁eerst	-9461.0
buf	-9462.0
heid	-9463.0
▁Ru	-9464.0
▁Prim	-9465.0
▁migr	-9466.0
▁Unidos	-9467.0
▁arbitr	-9468.0
▁roman	-9469.0
ountry	-9470.0
ultur	-9471.0
▁König	-9472.0
▁annot	-9473.0
aching	-9474.0
▁Haupt	-9475.0
umin	-9476.0
▁hem	-9477.0
ckets	-9478.0
bau	-9479.0
ection	-9480.0
eft	-9481.0
▁packages	-9482.0
▁Kur	-9483.0
thur	-9484.0
▁pays	-9485.0
liament	-9486.0
▁Бу	-9487.0
▁cada	-9488.0
points	-9489.0
ocket	-9490.0
▁verb	-9491.0
лее	-9492.0
▁submit	-9493.0
▁san	-9494.0
ruby	-9495.0
▁east	-9496.0
kov	-9497.0
▁Verlag	-9498.0
▁spot	-9499.0
ppo	-9500.0
Each	-9501.0
jekt	-9502.0
▁Biographie	-9503.0
▁news	-9504.0
▁país	-9505.0
ufact	-9506.0
▁dia	-9507.0
кова	-9508.0
▁accompl	-9509.0
▁Ét	-9510.0
ilities	-9511.0
▁ihm	-9512.0
invoke	-9513.0
▁append	-9514.0
.),	-9515.0
▁lab	-9516.0
anging	-9517.0
istan	-9518.0
resol	-9519.0
▁Section	-9520.0
Parent	-9521.0
moz	-9522.0
Mat	-9523.0
styles	-9524.0
unden	-9525.0
“,	-9526.0
irtschaft	-9527.0
ким	-9528.0
▁Finally	-9529.0
phen	-9530.0
▁Pac	-9531.0
▁ArrayList	-9532.0
▁recover	-9533.0
▁education	-9534.0
models	-9535.0
ped	-9536.0
▁happy	-9537.0
чу	-9538.0
▁guerra	-9539.0
media	-9540.0
OF	-9541.0
▁ensure	-9542.0
Mark	-9543.0
database	-9544.0
oggle	-9545.0
▁publish	-9546.0
OW	-9547.0
▁Bau	-9548.0
?.	-9549.0
▁части	-9550.0
▁repository	-9551.0
▁Matt	-9552.0
high	-9553.0
oven	-9554.0
▁ger	-9555.0
▁unknown	-9556.0
Amer	-9557.0
▁Brown	-9558.0
ALL	-9559.0
▁resulting	-9560.0
▁bor	-9561.0
▁poet	-9562.0
ними	-9563.0
Email	-9564.0
Font	-9565.0
▁hist	-9566.0
▁today	-9567.0
▁Berg	-9568.0
▁buttons	-9569.0
тал	-9570.0
▁sni	-9571.0
▁челов	-9572.0
Cre	-9573.0
▁union	-9574.0
▁zich	-9575.0
ishop	-9576.0
▁quando	-9577.0
Po	-9578.0
CTION	-9579.0
▁Cost	-9580.0
судар	-9581.0
erved	-9582.0
Note	-9583.0
Equal	-9584.0
лия	-9585.0
бур	-9586.0
▁abstract	-9587.0
stop	-9588.0
▁advice	-9589.0
▁icon	-9590.0
▁travel	-9591.0
BS	-9592.0
vens	-9593.0
▁batch	-9594.0
lique	-9595.0
sheet	-9596.0
▁ihre	-9597.0
emon	-9598.0
berto	-9599.0
▁assigned	-9600.0
ью	-9601.0
Phone	-9602.0
▁award	-9603.0
▁functionality	-9604.0
alla	-9605.0
▁Dam	-9606.0
▁ciudad	-9607.0
▁cluster	-9608.0
Description	-9609.0
▁sheet	-9610.0
▁Australian	-9611.0
▁».	-9612.0
▁"<	-9613.0
▁wondering	-9614.0
aine	-9615.0
▁represented	-9616.0
kappa	-9617.0
nb	-9618.0
▁sy	-9619.0
▁Kö	-9620.0
="#	-9621.0
▁seven	-9622.0
Directory	-9623.0
▁sister	-9624.0
plates	-9625.0
▁luck	-9626.0
▁remaining	-9627.0
▁Vill	-9628.0
werk	-9629.0
anni	-9630.0
etti	-9631.0
func	-9632.0
▁ban	-9633.0
ims	-9634.0
miss	-9635.0
agraph	-9636.0
екси	-9637.0
▁Ref	-9638.0
nitt	-9639.0
▁Gab	-9640.0
▁andere	-9641.0
▁jedoch	-9642.0
results	-9643.0
!\	-9644.0
▁listed	-9645.0
▁loro	-9646.0
▁knows	-9647.0
жно	-9648.0
Rad	-9649.0
▁socket	-9650.0
multi	-9651.0
▁рі	-9652.0
rails	-9653.0
▁tar	-9654.0
▁gentle	-9655.0
sett	-9656.0
services	-9657.0
bound	-9658.0
igkeit	-9659.0
aja	-9660.0
▁cmd	-9661.0
agger	-9662.0
▁ba	-9663.0
▁Belg	-9664.0
▁Kle	-9665.0
▁wordt	-9666.0
▁fost	-9667.0
▁dimension	-9668.0
Ang	-9669.0
uming	-9670.0
Obj	-9671.0
нен	-9672.0
▁Marie	-9673.0
exists	-9674.0
тро	-9675.0
▁боль	-9676.0
emente	-9677.0
▁Jon	-9678.0
SERT	-9679.0
▁highest	-9680.0
aki	-9681.0
▁tres	-9682.0
▁circum	-9683.0
▁Down	-9684.0
ommen	-9685.0
urer	-9686.0
▁causes	-9687.0
venue	-9688.0
issance	-9689.0
▁influence	-9690.0
▁fat	-9691.0
реди	-9692.0
}\\	-9693.0
▁entr	-9694.0
▁Sign	-9695.0
▁кла	-9696.0
▁binding	-9697.0
essen	-9698.0
▁Фран	-9699.0
▁Local	-9700.0
▁явля	-9701.0
appro	-9702.0
▁dependencies	-9703.0
▁talking	-9704.0
▁zurück	-9705.0
connection	-9706.0
Active	-9707.0
bbe	-9708.0
irls	-9709.0
▁Inf	-9710.0
wd	-9711.0
▁ис	-9712.0
road	-9713.0
▁conven	-9714.0
ět	-9715.0
вез	-9716.0
▁entries	-9717.0
esc	-9718.0
▁bits	-9719.0
asso	-9720.0
WR	-9721.0
ships	-9722.0
▁dés	-9723.0
esp	-9724.0
Make	-9725.0
▁familiar	-9726.0
Art	-9727.0
▁army	-9728.0
ctr	-9729.0
éric	-9730.0
queue	-9731.0
▁\{	-9732.0
uela	-9733.0
amiento	-9734.0
ших	-9735.0
▁"""	-9736.0
contr	-9737.0
лле	-9738.0
FS	-9739.0
▁market	-9740.0
ång	-9741.0
citep	-9742.0
Ill	-9743.0
rank	-9744.0
▁sender	-9745.0
▁beim	-9746.0
рак	-9747.0
▁compat	-9748.0
▁occurs	-9749.0
▁diese	-9750.0
ститу	-9751.0
awa	-9752.0
▁iOS	-9753.0
▁Chinese	-9754.0
▁TR	-9755.0
▁Ken	-9756.0
▁Une	-9757.0
▁creates	-9758.0
▁showed	-9759.0
▁év	-9760.0
ologia	-9761.0
▁protest	-9762.0
▁Pf	-9763.0
▁squad	-9764.0
++,	-9765.0
áv	-9766.0
▁essere	-9767.0
зя	-9768.0
kol	-9769.0
▁slightly	-9770.0
addr	-9771.0
ân	-9772.0
▁reduce	-9773.0
▁\(\	-9774.0
▁Dep	-9775.0
▁generic	-9776.0
Loader	-9777.0
ți	-9778.0
▁пос	-9779.0
▁occasion	-9780.0
▁Lady	-9781.0
entity	-9782.0
▁avant	-9783.0
▁Pas	-9784.0
aggio	-9785.0
\{	-9786.0
пад	-9787.0
atholic	-9788.0
Password	-9789.0
▁respond	-9790.0
▁Non	-9791.0
AG	-9792.0
neg	-9793.0
▁ус	-9794.0
blob	-9795.0
cke	-9796.0
▁Consider	-9797.0
▁Care	-9798.0
iki	-9799.0
▁Chicago	-9800.0
inden	-9801.0
▁Cop	-9802.0
]+	-9803.0
öm	-9804.0
évrier	-9805.0
кло	-9806.0
alen	-9807.0
▁maj	-9808.0
racy	-9809.0
orte	-9810.0
ients	-9811.0
ells	-9812.0
activity	-9813.0
▁runtime	-9814.0
NULL	-9815.0
▁possibly	-9816.0
▁stri	-9817.0
izi	-9818.0
▁mir	-9819.0
▁Version	-9820.0
prime	-9821.0
▁twenty	-9822.0
▁Mah	-9823.0
▁sounds	-9824.0
шен	-9825.0
clusion	-9826.0
acz	-9827.0
▁determined	-9828.0
▁Rep	-9829.0
▁Landes	-9830.0
▁wall	-9831.0
igi	-9832.0
▁reset	-9833.0
шо	-9834.0
yan	-9835.0
Met	-9836.0
ei	-9837.0
▁appearance	-9838.0
▁fois	-9839.0
▁nell	-9840.0
esi	-9841.0
ёт	-9842.0
loor	-9843.0
▁Ul	-9844.0
▁resolution	-9845.0
▁fot	-9846.0
▁throughout	-9847.0
▁ri	-9848.0
Level	-9849.0
pool	-9850.0
▁identity	-9851.0
▁janu	-9852.0
▁imper	-9853.0
▁över	-9854.0
}`	-9855.0
▁infer	-9856.0
▁dates	-9857.0
▁Standard	-9858.0
force	-9859.0
ockey	-9860.0
tera	-9861.0
▁distingu	-9862.0
▁presence	-9863.0
lica	-9864.0
▁leaving	-9865.0
itung	-9866.0
éb	-9867.0
▁establish	-9868.0
▁maar	-9869.0
adi	-9870.0
▁News	-9871.0
azon	-9872.0
folg	-9873.0
▁Hence	-9874.0
▁Ye	-9875.0
▁fab	-9876.0
▁führ	-9877.0
itmap	-9878.0
▁Vers	-9879.0
rov	-9880.0
Sign	-9881.0
device	-9882.0
Sigma	-9883.0
▁wetenschapp	-9884.0
▁Ps	-9885.0
PATH	-9886.0
▁torn	-9887.0
vest	-9888.0
стов	-9889.0
account	-9890.0
▁largest	-9891.0
▁percent	-9892.0
▁Women	-9893.0
▁img	-9894.0
tool	-9895.0
▁roce	-9896.0
▁ay	-9897.0
inet	-9898.0
▁août	-9899.0
▁polynomial	-9900.0
▁integral	-9901.0
▁areas	-9902.0
}'	-9903.0
▁hyp	-9904.0
loyee	-9905.0
таль	-9906.0
▁proxy	-9907.0
▁Wy	-9908.0
▁Мекси	-9909.0
▁escape	-9910.0
olar	-9911.0
▁mistake	-9912.0
)}{	-9913.0
▁Pot	-9914.0
▁processes	-9915.0
">	-9916.0
halten	-9917.0
zza	-9918.0
amo	-9919.0
кре	-9920.0
▁Wood	-9921.0
ør	-9922.0
▁сер	-9923.0
ocia	-9924.0
two	-9925.0
profile	-9926.0
▁Ast	-9927.0
embro	-9928.0
▁arms	-9929.0
inas	-9930.0
innen	-9931.0
▁msg	-9932.0
INT	-9933.0
▁batter	-9934.0
ignment	-9935.0
▁vy	-9936.0
Hrsg	-9937.0
▁Grund	-9938.0
roc	-9939.0
seg	-9940.0
▁decor	-9941.0
▁eventually	-9942.0
>,	-9943.0
▁pag	-9944.0
anten	-9945.0
▁strugg	-9946.0
}^\	-9947.0
daten	-9948.0
▁rela	-9949.0
пов	-9950.0
▁коро	-9951.0
▁Bos	-9952.0
▁labor	-9953.0
▁Secret	-9954.0
ugen	-9955.0
▁jap	-9956.0
▁husband	-9957.0
▁Album	-9958.0
▁etwa	-9959.0
▁произ	-9960.0
richt	-9961.0
rach	-9962.0
bat	-9963.0
▁prepar	-9964.0
▁Stock	-9965.0
▁lack	-9966.0
хід	-9967.0
▁hogy	-9968.0
▁Chrome	-9969.0
▁Admin	-9970.0
▁comparison	-9971.0
▁increasing	-9972.0
нг	-9973.0
imi	-9974.0
Db	-9975.0
▁gef	-9976.0
ucht	-9977.0
ése	-9978.0
gence	-9979.0
▁Core	-9980.0
▁incorrect	-9981.0
▁assuming	-9982.0
ourse	-9983.0
ieron	-9984.0
▁Theorem	-9985.0
▁casa	-9986.0
jes	-9987.0
▁дере	-9988.0
▁`"	-9989.0
LD	-9990.0
äß	-9991.0
Deb	-9992.0
▁suiv	-9993.0
▁Bank	-9994.0
libs	-9995.0
▁Leon	-9996.0
▁quart	-9997.0
▁professional	-9998.0
▁tiene	-9999.0
▁accomp	-10000.0
стер	-10001.0
▁UK	-10002.0
NN	-10003.0
▁lí	-10004.0
ця	-10005.0
kel	-10006.0
▁•	-10007.0
▁dise	-10008.0
onto	-10009.0
▁má	-10010.0
ifs	-10011.0
bild	-10012.0
▁compute	-10013.0
▁éd	-10014.0
ję	-10015.0
▁Mé	-10016.0
▁languages	-10017.0
▁Times	-10018.0
cen	-10019.0
▁авто	-10020.0
ým	-10021.0
enez	-10022.0
▁upp	-10023.0
▁méd	-10024.0
▁cuando	-10025.0
од	-10026.0
Intent	-10027.0
eerd	-10028.0
▁Tal	-10029.0
offset	-10030.0
▁haben	-10031.0
reme	-10032.0
▁Stack	-10033.0
▁dri	-10034.0
▁seinem	-10035.0
▁février	-10036.0
▁combination	-10037.0
▁soll	-10038.0
▁movement	-10039.0
Spec	-10040.0
кры	-10041.0
retch	-10042.0
Offset	-10043.0
Root	-10044.0
Ар	-10045.0
wart	-10046.0
▁Follow	-10047.0
▁Social	-10048.0
ников	-10049.0
▁→	-10050.0
Don	-10051.0
▁harm	-10052.0
agr	-10053.0
nego	-10054.0
resource	-10055.0
▁Luc	-10056.0
▁seinen	-10057.0
▁Department	-10058.0
▁Update	-10059.0
▁Texas	-10060.0
▁reve	-10061.0
▁Pos	-10062.0
▁shot	-10063.0
othe	-10064.0
▁repeated	-10065.0
▁recently	-10066.0
ában	-10067.0
aks	-10068.0
пан	-10069.0
▁cha	-10070.0
ohl	-10071.0
▁tend	-10072.0
▁дво	-10073.0
chts	-10074.0
çaise	-10075.0
pling	-10076.0
album	-10077.0
ej	-10078.0
▁`[	-10079.0
maps	-10080.0
▁units	-10081.0
▁<!--	-10082.0
▁ге	-10083.0
▁Information	-10084.0
ikon	-10085.0
▁tan	-10086.0
▁docker	-10087.0
▁Stad	-10088.0
▁audio	-10089.0
iko	-10090.0
▁coordinates	-10091.0
xs	-10092.0
▁replied	-10093.0
▁),	-10094.0
▁Government	-10095.0
▁Academy	-10096.0
UNT	-10097.0
▁три	-10098.0
Bl	-10099.0
▁anc	-10100.0
шу	-10101.0
▁також	-10102.0
▁infinite	-10103.0
RC	-10104.0
▁ga	-10105.0
▁adjust	-10106.0
▁merge	-10107.0
;`	-10108.0
▁poster	-10109.0
▁Japanese	-10110.0
"];	-10111.0
▁exhib	-10112.0
▁ordered	-10113.0
ictures	-10114.0
рос	-10115.0
▁série	-10116.0
lets	-10117.0
▁ip	-10118.0
Selector	-10119.0
▁existence	-10120.0
Rece	-10121.0
liga	-10122.0
download	-10123.0
▁lemma	-10124.0
iev	-10125.0
udent	-10126.0
sko	-10127.0
▁Arab	-10128.0
itate	-10129.0
byte	-10130.0
от	-10131.0
ikt	-10132.0
ната	-10133.0
▁Af	-10134.0
(@	-10135.0
▁mad	-10136.0
odb	-10137.0
▁elimin	-10138.0
▁spent	-10139.0
Enter	-10140.0
▁Mitg	-10141.0
When	-10142.0
▁départ	-10143.0
MI	-10144.0
▁fellow	-10145.0
▁thousand	-10146.0
▁Cu	-10147.0
ktor	-10148.0
Cache	-10149.0
▁também	-10150.0
▁extended	-10151.0
вест	-10152.0
aters	-10153.0
▁Lic	-10154.0
totype	-10155.0
▁Ga	-10156.0
▁blood	-10157.0
▁mapping	-10158.0
▁nomin	-10159.0
▁manifest	-10160.0
▁pens	-10161.0
▁rit	-10162.0
▁filename	-10163.0
▁filled	-10164.0
vä	-10165.0
▁raised	-10166.0
▁mobile	-10167.0
ké	-10168.0
▁Right	-10169.0
▁gehör	-10170.0
▁temperature	-10171.0
▁somehow	-10172.0
▁Spanish	-10173.0
▁kommun	-10174.0
▁chosen	-10175.0
▁horse	-10176.0
;\	-10177.0
▁originally	-10178.0
Hash	-10179.0
▁citt	-10180.0
▁encore	-10181.0
▁Wolf	-10182.0
▁nú	-10183.0
▁Young	-10184.0
Vari	-10185.0
▁Schwe	-10186.0
▁capture	-10187.0
▁Jane	-10188.0
Interface	-10189.0
owych	-10190.0
▁Deutschland	-10191.0
▁Kol	-10192.0
▁boundary	-10193.0
▁GND	-10194.0
Now	-10195.0
kehr	-10196.0
(*	-10197.0
=-	-10198.0
▁Wel	-10199.0
▁Cat	-10200.0
amment	-10201.0
AGE	-10202.0
▁rights	-10203.0
Scroll	-10204.0
▁happening	-10205.0
▁Bla	-10206.0
▁science	-10207.0
aws	-10208.0
▁behaviour	-10209.0
▁implies	-10210.0
▁Queen	-10211.0
ovan	-10212.0
pay	-10213.0
ња	-10214.0
aret	-10215.0
ership	-10216.0
▁Lang	-10217.0
▁год	-10218.0
▁recorded	-10219.0
zem	-10220.0
▁Thread	-10221.0
▁todo	-10222.0
ogo	-10223.0
▁scenario	-10224.0
▁concent	-10225.0
рез	-10226.0
Storage	-10227.0
▁dirig	-10228.0
▁Series	-10229.0
▁gas	-10230.0
SET	-10231.0
èce	-10232.0
rate	-10233.0
HTTP	-10234.0
▁kap	-10235.0
Emp	-10236.0
UTF	-10237.0
ání	-10238.0
стави	-10239.0
windows	-10240.0
ération	-10241.0
aped	-10242.0
▁sistema	-10243.0
▁surv	-10244.0
▁Western	-10245.0
▁gé	-10246.0
▁Such	-10247.0
Writer	-10248.0
▁canvas	-10249.0
▁guarante	-10250.0
scroll	-10251.0
aved	-10252.0
Ital	-10253.0
▁Elect	-10254.0
](#	-10255.0
▁Herm	-10256.0
▁Command	-10257.0
▁Child	-10258.0
▁pd	-10259.0
utch	-10260.0
Sql	-10261.0
*.	-10262.0
▁Tag	-10263.0
▁Ta	-10264.0
▁mail	-10265.0
screen	-10266.0
scr	-10267.0
zial	-10268.0
▁Für	-10269.0
▁suggestions	-10270.0
chester	-10271.0
)|	-10272.0
person	-10273.0
zel	-10274.0
▁waiting	-10275.0
▁сле	-10276.0
FL	-10277.0
▁Albert	-10278.0
▁Hij	-10279.0
▁тер	-10280.0
ewrite	-10281.0
▁sentence	-10282.0
▁linux	-10283.0
еде	-10284.0
ência	-10285.0
▁Italian	-10286.0
чка	-10287.0
Files	-10288.0
▁noticed	-10289.0
bing	-10290.0
▁Research	-10291.0
▁alter	-10292.0
heel	-10293.0
\<^	-10294.0
▁Process	-10295.0
▁battle	-10296.0
мов	-10297.0
▁Africa	-10298.0
▁Anne	-10299.0
▁geld	-10300.0
}%	-10301.0
▁docs	-10302.0
Types	-10303.0
▁retrieve	-10304.0
▁Official	-10305.0
▁trab	-10306.0
цы	-10307.0
▁Input	-10308.0
step	-10309.0
▁laugh	-10310.0
▁Ха	-10311.0
▁pela	-10312.0
Media	-10313.0
rough	-10314.0
гани	-10315.0
▁Should	-10316.0
▁Content	-10317.0
лем	-10318.0
osh	-10319.0
▁somewhat	-10320.0
▁Cer	-10321.0
Background	-10322.0
stru	-10323.0
▁inline	-10324.0
▁Neder	-10325.0
▁modules	-10326.0
▁Buch	-10327.0
ński	-10328.0
widet	-10329.0
▁zn	-10330.0
poses	-10331.0
▁gradu	-10332.0
▁aqu	-10333.0
PR	-10334.0
▁putting	-10335.0
▁поли	-10336.0
▁purch	-10337.0
▁smooth	-10338.0
рий	-10339.0
engine	-10340.0
▁lived	-10341.0
Account	-10342.0
Details	-10343.0
▁tells	-10344.0
▁Output	-10345.0
Here	-10346.0
▁Foundation	-10347.0
TextView	-10348.0
▁decision	-10349.0
▁dependency	-10350.0
ocation	-10351.0
oval	-10352.0
feld	-10353.0
▁пров	-10354.0
▁ends	-10355.0
▁ios	-10356.0
▁excel	-10357.0
agu	-10358.0
▁eleg	-10359.0
▁Element	-10360.0
Queue	-10361.0
▁fö	-10362.0
версите	-10363.0
▁experien	-10364.0
▁directed	-10365.0
▁camb	-10366.0
▁Дж	-10367.0
▁folg	-10368.0
▁conce	-10369.0
▁Fab	-10370.0
▁Vi	-10371.0
▁advantage	-10372.0
▁Bei	-10373.0
prod	-10374.0
▁XIX	-10375.0
▁Face	-10376.0
▁vir	-10377.0
▁Russian	-10378.0
▁span	-10379.0
ení	-10380.0
▁zone	-10381.0
▁attach	-10382.0
▁без	-10383.0
▁management	-10384.0
Ac	-10385.0
▁оп	-10386.0
once	-10387.0
halt	-10388.0
uso	-10389.0
Spe	-10390.0
▁raw	-10391.0
éro	-10392.0
idel	-10393.0
law	-10394.0
Sheet	-10395.0
▁mission	-10396.0
▁camera	-10397.0
▁honor	-10398.0
▁appointed	-10399.0
▁Roma	-10400.0
linear	-10401.0
Rows	-10402.0
ferences	-10403.0
▁IO	-10404.0
▁covered	-10405.0
raj	-10406.0
ствова	-10407.0
▁Sym	-10408.0
▁tid	-10409.0
isc	-10410.0
▁Rud	-10411.0
▁encuent	-10412.0
▁failure	-10413.0
üss	-10414.0
▁squ	-10415.0
▁paint	-10416.0
▁serious	-10417.0
▁cursor	-10418.0
tras	-10419.0
▁discussion	-10420.0
▁cried	-10421.0
erie	-10422.0
▁Develop	-10423.0
▁rewrite	-10424.0
▁général	-10425.0
wait	-10426.0
▁Harry	-10427.0
ír	-10428.0
▁gepublic	-10429.0
▁иг	-10430.0
іб	-10431.0
ят	-10432.0
▁Из	-10433.0
▁equations	-10434.0
▁plane	-10435.0
▁acqu	-10436.0
▁angle	-10437.0
▁trees	-10438.0
▁Кон	-10439.0
VD	-10440.0
pert	-10441.0
▁documents	-10442.0
cb	-10443.0
▁implements	-10444.0
станов	-10445.0
▁Walter	-10446.0
зыва	-10447.0
▁спе	-10448.0
▁chap	-10449.0
plex	-10450.0
▁magnet	-10451.0
▁gepubliceerd	-10452.0
▁highly	-10453.0
▁leurs	-10454.0
▁dress	-10455.0
▁restart	-10456.0
Render	-10457.0
Callback	-10458.0
iso	-10459.0
▁constitu	-10460.0
▁Ende	-10461.0
ZE	-10462.0
▁Angeles	-10463.0
▁derived	-10464.0
="{	-10465.0
]\	-10466.0
▁Change	-10467.0
▁Haus	-10468.0
▁stad	-10469.0
▁Request	-10470.0
omo	-10471.0
▁Active	-10472.0
uren	-10473.0
▁tourn	-10474.0
▁particularly	-10475.0
Servlet	-10476.0
abc	-10477.0
widetilde	-10478.0
andra	-10479.0
Helper	-10480.0
Rule	-10481.0
▁plusieurs	-10482.0
▁wave	-10483.0
neq	-10484.0
▁Те	-10485.0
fre	-10486.0
ské	-10487.0
▁alc	-10488.0
▁logs	-10489.0
GS	-10490.0
▁Mol	-10491.0
▁permission	-10492.0
▁soul	-10493.0
▁wants	-10494.0
▁guide	-10495.0
▁viene	-10496.0
▁Wilhelm	-10497.0
▁evidence	-10498.0
"},	-10499.0
ropol	-10500.0
▁authentication	-10501.0
▁occurred	-10502.0
▁IF	-10503.0
noc	-10504.0
IA	-10505.0
▁Ban	-10506.0
▁кар	-10507.0
▁ble	-10508.0
▁segment	-10509.0
▁players	-10510.0
isi	-10511.0
▁stuck	-10512.0
▁Py	-10513.0
Any	-10514.0
hou	-10515.0
▁formatt	-10516.0
▁peace	-10517.0
▁Кар	-10518.0
etes	-10519.0
dfrac	-10520.0
(?	-10521.0
▁Site	-10522.0
▁Live	-10523.0
▁Us	-10524.0
▁clim	-10525.0
▁Ali	-10526.0
рей	-10527.0
▁Prince	-10528.0
▁oblig	-10529.0
ieb	-10530.0
▁Alt	-10531.0
▁pros	-10532.0
racle	-10533.0
▁Cette	-10534.0
kes	-10535.0
zös	-10536.0
ouvelle	-10537.0
////////	-10538.0
aby	-10539.0
ére	-10540.0
rane	-10541.0
▁powers	-10542.0
▁Path	-10543.0
▁Word	-10544.0
▁transaction	-10545.0
▁causing	-10546.0
ellschaft	-10547.0
ât	-10548.0
▁CPU	-10549.0
▁depth	-10550.0
STR	-10551.0
▁Conf	-10552.0
▁rare	-10553.0
▁Ak	-10554.0
▁bon	-10555.0
▁Carlos	-10556.0
▁specifically	-10557.0
rics	-10558.0
KEY	-10559.0
▁stars	-10560.0
érica	-10561.0
▁Лу	-10562.0
▁configure	-10563.0
▁agent	-10564.0
▁explained	-10565.0
▁coefficient	-10566.0
дь	-10567.0
'}	-10568.0
▁vida	-10569.0
▁Syn	-10570.0
▁назва	-10571.0
▁Option	-10572.0
▁rob	-10573.0
▁клу	-10574.0
:[	-10575.0
antly	-10576.0
dependency	-10577.0
▁Cur	-10578.0
▁frances	-10579.0
▁ideal	-10580.0
Sw	-10581.0
▁груп	-10582.0
▁Captain	-10583.0
▁todos	-10584.0
Jo	-10585.0
▁pelo	-10586.0
?](	-10587.0
▁faith	-10588.0
овой	-10589.0
▁fresh	-10590.0
▁propri	-10591.0
Timeout	-10592.0
▁veh	-10593.0
contents	-10594.0
▁Document	-10595.0
collection	-10596.0
▁kar	-10597.0
ruck	-10598.0
Your	-10599.0
uma	-10600.0
▁mathemat	-10601.0
Enabled	-10602.0
публи	-10603.0
▁Engine	-10604.0
▁München	-10605.0
▁посе	-10606.0
▁fon	-10607.0
archive	-10608.0
▁frequency	-10609.0
}+\	-10610.0
âte	-10611.0
▁kor	-10612.0
▁Кра	-10613.0
Sing	-10614.0
month	-10615.0
▁Haw	-10616.0
▁sys	-10617.0
erme	-10618.0
▁Would	-10619.0
▁impact	-10620.0
urrency	-10621.0
licht	-10622.0
▁apt	-10623.0
iere	-10624.0
▁motion	-10625.0
ССР	-10626.0
▁Init	-10627.0
▁ms	-10628.0
▁MS	-10629.0
shift	-10630.0
▁autres	-10631.0
▁bash	-10632.0
hidden	-10633.0
orio	-10634.0
▁celebr	-10635.0
▁Liber	-10636.0
eto	-10637.0
▁dove	-10638.0
▁paths	-10639.0
▁inj	-10640.0
Category	-10641.0
▁cry	-10642.0
▁marked	-10643.0
удо	-10644.0
ashion	-10645.0
ält	-10646.0
▁lan	-10647.0
▁teams	-10648.0
▁kv	-10649.0
iams	-10650.0
aban	-10651.0
▁TABLE	-10652.0
вар	-10653.0
Repos	-10654.0
▁Bell	-10655.0
▁pubblic	-10656.0
▁countries	-10657.0
▁spin	-10658.0
▁lég	-10659.0
▁Krie	-10660.0
▁Jones	-10661.0
white	-10662.0
Html	-10663.0
Press	-10664.0
▁Blue	-10665.0
Operation	-10666.0
▁Anth	-10667.0
▁pse	-10668.0
▁Font	-10669.0
▁theme	-10670.0
▁blocks	-10671.0
$)	-10672.0
▁glad	-10673.0
▁manage	-10674.0
orden	-10675.0
osten	-10676.0
cole	-10677.0
▁SP	-10678.0
▁schema	-10679.0
uras	-10680.0
▁whenever	-10681.0
ША	-10682.0
рито	-10683.0
▁discovered	-10684.0
▁prefix	-10685.0
global	-10686.0
roke	-10687.0
zes	-10688.0
chte	-10689.0
▁Before	-10690.0
мени	-10691.0
▁Dig	-10692.0
▁rapid	-10693.0
▁lleg	-10694.0
equals	-10695.0
▁Hoch	-10696.0
forall	-10697.0
вати	-10698.0
usz	-10699.0
▁attached	-10700.0
Expression	-10701.0
▁stock	-10702.0
üll	-10703.0
pet	-10704.0
essions	-10705.0
colo	-10706.0
▁gy	-10707.0
Book	-10708.0
▁Jacob	-10709.0
▁Product	-10710.0
▁inputs	-10711.0
мир	-10712.0
▁learned	-10713.0
ówn	-10714.0
▁police	-10715.0
▁лет	-10716.0
▁Item	-10717.0
▁eye	-10718.0
aient	-10719.0
▁Sammlung	-10720.0
▁Lor	-10721.0
▁repres	-10722.0
▁fest	-10723.0
Cond	-10724.0
▁nouve	-10725.0
▁extend	-10726.0
▁Frances	-10727.0
▁Find	-10728.0
▁deze	-10729.0
erna	-10730.0
▁había	-10731.0
prü	-10732.0
▁motor	-10733.0
bie	-10734.0
Hello	-10735.0
▁resid	-10736.0
▁finale	-10737.0
%)	-10738.0
{'	-10739.0
▁Hard	-10740.0
▁pairs	-10741.0
▁Ell	-10742.0
ivot	-10743.0
rees	-10744.0
▁Force	-10745.0
▁evening	-10746.0
▁después	-10747.0
rg	-10748.0
Why	-10749.0
▁conn	-10750.0
schema	-10751.0
ход	-10752.0
▁между	-10753.0
▁flash	-10754.0
skip	-10755.0
▁minute	-10756.0
▁ved	-10757.0
aylor	-10758.0
▁seus	-10759.0
▁Major	-10760.0
▁franc	-10761.0
▁rac	-10762.0
kw	-10763.0
cv	-10764.0
Native	-10765.0
▁Button	-10766.0
ници	-10767.0
settings	-10768.0
▁Access	-10769.0
▁quality	-10770.0
props	-10771.0
Float	-10772.0
▁Scot	-10773.0
▁AD	-10774.0
▁allem	-10775.0
&\	-10776.0
ustration	-10777.0
pattern	-10778.0
mir	-10779.0
▁incorpor	-10780.0
skich	-10781.0
'>	-10782.0
Stand	-10783.0
▁technique	-10784.0
▁Ess	-10785.0
▁Oxford	-10786.0
▁ла	-10787.0
tikz	-10788.0
лий	-10789.0
Login	-10790.0
▁minister	-10791.0
▁curl	-10792.0
kan	-10793.0
▁maps	-10794.0
inda	-10795.0
rieb	-10796.0
▁END	-10797.0
ifies	-10798.0
console	-10799.0
bury	-10800.0
▁LE	-10801.0
▁independ	-10802.0
▁ta	-10803.0
▁Ś	-10804.0
onel	-10805.0
ész	-10806.0
▁Ist	-10807.0
utive	-10808.0
ёл	-10809.0
▁Region	-10810.0
▁(=	-10811.0
▁compact	-10812.0
çois	-10813.0
▁labels	-10814.0
autorité	-10815.0
▁stan	-10816.0
▁française	-10817.0
▁removing	-10818.0
yc	-10819.0
}|	-10820.0
▁Exec	-10821.0
($_	-10822.0
mag	-10823.0
before	-10824.0
▁stopped	-10825.0
мии	-10826.0
▁refresh	-10827.0
unkt	-10828.0
icio	-10829.0
Xml	-10830.0
▁Tab	-10831.0
▁founded	-10832.0
▁fal	-10833.0
fx	-10834.0
▁Historia	-10835.0
▁Early	-10836.0
Dom	-10837.0
▁decide	-10838.0
▁understood	-10839.0
▁jur	-10840.0
▁Nr	-10841.0
▁capac	-10842.0
was	-10843.0
▁enemy	-10844.0
▁programs	-10845.0
▁mask	-10846.0
ске	-10847.0
▁groupe	-10848.0
cam	-10849.0
▁widget	-10850.0
REATE	-10851.0
▁seva	-10852.0
▁Barcel	-10853.0
▁perd	-10854.0
▁Му	-10855.0
rance	-10856.0
TYPE	-10857.0
▁{'	-10858.0
▁bill	-10859.0
▁"_	-10860.0
'`	-10861.0
bahn	-10862.0
▁contained	-10863.0
Close	-10864.0
rug	-10865.0
egy	-10866.0
▁sight	-10867.0
▁Provin	-10868.0
ню	-10869.0
arz	-10870.0
щен	-10871.0
▁Joe	-10872.0
▁deleted	-10873.0
▁Auto	-10874.0
▁meter	-10875.0
CG	-10876.0
ъл	-10877.0
▁pent	-10878.0
▁bezeichnet	-10879.0
Sum	-10880.0
dbc	-10881.0
▁Platz	-10882.0
ectors	-10883.0
▁Little	-10884.0
QUE	-10885.0
ція	-10886.0
теля	-10887.0
night	-10888.0
▁ll	-10889.0
▁mostly	-10890.0
UID	-10891.0
▁bez	-10892.0
dob	-10893.0
кси	-10894.0
terne	-10895.0
▁corner	-10896.0
aty	-10897.0
▁improve	-10898.0
▁intr	-10899.0
▁`@	-10900.0
arod	-10901.0
▁installation	-10902.0
▁Referências	-10903.0
igan	-10904.0
▁critic	-10905.0
adel	-10906.0
▁село	-10907.0
,	-10908.0
atori	-10909.0
▁Fri	-10910.0
▁références	-10911.0
▁Intent	-10912.0
▁tant	-10913.0
unci	-10914.0
▁levels	-10915.0
eres	-10916.0
▁emer	-10917.0
safe	-10918.0
tk	-10919.0
▁cham	-10920.0
▁greatly	-10921.0
▁weit	-10922.0
▁coach	-10923.0
▁toward	-10924.0
Home	-10925.0
▁Boolean	-10926.0
тел	-10927.0
▁mock	-10928.0
▁appreciate	-10929.0
▁Cross	-10930.0
▁Take	-10931.0
DP	-10932.0
▁sides	-10933.0
▁Normdaten	-10934.0
дей	-10935.0
stal	-10936.0
▁cout	-10937.0
bn	-10938.0
▁Vert	-10939.0
▁bird	-10940.0
▁dynamically	-10941.0
▁Dol	-10942.0
▁Burg	-10943.0
▁dog	-10944.0
ätt	-10945.0
▁nuc	-10946.0
EC	-10947.0
Bytes	-10948.0
▁ak	-10949.0
reland	-10950.0
▁guitar	-10951.0
▁regarding	-10952.0
▁Fuß	-10953.0
▁дол	-10954.0
auss	-10955.0
▁jej	-10956.0
aco	-10957.0
▁updates	-10958.0
рук	-10959.0
('/	-10960.0
▁cold	-10961.0
▁Given	-10962.0
hin	-10963.0
▁feeling	-10964.0
igli	-10965.0
fah	-10966.0
стре	-10967.0
bool	-10968.0
initial	-10969.0
▁становника	-10970.0
▁Anna	-10971.0
▁hors	-10972.0
▁doll	-10973.0
▁consum	-10974.0
uber	-10975.0
standing	-10976.0
activ	-10977.0
зі	-10978.0
checked	-10979.0
▁permissions	-10980.0
▁Monte	-10981.0
WriteLine	-10982.0
plus	-10983.0
▁Equ	-10984.0
▁их	-10985.0
чки	-10986.0
unque	-10987.0
▁LO	-10988.0
ea	-10989.0
sample	-10990.0
iesz	-10991.0
oral	-10992.0
▁Ин	-10993.0
oston	-10994.0
▁Simon	-10995.0
fast	-10996.0
mk	-10997.0
assen	-10998.0
▁architecture	-10999.0
enses	-11000.0
▁Å	-11001.0
▁topic	-11002.0
▁disable	-11003.0
▁Cru	-11004.0
▁Control	-11005.0
▁creation	-11006.0
▁hyper	-11007.0
itud	-11008.0
жения	-11009.0
aram	-11010.0
▁где	-11011.0
ienst	-11012.0
edule	-11013.0
▁Bot	-11014.0
▁Ос	-11015.0
▁Their	-11016.0
anne	-11017.0
Microsoft	-11018.0
▁PM	-11019.0
ydro	-11020.0
entlich	-11021.0
▁Eine	-11022.0
CHAR	-11023.0
:'	-11024.0
Well	-11025.0
leton	-11026.0
▁supports	-11027.0
'])	-11028.0
manual	-11029.0
▁vice	-11030.0
asa	-11031.0
clos	-11032.0
vised	-11033.0
▁pok	-11034.0
track	-11035.0
ност	-11036.0
........	-11037.0
▁'\	-11038.0
².	-11039.0
▁orders	-11040.0
etta	-11041.0
▁conversion	-11042.0
▁trade	-11043.0
cli	-11044.0
▁Исто	-11045.0
▁akt	-11046.0
▁subset	-11047.0
▁aug	-11048.0
▁leaves	-11049.0
Math	-11050.0
anned	-11051.0
kal	-11052.0
▁Вели	-11053.0
▁nog	-11054.0
▁eth	-11055.0
▁hair	-11056.0
around	-11057.0
▁javax	-11058.0
вой	-11059.0
▁Centre	-11060.0
öß	-11061.0
uti	-11062.0
▁navigation	-11063.0
▁PS	-11064.0
▁wa	-11065.0
▁России	-11066.0
usa	-11067.0
zeta	-11068.0
▁PDF	-11069.0
▁mismo	-11070.0
properties	-11071.0
meister	-11072.0
льта	-11073.0
forward	-11074.0
▁Ost	-11075.0
kins	-11076.0
▁sido	-11077.0
зов	-11078.0
tags	-11079.0
▁actor	-11080.0
▁fly	-11081.0
CR	-11082.0
agini	-11083.0
▁lett	-11084.0
eni	-11085.0
tech	-11086.0
▁Enc	-11087.0
oracle	-11088.0
amilton	-11089.0
zej	-11090.0
fen	-11091.0
umerate	-11092.0
▁questo	-11093.0
dart	-11094.0
▁Kore	-11095.0
apis	-11096.0
eper	-11097.0
Screen	-11098.0
wall	-11099.0
▁island	-11100.0
she	-11101.0
▁ligger	-11102.0
вся	-11103.0
fang	-11104.0
▁tard	-11105.0
▁plaats	-11106.0
▁пло	-11107.0
▁Office	-11108.0
▁SET	-11109.0
▁circuit	-11110.0
jed	-11111.0
Save	-11112.0
льно	-11113.0
Socket	-11114.0
▁Index	-11115.0
ACK	-11116.0
iders	-11117.0
erer	-11118.0
▁США	-11119.0
▁lady	-11120.0
▁scheme	-11121.0
ielle	-11122.0
▁exerc	-11123.0
)}\	-11124.0
DateTime	-11125.0
athan	-11126.0
▁Professor	-11127.0
▁moins	-11128.0
▁Excel	-11129.0
▁Hay	-11130.0
▁Musik	-11131.0
▁ї	-11132.0
ęd	-11133.0
▁".	-11134.0
▁був	-11135.0
▁instrument	-11136.0
пар	-11137.0
▁бере	-11138.0
▁politique	-11139.0
▁tradition	-11140.0
▁VM	-11141.0
▁Arts	-11142.0
▁Ci	-11143.0
Use	-11144.0
▁aggreg	-11145.0
▁weeks	-11146.0
▁opport	-11147.0
iting	-11148.0
▁vertical	-11149.0
▁Naz	-11150.0
...)	-11151.0
izo	-11152.0
▁cycle	-11153.0
▁tempo	-11154.0
тре	-11155.0
▁handling	-11156.0
istence	-11157.0
▁paste	-11158.0
▁enjo	-11159.0
ROUP	-11160.0
▁outer	-11161.0
▁supply	-11162.0
eman	-11163.0
▁accident	-11164.0
▁\]	-11165.0
▁тех	-11166.0
Pool	-11167.0
oting	-11168.0
onymous	-11169.0
▁Giov	-11170.0
▁ud	-11171.0
▁./	-11172.0
ERROR	-11173.0
construct	-11174.0
textwidth	-11175.0
quipe	-11176.0
cases	-11177.0
▁ад	-11178.0
▁Row	-11179.0
Holder	-11180.0
wan	-11181.0
arna	-11182.0
Mem	-11183.0
▁Canadian	-11184.0
▁Commission	-11185.0
sun	-11186.0
▁apps	-11187.0
▁Blo	-11188.0
▁ihrer	-11189.0
▁famille	-11190.0
▁mě	-11191.0
▁py	-11192.0
ис	-11193.0
▁того	-11194.0
▁Again	-11195.0
▁ignore	-11196.0
▁television	-11197.0
Pat	-11198.0
hide	-11199.0
▁Rev	-11200.0
▁bear	-11201.0
phy	-11202.0
▁noise	-11203.0
▁wra	-11204.0
ationale	-11205.0
▁collabor	-11206.0
border	-11207.0
▁elected	-11208.0
▁surpr	-11209.0
▁avoir	-11210.0
▁assembly	-11211.0
▁обще	-11212.0
▁arbitrary	-11213.0
▁brief	-11214.0
▁---	-11215.0
▁Maur	-11216.0
gression	-11217.0
icia	-11218.0
▁liegt	-11219.0
▁Figure	-11220.0
▁onto	-11221.0
Repository	-11222.0
▁déf	-11223.0
▁forth	-11224.0
▁clicked	-11225.0
seite	-11226.0
▁notes	-11227.0
native	-11228.0
▁EDIT	-11229.0
ые	-11230.0
MT	-11231.0
amental	-11232.0
▁rose	-11233.0
▁puede	-11234.0
Delegate	-11235.0
uba	-11236.0
neo	-11237.0
xis	-11238.0
▁Arthur	-11239.0
URE	-11240.0
aming	-11241.0
Device	-11242.0
▁diam	-11243.0
ständ	-11244.0
▁pron	-11245.0
ois	-11246.0
coming	-11247.0
Parameters	-11248.0
uvud	-11249.0
▁ability	-11250.0
▁mét	-11251.0
▁Unfortunately	-11252.0
fd	-11253.0
Dictionary	-11254.0
socket	-11255.0
▁conoc	-11256.0
contains	-11257.0
essed	-11258.0
▁geldig	-11259.0
ница	-11260.0
▁pointed	-11261.0
esti	-11262.0
nom	-11263.0
ография	-11264.0
▁represents	-11265.0
▁manip	-11266.0
world	-11267.0
▁resolved	-11268.0
tegr	-11269.0
▁dort	-11270.0
astern	-11271.0
▁campaign	-11272.0
▁primo	-11273.0
▁;;	-11274.0
▁snippet	-11275.0
▁Nik	-11276.0
Total	-11277.0
issement	-11278.0
ACE	-11279.0
▁verify	-11280.0
iffe	-11281.0
lagen	-11282.0
ieur	-11283.0
▁converted	-11284.0
▁Milit	-11285.0
▁Alg	-11286.0
▁Ron	-11287.0
▁konn	-11288.0
apple	-11289.0
▁dispos	-11290.0
stellung	-11291.0
▁retain	-11292.0
▁mentre	-11293.0
▁neut	-11294.0
▁Night	-11295.0
ché	-11296.0
atti	-11297.0
▁obra	-11298.0
▁superior	-11299.0
▁Congress	-11300.0
ём	-11301.0
▁codes	-11302.0
▁Ama	-11303.0
▁Earth	-11304.0
▁opposite	-11305.0
▁pool	-11306.0
▁Dun	-11307.0
жение	-11308.0
▁"${	-11309.0
inv	-11310.0
▁уни	-11311.0
▁Andrew	-11312.0
телей	-11313.0
▁był	-11314.0
Univers	-11315.0
▁Angular	-11316.0
anim	-11317.0
дова	-11318.0
BUG	-11319.0
utely	-11320.0
▁drawing	-11321.0
▁gain	-11322.0
▁fourth	-11323.0
▁Problem	-11324.0
▁suddenly	-11325.0
▁Ä	-11326.0
onna	-11327.0
▁Kont	-11328.0
▁Bildern	-11329.0
▁konnte	-11330.0
že	-11331.0
Trace	-11332.0
▁secure	-11333.0
▁który	-11334.0
▁eq	-11335.0
▁formal	-11336.0
amerikan	-11337.0
▁Anal	-11338.0
▁Rewrite	-11339.0
▁Double	-11340.0
created	-11341.0
NU	-11342.0
MDb	-11343.0
apes	-11344.0
Unis	-11345.0
▁especial	-11346.0
})\	-11347.0
edom	-11348.0
▁categor	-11349.0
Return	-11350.0
▁Hamb	-11351.0
▁Rio	-11352.0
▁Mir	-11353.0
▁Geme	-11354.0
abilities	-11355.0
trz	-11356.0
uset	-11357.0
ierra	-11358.0
network	-11359.0
▁doctor	-11360.0
eurs	-11361.0
▁listen	-11362.0
дж	-11363.0
▁Hö	-11364.0
▁consists	-11365.0
asm	-11366.0
Chr	-11367.0
aland	-11368.0
▁исполь	-11369.0
▁lugar	-11370.0
▁definitely	-11371.0
move	-11372.0
ública	-11373.0
▁län	-11374.0
ismus	-11375.0
▁држа	-11376.0
▁dt	-11377.0
▁Perhaps	-11378.0
▁Brasil	-11379.0
John	-11380.0
▁promise	-11381.0
łu	-11382.0
reens	-11383.0
▁psych	-11384.0
▁Who	-11385.0
ряд	-11386.0
▁INTO	-11387.0
▁People	-11388.0
▁Williams	-11389.0
▁Marg	-11390.0
▁дан	-11391.0
record	-11392.0
▁Euro	-11393.0
▁Virginia	-11394.0
▁Rest	-11395.0
▁Corn	-11396.0
}},	-11397.0
▁Grid	-11398.0
▁inject	-11399.0
нан	-11400.0
▁crow	-11401.0
▁Phys	-11402.0
▁DO	-11403.0
▁"-	-11404.0
▁increased	-11405.0
acher	-11406.0
peat	-11407.0
Lin	-11408.0
▁Dub	-11409.0
rices	-11410.0
agnost	-11411.0
dl	-11412.0
▁curve	-11413.0
üg	-11414.0
rice	-11415.0
language	-11416.0
ClickListener	-11417.0
▁municipal	-11418.0
▁Ori	-11419.0
▁Bild	-11420.0
▁Cab	-11421.0
▁Var	-11422.0
▁noted	-11423.0
▁Î	-11424.0
▁subs	-11425.0
iation	-11426.0
WOR	-11427.0
ingly	-11428.0
▁Rus	-11429.0
iens	-11430.0
INFO	-11431.0
ква	-11432.0
ativo	-11433.0
gende	-11434.0
▁Franz	-11435.0
▁isol	-11436.0
edes	-11437.0
nier	-11438.0
▁NO	-11439.0
▁Has	-11440.0
beans	-11441.0
▁pandas	-11442.0
("%	-11443.0
віт	-11444.0
утбо	-11445.0
▁gather	-11446.0
▁legal	-11447.0
includ	-11448.0
▁circumst	-11449.0
criptor	-11450.0
rible	-11451.0
▁Süd	-11452.0
▁apro	-11453.0
Api	-11454.0
▁най	-11455.0
▁African	-11456.0
owski	-11457.0
▁Johnson	-11458.0
iek	-11459.0
▁vote	-11460.0
▁Kan	-11461.0
▁bibli	-11462.0
▁haar	-11463.0
▁vr	-11464.0
]),	-11465.0
subseteq	-11466.0
Parser	-11467.0
iani	-11468.0
isé	-11469.0
idea	-11470.0
Only	-11471.0
▁ál	-11472.0
▁Catal	-11473.0
▁Case	-11474.0
seh	-11475.0
▁encounter	-11476.0
▁reform	-11477.0
мини	-11478.0
▁Stre	-11479.0
exception	-11480.0
▁Tar	-11481.0
тар	-11482.0
trl	-11483.0
▁Александ	-11484.0
лект	-11485.0
equal	-11486.0
Op	-11487.0
▁lif	-11488.0
▁його	-11489.0
▁voltage	-11490.0
shire	-11491.0
▁Groß	-11492.0
вня	-11493.0
nings	-11494.0
нци	-11495.0
▁lag	-11496.0
▁anderen	-11497.0
▁vac	-11498.0
▁macro	-11499.0
=[	-11500.0
Then	-11501.0
▁controls	-11502.0
seq	-11503.0
ologies	-11504.0
▁selector	-11505.0
▁України	-11506.0
хівовано	-11507.0
ый	-11508.0
allenge	-11509.0
▁IMDb	-11510.0
ummy	-11511.0
yen	-11512.0
▁beste	-11513.0
▁Box	-11514.0
▁chair	-11515.0
▁Sab	-11516.0
erde	-11517.0
▁nast	-11518.0
ivamente	-11519.0
▁объ	-11520.0
▁requirements	-11521.0
▁meeting	-11522.0
▁finan	-11523.0
▁Adam	-11524.0
▁televis	-11525.0
▁bright	-11526.0
▁Git	-11527.0
EG	-11528.0
▁Gil	-11529.0
rès	-11530.0
▁Cond	-11531.0
▁ft	-11532.0
▁було	-11533.0
-+	-11534.0
END	-11535.0
erne	-11536.0
▁Comput	-11537.0
▁ils	-11538.0
▁gall	-11539.0
▁csv	-11540.0
ług	-11541.0
▁summer	-11542.0
game	-11543.0
▁posts	-11544.0
Архівовано	-11545.0
▁zij	-11546.0
▁determin	-11547.0
▁abandon	-11548.0
counter	-11549.0
▁requirement	-11550.0
▁Tit	-11551.0
irtual	-11552.0
▁Videos	-11553.0
▁quiet	-11554.0
▁Term	-11555.0
▁timeout	-11556.0
Print	-11557.0
▁invent	-11558.0
lais	-11559.0
▁monitor	-11560.0
halb	-11561.0
▁Wild	-11562.0
▁leader	-11563.0
▁сель	-11564.0
▁utiliz	-11565.0
▁parents	-11566.0
▁forced	-11567.0
▁proved	-11568.0
▁effective	-11569.0
▁llam	-11570.0
▁Спо	-11571.0
orb	-11572.0
ggi	-11573.0
▁assumption	-11574.0
▁subm	-11575.0
▁вій	-11576.0
ilia	-11577.0
▁reverse	-11578.0
'"	-11579.0
▁quotes	-11580.0
▁sites	-11581.0
igung	-11582.0
▁Arg	-11583.0
Double	-11584.0
▁screens	-11585.0
▁clause	-11586.0
▁bundle	-11587.0
▁philosoph	-11588.0
▁Num	-11589.0
▁gleich	-11590.0
uly	-11591.0
direct	-11592.0
asketball	-11593.0
owany	-11594.0
\}$	-11595.0
▁radius	-11596.0
▁Search	-11597.0
Properties	-11598.0
▁elev	-11599.0
▁prod	-11600.0
▁"%	-11601.0
isión	-11602.0
Debug	-11603.0
Second	-11604.0
(!	-11605.0
▁Catholic	-11606.0
рован	-11607.0
lez	-11608.0
Pa	-11609.0
pson	-11610.0
▁erste	-11611.0
▁Fu	-11612.0
▁lit	-11613.0
▁Saison	-11614.0
▁Hash	-11615.0
▁exem	-11616.0
▁представ	-11617.0
)*	-11618.0
▁eu	-11619.0
▁│	-11620.0
▁gab	-11621.0
etailed	-11622.0
Copy	-11623.0
▁два	-11624.0
even	-11625.0
Kind	-11626.0
▁Jackson	-11627.0
ал	-11628.0
▁consec	-11629.0
USER	-11630.0
▁Tok	-11631.0
(.	-11632.0
▁$|	-11633.0
▁Tamb	-11634.0
▁Lemma	-11635.0
hang	-11636.0
▁contribution	-11637.0
rollers	-11638.0
▁studies	-11639.0
▁poi	-11640.0
gems	-11641.0
▁UP	-11642.0
▁Wol	-11643.0
>"	-11644.0
▁floor	-11645.0
▁initialize	-11646.0
▁Lew	-11647.0
zek	-11648.0
arte	-11649.0
▁positions	-11650.0
▁portion	-11651.0
cover	-11652.0
wp	-11653.0
ового	-11654.0
▁piano	-11655.0
▁metal	-11656.0
▁samples	-11657.0
▁Сан	-11658.0
variable	-11659.0
▁стать	-11660.0
▁integers	-11661.0
Where	-11662.0
family	-11663.0
▁nun	-11664.0
▁increment	-11665.0
ixed	-11666.0
▁heeft	-11667.0
fte	-11668.0
▁vil	-11669.0
▁otros	-11670.0
Multimedia	-11671.0
▁Henri	-11672.0
aded	-11673.0
ген	-11674.0
▁capit	-11675.0
▁других	-11676.0
isp	-11677.0
ITY	-11678.0
▁constraints	-11679.0
▁Kirche	-11680.0
found	-11681.0
ший	-11682.0
▁pic	-11683.0
▁tou	-11684.0
cred	-11685.0
роб	-11686.0
▁Mess	-11687.0
Job	-11688.0
▁Mais	-11689.0
▁styles	-11690.0
fall	-11691.0
▁Uk	-11692.0
▁street	-11693.0
occer	-11694.0
esen	-11695.0
▁colors	-11696.0
cean	-11697.0
юще	-11698.0
conne	-11699.0
▁ratio	-11700.0
anton	-11701.0
▁Fel	-11702.0
▁customer	-11703.0
▁Prix	-11704.0
rás	-11705.0
pred	-11706.0
▁electron	-11707.0
sym	-11708.0
▁вели	-11709.0
▁overflow	-11710.0
▁$[	-11711.0
▁POST	-11712.0
▁Cin	-11713.0
scheid	-11714.0
("/	-11715.0
▁searching	-11716.0
▁purposes	-11717.0
▁arrived	-11718.0
▁punt	-11719.0
▁lad	-11720.0
Python	-11721.0
▁leads	-11722.0
▁sand	-11723.0
пада	-11724.0
▁communes	-11725.0
▁CHAP	-11726.0
▁caso	-11727.0
rz	-11728.0
▁dw	-11729.0
aca	-11730.0
▁Columb	-11731.0
children	-11732.0
êt	-11733.0
schemas	-11734.0
▁instructions	-11735.0
▁-\	-11736.0
▁Israel	-11737.0
ności	-11738.0
▁образ	-11739.0
▁совет	-11740.0
▁immagini	-11741.0
▁Fred	-11742.0
▁Global	-11743.0
▁thick	-11744.0
▁fueron	-11745.0
▁thrown	-11746.0
▁clock	-11747.0
enable	-11748.0
'''	-11749.0
▁Sund	-11750.0
▁contempor	-11751.0
answer	-11752.0
▁manufact	-11753.0
▁io	-11754.0
qquad	-11755.0
OUT	-11756.0
▁Lab	-11757.0
▁Zw	-11758.0
legal	-11759.0
▁Vel	-11760.0
▁raise	-11761.0
▁deliver	-11762.0
▁Voir	-11763.0
▁assumed	-11764.0
Let	-11765.0
ierten	-11766.0
▁Kong	-11767.0
▁Exp	-11768.0
▁Jug	-11769.0
▁declaration	-11770.0
▁Fish	-11771.0
mé	-11772.0
▁speech	-11773.0
▁tent	-11774.0
▁Route	-11775.0
__(	-11776.0
▁réalis	-11777.0
▁Design	-11778.0
setText	-11779.0
▁Station	-11780.0
archy	-11781.0
▁като	-11782.0
▁dent	-11783.0
▁Kl	-11784.0
iß	-11785.0
▁risk	-11786.0
▁Broad	-11787.0
▁vectors	-11788.0
▁Spec	-11789.0
▁routes	-11790.0
ymn	-11791.0
▁Greg	-11792.0
▁получи	-11793.0
gie	-11794.0
ORM	-11795.0
веде	-11796.0
walt	-11797.0
▁efter	-11798.0
Ptr	-11799.0
▁subt	-11800.0
▁birth	-11801.0
▁drawn	-11802.0
mess	-11803.0
мерикан	-11804.0
VE	-11805.0
▁Put	-11806.0
▁asc	-11807.0
▁feder	-11808.0
сли	-11809.0
▁Prin	-11810.0
▁stick	-11811.0
reset	-11812.0
yk	-11813.0
studio	-11814.0
▁Still	-11815.0
Const	-11816.0
ació	-11817.0
▁Portugal	-11818.0
▁scripts	-11819.0
undial	-11820.0
▁lives	-11821.0
▁szer	-11822.0
▁estado	-11823.0
folder	-11824.0
▁communication	-11825.0
Route	-11826.0
▁swift	-11827.0
тен	-11828.0
▁kill	-11829.0
▁PR	-11830.0
joint	-11831.0
▁objective	-11832.0
▁complicated	-11833.0
▁Über	-11834.0
esh	-11835.0
picture	-11836.0
raine	-11837.0
comput	-11838.0
▁proport	-11839.0
ogs	-11840.0
ült	-11841.0
▁quantum	-11842.0
кри	-11843.0
▁sop	-11844.0
▁loops	-11845.0
▁Reference	-11846.0
▁nei	-11847.0
ICE	-11848.0
▁verm	-11849.0
▁adj	-11850.0
▁però	-11851.0
▁trou	-11852.0
isions	-11853.0
▁Apple	-11854.0
servable	-11855.0
▁Boston	-11856.0
oret	-11857.0
oks	-11858.0
▁kg	-11859.0
defined	-11860.0
platform	-11861.0
cler	-11862.0
ographic	-11863.0
ritt	-11864.0
▁dic	-11865.0
▁Mond	-11866.0
▁Ireland	-11867.0
▁Una	-11868.0
▁commercial	-11869.0
▁Pu	-11870.0
Di	-11871.0
▁её	-11872.0
▁precis	-11873.0
народ	-11874.0
▁quatre	-11875.0
ustral	-11876.0
▁dag	-11877.0
igue	-11878.0
▁burn	-11879.0
▁officer	-11880.0
▁Ав	-11881.0
▁highlight	-11882.0
▁Suppose	-11883.0
odi	-11884.0
servlet	-11885.0
▁Encyc	-11886.0
▁Range	-11887.0
тий	-11888.0
Please	-11889.0
▁років	-11890.0
quant	-11891.0
▁flat	-11892.0
▁Référence	-11893.0
следова	-11894.0
role	-11895.0
▁diesen	-11896.0
}}(	-11897.0
▁Indust	-11898.0
▁númer	-11899.0
▁";	-11900.0
lus	-11901.0
ôle	-11902.0
▁zm	-11903.0
deg	-11904.0
▁rough	-11905.0
Inv	-11906.0
▁hur	-11907.0
▁Ress	-11908.0
chs	-11909.0
▁turns	-11910.0
nero	-11911.0
functions	-11912.0
али	-11913.0
▁habitants	-11914.0
ат	-11915.0
issues	-11916.0
▁huge	-11917.0
Utils	-11918.0
▁Sat	-11919.0
▁государ	-11920.0
▁coast	-11921.0
shape	-11922.0
LC	-11923.0
▁logging	-11924.0
endor	-11925.0
▁lies	-11926.0
▁difer	-11927.0
▁critical	-11928.0
XT	-11929.0
мина	-11930.0
ansk	-11931.0
Results	-11932.0
kc	-11933.0
iverse	-11934.0
EXT	-11935.0
ALSE	-11936.0
▁vál	-11937.0
Pi	-11938.0
compile	-11939.0
hello	-11940.0
▁чемпи	-11941.0
▁Italia	-11942.0
коло	-11943.0
▁edition	-11944.0
grund	-11945.0
▁dataframe	-11946.0
▁Following	-11947.0
reib	-11948.0
▁Jeff	-11949.0
▁città	-11950.0
ITable	-11951.0
▁$(\	-11952.0
▁reduced	-11953.0
obil	-11954.0
▁anywhere	-11955.0
'(	-11956.0
▁phr	-11957.0
▁Kh	-11958.0
▁Frame	-11959.0
▁manual	-11960.0
▁cra	-11961.0
▁VS	-11962.0
%=	-11963.0
InstanceState	-11964.0
▁бра	-11965.0
▁Drag	-11966.0
▁Herr	-11967.0
▁гу	-11968.0
▁mús	-11969.0
Tool	-11970.0
▁Private	-11971.0
▁synchron	-11972.0
iration	-11973.0
▁обо	-11974.0
▁typically	-11975.0
▁implicit	-11976.0
orient	-11977.0
▁timer	-11978.0
▁können	-11979.0
iest	-11980.0
raid	-11981.0
▁expressions	-11982.0
▁aim	-11983.0
▁stre	-11984.0
▁wrap	-11985.0
▁Bart	-11986.0
▁bron	-11987.0
▁keyboard	-11988.0
pow	-11989.0
▁grupo	-11990.0
▁резу	-11991.0
▁professor	-11992.0
▁Head	-11993.0
ною	-11994.0
minus	-11995.0
▁Michel	-11996.0
NOT	-11997.0
mor	-11998.0
]}	-11999.0
widehat	-12000.0
aris	-12001.0
тература	-12002.0
defn	-12003.0
istrz	-12004.0
▁tanto	-12005.0
▁Pow	-12006.0
▁indicate	-12007.0
▁Winter	-12008.0
reshold	-12009.0
рів	-12010.0
▁`(	-12011.0
▁owner	-12012.0
▁disp	-12013.0
▁кри	-12014.0
мет	-12015.0
мент	-12016.0
report	-12017.0
require	-12018.0
▁voy	-12019.0
▁AP	-12020.0
▁España	-12021.0
▁São	-12022.0
jär	-12023.0
Non	-12024.0
Library	-12025.0
ichten	-12026.0
▁structures	-12027.0
▁muy	-12028.0
ário	-12029.0
▁certificate	-12030.0
чного	-12031.0
▁province	-12032.0
pages	-12033.0
dal	-12034.0
▁Freder	-12035.0
ье	-12036.0
Execute	-12037.0
▁ancient	-12038.0
▁films	-12039.0
▁Alfred	-12040.0
Auto	-12041.0
▁atom	-12042.0
▁ell	-12043.0
▁Harr	-12044.0
йн	-12045.0
▁"#	-12046.0
▁nacional	-12047.0
▁neighbor	-12048.0
ступа	-12049.0
▁wit	-12050.0
Pop	-12051.0
▁Greek	-12052.0
▁repeat	-12053.0
bad	-12054.0
▁SC	-12055.0
▁DateTime	-12056.0
шти	-12057.0
▁WH	-12058.0
▁прави	-12059.0
▁Ти	-12060.0
▁saison	-12061.0
▁Hart	-12062.0
directory	-12063.0
uan	-12064.0
norm	-12065.0
▁Philipp	-12066.0
▁suspect	-12067.0
▁anno	-12068.0
bc	-12069.0
сла	-12070.0
$(	-12071.0
▁befind	-12072.0
ocs	-12073.0
latest	-12074.0
;">	-12075.0
▁afterwards	-12076.0
PUT	-12077.0
▁ja	-12078.0
▁Hil	-12079.0
yz	-12080.0
▁Bour	-12081.0
▁laid	-12082.0
▁Дже	-12083.0
pie	-12084.0
watch	-12085.0
▁Eq	-12086.0
contact	-12087.0
iber	-12088.0
checkbox	-12089.0
▁españ	-12090.0
anse	-12091.0
▁шко	-12092.0
eff	-12093.0
xxx	-12094.0
▁GET	-12095.0
▁lov	-12096.0
itute	-12097.0
zech	-12098.0
tere	-12099.0
▁purs	-12100.0
kens	-12101.0
iante	-12102.0
▁Free	-12103.0
▁органи	-12104.0
kreis	-12105.0
▁{:	-12106.0
shared	-12107.0
▁Graph	-12108.0
▁connections	-12109.0
▁DOM	-12110.0
▁Cart	-12111.0
sson	-12112.0
▁Hamilton	-12113.0
тели	-12114.0
▁restaur	-12115.0
Resol	-12116.0
Driver	-12117.0
▁enf	-12118.0
EDIT	-12119.0
▁prev	-12120.0
▁ik	-12121.0
▁să	-12122.0
jö	-12123.0
▁СССР	-12124.0
▁colour	-12125.0
chten	-12126.0
▁estad	-12127.0
inois	-12128.0
▁confir	-12129.0
▁vé	-12130.0
▁Ces	-12131.0
▁Never	-12132.0
omer	-12133.0
жда	-12134.0
слу	-12135.0
чения	-12136.0
dll	-12137.0
▁youth	-12138.0
emen	-12139.0
▁studied	-12140.0
▁Kil	-12141.0
cion	-12142.0
▁navig	-12143.0
required	-12144.0
orithms	-12145.0
ilor	-12146.0
▁Deutschen	-12147.0
▁persons	-12148.0
▁Barcelona	-12149.0
▁formation	-12150.0
abei	-12151.0
▁против	-12152.0
Engine	-12153.0
ONE	-12154.0
ográ	-12155.0
Cap	-12156.0
rir	-12157.0
▁gate	-12158.0
oration	-12159.0
maven	-12160.0
▁combined	-12161.0
▁attr	-12162.0
▁hook	-12163.0
▁который	-12164.0
▁servers	-12165.0
ucture	-12166.0
ження	-12167.0
tv	-12168.0
▁req	-12169.0
jal	-12170.0
▁locally	-12171.0
}}{\	-12172.0
Br	-12173.0
▁Hier	-12174.0
мор	-12175.0
▁apart	-12176.0
"],	-12177.0
▁%>%	-12178.0
▁zusammen	-12179.0
▁identify	-12180.0
▁Altern	-12181.0
▁бро	-12182.0
▁ци	-12183.0
gh	-12184.0
▁Ten	-12185.0
RS	-12186.0
форма	-12187.0
▁nelle	-12188.0
▁Hin	-12189.0
ounding	-12190.0
▁représ	-12191.0
aph	-12192.0
▁[\	-12193.0
▁Sports	-12194.0
рал	-12195.0
▁thre	-12196.0
▁prin	-12197.0
▁Eliz	-12198.0
▁Four	-12199.0
▁society	-12200.0
Transaction	-12201.0
▁veg	-12202.0
▁schools	-12203.0
▁overall	-12204.0
▁tail	-12205.0
über	-12206.0
▁Sov	-12207.0
▁Сер	-12208.0
▁rapp	-12209.0
▁traffic	-12210.0
question	-12211.0
▁environ	-12212.0
ateien	-12213.0
icus	-12214.0
▁narrow	-12215.0
▁pray	-12216.0
▁Bou	-12217.0
▁Client	-12218.0
abl	-12219.0
▁Audiod	-12220.0
▁npm	-12221.0
▁Column	-12222.0
▁Games	-12223.0
aver	-12224.0
onymes	-12225.0
▁После	-12226.0
ną	-12227.0
▁Nu	-12228.0
▁Dick	-12229.0
▁tensor	-12230.0
▁@"	-12231.0
vé	-12232.0
Icon	-12233.0
▁пода	-12234.0
▁Gon	-12235.0
/).	-12236.0
istra	-12237.0
▁Audiodateien	-12238.0
Delete	-12239.0
}}}	-12240.0
▁jump	-12241.0
▁Об	-12242.0
▁principle	-12243.0
▁États	-12244.0
oked	-12245.0
▁Вла	-12246.0
Interval	-12247.0
▁sau	-12248.0
encode	-12249.0
▁pon	-12250.0
catch	-12251.0
▁tiem	-12252.0
▁Gust	-12253.0
MC	-12254.0
limits	-12255.0
▁keeping	-12256.0
▁songs	-12257.0
▁авгу	-12258.0
▁район	-12259.0
▁notification	-12260.0
▁offered	-12261.0
Cor	-12262.0
▁shut	-12263.0
errors	-12264.0
▁EN	-12265.0
▁latach	-12266.0
▁selbst	-12267.0
▁checkbox	-12268.0
▁cool	-12269.0
▁factory	-12270.0
▁paid	-12271.0
dimensional	-12272.0
niej	-12273.0
pton	-12274.0
▁pin	-12275.0
aked	-12276.0
▁reli	-12277.0
▁Taylor	-12278.0
▁Something	-12279.0
imum	-12280.0
▁Vin	-12281.0
▁iteration	-12282.0
Find	-12283.0
кови	-12284.0
▁boys	-12285.0
▁Simple	-12286.0
▁Crist	-12287.0
▁Was	-12288.0
ând	-12289.0
▁Va	-12290.0
▁тра	-12291.0
▁destination	-12292.0
limp	-12293.0
▁Kat	-12294.0
worth	-12295.0
▁Kor	-12296.0
ição	-12297.0
=`	-12298.0
▁fairly	-12299.0
falls	-12300.0
▁reject	-12301.0
▁dream	-12302.0
bell	-12303.0
▁toute	-12304.0
▁$\{	-12305.0
▁stone	-12306.0
▁protect	-12307.0
▁excell	-12308.0
▁Mexico	-12309.0
▁dash	-12310.0
▁fault	-12311.0
pmatrix	-12312.0
aller	-12313.0
▁guerre	-12314.0
origin	-12315.0
hibernate	-12316.0
ília	-12317.0
▁Register	-12318.0
unto	-12319.0
▁Bat	-12320.0
▁bow	-12321.0
ських	-12322.0
età	-12323.0
▁Luis	-12324.0
▁fou	-12325.0
▁Cambridge	-12326.0
▁ott	-12327.0
sup	-12328.0
reas	-12329.0
▁pointers	-12330.0
▁Board	-12331.0
▁ри	-12332.0
▁driv	-12333.0
нин	-12334.0
▁Circ	-12335.0
▁thou	-12336.0
Div	-12337.0
spark	-12338.0
lament	-12339.0
▁VAL	-12340.0
Send	-12341.0
▁Irish	-12342.0
oy	-12343.0
▁Tu	-12344.0
▁trivial	-12345.0
Forms	-12346.0
▁así	-12347.0
▁Imper	-12348.0
▁signature	-12349.0
unos	-12350.0
▁Neg	-12351.0
▁cancel	-12352.0
▁Heinrich	-12353.0
eed	-12354.0
Illustration	-12355.0
▁sulla	-12356.0
▁quarter	-12357.0
asz	-12358.0
▁blog	-12359.0
fica	-12360.0
won	-12361.0
quet	-12362.0
]))	-12363.0
▁generation	-12364.0
▁caught	-12365.0
▁lands	-12366.0
▁Kingdom	-12367.0
schaften	-12368.0
rons	-12369.0
annels	-12370.0
▁Special	-12371.0
tutorial	-12372.0
tip	-12373.0
▁"",	-12374.0
▁Azure	-12375.0
▁bounded	-12376.0
Sm	-12377.0
tar	-12378.0
вен	-12379.0
▁зем	-12380.0
▁notation	-12381.0
▁apache	-12382.0
▁gaz	-12383.0
ierno	-12384.0
angen	-12385.0
pective	-12386.0
▁electric	-12387.0
▁semi	-12388.0
MAX	-12389.0
ederb	-12390.0
objects	-12391.0
▁differences	-12392.0
isted	-12393.0
href	-12394.0
icip	-12395.0
▁numpy	-12396.0
▁футбо	-12397.0
loader	-12398.0
▁dich	-12399.0
љу	-12400.0
▁Dé	-12401.0
Hz	-12402.0
▁Param	-12403.0
documentation	-12404.0
ircraft	-12405.0
EM	-12406.0
▁institution	-12407.0
compat	-12408.0
▁аль	-12409.0
слав	-12410.0
▁Net	-12411.0
циональ	-12412.0
▁broadcast	-12413.0
datetime	-12414.0
async	-12415.0
vre	-12416.0
mean	-12417.0
▁Chem	-12418.0
▁estimate	-12419.0
icana	-12420.0
▁grep	-12421.0
tek	-12422.0
äm	-12423.0
orig	-12424.0
▁Victor	-12425.0
utenant	-12426.0
anga	-12427.0
pin	-12428.0
▁vertex	-12429.0
▁CHAPTER	-12430.0
city	-12431.0
ugby	-12432.0
green	-12433.0
▁Ker	-12434.0
▁différ	-12435.0
▁necessarily	-12436.0
DC	-12437.0
Linear	-12438.0
alem	-12439.0
▁Later	-12440.0
▁meta	-12441.0
jem	-12442.0
ragen	-12443.0
May	-12444.0
▁Mitglied	-12445.0
▁sorted	-12446.0
ussen	-12447.0
▁spoke	-12448.0
▁disabled	-12449.0
▁accomplish	-12450.0
▁Russia	-12451.0
there	-12452.0
ees	-12453.0
▁hall	-12454.0
▁metric	-12455.0
attribute	-12456.0
того	-12457.0
about	-12458.0
▁Lam	-12459.0
channel	-12460.0
▁episode	-12461.0
▁$('.	-12462.0
▁ought	-12463.0
▁Este	-12464.0
Objects	-12465.0
▁validate	-12466.0
▁rim	-12467.0
▁numerous	-12468.0
▁Javascript	-12469.0
▁GL	-12470.0
▁Italy	-12471.0
ederbörd	-12472.0
onato	-12473.0
books	-12474.0
stone	-12475.0
ху	-12476.0
▁jel	-12477.0
iri	-12478.0
▁ASP	-12479.0
GA	-12480.0
▁stata	-12481.0
▁baz	-12482.0
Day	-12483.0
thm	-12484.0
dh	-12485.0
▁Files	-12486.0
AndroidRuntime	-12487.0
▁checks	-12488.0
kr	-12489.0
▁venne	-12490.0
SL	-12491.0
avia	-12492.0
kazy	-12493.0
▁Three	-12494.0
Admin	-12495.0
▁college	-12496.0
Global	-12497.0
tion	-12498.0
▁curious	-12499.0
short	-12500.0
▁bass	-12501.0
дела	-12502.0
▁дея	-12503.0
Schema	-12504.0
'\	-12505.0
diff	-12506.0
▁CA	-12507.0
▁Corpor	-12508.0
▁operators	-12509.0
områ	-12510.0
▁edges	-12511.0
);`	-12512.0
inds	-12513.0
▁ging	-12514.0
&&	-12515.0
}-\	-12516.0
rano	-12517.0
▁são	-12518.0
▁adds	-12519.0
elor	-12520.0
▁unsigned	-12521.0
▁пр	-12522.0
▁Config	-12523.0
▁Esc	-12524.0
▁chose	-12525.0
▁pieces	-12526.0
▁regions	-12527.0
Est	-12528.0
▁Battle	-12529.0
▁foc	-12530.0
▁Light	-12531.0
padding	-12532.0
aben	-12533.0
▁europ	-12534.0
illon	-12535.0
▁есть	-12536.0
▁bord	-12537.0
▁отно	-12538.0
▁Hong	-12539.0
▁vul	-12540.0
plugins	-12541.0
▁'<	-12542.0
▁kur	-12543.0
region	-12544.0
▁Repub	-12545.0
icher	-12546.0
}_\	-12547.0
▁medal	-12548.0
▁Moreover	-12549.0
BI	-12550.0
Av	-12551.0
uter	-12552.0
▁scan	-12553.0
▁Municip	-12554.0
▁contrast	-12555.0
▁Ig	-12556.0
▁город	-12557.0
related	-12558.0
aling	-12559.0
▁мат	-12560.0
ünst	-12561.0
▁Chris	-12562.0
wy	-12563.0
▁Actually	-12564.0
▁Universidad	-12565.0
EventListener	-12566.0
▁temporada	-12567.0
▁assignment	-12568.0
▁Mike	-12569.0
▁während	-12570.0
▁świ	-12571.0
▁сред	-12572.0
каде	-12573.0
▁calculated	-12574.0
▁eller	-12575.0
▁Ash	-12576.0
riel	-12577.0
▁hardware	-12578.0
▁intens	-12579.0
('.	-12580.0
illi	-12581.0
agon	-12582.0
▁Gy	-12583.0
▁heute	-12584.0
▁sle	-12585.0
▁literature	-12586.0
sem	-12587.0
manager	-12588.0
▁Grande	-12589.0
▁mixed	-12590.0
▁Вер	-12591.0
ící	-12592.0
▁soit	-12593.0
▁welcome	-12594.0
чение	-12595.0
▁Universität	-12596.0
▁builder	-12597.0
simple	-12598.0
icode	-12599.0
ře	-12600.0
indent	-12601.0
opo	-12602.0
▁advanced	-12603.0
temper	-12604.0
edge	-12605.0
▁datetime	-12606.0
▁donc	-12607.0
лання	-12608.0
▁verd	-12609.0
дно	-12610.0
itos	-12611.0
▁heat	-12612.0
visible	-12613.0
mel	-12614.0
▁Giovanni	-12615.0
▁variety	-12616.0
▁router	-12617.0
Vector	-12618.0
▁Walk	-12619.0
▁obviously	-12620.0
hein	-12621.0
Fin	-12622.0
ITableView	-12623.0
Year	-12624.0
▁Econom	-12625.0
▁velocity	-12626.0
▁Civil	-12627.0
▁ј	-12628.0
alert	-12629.0
Identifier	-12630.0
ència	-12631.0
▁normally	-12632.0
▁Egypt	-12633.0
▁ctx	-12634.0
▁Verein	-12635.0
▁Hu	-12636.0
ulture	-12637.0
ните	-12638.0
lé	-12639.0
▁Wien	-12640.0
▁Prz	-12641.0
Byte	-12642.0
▁nah	-12643.0
isms	-12644.0
▁Publish	-12645.0
▁Herz	-12646.0
icul	-12647.0
pisode	-12648.0
чі	-12649.0
▁diesem	-12650.0
kö	-12651.0
Visible	-12652.0
▁rig	-12653.0
`).	-12654.0
Parse	-12655.0
▁Jacques	-12656.0
NI	-12657.0
▁glass	-12658.0
---+	-12659.0
▁initially	-12660.0
▁kr	-12661.0
CCN	-12662.0
plays	-12663.0
▁sigu	-12664.0
Folder	-12665.0
storage	-12666.0
▁\|	-12667.0
ivos	-12668.0
скую	-12669.0
▁Moh	-12670.0
▁Committee	-12671.0
▁Kim	-12672.0
eu	-12673.0
тем	-12674.0
▁originale	-12675.0
irs	-12676.0
▁Reb	-12677.0
itut	-12678.0
nl	-12679.0
▁Pier	-12680.0
▁];	-12681.0
▁Fal	-12682.0
▁"";	-12683.0
mvc	-12684.0
▁female	-12685.0
▁bridge	-12686.0
▁tít	-12687.0
ktr	-12688.0
>)	-12689.0
▁seat	-12690.0
▁vess	-12691.0
▁USB	-12692.0
▁Articles	-12693.0
▁Description	-12694.0
▁oc	-12695.0
▁houses	-12696.0
▁Пет	-12697.0
lon	-12698.0
Notification	-12699.0
▁pressure	-12700.0
▁куль	-12701.0
igned	-12702.0
▁religious	-12703.0
fan	-12704.0
iglia	-12705.0
▁classification	-12706.0
ogether	-12707.0
▁SDK	-12708.0
▁Human	-12709.0
▁commission	-12710.0
▁Ор	-12711.0
▁antes	-12712.0
DT	-12713.0
ète	-12714.0
prés	-12715.0
/"	-12716.0
▁(«	-12717.0
▁hö	-12718.0
▁час	-12719.0
▁jak	-12720.0
ienen	-12721.0
ugg	-12722.0
WA	-12723.0
▁placeholder	-12724.0
Will	-12725.0
,,	-12726.0
▁Kam	-12727.0
▁wen	-12728.0
▁Schul	-12729.0
ție	-12730.0
▁aud	-12731.0
▁sue	-12732.0
▁referred	-12733.0
ват	-12734.0
▁Para	-12735.0
▁bla	-12736.0
UES	-12737.0
▁statist	-12738.0
▁ту	-12739.0
▁Warsza	-12740.0
gue	-12741.0
▁Ide	-12742.0
mathscr	-12743.0
▁lieu	-12744.0
▁bod	-12745.0
▁rus	-12746.0
▁boat	-12747.0
xspace	-12748.0
▁modal	-12749.0
лек	-12750.0
topic	-12751.0
many	-12752.0
ský	-12753.0
▁organization	-12754.0
▁гене	-12755.0
▁Wilson	-12756.0
▁comfort	-12757.0
ibil	-12758.0
:-	-12759.0
▁animal	-12760.0
Report	-12761.0
ками	-12762.0
jon	-12763.0
▁ker	-12764.0
▁кни	-12765.0
mozilla	-12766.0
Price	-12767.0
antin	-12768.0
emento	-12769.0
may	-12770.0
▁lung	-12771.0
▁blow	-12772.0
edeut	-12773.0
▁typed	-12774.0
▁december	-12775.0
▁....	-12776.0
liance	-12777.0
▁viel	-12778.0
▁Фи	-12779.0
presa	-12780.0
▁осіб	-12781.0
▁Nam	-12782.0
▁Gren	-12783.0
силання	-12784.0
VID	-12785.0
stre	-12786.0
weis	-12787.0
▁protection	-12788.0
taient	-12789.0
▁officers	-12790.0
тно	-12791.0
▁Brig	-12792.0
▁intellig	-12793.0
ях	-12794.0
ITH	-12795.0
▁separated	-12796.0
▁LCCN	-12797.0
ním	-12798.0
clock	-12799.0
▁apare	-12800.0
яви	-12801.0
▁Elizabeth	-12802.0
▁Water	-12803.0
gebiet	-12804.0
▁convent	-12805.0
furt	-12806.0
▁beiden	-12807.0
bash	-12808.0
▁через	-12809.0
▁ub	-12810.0
▁Statist	-12811.0
▁limits	-12812.0
Vol	-12813.0
ctx	-12814.0
▁нов	-12815.0
guide	-12816.0
mic	-12817.0
iesa	-12818.0
▁huvud	-12819.0
RT	-12820.0
Fig	-12821.0
▁lect	-12822.0
conn	-12823.0
imit	-12824.0
гар	-12825.0
▁bajo	-12826.0
scribe	-12827.0
regex	-12828.0
▁Cass	-12829.0
▁propag	-12830.0
'$	-12831.0
▁profes	-12832.0
unique	-12833.0
▁Sql	-12834.0
union	-12835.0
rios	-12836.0
pip	-12837.0
--+	-12838.0
kadem	-12839.0
columns	-12840.0
▁vary	-12841.0
▁bereits	-12842.0
▁doi	-12843.0
▁Common	-12844.0
▁Robin	-12845.0
▁×	-12846.0
▁sei	-12847.0
▁syst	-12848.0
▁vä	-12849.0
▁Default	-12850.0
▁tym	-12851.0
pel	-12852.0
▁believed	-12853.0
▁provider	-12854.0
▁minimal	-12855.0
тали	-12856.0
aines	-12857.0
Kit	-12858.0
izio	-12859.0
issen	-12860.0
pressed	-12861.0
▁stag	-12862.0
▁uint	-12863.0
kor	-12864.0
▁распо	-12865.0
▁inherit	-12866.0
▁compiled	-12867.0
▁febru	-12868.0
▁tmp	-12869.0
works	-12870.0
чна	-12871.0
drawable	-12872.0
▁Nav	-12873.0
▁thoughts	-12874.0
route	-12875.0
▁concert	-12876.0
▁optional	-12877.0
▁bras	-12878.0
▁providing	-12879.0
сом	-12880.0
idx	-12881.0
emplo	-12882.0
▁коли	-12883.0
▁Bere	-12884.0
▁Els	-12885.0
ремен	-12886.0
▁дека	-12887.0
cout	-12888.0
layer	-12889.0
▁glob	-12890.0
foreach	-12891.0
▁Education	-12892.0
PO	-12893.0
▁improv	-12894.0
▁clients	-12895.0
groups	-12896.0
▁kont	-12897.0
Del	-12898.0
rett	-12899.0
▁sup	-12900.0
▁mog	-12901.0
tan	-12902.0
▁compl	-12903.0
irty	-12904.0
▁nouveau	-12905.0
osz	-12906.0
▁Navy	-12907.0
bere	-12908.0
mask	-12909.0
ové	-12910.0
zil	-12911.0
PER	-12912.0
▁población	-12913.0
▁detailed	-12914.0
лет	-12915.0
▁families	-12916.0
abet	-12917.0
евич	-12918.0
änder	-12919.0
▁år	-12920.0
▁pendant	-12921.0
▁bil	-12922.0
▁hint	-12923.0
oden	-12924.0
▁expansion	-12925.0
▁pont	-12926.0
asant	-12927.0
▁Kind	-12928.0
iji	-12929.0
▁Auth	-12930.0
laimed	-12931.0
reflect	-12932.0
]=	-12933.0
bytes	-12934.0
hover	-12935.0
▁цер	-12936.0
gradle	-12937.0
Arch	-12938.0
apest	-12939.0
ása	-12940.0
Card	-12941.0
▁temporary	-12942.0
▁département	-12943.0
classes	-12944.0
жива	-12945.0
▁худо	-12946.0
▁mole	-12947.0
RY	-12948.0
LP	-12949.0
▁pec	-12950.0
roduction	-12951.0
▁Guard	-12952.0
▁Parliament	-12953.0
▁instanti	-12954.0
▁notamment	-12955.0
▁Doug	-12956.0
▁Marsh	-12957.0
.~	-12958.0
▁\"	-12959.0
▁thé	-12960.0
▁libre	-12961.0
does	-12962.0
▁début	-12963.0
▁Unit	-12964.0
▁сту	-12965.0
▁league	-12966.0
▁quale	-12967.0
▁составля	-12968.0
Security	-12969.0
▁apparently	-12970.0
▁troops	-12971.0
icano	-12972.0
▁MB	-12973.0
enze	-12974.0
loading	-12975.0
▁distributed	-12976.0
writer	-12977.0
resources	-12978.0
hö	-12979.0
utils	-12980.0
▁prepared	-12981.0
cier	-12982.0
opol	-12983.0
▁länkar	-12984.0
hes	-12985.0
нва	-12986.0
▁opens	-12987.0
agog	-12988.0
interface	-12989.0
▁Fund	-12990.0
▁pentru	-12991.0
ních	-12992.0
▁configured	-12993.0
▁Website	-12994.0
▁listener	-12995.0
ivel	-12996.0
nę	-12997.0
mina	-12998.0
▁invest	-12999.0
▁міс	-13000.0
▁dav	-13001.0
▁patch	-13002.0
pieler	-13003.0
▁Externa	-13004.0
tf	-13005.0
▁ered	-13006.0
▁Assembly	-13007.0
▁sout	-13008.0
▁verk	-13009.0
mers	-13010.0
toggle	-13011.0
▁updating	-13012.0
▁Kent	-13013.0
eca	-13014.0
FAULT	-13015.0
▁titre	-13016.0
▁Kenn	-13017.0
▁Миха	-13018.0
стор	-13019.0
▁pode	-13020.0
▁Seb	-13021.0
цев	-13022.0
EY	-13023.0
▁silver	-13024.0
▁capacity	-13025.0
▁completion	-13026.0
▁Pedro	-13027.0
fel	-13028.0
vano	-13029.0
zeug	-13030.0
▁interior	-13031.0
▁Response	-13032.0
édia	-13033.0
▁WorldCat	-13034.0
▁că	-13035.0
quel	-13036.0
Sol	-13037.0
ісля	-13038.0
▁Domin	-13039.0
▁cum	-13040.0
cep	-13041.0
▁Muse	-13042.0
▁María	-13043.0
▁functional	-13044.0
▁adapter	-13045.0
configuration	-13046.0
▁tipo	-13047.0
▁Bry	-13048.0
vy	-13049.0
UL	-13050.0
▁travers	-13051.0
!(	-13052.0
▁absolutely	-13053.0
лта	-13054.0
ття	-13055.0
▁IT	-13056.0
▁воен	-13057.0
ycle	-13058.0
best	-13059.0
▁constructed	-13060.0
▁филь	-13061.0
cido	-13062.0
exit	-13063.0
gart	-13064.0
▁provincia	-13065.0
vez	-13066.0
cipl	-13067.0
▁Facebook	-13068.0
▁yellow	-13069.0
▁Summer	-13070.0
▁pointing	-13071.0
▁possibility	-13072.0
▁legisl	-13073.0
▁мож	-13074.0
dern	-13075.0
коно	-13076.0
▁mechanism	-13077.0
▁Bernard	-13078.0
expr	-13079.0
лови	-13080.0
▁digits	-13081.0
▁delegate	-13082.0
ogram	-13083.0
▁Dictionary	-13084.0
isy	-13085.0
▁spo	-13086.0
/$	-13087.0
cluded	-13088.0
▁MVC	-13089.0
▁tém	-13090.0
▁printed	-13091.0
▁Gott	-13092.0
▁Om	-13093.0
ansas	-13094.0
▁Durch	-13095.0
▁Ident	-13096.0
QU	-13097.0
htm	-13098.0
▁Sul	-13099.0
'].	-13100.0
▁duty	-13101.0
▁Author	-13102.0
▁ně	-13103.0
owego	-13104.0
pus	-13105.0
embl	-13106.0
Executor	-13107.0
BL	-13108.0
▁Mens	-13109.0
dispatch	-13110.0
▁Mid	-13111.0
apps	-13112.0
Transform	-13113.0
▁Dat	-13114.0
▁impl	-13115.0
oux	-13116.0
holm	-13117.0
▁Ins	-13118.0
▁Empire	-13119.0
руп	-13120.0
▁Apache	-13121.0
SION	-13122.0
▁passage	-13123.0
################	-13124.0
▁expressed	-13125.0
над	-13126.0
▁ol	-13127.0
▁havia	-13128.0
▁более	-13129.0
▁enjoy	-13130.0
formance	-13131.0
▁dimensions	-13132.0
▁чер	-13133.0
See	-13134.0
▁mouth	-13135.0
▁gau	-13136.0
iency	-13137.0
▁Carolina	-13138.0
Dist	-13139.0
radio	-13140.0
limit	-13141.0
/?	-13142.0
▁Ball	-13143.0
ність	-13144.0
Member	-13145.0
water	-13146.0
▁murder	-13147.0
▁standing	-13148.0
▁VII	-13149.0
Center	-13150.0
ppa	-13151.0
ureau	-13152.0
▁Leip	-13153.0
▁objet	-13154.0
▁Activity	-13155.0
embers	-13156.0
vr	-13157.0
▁condu	-13158.0
Cells	-13159.0
inus	-13160.0
▁',	-13161.0
▁afraid	-13162.0
▁ха	-13163.0
▁Vic	-13164.0
testing	-13165.0
Tube	-13166.0
▁vast	-13167.0
PM	-13168.0
nih	-13169.0
SSN	-13170.0
▁Chile	-13171.0
ylvan	-13172.0
▁Bow	-13173.0
▁religion	-13174.0
opher	-13175.0
▁Coll	-13176.0
▁digital	-13177.0
zioni	-13178.0
Section	-13179.0
▁результа	-13180.0
Foot	-13181.0
convert	-13182.0
▁receiving	-13183.0
Contact	-13184.0
▁hero	-13185.0
sam	-13186.0
▁posterior	-13187.0
owi	-13188.0
Ant	-13189.0
▁flags	-13190.0
▁Zealand	-13191.0
▁bounds	-13192.0
▁whereas	-13193.0
infl	-13194.0
Play	-13195.0
▁demo	-13196.0
▁gibt	-13197.0
▁hospital	-13198.0
▁volta	-13199.0
лё	-13200.0
▁fashion	-13201.0
▁exceed	-13202.0
elenium	-13203.0
Iter	-13204.0
krie	-13205.0
▁integration	-13206.0
▁Otherwise	-13207.0
adu	-13208.0
She	-13209.0
onde	-13210.0
uint	-13211.0
radius	-13212.0
▁ram	-13213.0
▁álbum	-13214.0
▁тур	-13215.0
▁dy	-13216.0
▁Ott	-13217.0
▁пери	-13218.0
rev	-13219.0
rior	-13220.0
íd	-13221.0
irat	-13222.0
▁вклю	-13223.0
▁importante	-13224.0
▁Duke	-13225.0
▁causa	-13226.0
▁Mathemat	-13227.0
▁diplom	-13228.0
▁Nicol	-13229.0
▁exclus	-13230.0
▁debugging	-13231.0
▁Gh	-13232.0
original	-13233.0
lyn	-13234.0
▁Pla	-13235.0
suite	-13236.0
chat	-13237.0
▁estud	-13238.0
uelle	-13239.0
▁pert	-13240.0
▁importance	-13241.0
▁approaches	-13242.0
▁dla	-13243.0
▁проф	-13244.0
Pres	-13245.0
<\	-13246.0
prefix	-13247.0
SSION	-13248.0
роди	-13249.0
country	-13250.0
itzer	-13251.0
▁кор	-13252.0
▁singular	-13253.0
gov	-13254.0
рин	-13255.0
▁FA	-13256.0
▁matrices	-13257.0
olare	-13258.0
nika	-13259.0
power	-13260.0
lla	-13261.0
▁desire	-13262.0
▁familia	-13263.0
дор	-13264.0
▁fan	-13265.0
generated	-13266.0
▁Cos	-13267.0
▁że	-13268.0
▁Diese	-13269.0
mov	-13270.0
▁denote	-13271.0
")]	-13272.0
ouvern	-13273.0
aman	-13274.0
▁inser	-13275.0
ijk	-13276.0
otta	-13277.0
eral	-13278.0
дель	-13279.0
()->	-13280.0
▁poder	-13281.0
iges	-13282.0
▁Online	-13283.0
▁weird	-13284.0
iac	-13285.0
▁quelques	-13286.0
èrent	-13287.0
▁tel	-13288.0
▁Latin	-13289.0
verter	-13290.0
ляр	-13291.0
рои	-13292.0
▁pdf	-13293.0
▁keyword	-13294.0
Handle	-13295.0
After	-13296.0
rece	-13297.0
▁identical	-13298.0
stylesheet	-13299.0
▁станови	-13300.0
▁ka	-13301.0
cement	-13302.0
тет	-13303.0
▁chat	-13304.0
▁Mun	-13305.0
ała	-13306.0
ANT	-13307.0
ológ	-13308.0
▁fant	-13309.0
▁forest	-13310.0
▁вико	-13311.0
cuss	-13312.0
▁sehr	-13313.0
pag	-13314.0
otic	-13315.0
▁áll	-13316.0
мати	-13317.0
▁"'	-13318.0
+"	-13319.0
Animation	-13320.0
ходит	-13321.0
azu	-13322.0
▁plays	-13323.0
izioni	-13324.0
миче	-13325.0
▁bomb	-13326.0
▁merely	-13327.0
▁holding	-13328.0
▁wenn	-13329.0
▁medic	-13330.0
▁speaking	-13331.0
ongodb	-13332.0
▁Campe	-13333.0
inity	-13334.0
▁янва	-13335.0
()`.	-13336.0
luss	-13337.0
▁Histoire	-13338.0
▁operating	-13339.0
Channel	-13340.0
▁accuracy	-13341.0
▁bos	-13342.0
▁evident	-13343.0
цию	-13344.0
events	-13345.0
textrm	-13346.0
oreign	-13347.0
▁ii	-13348.0
hren	-13349.0
lower	-13350.0
▁том	-13351.0
▁About	-13352.0
▁aj	-13353.0
eri	-13354.0
ступи	-13355.0
▁digit	-13356.0
▁Spain	-13357.0
▁Daten	-13358.0
▁forme	-13359.0
▁шта	-13360.0
▁Bach	-13361.0
nonumber	-13362.0
▁recommended	-13363.0
▁reads	-13364.0
histoire	-13365.0
▁sang	-13366.0
▁??	-13367.0
▁стал	-13368.0
score	-13369.0
fas	-13370.0
▁cub	-13371.0
▁grew	-13372.0
▁centro	-13373.0
▁bekannt	-13374.0
Events	-13375.0
BER	-13376.0
hew	-13377.0
сса	-13378.0
▁majority	-13379.0
ître	-13380.0
enci	-13381.0
▁Query	-13382.0
▁które	-13383.0
ić	-13384.0
▁complexity	-13385.0
▁François	-13386.0
constraint	-13387.0
урна	-13388.0
══	-13389.0
▁iterate	-13390.0
lett	-13391.0
peror	-13392.0
▁Nederland	-13393.0
share	-13394.0
▁inclu	-13395.0
änger	-13396.0
▁Nic	-13397.0
чо	-13398.0
Full	-13399.0
▁rapport	-13400.0
eclipse	-13401.0
▁industry	-13402.0
headers	-13403.0
▁Ри	-13404.0
chsel	-13405.0
▁polic	-13406.0
schied	-13407.0
%,	-13408.0
OD	-13409.0
▁Jak	-13410.0
({\	-13411.0
aligned	-13412.0
▁frequently	-13413.0
▁suoi	-13414.0
▁essentially	-13415.0
▁Ric	-13416.0
▁reports	-13417.0
▁decimal	-13418.0
rar	-13419.0
▁Foo	-13420.0
▁Ka	-13421.0
▁DC	-13422.0
▁simpler	-13423.0
Pane	-13424.0
?}	-13425.0
Sort	-13426.0
▁posit	-13427.0
cdn	-13428.0
ktur	-13429.0
▁awk	-13430.0
зер	-13431.0
PF	-13432.0
uur	-13433.0
▁Ross	-13434.0
▁mant	-13435.0
Na	-13436.0
Cons	-13437.0
))))	-13438.0
▁techniques	-13439.0
impl	-13440.0
▁dropped	-13441.0
▁Lista	-13442.0
▁Basically	-13443.0
ental	-13444.0
▁celui	-13445.0
▁strategy	-13446.0
▁Wales	-13447.0
nan	-13448.0
▁gmin	-13449.0
▁größ	-13450.0
▁eerste	-13451.0
Tim	-13452.0
nten	-13453.0
resp	-13454.0
▁stable	-13455.0
nov	-13456.0
rob	-13457.0
ној	-13458.0
▁marriage	-13459.0
getString	-13460.0
Author	-13461.0
▁Graf	-13462.0
▁diagram	-13463.0
gia	-13464.0
Network	-13465.0
▁composed	-13466.0
▁missed	-13467.0
▁Meg	-13468.0
▁право	-13469.0
▁homonymes	-13470.0
▁Books	-13471.0
▁encou	-13472.0
porte	-13473.0
▁rotation	-13474.0
▁fir	-13475.0
тельно	-13476.0
▁gun	-13477.0
▁Aff	-13478.0
нок	-13479.0
▁Fußball	-13480.0
▁Story	-13481.0
▁Chap	-13482.0
▁).	-13483.0
▁Seit	-13484.0
мон	-13485.0
▁télé	-13486.0
▁copied	-13487.0
▁consistent	-13488.0
▁drink	-13489.0
▁Cham	-13490.0
▁matters	-13491.0
▁rendered	-13492.0
▁hypoth	-13493.0
œuv	-13494.0
▁meer	-13495.0
▁parsing	-13496.0
▁PRO	-13497.0
series	-13498.0
▁zá	-13499.0
straße	-13500.0
▁Boot	-13501.0
▁repo	-13502.0
wor	-13503.0
▁Stream	-13504.0
▁AN	-13505.0
▁пів	-13506.0
▁SM	-13507.0
▁Arn	-13508.0
▁Ž	-13509.0
▁[];	-13510.0
Resources	-13511.0
▁elabor	-13512.0
▁Eth	-13513.0
▁liste	-13514.0
▁relatively	-13515.0
chant	-13516.0
=""	-13517.0
▁lift	-13518.0
CN	-13519.0
Services	-13520.0
MENT	-13521.0
▁игра	-13522.0
бре	-13523.0
▁Jord	-13524.0
▁tec	-13525.0
шка	-13526.0
▁Sup	-13527.0
▁influen	-13528.0
onds	-13529.0
handler	-13530.0
▁banda	-13531.0
▁vertices	-13532.0
▁zap	-13533.0
▁cord	-13534.0
alter	-13535.0
zenia	-13536.0
âteau	-13537.0
▁knowing	-13538.0
▁Argentina	-13539.0
Area	-13540.0
ане	-13541.0
fc	-13542.0
="/	-13543.0
▁Mik	-13544.0
ată	-13545.0
ieux	-13546.0
▁deutschen	-13547.0
▁traditional	-13548.0
decode	-13549.0
vex	-13550.0
▁sizeof	-13551.0
▁Fun	-13552.0
▁parser	-13553.0
▁Florida	-13554.0
▁buildings	-13555.0
▁Manuel	-13556.0
rile	-13557.0
▁logged	-13558.0
▁strongly	-13559.0
▁revol	-13560.0
нее	-13561.0
xico	-13562.0
▁Fair	-13563.0
cart	-13564.0
▁Wort	-13565.0
▁Jesus	-13566.0
emes	-13567.0
schrift	-13568.0
InputStream	-13569.0
wad	-13570.0
▁grandes	-13571.0
▁número	-13572.0
▁Otto	-13573.0
ientes	-13574.0
▁famous	-13575.0
ologne	-13576.0
Je	-13577.0
ниш	-13578.0
▁Guerra	-13579.0
bara	-13580.0
▁cad	-13581.0
elve	-13582.0
brace	-13583.0
▁Jr	-13584.0
stable	-13585.0
ECT	-13586.0
lemma	-13587.0
mediate	-13588.0
▁vin	-13589.0
▁monument	-13590.0
▁cv	-13591.0
▁winter	-13592.0
▁transformation	-13593.0
▁Nick	-13594.0
stronom	-13595.0
▁frag	-13596.0
▁intel	-13597.0
raction	-13598.0
▁considering	-13599.0
▁Fle	-13600.0
▁ло	-13601.0
▁Après	-13602.0
▁AM	-13603.0
▁Hum	-13604.0
▁mundo	-13605.0
NER	-13606.0
▁Below	-13607.0
▁города	-13608.0
arters	-13609.0
--"	-13610.0
▁Пе	-13611.0
ît	-13612.0
▁txt	-13613.0
angers	-13614.0
▁thy	-13615.0
CLA	-13616.0
ibles	-13617.0
▁requested	-13618.0
▁Alexand	-13619.0
▁factors	-13620.0
▁produces	-13621.0
ningen	-13622.0
▁состоя	-13623.0
▁optimization	-13624.0
chod	-13625.0
>`	-13626.0
▁Wikip	-13627.0
nosti	-13628.0
▁competition	-13629.0
▁Hann	-13630.0
▁zona	-13631.0
dc	-13632.0
design	-13633.0
▁Zu	-13634.0
▁espec	-13635.0
equality	-13636.0
▁Abb	-13637.0
▁developer	-13638.0
▁"^	-13639.0
▁Short	-13640.0
▁plans	-13641.0
▁vit	-13642.0
izable	-13643.0
burgh	-13644.0
agem	-13645.0
▁Print	-13646.0
ív	-13647.0
▁suitable	-13648.0
picker	-13649.0
Profile	-13650.0
andy	-13651.0
▁quot	-13652.0
▁Durante	-13653.0
▁Francia	-13654.0
▁tart	-13655.0
▁Venez	-13656.0
▁dispatch	-13657.0
▁observations	-13658.0
▁ż	-13659.0
Invalid	-13660.0
▁occurr	-13661.0
тки	-13662.0
Memento	-13663.0
▁Syd	-13664.0
▁tiempo	-13665.0
▁staff	-13666.0
▁sections	-13667.0
▁ssh	-13668.0
▁NGC	-13669.0
ël	-13670.0
▁erre	-13671.0
▁divided	-13672.0
▁Without	-13673.0
▁durant	-13674.0
▁jaar	-13675.0
▁−	-13676.0
▁soldiers	-13677.0
унк	-13678.0
lapse	-13679.0
▁Valley	-13680.0
▁(:	-13681.0
rera	-13682.0
▁dével	-13683.0
▁péri	-13684.0
▁calculation	-13685.0
▁keine	-13686.0
ertain	-13687.0
▁теле	-13688.0
руд	-13689.0
▁cul	-13690.0
▁cloth	-13691.0
;}	-13692.0
▁przed	-13693.0
Month	-13694.0
Picker	-13695.0
▁SV	-13696.0
arian	-13697.0
▁Review	-13698.0
▁hang	-13699.0
▁окт	-13700.0
▁Front	-13701.0
otlin	-13702.0
▁translation	-13703.0
▁modo	-13704.0
▁statistics	-13705.0
▁Nue	-13706.0
▁Никола	-13707.0
NUM	-13708.0
▁ships	-13709.0
▁Report	-13710.0
{[	-13711.0
Effect	-13712.0
ieri	-13713.0
▁parties	-13714.0
pla	-13715.0
rw	-13716.0
▁Works	-13717.0
▁iron	-13718.0
▁attract	-13719.0
▁cort	-13720.0
ná	-13721.0
▁Steve	-13722.0
▁bene	-13723.0
тон	-13724.0
ícula	-13725.0
Two	-13726.0
▁глав	-13727.0
▁Video	-13728.0
▁powerful	-13729.0
auch	-13730.0
mande	-13731.0
ächst	-13732.0
Lat	-13733.0
▁zna	-13734.0
▁figures	-13735.0
▁alias	-13736.0
nex	-13737.0
▁categories	-13738.0
called	-13739.0
▁Similar	-13740.0
▁girls	-13741.0
pez	-13742.0
▁joint	-13743.0
рого	-13744.0
iken	-13745.0
чина	-13746.0
ancia	-13747.0
▁tijd	-13748.0
▁Rose	-13749.0
▁algorithms	-13750.0
▁printing	-13751.0
nea	-13752.0
▁executing	-13753.0
▁lambda	-13754.0
▁regional	-13755.0
▁Copa	-13756.0
Foo	-13757.0
phys	-13758.0
zm	-13759.0
▁Laur	-13760.0
▁candidate	-13761.0
▁Ja	-13762.0
zym	-13763.0
Example	-13764.0
▁spiel	-13765.0
▁дей	-13766.0
nehmen	-13767.0
keiten	-13768.0
▁сент	-13769.0
intent	-13770.0
.(	-13771.0
▁первы	-13772.0
prom	-13773.0
▁nat	-13774.0
▁imagine	-13775.0
callback	-13776.0
components	-13777.0
without	-13778.0
▁aquest	-13779.0
Support	-13780.0
▁responsible	-13781.0
▁jego	-13782.0
lj	-13783.0
will	-13784.0
lean	-13785.0
eland	-13786.0
ología	-13787.0
mc	-13788.0
Proxy	-13789.0
▁ocup	-13790.0
▁находи	-13791.0
▁rub	-13792.0
нів	-13793.0
▁Fall	-13794.0
amos	-13795.0
▁Ep	-13796.0
entre	-13797.0
fail	-13798.0
World	-13799.0
▁Editor	-13800.0
▁expos	-13801.0
▁finds	-13802.0
▁Culture	-13803.0
LEASE	-13804.0
▁movie	-13805.0
<=	-13806.0
ometric	-13807.0
eling	-13808.0
numerable	-13809.0
ourd	-13810.0
▁Sea	-13811.0
▁bild	-13812.0
▁оста	-13813.0
blo	-13814.0
▁lose	-13815.0
ateurs	-13816.0
oured	-13817.0
▁Batt	-13818.0
();	-13819.0
▁poz	-13820.0
posts	-13821.0
pend	-13822.0
certain	-13823.0
ником	-13824.0
Just	-13825.0
webkit	-13826.0
demás	-13827.0
~~~~	-13828.0
▁indicates	-13829.0
▁park	-13830.0
rique	-13831.0
vod	-13832.0
▁Champ	-13833.0
ftware	-13834.0
OPT	-13835.0
django	-13836.0
release	-13837.0
▁È	-13838.0
SR	-13839.0
▁politician	-13840.0
▁roi	-13841.0
aturen	-13842.0
▁Deutsche	-13843.0
tagon	-13844.0
▁Mov	-13845.0
obierno	-13846.0
▁daß	-13847.0
uther	-13848.0
indi	-13849.0
▁Wikipedia	-13850.0
▁anos	-13851.0
▁observe	-13852.0
elly	-13853.0
▁railway	-13854.0
aton	-13855.0
▁enum	-13856.0
hus	-13857.0
▁inhab	-13858.0
Psi	-13859.0
oire	-13860.0
▁Хо	-13861.0
▁Space	-13862.0
▁Архи	-13863.0
▁anterior	-13864.0
▁Ł	-13865.0
isons	-13866.0
Il	-13867.0
▁améric	-13868.0
laps	-13869.0
▁BBC	-13870.0
QUEST	-13871.0
Constra	-13872.0
mont	-13873.0
äft	-13874.0
▁även	-13875.0
ubern	-13876.0
<!--	-13877.0
▁coding	-13878.0
theory	-13879.0
athed	-13880.0
▁Arbe	-13881.0
▁ши	-13882.0
forEach	-13883.0
omorphism	-13884.0
details	-13885.0
achsen	-13886.0
integr	-13887.0
Vor	-13888.0
Unknown	-13889.0
aceae	-13890.0
inue	-13891.0
esome	-13892.0
▁Fir	-13893.0
chain	-13894.0
▁extremely	-13895.0
multicol	-13896.0
▁Swift	-13897.0
▁addresses	-13898.0
hspace	-13899.0
▁Roger	-13900.0
▁dessen	-13901.0
▁consequ	-13902.0
ualmente	-13903.0
▁Premier	-13904.0
▁Record	-13905.0
▁Bron	-13906.0
kir	-13907.0
sex	-13908.0
intern	-13909.0
▁benefit	-13910.0
umen	-13911.0
▁becoming	-13912.0
▁lig	-13913.0
▁popula	-13914.0
osc	-13915.0
▁civ	-13916.0
▁greatest	-13917.0
▁proces	-13918.0
]*	-13919.0
▁место	-13920.0
▁'$	-13921.0
hell	-13922.0
("\	-13923.0
▁nine	-13924.0
▁Fac	-13925.0
ulpt	-13926.0
jours	-13927.0
▁Copy	-13928.0
▁activities	-13929.0
▁Democr	-13930.0
Es	-13931.0
Success	-13932.0
▁Esta	-13933.0
itul	-13934.0
isti	-13935.0
▁Bed	-13936.0
jas	-13937.0
▁тем	-13938.0
▁Hung	-13939.0
Game	-13940.0
▁heav	-13941.0
onnées	-13942.0
▁branches	-13943.0
borg	-13944.0
▁vl	-13945.0
▁slowly	-13946.0
Fa	-13947.0
Google	-13948.0
emi	-13949.0
▁circumstances	-13950.0
▁'%	-13951.0
▁Und	-13952.0
▁Victoria	-13953.0
▁Typ	-13954.0
rupted	-13955.0
▁relativ	-13956.0
▁slo	-13957.0
▁padre	-13958.0
▁daily	-13959.0
▁orth	-13960.0
чний	-13961.0
▁französ	-13962.0
▁teil	-13963.0
▁Security	-13964.0
ordon	-13965.0
▁sweet	-13966.0
SIZE	-13967.0
▁Cel	-13968.0
ètres	-13969.0
ommes	-13970.0
▁сі	-13971.0
▁efforts	-13972.0
ąz	-13973.0
▁ohne	-13974.0
▁Southern	-13975.0
▁approximately	-13976.0
цен	-13977.0
('#	-13978.0
▁saving	-13979.0
nbsp	-13980.0
▁translate	-13981.0
▁În	-13982.0
member	-13983.0
▁laws	-13984.0
▁жен	-13985.0
▁систе	-13986.0
tc	-13987.0
>\	-13988.0
elte	-13989.0
▁ehem	-13990.0
▁contrad	-13991.0
▁рус	-13992.0
ья	-13993.0
▁Middle	-13994.0
quip	-13995.0
▁chez	-13996.0
Fields	-13997.0
▁permit	-13998.0
ikel	-13999.0
▁wir	-14000.0
▁trial	-14001.0
▁verschied	-14002.0
▁фев	-14003.0
▁male	-14004.0
▁язы	-14005.0
▁nyel	-14006.0
akter	-14007.0
▁denomin	-14008.0
ceptor	-14009.0
▁Wat	-14010.0
▁fino	-14011.0
▁XVIII	-14012.0
ryption	-14013.0
desc	-14014.0
apa	-14015.0
лена	-14016.0
▁kol	-14017.0
▁Є	-14018.0
▁dependent	-14019.0
▁Cra	-14020.0
▁storm	-14021.0
▁Гер	-14022.0
▁pipe	-14023.0
▁attended	-14024.0
▁vita	-14025.0
uzione	-14026.0
czas	-14027.0
onda	-14028.0
▁bold	-14029.0
Columns	-14030.0
ició	-14031.0
▁czę	-14032.0
▁извест	-14033.0
[...]
