<unk>	0
<s>	0
</s>	0
,	-2.19372
。	-3.31666
的	-3.87549
你	-4.64635
了	-5.03007
和	-5.06211
是	-5.09683
?	-5.12627
自己	-5.17655
在	-5.24285
我	-5.37242
有	-5.50638
、	-5.56739
不	-5.63231
我们	-5.66035
他	-5.72081
“	-5.78978
也	-5.8249
!	-5.84529
去	-5.93367
就	-5.95843
可以	-5.95911
会	-6.04348
而	-6.0536
”	-6.07722
所以	-6.12702
她	-6.14442
呢	-6.18142
的时候	-6.19112
没有	-6.19624
对	-6.22988
因为	-6.23288
但是	-6.27961
要	-6.28104
但	-6.28234
人	-6.28387
如果	-6.28663
来	-6.29754
:	-6.29994
一个	-6.30729
都	-6.33403
的人	-6.34064
楼主	-6.35716
可能	-6.358
他们	-6.39098
这	-6.40363
好	-6.41194
就是	-6.42325
需要	-6.42945
一些	-6.44522
或者	-6.45732
想	-6.46772
中	-6.48137
这个	-6.48511
孩子	-6.49208
题主	-6.49595
说	-6.49763
上	-6.50103
从	-6.51218
还是	-6.5214
父母	-6.55818
被	-6.55932
时	-6.56639
这样	-6.56919
那么	-6.57013
其实	-6.57999
很	-6.59296
别人	-6.6142
与	-6.62715
能	-6.66225
对方	-6.67124
一	-6.68874
你的	-6.68958
学习	-6.72918
多	-6.73256
问题	-6.73721
到	-6.74496
自己的	-6.75903
现在	-6.7741
情绪	-6.79469
吗	-6.80023
地	-6.80186
用	-6.81293
做	-6.81726
那	-6.81899
工作	-6.82485
过	-6.86511
把	-6.86832
不是	-6.87089
】	-6.87412
这种	-6.88484
对于	-6.88909
更	-6.89619
都是	-6.89829
生活	-6.90792
这些	-6.91149
选择	-6.91947
爱	-6.93372
又	-6.94487
的事情	-6.96258
您	-6.96552
吧	-6.9658
能够	-6.9671
性	-6.98371
再	-6.99116
只是	-6.99184
比如	-7.00081
着	-7.00343
觉得	-7.00384
让自己	-7.01187
也是	-7.01503
看	-7.03886
什么	-7.04177
;	-7.04273
大	-7.05068
你好	-7.08168
为	-7.08199
还	-7.08287
下	-7.08633
【	-7.09266
关系	-7.10062
比较	-7.10317
的话	-7.10466
里	-7.11747
后	-7.11865
不要	-7.14046
改变	-7.14709
先	-7.15453
感觉	-7.15538
你们	-7.15841
喜欢	-7.16647
很多	-7.17399
已经	-7.17581
让你	-7.1917
朋友	-7.19912
它	-7.20063
想要	-7.20241
沟通	-7.2093
然后	-7.20964
祝好	-7.21495
当	-7.2156
(	-7.21874
心	-7.22318
自我	-7.22775
开始	-7.23744
不能	-7.24225
一下	-7.24608
内心	-7.26239
让	-7.26494
就会	-7.26762
面对	-7.26836
努力	-7.28675
等	-7.28707
也会	-7.29095
的问题	-7.2954
希望	-7.30305
首先	-7.32946
通过	-7.33259
也许	-7.33729
之后	-7.33925
小	-7.34052
焦虑	-7.3479
或	-7.34824
得	-7.35961
妈妈	-7.36033
点	-7.36291
真的	-7.36335
一个人	-7.37725
无法	-7.37975
出	-7.38529
最后	-7.38563
看到	-7.3881
影响	-7.38889
时间	-7.40006
非常	-7.40449
进行	-7.41012
而且	-7.41101
却	-7.42021
当然	-7.42486
甚至	-7.42647
或许	-7.43342
害怕	-7.43577
应该	-7.44235
不好	-7.44558
心理	-7.44599
是否	-7.45249
最	-7.45613
没	-7.46619
以	-7.4688
一点	-7.47085
如何	-7.47538
这是	-7.4878
你可以	-7.49891
跟	-7.526
理解	-7.52838
一样	-7.52971
～	-7.53071
一直	-7.53256
并且	-7.53773
并	-7.53848
”,	-7.54057
担心	-7.54191
有些	-7.54905
当你	-7.55154
不会	-7.55971
)	-7.56848
我想	-7.57479
帮助	-7.57586
事	-7.58343
虽然	-7.58964
接受	-7.59092
压力	-7.59715
还有	-7.59883
以后	-7.59936
建议	-7.60328
老师	-7.60771
痛苦	-7.61396
对你	-7.62071
表达	-7.62434
给	-7.62665
如果你	-7.62679
成长	-7.63232
是不是	-7.6367
也可以	-7.64058
家庭	-7.64374
了解	-7.64834
一种	-7.64928
事情	-7.65475
找到	-7.65476
所	-7.65796
能力	-7.65892
只有	-7.66276
他人	-7.66422
来说	-7.67339
产生	-7.67474
太	-7.6766
解决	-7.68078
对自己	-7.68218
等等	-7.68387
感到	-7.68673
无	-7.68708
总是	-7.68833
之前	-7.69325
找	-7.69573
思考	-7.69947
感受	-7.70248
感情	-7.71154
一起	-7.71405
这样的	-7.71596
学	-7.7199
的方式	-7.72778
那些	-7.72896
才	-7.73075
因此	-7.73273
于	-7.73444
人生	-7.74061
相处	-7.74426
为什么	-7.74716
知道	-7.74955
社会	-7.75032
以及	-7.75117
子	-7.75956
啊	-7.76386
感	-7.76884
个	-7.77043
出现	-7.77802
可	-7.77845
特别	-7.78008
的情绪	-7.7829
同时	-7.78458
学会	-7.78487
将	-7.78523
的感觉	-7.78825
家	-7.79015
不同	-7.79033
给你	-7.7917
比	-7.79465
并不是	-7.79492
都会	-7.79696
心里	-7.80155
更加	-7.80211
给自己	-7.80213
我觉得	-7.80334
确实	-7.80548
的事	-7.80873
行为	-7.80894
慢慢	-7.81077
母亲	-7.81347
而是	-7.81532
高	-7.81608
打	-7.82087
才能	-7.82574
方式	-7.82703
那个	-7.82995
发现	-7.84149
得到	-7.84844
原因	-7.84875
状态	-7.85374
不想	-7.85743
的想法	-7.85788
获得	-7.86094
身体	-7.86162
而不是	-7.86474
目标	-7.86506
听	-7.8679
的原因	-7.87027
像	-7.87137
生	-7.87269
经历	-7.87383
是一个	-7.87399
只	-7.87945
交流	-7.88255
不知道	-7.88649
的关系	-7.8872
是什么	-7.89147
关注	-7.89348
认为	-7.89375
题主你好	-7.89831
怎么	-7.90721
越	-7.91526
为了	-7.918
~	-7.91846
分	-7.91928
相信	-7.93027
结果	-7.93866
似乎	-7.94324
未来	-7.94536
存在	-7.94608
的状态	-7.94751
看看	-7.95362
方法	-7.95892
肯定	-7.96245
真正	-7.96248
情况	-7.96297
在一起	-7.96614
遇到	-7.9677
发展	-7.96906
环境	-7.96976
过去	-7.97054
走	-7.97282
继续	-7.9785
楼主你好	-7.9795
坚持	-7.98853
毕竟	-7.98862
伤害	-7.9899
者	-7.99026
有时候	-7.99229
每天	-7.99306
一定	-7.99556
关于	-7.99586
吃	-8.00098
控制	-8.00292
尝试	-8.00432
要求	-8.00554
好好	-8.00558
家人	-8.00693
......	-8.007
咨询师	-8.00868
的地方	-8.00895
起来	-8.01314
方面	-8.01356
自信	-8.0255
主动	-8.02692
可是	-8.02815
世界和我爱着你	-8.02887
自	-8.02933
呀	-8.03196
分析	-8.03406
谁	-8.03489
经常	-8.03775
的行为	-8.03864
他的	-8.03993
接纳	-8.04195
向	-8.04446
之	-8.04696
前	-8.04867
情感	-8.04977
处理	-8.05008
的感受	-8.05465
其他	-8.05498
这么	-8.06351
去做	-8.06353
发	-8.06354
彼此	-8.06429
保持	-8.06452
世界	-8.06896
可能会	-8.07661
快乐	-8.07771
考虑	-8.08372
作为	-8.0873
的生活	-8.08825
岁	-8.09152
付出	-8.0924
这件事	-8.09444
老公	-8.09461
爱情	-8.09603
抱抱你	-8.09822
容易	-8.10172
个人	-8.10272
性格	-8.10676
问	-8.11158
长	-8.112
想法	-8.11212
自卑	-8.11423
发生	-8.11828
也有	-8.12073
拒绝	-8.12346
恐惧	-8.12825
出来	-8.13005
你现在	-8.13127
只要	-8.13224
家长	-8.13497
的是	-8.13589
是因为	-8.13604
不过	-8.14049
这个问题	-8.1434
新	-8.14473
钱	-8.14692
哦	-8.14824
成	-8.14888
很难	-8.15457
离开	-8.15595
力	-8.15911
积极	-8.16085
有点	-8.16302
手	-8.16483
咨询	-8.16501
加油	-8.16593
一定要	-8.16635
别	-8.16843
的东西	-8.16938
并不	-8.17138
的时间	-8.17313
满足	-8.17314
完全	-8.174
”。	-8.17586
我们可以	-8.17604
现实	-8.17708
一次	-8.17794
紧张	-8.17819
完成	-8.17898
期待	-8.17951
更多	-8.18263
专业	-8.18992
父亲	-8.19024
结婚	-8.1908
觉得自己	-8.19185
调整	-8.19247
年	-8.19456
愿意	-8.19561
目前	-8.19658
同学	-8.19685
导致	-8.19769
各种	-8.19821
可能是	-8.19851
矛盾	-8.20064
的情况	-8.20191
不喜欢	-8.20366
恋爱	-8.20445
压抑	-8.20564
你会	-8.20689
天	-8.21161
就像	-8.21724
是一种	-8.21935
你自己	-8.21944
成为	-8.22143
曾经	-8.22177
重	-8.22735
本身	-8.23034
那就	-8.23153
直接	-8.23366
即使	-8.23489
气	-8.23589
尊重	-8.23994
决定	-8.24277
并没有	-8.24286
幸福	-8.24411
认识	-8.24903
婚姻	-8.2491
和你	-8.2501
更多的	-8.25094
起	-8.255
如	-8.25592
开	-8.2569
讲	-8.25859
话	-8.25942
有一个	-8.26093
把自己	-8.26231
好像	-8.26273
有没有	-8.26278
两个人	-8.26408
会有	-8.26448
三	-8.26562
关心	-8.26959
男友	-8.27075
回	-8.27151
才会	-8.27865
说话	-8.27887
。【	-8.28045
照顾	-8.28264
如此	-8.2827
一般	-8.2865
困扰	-8.28768
学校	-8.29137
——	-8.29496
抑郁	-8.30115
支持	-8.30325
分手	-8.30438
独立	-8.30478
以上	-8.30579
逃避	-8.3102
的态度	-8.31169
做出	-8.31343
怕	-8.3214
头	-8.32177
纠结	-8.32208
困难	-8.32255
只能	-8.32265
对待	-8.32315
成功	-8.32473
建立	-8.32694
运动	-8.33083
认知	-8.3325
怎样	-8.33394
拥有	-8.33493
社交	-8.33558
每个人	-8.33671
我也	-8.33955
情	-8.33962
放下	-8.34031
不敢	-8.34309
需求	-8.34385
变得	-8.34395
放松	-8.34497
失败	-8.3457
习惯	-8.34644
考试	-8.34831
自然	-8.34973
带	-8.35175
另外	-8.35213
有了	-8.35422
当我们	-8.35558
其次	-8.35719
请	-8.3578
受	-8.36058
都有	-8.36124
明白	-8.36155
有很多	-8.3649
不断	-8.36534
之间	-8.36785
男朋友	-8.36786
有人	-8.36872
化	-8.37161
试着	-8.37223
也不	-8.37245
寻找	-8.37416
女生	-8.37442
开心	-8.37808
在意	-8.3809
》	-8.38135
你也	-8.3849
无论	-8.3853
你要	-8.38591
身上	-8.38631
双方	-8.39088
玩	-8.39318
事件	-8.39393
花	-8.39484
《	-8.39597
具体	-8.39731
到了	-8.39828
既然	-8.39903
写	-8.39962
大家	-8.39979
有什么	-8.40191
难受	-8.40198
除了	-8.40232
我们的	-8.40277
那样	-8.40293
二	-8.40973
不太	-8.4109
两	-8.41408
大学	-8.41467
她们	-8.41492
让他	-8.4151
不管	-8.4163
感受到	-8.41662
难	-8.41793
变	-8.41797
当下	-8.41827
一切	-8.42271
行	-8.42459
说明	-8.42501
放弃	-8.42745
外	-8.42803
本	-8.42876
渴望	-8.43142
愤怒	-8.43143
冲突	-8.43327
接触	-8.43514
相	-8.43559
的工作	-8.43892
的心理	-8.44179
少	-8.44312
强	-8.44314
度	-8.44316
联系	-8.44319
平时	-8.44611
考	-8.44663
不愿意	-8.44688
该	-8.44821
的能力	-8.44914
反应	-8.45082
孤独	-8.45323
这里	-8.45335
的影响	-8.45352
让人	-8.45357
的方法	-8.45394
的压力	-8.4544
。2.	-8.45524
病	-8.45584
放	-8.4569
体验	-8.45863
心情	-8.46019
你需要	-8.46287
快	-8.46318
共同	-8.46395
对自己的	-8.46608
重新	-8.46684
难过	-8.46728
治疗	-8.46747
很好	-8.47032
如果是	-8.47087
以前	-8.47341
见	-8.47597
由于	-8.47717
其	-8.47991
心理咨询	-8.48224
离婚	-8.4877
分享	-8.48935
来看	-8.48974
这件事情	-8.49118
当时	-8.49202
追求	-8.49311
陪伴	-8.49377
真	-8.49392
最近	-8.49502
敏感	-8.49547
感觉到	-8.49656
面	-8.4968
同	-8.49784
从而	-8.49865
水	-8.49932
你说	-8.50047
往往	-8.50056
老	-8.50143
依赖	-8.50281
生气	-8.50338
差	-8.50395
信任	-8.50557
的过程	-8.5065
或者是	-8.50778
减少	-8.51142
值得	-8.51195
正常	-8.51351
更好的	-8.51411
因为你	-8.51427
才是	-8.51485
成绩	-8.51609
的孩子	-8.51674
口	-8.51711
来访者	-8.51765
:“	-8.51933
。️	-8.52027
改善	-8.52071
别人的	-8.52214
经验	-8.52261
让我们	-8.52451
也就	-8.52459
她的	-8.52506
不如	-8.52804
总	-8.52854
做到	-8.52859
第一	-8.52939
身边	-8.5299
死	-8.53124
心理学	-8.5316
领导	-8.53336
不用	-8.53349
做好	-8.54048
自身	-8.54102
提升	-8.54258
任何	-8.54686
爸爸	-8.54794
也没有	-8.54823
你是	-8.55092
自己的情绪	-8.55271
谈	-8.55301
新的	-8.55334
是你	-8.55356
不一样	-8.55361
生活中	-8.55488
深	-8.55578
不舒服	-8.5566
低	-8.55798
期	-8.55971
阶段	-8.5613
你觉得	-8.56341
~。	-8.56447
住	-8.56526
而已	-8.57076
受到	-8.57304
优秀	-8.5733
重要	-8.57565
造成	-8.58085
你在	-8.58099
交往	-8.58127
小时候	-8.58479
思维	-8.58582
不了	-8.58762
互相	-8.59008
的感情	-8.59075
机会	-8.59258
同样	-8.5931
根据	-8.59312
原生家庭	-8.59567
的朋友	-8.59606
好的	-8.59617
抑郁症	-8.59672
描述	-8.59698
有关	-8.59769
适应	-8.59789
当中	-8.59845
包括	-8.59849
我的	-8.60087
父母的	-8.60116
模式	-8.60139
最终	-8.60162
失去	-8.60341
计划	-8.60529
变化	-8.60559
给予	-8.60998
后来	-8.61034
读	-8.61312
拿	-8.61358
学生	-8.61578
东西	-8.62084
理	-8.62107
表现	-8.62128
聊天	-8.62167
不够	-8.62219
亲密关系	-8.62727
买	-8.62827
太多	-8.62877
是个	-8.63132
倾诉	-8.63338
就可以	-8.63426
定	-8.63621
因素	-8.63813
的经历	-8.63959
力量	-8.63983
由	-8.64487
很多人	-8.6454
身	-8.64656
行动	-8.64772
️	-8.65188
那种	-8.65222
内	-8.65373
让我	-8.65399
必须	-8.65548
在你	-8.65677
也不会	-8.65923
同事	-8.65988
错	-8.66105
最好	-8.66309
3	-8.66334
什么样的	-8.66749
男生	-8.66775
安全感	-8.66784
掉	-8.66794
一段	-8.66809
享受	-8.67055
动	-8.67188
越来越	-8.67263
信息	-8.67297
精神	-8.67425
避免	-8.6765
就要	-8.6776
解决问题	-8.67791
#	-8.6783
美好	-8.67977
的需求	-8.682
达到	-8.68281
方向	-8.68498
第二	-8.68861
及时	-8.68886
很多时候	-8.68925
爱自己	-8.68988
医生	-8.69123
有所	-8.69256
也要	-8.69347
内心的	-8.6943
注意	-8.69486
难以	-8.69502
真正的	-8.69551
承受	-8.69665
清楚	-8.69831
叫	-8.69906
所有	-8.70002
下来	-8.70075
和他	-8.70125
一方面	-8.70454
心理咨询师	-8.70589
家里	-8.70634
培养	-8.70749
人际关系	-8.70923
丈夫	-8.71109
属于	-8.71138
作	-8.71241
内在	-8.71272
比如说	-8.71294
不需要	-8.71432
哭	-8.71622
提出	-8.71653
人们	-8.71768
健康	-8.7203
有一些	-8.72078
因	-8.72093
带来	-8.72173
吵架	-8.72263
缓解	-8.72289
答案	-8.72299
换	-8.7255
儿	-8.72651
暂时	-8.72835
1	-8.7286
释放	-8.7287
实现	-8.72926
是在	-8.73062
反而	-8.73311
心态	-8.73623
这一点	-8.73764
书	-8.73788
高中	-8.73959
烦恼	-8.73975
知识	-8.73985
形成	-8.74073
准备	-8.74169
教育	-8.74615
不再	-8.74683
女性	-8.7472
高考	-8.74734
你好呀	-8.75099
回答	-8.75214
两个	-8.75309
些	-8.75429
也不是	-8.75514
就好	-8.75518
美	-8.75565
转	-8.75582
讨厌	-8.75769
2	-8.75795
应该是	-8.75867
尽量	-8.76014
长期	-8.76098
于是	-8.76133
认真	-8.76298
还要	-8.7647
的表现	-8.76479
孩子的	-8.76521
缺乏	-8.76641
会不会	-8.76707
所以你	-8.76799
生命	-8.76814
稳定	-8.76825
自责	-8.76918
跟你	-8.7693
这个时候	-8.77067
你想	-8.77211
里面	-8.77256
你就	-8.77277
安全	-8.77323
按照	-8.77449
他们的	-8.77469
价值	-8.77521
今天	-8.77851
很容易	-8.77884
为自己	-8.78004
承担	-8.78023
确定	-8.7808
程度	-8.7812
干	-8.78242
次	-8.7825
轻松	-8.78572
真实	-8.78751
突然	-8.78859
有着	-8.78893
回到	-8.79064
负责	-8.79102
养	-8.7917
增加	-8.79265
多少	-8.7936
解释	-8.7937
这种情况	-8.79491
处于	-8.79497
你对	-8.79504
长大	-8.79518
委屈	-8.79876
评价	-8.80141
交	-8.80168
公司	-8.80513
活动	-8.80602
寻求	-8.80619
怎么样	-8.80646
指责	-8.8084
进步	-8.8093
认同	-8.80945
安慰	-8.81029
让她	-8.81073
至于	-8.81214
-	-8.81293
至少	-8.81346
下去	-8.81383
变成	-8.81559
是有	-8.81876
更好	-8.81886
帮	-8.81899
包容	-8.81911
手机	-8.82036
觉察	-8.82155
慢慢的	-8.82192
出去	-8.8226
年龄	-8.82278
一旦	-8.82347
看见	-8.82555
意识到	-8.82652
人的	-8.82656
远	-8.82765
第三	-8.8285
日	-8.82865
事实	-8.82921
判断	-8.82922
苦	-8.82933
对你的	-8.83064
路	-8.83091
想到	-8.83115
明确	-8.8315
到底	-8.83152
这个人	-8.8318
。2、	-8.83307
很好的	-8.83554
一段时间	-8.83589
回应	-8.83594
休息	-8.83724
每次	-8.83823
简单	-8.83836
负面情绪	-8.83892
逐渐	-8.83897
提高	-8.84122
课	-8.84199
态度	-8.8432
即	-8.84359
想象	-8.84431
依然	-8.84475
做的	-8.84739
重视	-8.84858
不妨	-8.8493
"	-8.84937
和别人	-8.85062
也能	-8.85064
进入	-8.85085
量	-8.85128
的一种	-8.85202
建议你	-8.85338
想想	-8.8536
动力	-8.85508
陷入	-8.85564
名	-8.85598
早	-8.8567
相互	-8.85709
的情感	-8.85733
道	-8.85779
有个	-8.85837
产生了	-8.85854
条件	-8.85896
规划	-8.85902
意义	-8.85978
处	-8.86209
意	-8.86421
的结果	-8.86565
门	-8.86617
求	-8.86657
带着	-8.86662
往	-8.86728
迷茫	-8.86734
加	-8.8674
读书	-8.86767
),	-8.86857
提	-8.86968
5	-8.87061
过于	-8.87153
现在的	-8.87235
近	-8.87253
吸引	-8.87423
自由	-8.87832
管	-8.87905
标准	-8.87917
认可	-8.87955
累	-8.88016
否定	-8.88097
靠	-8.88109
在乎	-8.88432
明	-8.88538
在这里	-8.88602
没有办法	-8.88614
你已经	-8.88752
鼓励	-8.8882
不容易	-8.88869
告诉	-8.88889
女	-8.88997
永远	-8.89052
光	-8.89064
入	-8.89077
女儿	-8.89122
对方的	-8.89188
的机会	-8.89462
的角度	-8.89464
的确	-8.89469
及	-8.89511
一天	-8.89591
练习	-8.89606
这份	-8.89631
看到你	-8.89658
面前	-8.89663
温暖	-8.89729
还没有	-8.8989
聊	-8.89968
连	-8.89968
出轨	-8.90053
或是	-8.90174
其实是	-8.90189
们	-8.90259
这就是	-8.90423
其他人	-8.90519
男人	-8.90538
接纳自己	-8.90555
后悔	-8.90558
我们需要	-8.90574
进	-8.9063
应对	-8.90692
睡眠	-8.90708
婆婆	-8.90732
每	-8.90743
外界	-8.90874
您好	-8.90895
型	-8.90907
的看法	-8.90984
很大	-8.91074
很重要	-8.91346
舒服	-8.91563
不必	-8.9157
严重	-8.91575
所有的	-8.9163
兴趣	-8.91702
或者说	-8.91757
也就是	-8.91833
某些	-8.91851
通	-8.91986
做了	-8.92068
挺	-8.92256
安排	-8.92286
保护	-8.92362
主要	-8.92626
正	-8.9266
不安	-8.92725
性的	-8.92747
尤其是	-8.92805
的过程中	-8.92829
收获	-8.9286
一份	-8.93103
的性格	-8.93207
女人	-8.93429
。(	-8.93521
笑	-8.93581
的情况下	-8.93812
清	-8.94304
是为了	-8.94451
效果	-8.94642
离	-8.94671
调节	-8.95134
全	-8.95161
为你	-8.95263
活	-8.95391
失望	-8.95537
就能	-8.95795
亲密	-8.95907
相对	-8.95979
说的	-8.96051
睡	-8.96116
潜意识	-8.96185
另一方面	-8.9642
办法	-8.9652
从小	-8.96738
空	-8.96738
症状	-8.96766
哪些	-8.96862
非	-8.96977
我相信	-8.96983
接下来	-8.97103
做事	-8.97155
痛	-8.9722
提供	-8.97283
还会	-8.9756
和对方	-8.97582
不可	-8.97618
过度	-8.97659
怀疑	-8.97775
是需要	-8.97899
求助	-8.97992
对象	-8.97995
四	-8.97998
大脑	-8.98046
您的	-8.98075
责任	-8.98083
忙	-8.98085
是否有	-8.98173
意识	-8.98457
都没有	-8.98472
与你	-8.98594
不足	-8.98612
且	-8.98779
弟弟	-8.98792
解	-8.98822
观念	-8.98874
车	-8.98879
伤	-8.98894
就算	-8.99041
有些人	-8.99086
持续	-8.99098
和父母	-8.9921
放在	-8.99601
时候	-8.99715
希望你	-8.99857
便	-8.99933
都可以	-9.00233
理性	-9.00237
是可以	-9.00302
能量	-9.00312
客观	-9.00489
言	-9.00499
流	-9.00562
几	-9.00621
也很	-9.00681
游戏	-9.00764
理想	-9.00837
心中	-9.00983
它们	-9.01003
有的人	-9.01238
伴侣	-9.01284
法	-9.01751
完	-9.01762
发泄	-9.01936
女孩	-9.02
选	-9.02067
成熟	-9.02173
既	-9.02248
妻子	-9.02379
这也是	-9.024
观察	-9.02524
走出	-9.0254
错误	-9.0275
不开心	-9.02803
而你	-9.02862
自己的内心	-9.02939
的心情	-9.03111
。3.	-9.03145
有时	-9.03197
说出来	-9.03198
的样子	-9.0329
攻击	-9.03359
一定会	-9.03423
关爱	-9.03431
不同的	-9.03501
真实的	-9.03553
人格	-9.03602
看起来	-9.03621
女朋友	-9.03678
我就	-9.03689
哪	-9.03862
给他	-9.03936
的部分	-9.04045
这个世界	-9.04107
的一个	-9.04128
～。	-9.04446
真心	-9.04532
间	-9.04534
晚	-9.04573
还是要	-9.04686
回来	-9.04715
分开	-9.04988
风	-9.05305
创伤	-9.05372
告诉自己	-9.0541
做什么	-9.05461
困惑	-9.05542
考研	-9.05591
帮助你	-9.05595
完美	-9.05618
一点点	-9.05631
引起	-9.05668
随着	-9.05744
带来的	-9.05909
是我们	-9.05932
嫉妒	-9.05948
背后	-9.05998
亲	-9.06103
相信自己	-9.06199
我们要	-9.06467
男性	-9.06472
站在	-9.06509
个体	-9.0652
通常	-9.06606
你能	-9.06681
幻想	-9.06683
:1、	-9.06708
则	-9.06741
儿子	-9.06796
思想	-9.06858
积累	-9.07029
某	-9.07128
而言	-9.07217
。3、	-9.07221
的目标	-9.07255
声	-9.07431
说明你	-9.07667
不可能	-9.07702
上面	-9.07705
的人生	-9.07793
楼楼	-9.07829
爱你	-9.07844
让他们	-9.07919
一定的	-9.07948
眼	-9.08027
空间	-9.08046
事物	-9.08109
推	-9.08112
还可以	-9.0823
每个	-9.08249
担忧	-9.08249
来自	-9.08273
吃饭	-9.08317
生活的	-9.08359
每个人都	-9.08432
探索	-9.08552
仍然	-9.08584
亲人	-9.0875
的帮助	-9.08898
你有	-9.08899
从你的描述中	-9.08965
使	-9.09093
亲爱的	-9.0912
啦	-9.09285
说出	-9.09353
告诉你	-9.09415
维持	-9.09529
愿	-9.09704
十	-9.09729
做一些	-9.09768
结束	-9.09778
有可能	-9.09789
体	-9.09806
帮你	-9.09883
部分	-9.10146
的认知	-9.10214
常	-9.10628
的爱	-9.10731
以为	-9.10746
是很	-9.10763
悲伤	-9.10812
做自己	-9.10833
指	-9.10927
允许	-9.11017
批评	-9.11082
女友	-9.11152
讨论	-9.11173
改变自己	-9.11209
然而	-9.11222
教	-9.11249
经济	-9.11281
谈恋爱	-9.11324
尽	-9.11367
正确	-9.11638
改	-9.11693
对他	-9.11768
角度	-9.11927
梦	-9.12042
的一些	-9.12068
一定是	-9.12114
晚上	-9.12117
经过	-9.12124
记得	-9.1216
期望	-9.12218
懂	-9.12369
对吗	-9.12548
实	-9.12553
第一次	-9.12577
挑战	-9.12603
再次	-9.12764
没办法	-9.12827
楼主的	-9.13013
去面对	-9.13159
了很多	-9.13254
不知道你	-9.13309
无论是	-9.13449
待	-9.13519
精力	-9.13521
的心态	-9.13546
.	-9.13579
过程	-9.13679
可以通过	-9.13683
抱怨	-9.13719
道德	-9.13788
姐姐	-9.13852
回避	-9.13858
无助	-9.13916
活着	-9.13993
上的	-9.13995
/	-9.14208
不去	-9.14489
美好的	-9.14543
打击	-9.14686
让孩子	-9.14734
进一步	-9.14875
抱抱	-9.14937
类	-9.1499
适合	-9.15078
哪里	-9.15147
其中	-9.15279
内容	-9.1535
但是你	-9.1538
过程中	-9.15443
不仅	-9.15475
断	-9.15586
理论	-9.15609
合	-9.15671
不到	-9.15734
内向	-9.15788
哪怕	-9.15868
知	-9.16137
把你	-9.16251
倒	-9.16251
)。	-9.16312
同时也	-9.16373
十分	-9.16392
也需要	-9.16397
和自己	-9.1641
几个	-9.16519
听到	-9.16534
糟糕	-9.16549
自己的想法	-9.16677
的选择	-9.1674
欣赏	-9.16803
过去的	-9.17017
约	-9.17077
和她	-9.17102
克服	-9.17498
万	-9.17518
被人	-9.17706
短	-9.17721
数	-9.17785
语言	-9.17853
自杀	-9.17863
职业	-9.17945
在于	-9.1795
遇见	-9.18015
任务	-9.18091
都要	-9.18197
也就是说	-9.1823
没有什么	-9.18476
勇敢	-9.18548
刺激	-9.18586
种	-9.18602
会让你	-9.18629
证明	-9.18632
会觉得	-9.18632
异性	-9.18715
引导	-9.19065
原谅	-9.19384
女孩子	-9.19432
感觉自己	-9.19435
的要求	-9.19484
一件	-9.19535
摆脱	-9.19582
没有人	-9.19613
都在	-9.19667
的环境	-9.19777
耐心	-9.1982
合理	-9.19845
充满	-9.19917
具有	-9.2003
技能	-9.20197
1.	-9.20299
自己的感受	-9.20454
缺点	-9.20456
是自己	-9.20487
珍惜	-9.20502
已	-9.20627
回家	-9.20652
他人的	-9.20675
足够	-9.20807
在这个	-9.20908
刚	-9.20921
正确的	-9.20923
作用	-9.20955
提问	-9.20995
的力量	-9.21125
见字如面	-9.21153
当初	-9.2116
看来	-9.21193
后面	-9.21361
了一个	-9.21474
相关	-9.21523
你的感受	-9.21665
要学会	-9.21742
坏	-9.21838
毕业	-9.21991
目的	-9.2205
找一个	-9.22124
记	-9.22133
做一个	-9.22157
大家都	-9.22162
的痛苦	-9.2218
。#	-9.22324
一年	-9.22325
题	-9.22339
都不	-9.22426
乱	-9.22514
信心	-9.22554
地方	-9.22572
想着	-9.22573
一生	-9.22643
信	-9.22755
接	-9.22817
留	-9.22916
适当的	-9.22954
不自信	-9.22994
睡觉	-9.23005
你也可以	-9.23022
不满	-9.23094
不行	-9.23165
知道自己	-9.2337
聊聊	-9.23458
脆弱	-9.2346
穿	-9.2348
是非常	-9.23599
中的	-9.23754
创造	-9.23764
障碍	-9.2377
祝福你	-9.23821
生理	-9.23821
懂得	-9.23849
一件事	-9.2387
只会	-9.23942
也许你	-9.23978
调	-9.24052
记忆	-9.24214
强大	-9.24253
场	-9.24387
身边的人	-9.24422
经历过	-9.24529
火	-9.24534
:1.	-9.24644
应	-9.24708
得不到	-9.24729
距离	-9.24819
一直在	-9.24903
争吵	-9.25075
做的事情	-9.25081
意味着	-9.25085
远离	-9.25127
白	-9.25162
尽管	-9.25232
负面	-9.25278
恢复	-9.25294
偶尔	-9.25295
自己的生活	-9.25381
某种	-9.25425
算	-9.25575
很少	-9.25642
水平	-9.25756
夫妻	-9.25907
拉	-9.25933
反思	-9.25996
就好了	-9.26039
一句话	-9.26069
如果我们	-9.26073
男	-9.26149
过分	-9.26149
一边	-9.26156
反复	-9.26178
我认为	-9.26192
成年人	-9.26195
希望能	-9.26326
你的问题	-9.26396
降低	-9.26439
允许自己	-9.26592
学业	-9.26602
取	-9.26659
失眠	-9.2686
童年	-9.26876
针对	-9.26942
如果没有	-9.27056
关键	-9.27112
对我	-9.272
消极	-9.27272
倾听	-9.27309
状况	-9.27364
物	-9.27383
这些问题	-9.2742
就不会	-9.27424
互动	-9.27435
大概	-9.275
陪	-9.27672
对孩子	-9.27737
4	-9.2779
安	-9.27803
过得	-9.28004
理智	-9.28051
很大的	-9.28125
了解自己	-9.28143
合适的	-9.28235
反	-9.28288
骂	-9.28385
跟他	-9.2852
然	-9.28524
找不到	-9.28561
合适	-9.2869
认为自己	-9.28781
冥想	-9.28833
平衡	-9.28885
专业的	-9.28891
青春期	-9.28932
本来	-9.29196
线	-9.29255
不然	-9.29387
丰富	-9.29416
利	-9.29447
落	-9.29454
你所	-9.29639
想一想	-9.2964
看到了	-9.29661
职场	-9.29689
20	-9.29755
大部分	-9.29766
多了	-9.29779
在家	-9.2999
祝你	-9.301
这次	-9.30189
投入	-9.30224
好好的	-9.30259
层面	-9.30299
班	-9.30302
烦躁	-9.30328
的存在	-9.30399
师	-9.30536
能不能	-9.30692
祝	-9.30745
退	-9.30814
体会	-9.3083
相信你	-9.30906
不一定	-9.30916
生存	-9.30954
基本	-9.31248
讨好	-9.31249
管理	-9.31358
边	-9.31361
字	-9.31479
例如	-9.31487
我们会	-9.31677
评判	-9.31725
将来	-9.31769
参加	-9.31843
否则	-9.31965
常常	-9.31993
送	-9.31997
机	-9.32009
步	-9.32091
方	-9.32143
无力	-9.32171
这样做	-9.32189
时期	-9.32265
这一	-9.32324
排斥	-9.32336
帮忙	-9.32354
不断的	-9.32439
主	-9.32471
依恋	-9.32557
文字	-9.32562
之所以	-9.32629
脑	-9.32672
跑	-9.3268
选择了	-9.32686
提到	-9.32791
做不到	-9.32799
为什么会	-9.3284
要么	-9.32851
好了	-9.33137
每个人都有	-9.3314
清晰	-9.33144
物质	-9.33164
阅读	-9.33261
麻烦	-9.33414
挫折	-9.33558
保护自己	-9.33612
心疼	-9.33623
现象	-9.3374
可以尝试	-9.33804
楼主可以	-9.33825
么	-9.33861
一件事情	-9.33953
按	-9.34002
品	-9.34081
有能力	-9.341
不应该	-9.34126
最好的	-9.34153
拖延	-9.3419
很多事情	-9.34292
山	-9.34303
关	-9.34361
疾病	-9.34401
刻意	-9.34421
之间的	-9.34448
实际	-9.34449
急	-9.34531
更容易	-9.34595
有一种	-9.34626
正常的	-9.34656
道理	-9.34742
所谓的	-9.348
你会发现	-9.34876
初中	-9.34912
利用	-9.34933
掌握	-9.3495
对你来说	-9.35099
边界	-9.3516
伤心	-9.35196
爱的	-9.35241
不管是	-9.35267
若	-9.35335
之中	-9.35336
时刻	-9.35377
装	-9.35378
每一个	-9.35397
许多	-9.35497
文	-9.35528
角色	-9.35573
出现了	-9.35612
如果有	-9.35665
照	-9.35749
根本	-9.35764
结合	-9.35821
事业	-9.35916
如果他	-9.36023
独处	-9.36176
也不要	-9.3624
使用	-9.36244
顺利	-9.36314
总之	-9.36362
让对方	-9.36638
恨	-9.36705
不被	-9.36801
梳理	-9.36854
别的	-9.36926
检查	-9.36934
慢	-9.37017
真的是	-9.37054
你内心	-9.37099
这段关系	-9.37116
都会有	-9.37118
的学习	-9.37129
满	-9.37129
血	-9.37144
报	-9.37174
缺少	-9.37225
件	-9.373
的家庭	-9.37319
对她	-9.37347
擅长	-9.37402
但你	-9.37473
追	-9.37552
精	-9.37618
面临	-9.37627
ta	-9.3764
的责任	-9.37672
的期待	-9.37739
只要你	-9.37748
观	-9.37802
几乎	-9.38032
看待	-9.38037
热	-9.38123
喜欢的	-9.38187
这段	-9.38254
室友	-9.38289
和他们	-9.38336
平	-9.3843
另一个	-9.38435
未	-9.38469
仔细	-9.38708
和孩子	-9.38726
冷	-9.3876
你应该	-9.38771
遗憾	-9.38844
人类	-9.38879
给我	-9.38895
喝	-9.38911
说了	-9.38929
回复	-9.3909
真诚	-9.39226
位	-9.3925
不知	-9.39271
五	-9.39303
锻炼	-9.3932
因为我们	-9.39333
看了	-9.39365
拥抱	-9.39474
题主说	-9.39476
药	-9.39529
总结	-9.39595
一辈子	-9.39666
你说的	-9.39703
久	-9.39807
的内容	-9.39843
代表	-9.39918
心理问题	-9.39944
意见	-9.39969
声音	-9.40004
死亡	-9.40063
语	-9.4021
慢慢地	-9.40225
有的时候	-9.40227
我们都	-9.40368
以下	-9.40448
~~~	-9.40484
权	-9.40496
极	-9.40518
在生活中	-9.40539
最大的	-9.40727
表达自己	-9.40806
你可能	-9.40812
单	-9.40834
承认	-9.40836
你的内心	-9.40878
看法	-9.40949
参与	-9.41019
表示	-9.41079
确实是	-9.41081
有机会	-9.41141
关系的	-9.4121
见面	-9.41229
压	-9.41233
分离	-9.41247
各	-9.41247
找个	-9.41284
。2	-9.41307
月	-9.41436
是怎样的	-9.41458
故事	-9.41531
借	-9.41573
也是一种	-9.41623
越是	-9.41674
即便	-9.41714
就不	-9.41728
和朋友	-9.4189
的信息	-9.42038
发挥	-9.42071
外在	-9.4208
小孩	-9.42424
的小	-9.42484
的意义	-9.42541
打开	-9.42561
人生的	-9.42568
去改变	-9.42734
感谢	-9.42782
这时候	-9.42788
基础	-9.42893
给孩子	-9.42894
可以试着	-9.42902
来讲	-9.42905
重要的	-9.42924
积极的	-9.4297
依靠	-9.43023
这句话	-9.43035
冷静	-9.43089
那里	-9.4314
两人	-9.43162
资源	-9.43171
重复	-9.43172
特别是	-9.43187
爱人	-9.4339
什么都	-9.43463
那么就	-9.43516
理由	-9.43824
不对	-9.43881
抗拒	-9.43925
适当	-9.43958
当成	-9.4403
这段感情	-9.44106
问问自己	-9.44131
辛苦	-9.44148
经营	-9.44195
掌控	-9.44197
色	-9.44263
并非	-9.44291
上学	-9.4431
网络	-9.44333
实际上	-9.44336
子女	-9.44389
妹妹	-9.4443
着急	-9.44525
这些事情	-9.44532
发现自己	-9.44579
总会	-9.44627
提升自己	-9.4464
哪个	-9.44724
破	-9.44796
观点	-9.44799
好朋友	-9.44895
不确定	-9.44915
。3	-9.44945
反抗	-9.45039
系统	-9.4513
发生了	-9.45205
平静	-9.45216
说说	-9.45263
优点	-9.45284
表达出来	-9.45331
我会	-9.45342
犯	-9.45345
神	-9.45395
类似	-9.45487
2.	-9.45654
半	-9.4574
什么时候	-9.45753
过往	-9.45785
满意	-9.45819
一句	-9.45832
弱	-9.45939
你的父母	-9.46069
结	-9.46074
视	-9.46094
简单的	-9.46193
人际交往	-9.46256
脾气	-9.46405
强烈	-9.46436
情绪的	-9.46457
正是	-9.46506
原来	-9.46543
失去了	-9.4661
此	-9.46768
脚	-9.46938
强迫	-9.46973
宣泄	-9.46981
爱好	-9.47036
饭	-9.47065
有一定的	-9.47085
随	-9.47133
友情	-9.47133
治愈	-9.47228
下次	-9.4732
期间	-9.47398
...	-9.47442
尴尬	-9.47519
其他的	-9.47532
再去	-9.47643
采取	-9.47643
的父母	-9.47678
全部	-9.47856
希望你能	-9.47897
了吗	-9.47933
提醒	-9.47965
让别人	-9.47969
##	-9.47976
来自于	-9.48141
养成	-9.48145
也会有	-9.48172
没什么	-9.48173
负担	-9.48232
尝试着	-9.48273
一开始	-9.48357
很难受	-9.48422
太大	-9.48424
造成的	-9.48434
在你的	-9.4849
试	-9.48542
不懂	-9.48568
背	-9.48608
也不能	-9.48617
也许是	-9.48729
自己内心	-9.48797
乐	-9.48799
上班	-9.488
怪	-9.48898
A	-9.48902
和家人	-9.48937
猜测	-9.48941
整个	-9.48943
并不能	-9.49027
的目的	-9.49048
是指	-9.49059
回忆	-9.49143
你没有	-9.49194
奶奶	-9.4927
原则	-9.49318
与他人	-9.49343
有过	-9.49367
很累	-9.4947
技巧	-9.4963
这些都是	-9.49673
没有得到	-9.49732
提前	-9.49735
温柔	-9.49778
忘记	-9.49801
平等	-9.49825
这是一个	-9.49885
去找	-9.49999
忽视	-9.50219
很痛苦	-9.50223
让你感到	-9.50232
坐	-9.50293
我在	-9.50295
告诉他	-9.50341
那么多	-9.50419
疗愈	-9.50426
不得不	-9.50472
相似	-9.50644
级	-9.50769
的反应	-9.50795
始终	-9.51006
还在	-9.512
你们之间	-9.51204
我们自己	-9.5124
可以去	-9.51256
犯错	-9.51264
有效	-9.51346
竞争	-9.51431
命	-9.51491
”“	-9.51574
对我们	-9.5158
误会	-9.51833
10	-9.51839
很想	-9.51899
看了你的描述	-9.51962
暴力	-9.52007
每天都	-9.52026
一场	-9.52057
这也	-9.52093
千	-9.52094
学历	-9.52291
明明	-9.52325
的心	-9.52355
怎么做	-9.52356
但我	-9.52358
能否	-9.52432
深入	-9.52475
时代	-9.52539
投射	-9.52659
有自己的	-9.52666
举	-9.52725
之外	-9.52758
欲望	-9.52763
不满意	-9.52799
补	-9.52894
海	-9.52907
了解到	-9.52947
的经验	-9.52979
看着	-9.53071
和他人	-9.53124
想办法	-9.53149
你提到	-9.53211
看书	-9.53234
你认为	-9.53263
出来的	-9.53341
最重要的	-9.53394
小事	-9.53415
造成了	-9.53469
遭遇	-9.5359
处在	-9.53607
为什么要	-9.53613
用心	-9.5375
嘛	-9.53763
了自己	-9.53785
勇气	-9.53792
文化	-9.53796
融入	-9.53896
前任	-9.53984
影响到	-9.54082
还能	-9.54126
共	-9.54156
呼吸	-9.5422
的焦虑	-9.54235
记住	-9.54316
这种感觉	-9.54327
那么你	-9.54461
你就会	-9.54475
是不	-9.54551
受伤	-9.54555
初	-9.54561
说你	-9.54576
づ	-9.54586
宝宝	-9.54636
问问	-9.54654
规则	-9.5482
足	-9.54827
转变	-9.54845
一些事情	-9.54929
的同时	-9.54966
记录	-9.55055
足够的	-9.55128
甚至是	-9.55162
所以我们	-9.55172
都需要	-9.55207
可以在	-9.55277
良好的	-9.55294
老板	-9.55493
在哪里	-9.5552
复杂	-9.55555
词	-9.5557
?”	-9.55571
正面	-9.55606
感受到了	-9.55664
信念	-9.55772
*	-9.55789
研究	-9.55843
保证	-9.55918
条	-9.55925
反馈	-9.5593
训练	-9.55963
那就是	-9.56052
和谐	-9.56053
走出来	-9.56282
但是我	-9.56415
觉得你	-9.56435
打算	-9.56532
怎么办	-9.56535
会让	-9.56544
之类的	-9.56599
的做法	-9.56651
你老公	-9.5676
配合	-9.56809
就需要	-9.56873
这位	-9.56876
自己喜欢的	-9.56932
的一面	-9.56978
画	-9.56998
给她	-9.57032
忽略	-9.57051
被别人	-9.57075
男孩	-9.5708
你还	-9.5713
首先要	-9.57167
恶	-9.57205
你很	-9.57225
也好	-9.57325
身心	-9.57329
坚强	-9.57348
主观	-9.57364
善良	-9.57365
较	-9.57379
那你	-9.57553
愉快	-9.57561
熟悉	-9.57618
利益	-9.5764
亲戚	-9.57662
遇到了	-9.57663
直到	-9.57668
有哪些	-9.57675
婚	-9.57761
爸爸妈妈	-9.57849
冲动	-9.57901
很正常	-9.5796
黑	-9.58001
那是	-9.58342
回报	-9.5836
因为我	-9.58417
为何	-9.58425
对话	-9.5848
闹	-9.58561
包	-9.58605
绝对	-9.58627
思考一下	-9.58698
实在	-9.58704
各自	-9.58743
都能	-9.58774
的内心	-9.588
危险	-9.58813
规律	-9.58905
聊一聊	-9.5892
存	-9.58943
符合	-9.59013
认识到	-9.59173
想起	-9.59218
在家里	-9.59242
脸	-9.59323
偏	-9.59381
左右	-9.5939
强烈的	-9.59471
厌恶	-9.59505
的意见	-9.59518
喜欢你	-9.59534
希望自己	-9.59538
一位	-9.59675
会出现	-9.59686
的同学	-9.59711
让楼主	-9.59719
羡慕	-9.5991
是什么呢	-9.5994
视频	-9.60023
的观点	-9.60039
恋人	-9.60059
争取	-9.60085
爸妈	-9.60184
查	-9.60194
不完美	-9.60201
挽回	-9.60211
老婆	-9.60257
专注	-9.60283
与其	-9.6029
阳光	-9.60321
正在	-9.60325
可以选择	-9.60338
被动	-9.60356
出生	-9.60408
如果对方	-9.60448
闺蜜	-9.60523
一方	-9.60547
世界上	-9.60559
重点	-9.60568
切	-9.6057
存在的	-9.60572
把自己的	-9.60628
现状	-9.60676
第	-9.60701
原	-9.60701
还没	-9.60734
失	-9.60798
还需要	-9.60869
弥补	-9.61016
他会	-9.61017
友谊	-9.61042
坚定	-9.61043
。*	-9.61078
相反	-9.61091
谈谈	-9.6125
成就	-9.61319
类型	-9.61394
表	-9.61412
评估	-9.61419
的价值	-9.61462
大多数	-9.61472
参考	-9.61496
收	-9.61513
你们的	-9.61526
某个	-9.61693
行业	-9.61719
几次	-9.61757
味	-9.618
合理的	-9.61803
你是否	-9.6183
段	-9.61854
假	-9.61879
是正常的	-9.61884
节	-9.61956
自信心	-9.61972
激情	-9.62123
1、	-9.62199
百	-9.62222
细节	-9.62236
作业	-9.62322
依旧	-9.62341
这样的情况	-9.62405
特殊	-9.62438
奖励	-9.62447
救	-9.62492
的伤害	-9.62507
推荐	-9.62554
大人	-9.62603
过来	-9.6261
的理由	-9.62658
与人	-9.62717
的建议	-9.6273
自身的	-9.62782
留下	-9.62862
真的很	-9.6299
何	-9.63012
明显	-9.63037
6	-9.63099
一部分	-9.63147
道歉	-9.63162
好处	-9.63162
度过	-9.6328
的习惯	-9.63304
话题	-9.63419
在一个	-9.63434
长大了	-9.63484
排	-9.635
的优点	-9.6352
善	-9.63615
是如何	-9.63662
的动力	-9.63711
的发展	-9.63756
作为一个	-9.63768
会产生	-9.63783
世	-9.63835
价值感	-9.63866
发脾气	-9.63945
的好	-9.63951
我们在	-9.63959
长辈	-9.64061
的权利	-9.64109
这是一种	-9.64115
有限	-9.64131
不那么	-9.64133
着你	-9.64134
尽快	-9.64149
有问题	-9.64204
陌生人	-9.6425
你们的关系	-9.64296
妈妈的	-9.64347
关系中	-9.64377
把它	-9.64401
减轻	-9.64418
生病	-9.64495
人际	-9.64538
的困扰	-9.64557
可能你	-9.64579
对别人	-9.64589
马上	-9.6462
实践	-9.64621
愉悦	-9.64622
中国	-9.64632
收入	-9.64634
负	-9.64654
更多的是	-9.64791
疲惫	-9.64821
相应的	-9.64863
的恐惧	-9.64885
金	-9.64894
经	-9.64907
体会到	-9.6492
的评价	-9.64937
成长的	-9.65021
带给	-9.65091
是什么样的	-9.6517
找到自己	-9.65177
的变化	-9.65181
年轻	-9.65278
人家	-9.65339
校	-9.65351
两年	-9.65386
照顾好自己	-9.65398
显得	-9.65437
你的想法	-9.65455
句	-9.65575
赚钱	-9.65583
题主的	-9.65606
是一件	-9.65677
突破	-9.65773
平台	-9.65824
探讨	-9.65856
日常	-9.65872
这不是	-9.65956
如果真的	-9.66064
的方向	-9.66141
欲	-9.66162
比你	-9.66188
高三	-9.66189
自尊	-9.66212
眼里	-9.66232
价值观	-9.66399
金钱	-9.66399
增强	-9.6654
老人	-9.66583
听听	-9.66619
勇敢的	-9.66633
未来的	-9.66648
其实你	-9.66687
你想要	-9.66703
定义	-9.6673
部	-9.66805
天天	-9.66895
:1	-9.669
孤单	-9.66922
我自己	-9.66937
表白	-9.6709
我知道	-9.67095
紧	-9.67136
每个人的	-9.67138
复习	-9.67199
念	-9.67228
代	-9.67303
优势	-9.67329
周	-9.67366
现	-9.67638
对此	-9.67646
的努力	-9.67681
制	-9.67731
诊断	-9.67763
题主可以	-9.67861
层	-9.67867
这个过程	-9.67941
。1.	-9.67969
思	-9.67973
同性恋	-9.68012
修	-9.68046
轻	-9.68055
夜	-9.68117
患者	-9.68217
战	-9.68328
底	-9.68424
自己的人生	-9.68482
打破	-9.68514
样	-9.68652
不住	-9.68658
内在的	-9.68692
是怎么	-9.68695
题主您好	-9.68711
形	-9.68773
的方式来	-9.68775
让你觉得	-9.68849
确认	-9.68872
可以看出	-9.68905
疫情	-9.68954
曾	-9.69065
怀孕	-9.6928
当下的	-9.69346
双	-9.69384
给我们	-9.69505
制定	-9.6966
食	-9.69678
技术	-9.6969
不爱	-9.69751
在学校	-9.69811
硬	-9.69855
循环	-9.69895
刚开始	-9.69897
的婚姻	-9.69899
必须要	-9.69945
因为他	-9.69985
缺乏安全感	-9.70055
这种状态	-9.70059
给出	-9.70081
分析一下	-9.70084
这就	-9.70355
亲近	-9.70378
30	-9.70392
什么事情	-9.70469
不好的	-9.70485
在心里	-9.70488
可以先	-9.70496
之一	-9.70515
说过	-9.70521
搞	-9.70542
与父母	-9.70563
极端	-9.70567
翻	-9.70568
缺	-9.70715
会更	-9.70772
舍友	-9.70811
优秀的	-9.70863
你说你	-9.70954
不合适	-9.70966
a	-9.70968
保	-9.70992
的一部分	-9.71008
年纪	-9.71076
失落	-9.71082
啥	-9.71165
过了	-9.71207
改变的	-9.71224
长久	-9.71338
消耗	-9.71355
自律	-9.71355
限制	-9.71375
第四	-9.71429
也可能	-9.71481
去看	-9.71506
一条	-9.71513
等待	-9.71526
给了	-9.71563
暴露	-9.71574
不良	-9.71634
是最	-9.71651
爆发	-9.71657
式	-9.7168
没有任何	-9.71714
会被	-9.7177
好奇	-9.71822
或许是	-9.71824
不理解	-9.71838
吵	-9.71881
肯定是	-9.71883
有一天	-9.71911
消失	-9.72008
只不过	-9.72025
慢慢来	-9.72027
经历了	-9.72037
洗	-9.72219
可以多	-9.72349
剧	-9.72415
舒适	-9.72538
是真的	-9.72591
就是你	-9.72592
房	-9.72638
难道	-9.72762
想过	-9.72801
非常的	-9.729
的体验	-9.72966
张	-9.72996
不愉快	-9.7304
假设	-9.73047
所谓	-9.73088
给对方	-9.7311
几年	-9.73118
在这	-9.73135
劝	-9.73138
绝望	-9.73154
这点	-9.73154
楼主你好呀	-9.73156
苦恼	-9.73181
把握	-9.73188
和感受	-9.73222
言语	-9.73228
假如	-9.73234
特点	-9.733
医院	-9.73334
就有	-9.73409
与自己	-9.7343
可以理解	-9.73458
要知道	-9.73487
成就感	-9.7361
理解你	-9.73616
怀疑自己	-9.7365
什么是	-9.73673
有趣	-9.73778
尽力	-9.73834
小孩子	-9.73843
沉	-9.74046
促进	-9.74081
转移注意力	-9.74105
崩溃	-9.74194
你的情绪	-9.74198
逻辑	-9.74207
有多	-9.74214
有助于	-9.74248
对比	-9.7426
公	-9.74288
方面的	-9.74419
当做	-9.74423
今年	-9.74487
欺负	-9.74496
B	-9.74525
要不要	-9.74553
办	-9.74554
和妈妈	-9.74567
注意力	-9.74625
在自己	-9.74628
奋斗	-9.74667
在面对	-9.74885
了呢	-9.74897
动物	-9.74898
任何人	-9.75049
论	-9.75172
有帮助	-9.75218
国	-9.75227
转移	-9.75281
宿舍	-9.75362
乐观	-9.7545
又是	-9.75528
做好自己	-9.75561
内心深处	-9.75587
商量	-9.75654
维护	-9.75755
询问	-9.75772
我是	-9.7578
我觉得你	-9.75841
必然	-9.75894
分钟	-9.75926
同样的	-9.75951
更好地	-9.75958
热情	-9.75964
稍微	-9.75966
惩罚	-9.76053
单位	-9.7606
太过	-9.76084
可以从	-9.76148
。1、	-9.76205
情况下	-9.76214
群体	-9.76218
三个	-9.76266
工	-9.76284
担心自己	-9.7639
恋	-9.76404
这是你	-9.76416
下面	-9.76476
科学	-9.76482
有一点	-9.76506
马	-9.76526
承诺	-9.76647
看不到	-9.76676
忍	-9.76702
寻求帮助	-9.76719
共情	-9.76727
后果	-9.76824
这个事情	-9.76827
你是一个	-9.7687
所在	-9.76924
更有	-9.76954
忍受	-9.76989
唯一	-9.77066
的声音	-9.77107
不清楚	-9.77148
弄	-9.77161
不是很	-9.7717
就像是	-9.77189
的呢	-9.77209
:(1)	-9.77236
感恩	-9.77279
和行为	-9.77284
的意思	-9.77291
活在	-9.77329
自己也	-9.77363
归	-9.77414
害	-9.77499
演	-9.77556
去解决	-9.77602
不太好	-9.77655
成人	-9.77694
招	-9.77714
容	-9.77742
差异	-9.77752
相亲	-9.77758
威胁	-9.77846
片	-9.77929
养育	-9.77984
被爱	-9.78067
外向	-9.78101
这样的人	-9.78106
不错的	-9.78119
在我们	-9.78136
多一些	-9.78174
的作用	-9.78182
走向	-9.78197
来源于	-9.78203
修复	-9.78206
但是我们	-9.78221
表现出	-9.78237
会让我们	-9.7831
占	-9.78345
这些都	-9.78374
交朋友	-9.78374
心灵	-9.78393
皮	-9.78424
的沟通	-9.78469
诉说	-9.7855
如果说	-9.78629
然后再	-9.78691
周围	-9.78748
过的	-9.7877
一步	-9.78787
彻底	-9.78788
达成	-9.78845
原本	-9.78911
怀	-9.78938
祝福	-9.78939
成了	-9.78998
直	-9.79
嫌弃	-9.79025
姑娘	-9.7903
早日	-9.79103
和我	-9.79128
去寻找	-9.79148
去学习	-9.7916
事实上	-9.79239
望	-9.79394
领域	-9.7941
令人	-9.79435
我很	-9.79563
处理好	-9.79571
对抗	-9.79589
做决定	-9.79597
复	-9.79602
给你带来	-9.79637
可以说	-9.79658
缘	-9.79661
群	-9.797
s	-9.79765
特征	-9.79768
率	-9.79776
加上	-9.79794
的标准	-9.79833
跟她	-9.79926
不适	-9.80023
发生的	-9.80067
源	-9.80119
潜意识里	-9.80122
果	-9.80191
助	-9.80214
不代表	-9.80235
但如果	-9.80379
心理医生	-9.80502
不错	-9.80507
导致的	-9.80563
衣服	-9.80569
可能需要	-9.80579
所说的	-9.80621
表明	-9.80636
淡	-9.80671
没有必要	-9.80672
放心	-9.80742
e	-9.80867
不愿	-9.8092
充分	-9.80938
或许你	-9.8097
备	-9.80971
面子	-9.80995
失恋	-9.81012
热爱	-9.81077
到你	-9.81081
是谁	-9.81239
从中	-9.81317
暗示	-9.81343
母亲的	-9.8135
错了	-9.8138
三年	-9.81404
烦	-9.81468
停止	-9.81506
以至于	-9.81523
平常	-9.81585
无奈	-9.81586
如果不	-9.81601
家里人	-9.81603
双方都	-9.81604
愧疚	-9.81687
轻易	-9.81698
当自己	-9.81759
7	-9.81807
的世界	-9.81834
电影	-9.81879
和解	-9.82126
性别	-9.82133
邀请	-9.82162
逼	-9.82291
症	-9.82345
一致	-9.82371
体现	-9.82399
曾经的	-9.82492
试着去	-9.82492
特质	-9.82501
哥哥	-9.82504
刚刚	-9.8253
看你	-9.82545
取得	-9.82558
是比较	-9.82572
这方面	-9.826
不断地	-9.8262
身边的	-9.82674
婴儿	-9.82716
回去	-9.82752
要是	-9.82755
本能	-9.82785
了你的	-9.82911
的话题	-9.82915
说什么	-9.82954
当前	-9.8296
现在的你	-9.83107
冲	-9.83109
「	-9.83242
称	-9.83245
」	-9.83247
学着	-9.83297
此时	-9.83362
己	-9.83369
的背后	-9.83486
漂亮	-9.83495
普遍	-9.83519
『	-9.83529
内疚	-9.83583
安心	-9.83692
隔	-9.83713
』	-9.83784
不起	-9.8379
是对的	-9.83815
需要你	-9.8392
的对象	-9.83925
所以我	-9.83973
他说	-9.83982
的路	-9.8399
神经	-9.84014
才有	-9.84054
的付出	-9.84081
里的	-9.84129
折磨	-9.84133
阻碍	-9.8415
元	-9.84151
在这个过程中	-9.84238
长时间	-9.84239
古	-9.84271
发生了什么	-9.84318
列	-9.84369
前进	-9.84376
任	-9.84474
我现在	-9.84496
进去	-9.84585
自己的问题	-9.84612
的决定	-9.84621
准	-9.84715
抱抱题主	-9.84737
可以考虑	-9.84739
辞职	-9.84801
深呼吸	-9.84851
静	-9.84857
很高兴	-9.84914
和男友	-9.84949
合作	-9.84986
彼此的	-9.84992
值	-9.85012
圈子	-9.85071
渐渐	-9.85137
独自	-9.85235
给别人	-9.85287
无法改变	-9.85323
感兴趣	-9.85323
是要	-9.85361
也没	-9.8537
兴趣爱好	-9.85394
多大	-9.85407
单纯	-9.85421
不值得	-9.85423
冷漠	-9.85431
我们每个人	-9.85436
我可以	-9.85449
反感	-9.8545
愿你	-9.85505
什么呢	-9.85559
严格	-9.85564
动作	-9.85621
一时	-9.85686
磨合	-9.85799
那个时候	-9.85804
困	-9.85855
的知识	-9.8593
家庭的	-9.86055
还是会	-9.86074
成年	-9.86103
一个问题	-9.86107
母	-9.86122
动机	-9.86164
令	-9.86253
功能	-9.86259
脱离	-9.86306
要有	-9.86406
去思考	-9.86412
消除	-9.86413
是因为你	-9.86464
思路	-9.86551
醒	-9.86576
安静	-9.86599
干扰	-9.86618
差不多	-9.86643
可能是因为	-9.86661
都不是	-9.86668
多久	-9.86686
喜欢的人	-9.86716
你一定	-9.86779
课程	-9.86779
男女	-9.8686
有些事情	-9.8687
除	-9.86904
程	-9.86951
工资	-9.86996
超过	-9.87009
树	-9.87122
放大	-9.87212
没必要	-9.8724
上课	-9.87378
%	-9.87388
根	-9.87417
易	-9.87489
的那种	-9.87656
要去	-9.87657
有这样的	-9.87727
意思	-9.87774
▁	-9.87789
善于	-9.87825
这段时间	-9.8783
八	-9.87923
我想你	-9.87993
倾向	-9.88024
源于	-9.88037
代价	-9.88056
智慧	-9.88058
让您	-9.88085
~~	-9.88117
的因素	-9.88127
带给你	-9.88136
电话	-9.88165
还有很多	-9.88256
岗位	-9.88267
主要是	-9.88314
笔	-9.88323
过多的	-9.88331
工作中	-9.88484
我们就	-9.88515
试试	-9.88542
的支持	-9.88605
透	-9.88614
众	-9.88628
非常理解你的心情	-9.88656
杀	-9.88667
药物	-9.88673
计	-9.88697
天生	-9.88742
很喜欢	-9.88768
外界的	-9.88785
一切都	-9.88791
局	-9.88796
强势	-9.88864
这部分	-9.88932
替	-9.88953
。4、	-9.88972
细	-9.89033
激发	-9.89074
其它	-9.89104
权威	-9.89119
这么多	-9.89144
微信	-9.89214
刷	-9.89238
那么我们	-9.89264
会影响	-9.89306
号	-9.89318
我感觉	-9.89343
意识到自己	-9.89406
的空间	-9.89424
要想	-9.89457
是很正常的	-9.89491
嗯	-9.89496
一段感情	-9.8952
是对	-9.8952
我个人	-9.89552
跳	-9.89621
我要	-9.89665
的成长	-9.89667
误解	-9.89672
毫无	-9.89697
图	-9.89734
一个人的	-9.89746
目前的	-9.89755
浪费	-9.8979
形式	-9.89851
纸	-9.89927
最重要的是	-9.89929
又会	-9.8994
痛苦的	-9.89942
也在	-9.89945
看重	-9.89959
进而	-9.90012
和焦虑	-9.90073
靠近	-9.90131
想要改变	-9.9022
疑惑	-9.90221
给你温暖的抱抱	-9.90249
很快	-9.90272
欺骗	-9.90327
妥协	-9.90337
介意	-9.90358
更重要	-9.90374
整	-9.90394
散	-9.90403
的答案	-9.90415
劲	-9.9043
所有人	-9.90474
这些情绪	-9.90512
贴	-9.9054
是我	-9.90542
调整自己	-9.90544
绝	-9.90557
】1.	-9.90567
否定自己	-9.90591
认识自己	-9.90597
生活中的	-9.90607
脱	-9.90611
危机	-9.90621
是他	-9.90719
问题的	-9.9072
真实的自己	-9.90725
日子	-9.90858
特	-9.90861
都不会	-9.90889
去尝试	-9.90892
叫做	-9.90906
练	-9.9092
业	-9.90969
表面	-9.90996
范围	-9.90999
中间	-9.91
试图	-9.9102
犹豫	-9.9103
破坏	-9.91037
几天	-9.91048
同性	-9.91128
关怀	-9.91151
质	-9.91191
界限	-9.91346
谁都	-9.91348
老师的	-9.91357
之下	-9.91401
产	-9.91425
法律	-9.9143
为此	-9.9144
证	-9.91521
的年龄	-9.91623
但又	-9.91664
树立	-9.9171
治	-9.91725
自私	-9.91738
。(2)	-9.91797
的角色	-9.91826
不知道怎么	-9.91837
困境	-9.91851
谢谢	-9.91856
很有	-9.91926
影响了	-9.91998
做过	-9.92005
等到	-9.92009
上了	-9.92025
的矛盾	-9.92044
风险	-9.9209
房子	-9.92117
不要太	-9.9212
前面	-9.92133
挑	-9.92227
。4.	-9.92316
大的	-9.92346
消息	-9.92368
不适应	-9.92412
之间的关系	-9.92418
帮助自己	-9.92459
的故事	-9.92481
没有那么	-9.92511
不是你	-9.92511
止	-9.92545
多么	-9.92573
也是一个	-9.9259
不公平	-9.92649
随时	-9.92676
这么做	-9.92684
很久	-9.92704
书籍	-9.92756
可以找	-9.928
够	-9.92816
和想法	-9.9283
想改变	-9.92923
飞	-9.92949
优	-9.92952
看完	-9.9297
去想	-9.92998
但也	-9.92999
男孩子	-9.93078
干涉	-9.9308
外部	-9.931
充实	-9.93104
站	-9.93121
这份工作	-9.93154
的理解	-9.93267
你希望	-9.93268
压力大	-9.93307
呈现	-9.93322
一下自己	-9.93373
都很	-9.9339
的成绩	-9.93417
缺失	-9.93434
看到自己	-9.93503
从小到大	-9.93503
多次	-9.93511
将自己	-9.93521
过多	-9.93557
极度	-9.93652
形成了	-9.93682
8	-9.93739
他是	-9.93756
周围的人	-9.9377
快速	-9.93789
说的话	-9.93841
音乐	-9.93895
你的描述	-9.93979
导致你	-9.93983
是你的	-9.94023
考验	-9.94087
自残	-9.94093
从你	-9.94103
他也	-9.94106
先给楼主一个抱抱	-9.94111
出门	-9.94144
异	-9.9415
不是吗	-9.94189
酒	-9.94205
尤其	-9.94248
告诉她	-9.94256
顺	-9.94279
两种	-9.94298
嘴	-9.94322
身份	-9.94331
并不会	-9.94373
本人	-9.9438
玩手机	-9.9443
去了解	-9.94475
o	-9.94476
幸福的	-9.9448
有用	-9.94487
自主	-9.94524
的美好	-9.94585
效应	-9.94626
综合	-9.94632
很棒	-9.94634
敢于	-9.94728
就可以了	-9.94743
幸	-9.94754
到底是	-9.94778
超	-9.94875
变成了	-9.94908
能做到	-9.94923
巨大的	-9.94925
场合	-9.94934
会更加	-9.94939
仅仅是	-9.94943
传	-9.94963
越来越好	-9.94981
时光	-9.95017
的思维	-9.9503
丧失	-9.95057
不幸	-9.95082
属于自己的	-9.95089
就没有	-9.95128
出发	-9.95151
知道你	-9.95162
效	-9.9525
斯	-9.95315
的位置	-9.95347
机制	-9.9535
胡思乱想	-9.95356
不在	-9.95399
而不	-9.95459
持	-9.95464
之处	-9.95471
那时候	-9.95488
相爱	-9.95606
注意到	-9.95607
仿佛	-9.95621
好好地	-9.95637
和老公	-9.95691
对你有	-9.9574
往往是	-9.95748
放不下	-9.95807
爱他	-9.95815
的模式	-9.95889
做的事	-9.95916
了解一下	-9.95989
敢	-9.95993
如果自己	-9.95995
这个阶段	-9.96099
没法	-9.96127
每一次	-9.96162
相关的	-9.96171
会很	-9.96171
了一些	-9.9618
不仅仅是	-9.96199
暧昧	-9.96212
向你	-9.96228
伤害自己	-9.96234
的可能性	-9.96287
沟通一下	-9.9631
防御	-9.96345
使得	-9.96374
不能接受	-9.96408
形象	-9.96454
自己的价值	-9.96455
头脑	-9.96476
不论	-9.96501
陌生	-9.96527
客	-9.96579
接受自己	-9.96618
你又	-9.96661
学习的	-9.9672
稳定的	-9.96729
解读	-9.96787
找工作	-9.96789
就会有	-9.96794
希望能够	-9.9682
难度	-9.96895
之前的	-9.96899
多年	-9.96949
说不定	-9.96986
背景	-9.97068
花钱	-9.97072
复合	-9.97085
没有安全感	-9.97149
最大	-9.97161
楼主说	-9.97197
出于	-9.97206
摆	-9.97309
的错误	-9.97422
六	-9.97427
好感	-9.97454
看到你的	-9.97459
从事	-9.97476
去医院	-9.97483
这个世界上	-9.97501
我能	-9.97526
觉	-9.9753
小学	-9.97597
可怕	-9.97624
化解	-9.9766
费	-9.97672
故意	-9.97709
优秀的人	-9.97726
拍	-9.97739
的创伤	-9.97888
正如	-9.9789
投	-9.97913
梦想	-9.97994
对他们	-9.98007
今后	-9.98017
希望我的	-9.98165
外面	-9.98165
给自己一个	-9.98224
显然	-9.98239
高兴	-9.98321
比较好	-9.98387
忘	-9.98456
消	-9.9851
出了	-9.98514
底线	-9.98563
打扰	-9.98574
看似	-9.98576
哈	-9.98703
建议楼主	-9.98729
闲	-9.98734
争	-9.98778
不说	-9.98828
自己内心的	-9.98885
这种情绪	-9.98918
最初	-9.98948
衡量	-9.9898
圈	-9.98987
是想	-9.98994
跟着	-9.99093
就是这样	-9.99115
预	-9.99196
也不知道	-9.99241
心思	-9.99249
究竟	-9.99271
具备	-9.99275
的一切	-9.99286
坦诚	-9.99301
因为他们	-9.99302
没人	-9.99317
害怕自己	-9.99394
深深的	-9.99399
和母亲	-9.99403
却是	-9.99471
总有	-9.99473
的办法	-9.9962
重要的是	-9.99681
卡	-9.9969
本身就	-9.9971
请你	-9.99718
排解	-9.9976
的女生	-9.99763
至	-9.99864
健康的	-9.99866
的程度	-9.99935
看得出来	-9.99938
习惯了	-10.0001
效率	-10.0002
强迫症	-10.0005
你目前	-10.0005
找出	-10.0007
明天	-10.0014
你妈妈	-10.0015
疗法	-10.0021
隐藏	-10.0021
但这	-10.0027
很多的	-10.0033
抱抱你呀	-10.0034
得到了	-10.0035
超越	-10.0038
用来	-10.004
在他	-10.005
有利于	-10.0058
自己的能力	-10.006
单身	-10.0066
说我	-10.0069
和人	-10.0069
你心里	-10.0076
跟别人	-10.0082
的困惑	-10.0084
就是一个	-10.0085
此刻	-10.0088
对未来	-10.009
忍不住	-10.0094
聚	-10.0105
自己喜欢	-10.0107
使你	-10.0107
可以看出你	-10.0115
异地	-10.0116
有力量	-10.0117
对于你	-10.0123
想清楚	-10.0136
具体的	-10.0136
的勇气	-10.0138
学到	-10.0156
这种行为	-10.0159
一个月	-10.0165
你的朋友	-10.0173
的爱情	-10.0178
坚持下去	-10.0181
前男友	-10.0182
集体	-10.0185
回归	-10.0188
能理解	-10.0188
自恋	-10.0192
减	-10.0193
受到了	-10.0193
心理上	-10.0195
跑步	-10.02
根据你的描述	-10.0201
不信任	-10.0206
未必	-10.0209
好多	-10.021
不适合	-10.0212
青春	-10.0216
带孩子	-10.0218
的思想	-10.0219
不知道如何	-10.0223
自己身上	-10.0227
他们会	-10.0229
同意	-10.023
做些什么	-10.0237
混	-10.0242
有效的	-10.0248
不要因为	-10.0252
击	-10.0254
没关系	-10.0254
遭受	-10.0261
就开始	-10.0268
另	-10.0274
旧	-10.0275
的关注	-10.0275
就越	-10.0277
的是什么	-10.0281
明确的	-10.0283
很高	-10.0284
丑	-10.0292
引发	-10.0294
但是如果	-10.0305
减肥	-10.0305
不一样的	-10.0308
在此	-10.0308
妈	-10.0317
的专业	-10.0318
自慰	-10.0319
无聊	-10.0321
碰到	-10.0323
仅仅	-10.0325
艰难	-10.033
在这样的	-10.0342
。**	-10.0343
的那个	-10.0344
和理解	-10.0348
我不知道	-10.0348
该如何	-10.0349
支撑	-10.0352
安抚	-10.0352
的日子	-10.0354
抛弃	-10.0355
就业	-10.0355
什么样	-10.0361
体验到	-10.0362
第一个	-10.0366
你真的	-10.0367
强化	-10.0367
的咨询师	-10.0368
写下来	-10.0368
和情绪	-10.0376
启发	-10.038
顶	-10.0384
幸运	-10.0384
答应	-10.0384
项	-10.0388
没有错	-10.0392
无关	-10.0395
的自我	-10.0398
父亲的	-10.0405
意外	-10.0411
再加上	-10.0414
现实中	-10.0425
熟	-10.0426
所有人都	-10.0428
区别	-10.0432
哪怕是	-10.0433
迷	-10.0443
良好	-10.0452
情绪低落	-10.0454
狗	-10.0459
会对	-10.0459
看到的	-10.0463
接近	-10.0465
才能够	-10.0465
看看自己	-10.0466
做事情	-10.0471
职	-10.0473
红	-10.0473
份	-10.0478
贬低	-10.0479
年轻人	-10.048
也无法	-10.0484
息	-10.0488
怎样的	-10.0492
质疑	-10.0493
产生的	-10.0494
哪些是	-10.0498
周围人	-10.051
真是	-10.0511
如果你觉得	-10.0514
抱	-10.0514
还是有	-10.0517
人在	-10.0517
自然会	-10.0523
由此	-10.0527
这里面	-10.0528
国家	-10.0528
胜	-10.0537
不要去	-10.054
差距	-10.0541
套	-10.0547
跟自己	-10.0547
会因为	-10.0548
正视	-10.055
好好学习	-10.0551
的烦恼	-10.0552
改正	-10.0561
顾虑	-10.0565
的阶段	-10.0571
的期望	-10.0576
普通	-10.0578
人生中	-10.0578
喜	-10.0579
连接	-10.0583
。)	-10.0584
预期	-10.0584
嘲笑	-10.0589
顺其自然	-10.0589
相比	-10.0589
也可能是	-10.0595
三观	-10.0595
交给	-10.0599
可以用	-10.0604
生命的	-10.0605
抱着	-10.0615
心中的	-10.0617
获取	-10.0619
束缚	-10.0619
你的情况	-10.062
念头	-10.0623
立	-10.0625
成为一个	-10.0626
该怎么办	-10.063
传统	-10.0633
朋友圈	-10.0635
过后	-10.0635
去看看	-10.0635
不做	-10.0636
太多的	-10.0637
这一切	-10.0638
考虑到	-10.0639
很开心	-10.0645
的任务	-10.0656
菜	-10.0656
一颗	-10.0669
很有可能	-10.0669
类似的	-10.0674
白天	-10.0677
变好	-10.0679
你内心的	-10.0682
静下心来	-10.0684
自己想要的	-10.069
的相处	-10.0693
能接受	-10.0693
广	-10.0696
亮	-10.0697
聪明	-10.0697
哄	-10.0698
随便	-10.0701
小时	-10.0703
很多人都	-10.0708
没那么	-10.0712
赶	-10.0714
网上	-10.0724
仅	-10.0726
‘	-10.073
蛮	-10.0733
你想要的	-10.0738
这只是	-10.0744
因为自己	-10.0745
会导致	-10.0754
是没有	-10.0754
各种各样的	-10.0759
影	-10.0759
藏	-10.0762
估计	-10.0766
但其实	-10.0769
’	-10.0778
那个人	-10.0783
服	-10.0786
希望对你有所帮助	-10.0787
暗	-10.0789
员	-10.0789
的状况	-10.0789
奔	-10.0796
说到	-10.0796
饮食	-10.0797
城市	-10.08
证明自己	-10.08
不知道题主	-10.0803
是你自己	-10.0807
楼主您好	-10.0808
娱乐	-10.081
友	-10.081
体谅	-10.0812
呆	-10.0813
干预	-10.082
贵	-10.0821
餐	-10.0826
阴影	-10.0829
黑暗	-10.0829
忽略了	-10.083
可见	-10.0836
居	-10.0841
所以在	-10.0841
熬夜	-10.0848
科	-10.0849
千万不要	-10.0854
不算	-10.0855
理解和	-10.0861
店	-10.0862
了解你	-10.0875
替代	-10.0877
在我看来	-10.0878
形成的	-10.0878
需要去	-10.0879
一些问题	-10.0884
但我们	-10.0888
了自己的	-10.089
我不	-10.0891
些什么	-10.0892
抵触	-10.0893
低落	-10.0894
可以说是	-10.0895
导致了	-10.0897
不要再	-10.0898
来了	-10.0899
做朋友	-10.0899
整理	-10.0902
象	-10.0902
商	-10.0903
我想说	-10.0905
岁的	-10.0908
凭	-10.0909
你都	-10.091
的认可	-10.0919
友好	-10.0919
不得	-10.0923
经常会	-10.0924
匹配	-10.0924
展现	-10.0928
想要的	-10.0929
重大	-10.0936
很难过	-10.0937
个月	-10.0938
罪	-10.0943
的注意力	-10.0944
背叛	-10.0944
交友	-10.0946
反而会	-10.0955
完美的	-10.0957
宝贝	-10.0957
平和	-10.0958
你的生活	-10.0964
损失	-10.0968
独	-10.0969
电	-10.0973
疼	-10.0976
会发现	-10.0979
玩游戏	-10.0983
的交流	-10.0986
这时	-10.0991
抑郁情绪	-10.1004
悲观	-10.1009
是一个很	-10.1015
上进	-10.1017
满足自己	-10.1018
对题主	-10.1021
余	-10.1022
球	-10.1025
情境	-10.1027
半年	-10.1033
本身就是	-10.1034
的念头	-10.1041
不允许	-10.1048
关心你	-10.1051
建议题主	-10.1052
缓	-10.1054
了什么	-10.1059
途径	-10.1062
礼物	-10.1063
的缺点	-10.1065
l	-10.1071
变得更好	-10.1073
不重要	-10.108
的改变	-10.108
成为了	-10.1081
许	-10.1085
不够好	-10.109
是很难	-10.1091
梳理一下	-10.1093
的观念	-10.1095
!(^_-)	-10.1097
抓	-10.1099
总是会	-10.1102
排除	-10.1111
疑问	-10.1113
会让人	-10.1118
只是一个	-10.1119
也许会	-10.1119
引	-10.1122
防	-10.1123
自卑感	-10.1131
面试	-10.1132
喜欢他	-10.1134
焦虑和	-10.1139
更大	-10.1143
更大的	-10.1143
精彩	-10.1144
找回	-10.1145
正念	-10.1146
作出	-10.1153
解决的	-10.1159
考上	-10.1159
找到一个	-10.1161
强迫自己	-10.1163
亲情	-10.1169
肯定会	-10.1174
挣扎	-10.1175
冷静下来	-10.1179
好坏	-10.1185
存在着	-10.1185
可能性	-10.1187
·	-10.1191
总觉得	-10.1191
胖	-10.1192
而非	-10.1192
好吗	-10.1193
不大	-10.1196
情商	-10.1197
会感到	-10.1197
的处境	-10.1204
对对方	-10.1204
巴	-10.1206
并不代表	-10.1207
跟父母	-10.1209
什么样的人	-10.121
食物	-10.1215
。——	-10.1221
往往会	-10.1224
▲	-10.1225
沉默	-10.1226
咱们	-10.1226
一段关系	-10.1236
本来就	-10.1238
对错	-10.124
外人	-10.124
是否可以	-10.1241
理解自己	-10.1241
端	-10.1242
告知	-10.1244
自己在	-10.1249
爱和	-10.1254
好友	-10.1254
懂事	-10.1254
介绍	-10.1261
比较大	-10.1262
暴躁	-10.1268
多多	-10.127
守	-10.1272
就已经	-10.1272
反对	-10.1275
可以把	-10.1276
牺牲	-10.1276
链接	-10.1278
随意	-10.1282
命运	-10.1287
给楼主	-10.1291
乖	-10.1293
攻击性	-10.1298
顾	-10.1301
眼睛	-10.1305
而感到	-10.1306
眼中	-10.1307
微笑	-10.1311
的现象	-10.1318
你知道	-10.1318
有多少	-10.1322
领	-10.1323
额	-10.1327
恋情	-10.133
画画	-10.1331
同情	-10.1331
走了	-10.1334
看一下	-10.134
说自己	-10.1341
大胆	-10.1346
遍	-10.1352
拖	-10.1357
你觉得自己	-10.1361
自己去	-10.1372
也只是	-10.1372
努力的	-10.1374
激励	-10.138
区	-10.1382
基于	-10.1382
手段	-10.1384
如果楼主	-10.1387
的身体	-10.1392
心动	-10.1394
说不	-10.1395
不出	-10.1397
普通人	-10.1397
见到	-10.14
只是你	-10.14
要注意	-10.1404
自我成长	-10.1404
是好的	-10.1417
锁	-10.1429
印象	-10.143
的女孩	-10.1431
点赞	-10.1431
严重的	-10.1432
只有自己	-10.1432
从你的	-10.1435
适合自己的	-10.1437
心理学家	-10.1441
学习和	-10.1447
设置	-10.1448
这都是	-10.1455
嫁	-10.1455
魅力	-10.1456
自己的行为	-10.1457
向往	-10.1458
无限	-10.1463
定位	-10.1463
未知	-10.1464
TA	-10.1464
含	-10.1464
对于自己	-10.1465
感同身受	-10.1468
从描述中可以了解到	-10.1469
靠自己	-10.1472
否认	-10.1478
德	-10.1481
开朗	-10.1484
注重	-10.1485
这样的状态	-10.1486
放手	-10.1492
的愿望	-10.1501
我相信你	-10.1503
还是需要	-10.1504
看过	-10.151
二是	-10.1514
是吗	-10.1514
员工	-10.1519
请求	-10.1525
板	-10.153
赚	-10.1531
王	-10.1533
可能就是	-10.1533
人群	-10.1537
到现在	-10.1539
会在	-10.1541
非常重要	-10.1547
更是	-10.1549
是会	-10.155
缩	-10.1551
加强	-10.1553
一项	-10.1553
善意	-10.1555
一个小	-10.1556
一点点分析和建议	-10.1556
格	-10.1557
过去了	-10.1557
描述中	-10.156
焦虑不安	-10.156
需要我们	-10.1562
收到	-10.1564
卖	-10.1567
换一个	-10.1569
不好意思	-10.1569
认真的	-10.1573
偷	-10.1573
会遇到	-10.1577
这样的事情	-10.1585
对您	-10.1589
自己的需求	-10.1591
的欲望	-10.1596
无需	-10.16
只是在	-10.16
做个	-10.1602
草	-10.1604
在关系中	-10.1606
能感受到	-10.1608
身边人	-10.1608
表现出来	-10.1609
大多	-10.1612
一般来说	-10.1619
的回答	-10.1622
的眼光	-10.1626
我也是	-10.1631
心结	-10.1632
首	-10.1635
毒	-10.1637
发生的事情	-10.1643
不了解	-10.1645
大多数人	-10.1645
却又	-10.1646
0	-10.1647
对生活	-10.1647
却没有	-10.1648
省	-10.1653
性取向	-10.1654
的错	-10.1654
室	-10.1655
不希望	-10.1666
希望题主	-10.1668
衣	-10.1672
机构	-10.1678
开放	-10.1682
另一种	-10.1685
准备好	-10.1686
和你一样	-10.1693
踏实	-10.1693
儿童	-10.1694
工作上	-10.1694
勇敢地	-10.1694
克制	-10.1695
告诉他们	-10.1696
你不	-10.1698
这样一个	-10.17
去看待	-10.1707
一系列	-10.1711
让父母	-10.1716
转移到	-10.1721
再来	-10.1723
这样的话	-10.1727
你的人生	-10.1734
不知道自己	-10.1739
家暴	-10.1741
达	-10.1741
下降	-10.1743
2、	-10.1743
情结	-10.1754
我都	-10.176
躲	-10.176
一些建议	-10.1761
来的	-10.1762
氛围	-10.1768
依	-10.1773
目	-10.1774
七	-10.1783
的真实	-10.1783
义务	-10.1787
被拒绝	-10.1788
的教育	-10.179
焦虑情绪	-10.1795
封闭	-10.18
有些时候	-10.1801
给你一个温暖的抱抱	-10.1804
相处的	-10.1813
致	-10.1813
在工作中	-10.1815
学习成绩	-10.1816
尽可能	-10.1821
一遍	-10.1828
比如你	-10.1831
感知	-10.1832
对他的	-10.1833
你男朋友	-10.1837
如果题主	-10.1838
十年	-10.184
我们也	-10.1841
很可能	-10.1848
有可能是	-10.1852
是否是	-10.1857
要看	-10.1858
走进	-10.1858
完善	-10.1861
每一天	-10.1862
为难	-10.1863
强调	-10.1868
心理上的	-10.1871
猫	-10.1871
运用	-10.1884
温暖的	-10.1887
也知道	-10.1887
有价值	-10.1889
是不会	-10.1891
感情的	-10.1899
劳	-10.1904
使自己	-10.1909
羞耻	-10.192
所以才会	-10.1922
鱼	-10.1926
相同	-10.1927
显	-10.1938
顾及	-10.194
如今	-10.1947
反过来	-10.1948
功	-10.1953
看出	-10.1954
小的时候	-10.1955
比较多	-10.1959
可能在	-10.1961
基本上	-10.1969
所以楼主	-10.197
忘了	-10.1971
的年纪	-10.1972
家庭中	-10.1976
的事件	-10.1978
纠缠	-10.198
恶性循环	-10.1981
势	-10.1983
只想	-10.1983
停	-10.1986
习	-10.1989
爱的人	-10.1989
心理学上	-10.1994
我们应该	-10.2002
自己的目标	-10.2003
给你一些	-10.2006
当时的	-10.2009
肉	-10.2011
我建议你	-10.2013
是由	-10.2013
实验	-10.2016
展示	-10.2018
不上	-10.202
聊聊天	-10.2022
。4	-10.2023
沉浸在	-10.2025
健身	-10.2034
指导	-10.2036
识	-10.2037
互	-10.2041
抗	-10.2041
骗	-10.2043
问自己	-10.2047
把他	-10.2054
不止	-10.2061
划	-10.2063
充满了	-10.2066
旅游	-10.2068
小说	-10.2068
刻	-10.2068
数学	-10.207
做出改变	-10.207
一下子	-10.2071
责备	-10.2073
温和	-10.2074
我们不能	-10.2074
早上	-10.2075
的基础上	-10.2075
交际	-10.2077
第一步	-10.208
就不要	-10.2086
身体的	-10.2089
的症状	-10.209
有更多的	-10.209
即使是	-10.209
英语	-10.2091
这可能	-10.2094
不清	-10.2097
的后果	-10.21
题主的描述	-10.2103
执行	-10.2108
措施	-10.2109
不如意	-10.2111
结论	-10.2112
你才	-10.2112
恋爱关系	-10.2113
实力	-10.2118
楼	-10.2118
入睡	-10.2121
呼	-10.2121
和男朋友	-10.2124
不来	-10.213
般	-10.213
的意愿	-10.2136
找到了	-10.2136
那时	-10.2136
希望对你有帮助	-10.2137
父	-10.2141
沮丧	-10.2146
一个好的	-10.2151
个人的	-10.2151
对自己有	-10.2152
i	-10.216
对吧	-10.216
杂	-10.2161
如果她	-10.2161
概念	-10.2165
小目标	-10.2173
意愿	-10.2176
需	-10.2178
可以做	-10.219
抓住	-10.2192
和老师	-10.2196
恐慌	-10.22
床	-10.22
题主现在	-10.2202
自我保护	-10.2203
题目	-10.2214
才可以	-10.2216
惊	-10.2217
刺	-10.222
宽容	-10.2221
网	-10.2224
看一看	-10.2227
也不想	-10.2227
专	-10.2229
看清	-10.2231
楼主现在	-10.2239
吃药	-10.2239
前行	-10.224
逐步	-10.224
的重要	-10.224
就好像	-10.224
越多	-10.2241
棒	-10.2242
可能有	-10.2243
研究生	-10.2243
不配	-10.2248
的时候就	-10.225
一是	-10.2251
的相处模式	-10.2255
@	-10.2259
做不好	-10.2259
的书	-10.2261
就应该	-10.2262
受到伤害	-10.2264
你对自己	-10.2266
补充	-10.2268
核心	-10.2269
场景	-10.2271
当年	-10.2274
回头	-10.2274
仍	-10.2274
有必要	-10.2277
约束	-10.2278
不堪	-10.228
看的	-10.2281
即可	-10.2284
其实也	-10.2287
和痛苦	-10.2287
在我	-10.2291
服务	-10.2295
免	-10.2298
好起来	-10.23
自己的选择	-10.2303
等你	-10.2306
这类	-10.2308
性行为	-10.2312
克	-10.2313
是这样吗	-10.2322
的描述	-10.2323
另一半	-10.2329
刀	-10.2334
爱护	-10.2336
可爱	-10.2338
您可以	-10.2341
太过于	-10.2349
以外	-10.235
跟他们	-10.2352
坎	-10.2354
为人	-10.2355
遇到的	-10.236
习惯性	-10.2367
支	-10.2369
关注自己	-10.2371
患	-10.2372
台	-10.2383
时常	-10.2384
如果可以	-10.2385
工具	-10.2392
越来越多	-10.2393
歌	-10.2393
赞美	-10.2394
但是在	-10.2398
涉及到	-10.2398
赢	-10.2399
知道了	-10.2401
自我否定	-10.2405
牌	-10.2408
组织	-10.2408
有种	-10.2411
对孩子的	-10.2414
的发生	-10.2418
会让自己	-10.242
题主好	-10.2424
的需要	-10.2425
给你一个	-10.2427
起到	-10.2428
傻	-10.2428
去理解	-10.2429
当我	-10.2432
两次	-10.2436
你喜欢	-10.2443
怒	-10.2444
详细	-10.2445
释怀	-10.2446
属	-10.2448
当事人	-10.2448
的事物	-10.2449
的语言	-10.245
清晰的	-10.2455
星	-10.2458
的学生	-10.2462
不易	-10.2462
与否	-10.2466
出错	-10.2466
倾	-10.2471
稳	-10.2471
不甘心	-10.2472
会比较	-10.2487
赋予	-10.2487
消化	-10.2488
也能够	-10.2489
对楼主	-10.2491
默默	-10.2491
换个	-10.2492
完美主义	-10.2495
归因	-10.2499
的事实	-10.2514
很小	-10.2515
自己的事情	-10.2517
当作	-10.2519
被抛弃	-10.252
给他们	-10.2521
前提是	-10.2521
的负面情绪	-10.2522
停下来	-10.2524
因为她	-10.2525
位置	-10.2525
换个角度	-10.2526
喜欢一个人	-10.2532
觉察到	-10.2538
可能也	-10.2539
置	-10.2539
房间	-10.2544
报复	-10.2545
睡不着	-10.2548
把这些	-10.2553
想去	-10.256
作息	-10.256
企业	-10.2562
专业人士	-10.2563
的信念	-10.2564
活得	-10.257
发现了	-10.2576
压抑自己	-10.2578
很辛苦	-10.2578
确实会	-10.2578
这种想法	-10.2582
过好	-10.2583
策略	-10.2583
自己的孩子	-10.2585
义	-10.2586
迫	-10.259
疑	-10.2591
我看到	-10.26
公平	-10.26
控制欲	-10.2604
快乐的	-10.2606
发育	-10.2611
很简单	-10.2611
非要	-10.2615
我们每个人都	-10.2615
尔	-10.2616
地位	-10.2618
风格	-10.2623
希望楼主	-10.2626
这本书	-10.2627
久了	-10.263
不安全感	-10.263
深度	-10.2633
情侣	-10.2634
抱抱楼主	-10.2637
成功的	-10.2643
现实的	-10.2644
每当	-10.2645
几点	-10.2652
表达自己的	-10.2654
感性	-10.2655
寻求专业	-10.2655
对他人	-10.2659
疏远	-10.266
秘密	-10.266
甜蜜	-10.2661
空虚	-10.2661
。(3)	-10.2663
偏差	-10.2664
下一次	-10.2664
生孩子	-10.2665
心情不好	-10.2665
爱上	-10.2668
最重要	-10.2676
堂	-10.2677
借口	-10.2678
帮助我们	-10.268
在学习	-10.2681
医	-10.2681
的信任	-10.2682
想知道	-10.2692
云	-10.2697
自我的	-10.2698
区分	-10.2698
为什么不	-10.27
保护好自己	-10.2702
自己一个人	-10.2707
也就会	-10.271
当前的	-10.271
罢了	-10.271
保留	-10.2713
与别人	-10.2716
可不可以	-10.2719
没事	-10.2721
家庭关系	-10.2726
失控	-10.2729
做法	-10.2731
自己的优点	-10.2732
的男生	-10.2733
自己的身体	-10.2733
自我怀疑	-10.2736
这种方式	-10.2747
终	-10.2747
走下去	-10.2749
的基础	-10.275
的时刻	-10.275
匮乏	-10.2758
逃	-10.2761
就是在	-10.2763
哪种	-10.2764
与他	-10.2769
帮助到	-10.2769
家人的	-10.2771
这样子	-10.2772
事后	-10.2775
艺术	-10.2776
哭泣	-10.2776
培训	-10.2779
成长过程中	-10.2785
性生活	-10.2793
浅	-10.2795
全面	-10.2797
故	-10.2809
人性	-10.2811
希望你可以	-10.2812
3.	-10.2823
交谈	-10.2824
现在你	-10.283
不少	-10.2834
激烈	-10.2837
很优秀	-10.2844
分为	-10.2851
工作的	-10.2852
久而久之	-10.2856
可以尝试着	-10.2856
规定	-10.2858
决	-10.2862
节奏	-10.2863
以往	-10.2865
的陪伴	-10.2866
还是很	-10.2868
护	-10.287
发出	-10.2872
无力感	-10.2873
变得更加	-10.2875
多去	-10.2876
直面	-10.2876
煎熬	-10.2877
心境	-10.2877
缘分	-10.2884
没能	-10.2885
可以做到	-10.2889
一次次	-10.2895
希望我的回答能	-10.2915
做得	-10.2918
看到你的描述	-10.292
家里的	-10.2922
想做	-10.2925
才会有	-10.293
你父母	-10.294
疏导	-10.2942
其实我们	-10.2945
惹	-10.2956
资料	-10.2957
出现的	-10.2958
很长	-10.2962
是不一样的	-10.2965
当他	-10.2966
以前的	-10.2968
谨慎	-10.2977
无法接受	-10.2979
在一定程度上	-10.2979
碰	-10.2981
察觉	-10.2983
宽	-10.2994
可能就	-10.2999
它的	-10.3002
打电话	-10.3002
身体健康	-10.3004
方案	-10.3007
考虑一下	-10.3007
夫	-10.3018
混乱	-10.302
朝	-10.302
必要	-10.3024
的本质	-10.3024
答	-10.3025
品质	-10.3027
可以让自己	-10.3028
少了	-10.3029
每个人都是	-10.3032
礼	-10.3035
这些想法	-10.3035
灯	-10.3038
不接受	-10.304
是出于	-10.3048
的快乐	-10.3049
也是有	-10.3051
是可以理解的	-10.3056
他对你	-10.3056
呵护	-10.3057
真诚的	-10.3058
资	-10.3058
或多或少	-10.3067
心底	-10.3067
还有就是	-10.3067
主义	-10.3068
t	-10.3074
不要害怕	-10.3075
胸	-10.3078
确	-10.3084
先生	-10.3085
写日记	-10.3086
标签	-10.3088
了吧	-10.3093
厉害	-10.3094
男方	-10.3094
如果不是	-10.3098
兴奋	-10.3098
愿望	-10.31
消费	-10.3102
给人	-10.3103
落差	-10.3104
给题主	-10.311
就去	-10.3116
解决办法	-10.3117
牢	-10.3118
的判断	-10.312
而我们	-10.3123
常见的	-10.3132
你可以试着	-10.3133
楼主好	-10.3134
听起来	-10.3138
告	-10.3142
的能量	-10.3142
难题	-10.3144
看得	-10.3147
客观的	-10.3149
的生命	-10.3157
分歧	-10.3159
松	-10.3165
不是说	-10.3167
同学们	-10.3172
的人际关系	-10.3174
根源	-10.3175
陪你	-10.3177
自己是	-10.318
一步步	-10.3184
不要把	-10.3188
的计划	-10.3189
会把	-10.3194
富	-10.3198
各方面	-10.3199
人员	-10.3202
一面	-10.3205
可以帮助你	-10.3207
阅历	-10.3208
微	-10.3214
来到	-10.3219
他就	-10.3226
帮助别人	-10.3227
在外	-10.3229
坦	-10.323
在这种情况下	-10.3234
每个人都会有	-10.3237
不受	-10.3238
是什么原因	-10.3239
腿	-10.3242
支持你	-10.3243
。●	-10.3244
存在感	-10.3245
忙碌	-10.3245
的形象	-10.3247
态	-10.3247
班级	-10.3247
打压	-10.3248
人是	-10.3249
希望得到	-10.3251
会有一些	-10.3252
他在	-10.3252
打游戏	-10.3257
亲子关系	-10.3258
独立的	-10.3262
题主你好呀	-10.3262
错误的	-10.3265
姐	-10.3267
表情	-10.3273
上大学	-10.328
责怪	-10.328
木	-10.3282
着自己	-10.3282
深刻	-10.3283
创业	-10.3285
比自己	-10.3285
感动	-10.3291
觉得很	-10.3296
那我们	-10.33
抚养	-10.3302
辈	-10.3303
伤害到	-10.3303
的未来	-10.3307
紧急	-10.3308
代替	-10.3308
你看	-10.331
设定	-10.3311
认真地	-10.3313
想一下	-10.3314
只是因为	-10.3316
表现的	-10.3319
算是	-10.3322
会影响到	-10.3323
的点	-10.3323
气质	-10.3326
～～	-10.3326
地去	-10.3326
其实就是	-10.3327
挺好的	-10.333
干什么	-10.3337
的钱	-10.334
生活在	-10.334
摸	-10.3344
穷	-10.3346
眼前	-10.3348
取决于	-10.3355
特别的	-10.3359
不稳定	-10.3359
欠	-10.3362
缺陷	-10.3366
频繁	-10.3367
常态	-10.3374
清醒	-10.3374
觉得他	-10.3376
集中	-10.3377
也有可能	-10.3384
传递	-10.3385
途	-10.3387
暖	-10.3389
篇	-10.3389
不一定是	-10.3389
从前	-10.3393
此外	-10.3395
就是要	-10.3398
不存在	-10.3399
内部	-10.3401
+	-10.3406
00	-10.3408
证据	-10.3409
这才是	-10.3413
吸引力	-10.3421
对人	-10.3422
但是却	-10.3426
走到	-10.3431
即将	-10.3432
睡前	-10.3433
委屈自己	-10.3435
希望对楼主有所帮助	-10.3435
非常好	-10.3435
是最好的	-10.3435
隐	-10.3443
其他方面	-10.3443
自我价值	-10.3444
现在的状态	-10.3444
这两个	-10.3446
评	-10.3449
怨恨	-10.345
自在	-10.3451
层次	-10.3452
他们也	-10.3459
只会让	-10.346
初恋	-10.346
我有	-10.3461
对你有帮助	-10.3465
你可以选择	-10.3465
认	-10.3467
毁	-10.347
不在乎	-10.347
做些	-10.3471
协调	-10.3471
不知道楼主	-10.3476
必要的	-10.3479
述	-10.348
完整	-10.3483
起床	-10.3489
包含	-10.3493
所以说	-10.3504
得了	-10.3509
零	-10.3513
表扬	-10.3514
迎合	-10.3516
环境中	-10.352
的妈妈	-10.3522
和同学	-10.3523
小小的	-10.3528
好转	-10.3528
私	-10.3529
导	-10.3531
磨	-10.3534
挫败	-10.3534
中心	-10.3534
糟	-10.3536
谈一谈	-10.3537
战胜	-10.3538
夫妻关系	-10.3538
出口	-10.3541
能够理解	-10.3546
爱着	-10.3546
漫	-10.3548
背后的	-10.3551
佛	-10.3556
到最后	-10.3557
希望能够帮助到你	-10.3563
分数	-10.3566
你不是	-10.3568
本质上	-10.3569
自己想要	-10.357
的活动	-10.3571
解决了	-10.3573
每个人都有自己的	-10.3573
真相	-10.3575
毛	-10.3575
一起去	-10.3577
我妈	-10.3578
出现问题	-10.358
强大的	-10.3583
这种感受	-10.3583
令你	-10.3585
无所谓	-10.3593
所以题主	-10.3594
相遇	-10.3598
冰	-10.3598
高度	-10.3599
编	-10.3599
模仿	-10.36
批判	-10.36
河	-10.3601
滋养	-10.3601
对父母	-10.3608
的社会	-10.361
路上	-10.361
解答	-10.3611
如何去	-10.3617
你也会	-10.3619
比起	-10.3619
游	-10.3621
不多	-10.3622
更何况	-10.3627
早期	-10.3628
和爱	-10.3632
在网上	-10.3636
单纯的	-10.3636
休	-10.3637
希望可以	-10.3637
伙伴	-10.3638
彼此之间	-10.3642
变的	-10.3642
动手	-10.365
脏	-10.3653
还不	-10.3654
让自己变得	-10.3655
有勇气	-10.3657
换位思考	-10.3658
每个人都会	-10.3658
说服	-10.366
你还是	-10.3661
叛逆	-10.3663
新闻	-10.3663
是由于	-10.3664
违背	-10.3665
良	-10.3667
美丽	-10.3667
灵魂	-10.367
温	-10.3675
让你感觉	-10.3677
是这样的	-10.3684
这么多年	-10.3689
她说	-10.3696
”、“	-10.3697
理想的	-10.37
一本书	-10.37
让它	-10.3703
的效果	-10.3704
长大后	-10.3705
孝顺	-10.3707
你所说的	-10.3708
其实也是	-10.3709
正是因为	-10.3711
开玩笑	-10.3711
选择的	-10.3712
欢迎	-10.3713
的距离	-10.3716
一味的	-10.3719
或许会	-10.372
另外一个	-10.372
是他们	-10.372
会越来越	-10.3722
的表达	-10.3723
的印象	-10.3724
去做一些	-10.3725
长期的	-10.3725
长远	-10.3731
改进	-10.3736
担	-10.3737
跟我	-10.3738
自然而然	-10.374
的确是	-10.3744
你只是	-10.3744
甚至会	-10.3744
质量	-10.3745
女方	-10.3748
权利	-10.3749
评论	-10.375
抱有	-10.3751
复杂的	-10.3752
就这样	-10.3754
测试	-10.3754
去世	-10.3757
留言	-10.3758
做完	-10.3758
感受不到	-10.3767
限	-10.3768
能做的	-10.377
很不容易	-10.3771
楼主在	-10.3772
一类	-10.3772
眼神	-10.3773
超我	-10.3773
退缩	-10.3774
小朋友	-10.3775
的困难	-10.3777
可以看到	-10.3778
凡	-10.3779
把注意力	-10.378
把事情	-10.3787
虚	-10.3788
俩	-10.3789
我们也可以	-10.379
很清楚	-10.3792
插	-10.3796
但是他	-10.3796
暴	-10.3797
自己的事	-10.3801
你能够	-10.3805
3、	-10.381
的回应	-10.3811
比别人	-10.3813
上来	-10.3815
缺爱	-10.3821
除非	-10.3822
只需要	-10.3824
没用	-10.3825
明显的	-10.3828
积	-10.383
的男人	-10.3831
焦虑症	-10.3835
牙	-10.3836
身材	-10.3837
坏事	-10.3838
喝酒	-10.3841
朋友的	-10.3852
有两个	-10.3853
入手	-10.3853
你对他	-10.3857
的生活中	-10.3858
榜样	-10.386
喜悦	-10.3861
的老师	-10.3862
团体	-10.3866
的场景	-10.3868
给您	-10.387
楼主内心	-10.3878
●	-10.3878
滑	-10.3882
影响到了	-10.3883
对不起	-10.3884
冷暴力	-10.3889
侵犯	-10.389
视角	-10.3892
不至于	-10.3893
大事	-10.3893
但却	-10.3895
流动	-10.3896
如果我	-10.3896
物品	-10.3899
所说	-10.3902
都说	-10.3904
很在意	-10.3904
采用	-10.3904
m	-10.3904
操	-10.3904
希望我的回答	-10.3906
必	-10.3907
的担忧	-10.3908
控制不住	-10.3909
关键是	-10.392
你不想	-10.3922
不该	-10.3926
造	-10.393
有好感	-10.3933
家务	-10.3935
吸	-10.3938
好好爱自己	-10.3939
的亲密关系	-10.3939
每一个人	-10.3943
文章	-10.3949
催	-10.3949
昨天	-10.395
更能	-10.3953
转换	-10.3956
停留在	-10.3959
种种	-10.3965
个性	-10.3966
就会觉得	-10.3966
时机	-10.3966
我真的	-10.3969
范	-10.397
卫生	-10.3972
提醒自己	-10.3976
是很重要的	-10.3976
如下	-10.3986
充	-10.3987
时间和精力	-10.3992
爱我	-10.3993
议	-10.3993
你的文字	-10.3993
终究	-10.3994
你似乎	-10.3996
一定有	-10.3996
从你的描述来看	-10.3997
不管你	-10.4
都是在	-10.4001
心理压力	-10.4003
逃离	-10.401
她会	-10.401
病情	-10.4011
补偿	-10.4016
恶意	-10.4019
的那些	-10.4022
写作	-10.4024
团	-10.4025
放弃了	-10.4027
心理疾病	-10.4034
示	-10.4036
的优势	-10.4038
肯定自己	-10.4039
仅供参考	-10.4042
有所帮助	-10.4043
复读	-10.4045
以此	-10.405
也有很多	-10.405
成为你	-10.4057
看不起	-10.4058
那份	-10.4065
的本能	-10.4066
的记忆	-10.4066
异地恋	-10.4067
的愤怒	-10.407
的价值观	-10.4076
不能够	-10.408
怎么说	-10.4085
情感的	-10.4089
抽	-10.409
希望可以帮到你	-10.409
日记	-10.4092
发火	-10.4094
在大学	-10.4096
自己对	-10.4097
临	-10.4097
已经是	-10.4101
一块	-10.4102
的关心	-10.4102
阻止	-10.4107
负能量	-10.4109
有足够的	-10.4112
早点	-10.4115
伤害你	-10.4121
标	-10.4122
◆	-10.4128
更重要的是	-10.4133
无意识	-10.4136
似	-10.4139
恶心	-10.4146
放到	-10.4148
布	-10.4149
我的建议是	-10.4149
骄傲	-10.415
夸奖	-10.415
催眠	-10.4151
是怎样	-10.4152
但是又	-10.4155
一把	-10.4156
难免会	-10.4161
加入	-10.4173
渠道	-10.4174
甜	-10.4175
有意义	-10.4179
一些小	-10.4179
外貌	-10.4182
————	-10.4182
想必	-10.4187
就很	-10.4189
的冲突	-10.4189
防御机制	-10.4197
来源	-10.4197
寝室	-10.4198
心疼你	-10.4198
借助	-10.4199
的母亲	-10.4204
整体	-10.4206
固定	-10.4207
给到	-10.4208
世上	-10.4211
遇到问题	-10.4213
有压力	-10.4214
施	-10.4216
不知所措	-10.4219
好一点	-10.4219
不同的人	-10.4224
心理治疗	-10.4227
的某些	-10.4232
配	-10.4233
带有	-10.4237
方便	-10.4238
我发现	-10.4239
c	-10.4241
胃	-10.4241
加深	-10.4246
留意	-10.4247
自己没有	-10.4248
可以让	-10.425
能让你	-10.4253
胎	-10.4254
就会产生	-10.4254
反正	-10.4257
暂时的	-10.4258
的互动	-10.4262
的各种	-10.4263
9	-10.4264
摔	-10.4264
资格	-10.4264
索取	-10.4268
一周	-10.4274
解开	-10.4275
测	-10.4276
如果只是	-10.4279
难免	-10.4281
所以才	-10.4282
提升自己的	-10.4283
辞	-10.4286
灵	-10.4286
扮演	-10.4287
你们之间的	-10.4289
还有一个	-10.429
是一件很	-10.4293
关心和	-10.4293
有关系	-10.4307
努力去	-10.4308
再说	-10.4311
香	-10.4311
在他们	-10.4312
花费	-10.4313
旅行	-10.4315
可能只是	-10.4322
的不满	-10.4324
制造	-10.4327
控制自己	-10.4328
你的男朋友	-10.4328
饱	-10.4329
(2)	-10.433
洞	-10.433
的原生家庭	-10.4332
专注于	-10.4332
正好	-10.4332
想要什么	-10.4335
这样的行为	-10.4336
平淡	-10.4336
多一点	-10.4336
不利于	-10.4343
的精力	-10.4345
都没	-10.4346
自己要	-10.4348
可能就会	-10.4349
露	-10.4352
环境下	-10.4355
舍不得	-10.4357
完全可以	-10.4361
一直以来	-10.4363
涉及	-10.4371
单独	-10.4377
分泌	-10.4379
挂	-10.4379
告诉对方	-10.4381
平复	-10.4383
演讲	-10.4386
分担	-10.4388
大声	-10.4388
的路上	-10.4389
增	-10.4389
第二个	-10.4389
不可以	-10.4392
是从	-10.4394
年级	-10.4398
关系里	-10.4398
牛	-10.44
隔离	-10.4401
无能为力	-10.4403
礼貌	-10.4404
寄托	-10.4405
不理	-10.4406
去努力	-10.4408
强求	-10.4409
结交	-10.4417
它是	-10.4421
接着	-10.4421
跨	-10.4422
发展的	-10.4422
就行	-10.4424
东	-10.4424
不懂得	-10.4425
曲	-10.4426
你愿意	-10.4427
监督	-10.4427
准确	-10.4427
家庭环境	-10.4427
会慢慢	-10.4428
成本	-10.4428
前提	-10.4429
自己想	-10.443
和其他	-10.4436
一些人	-10.4442
本科	-10.4452
也不用	-10.4454
没有关系	-10.4456
的身份	-10.4457
**	-10.4457
开口	-10.4459
误	-10.4463
华	-10.4465
很明显	-10.4465
!”	-10.4469
我说	-10.447
碎	-10.4471
喊	-10.4473
异常	-10.4476
迎接	-10.4476
朋友们	-10.4477
想哭	-10.4477
很爱	-10.4477
压力很大	-10.4481
借钱	-10.4483
有情绪	-10.4483
见过	-10.4483
无条件	-10.4485
更为	-10.4487
已经有了	-10.4488
供	-10.4494
饿	-10.4495
无论如何	-10.4496
表述	-10.4501
或者其他	-10.4502
付出的	-10.4502
我们是	-10.4504
在她	-10.4507
第二天	-10.4509
希望他	-10.451
后的	-10.4511
体系	-10.4513
外表	-10.4513
消极情绪	-10.4514
如果您	-10.4518
需要的是	-10.4519
累了	-10.4519
追求完美	-10.4522
不下去	-10.4523
自己可以	-10.4524
队	-10.4528
的精神	-10.453
被父母	-10.4536
去完成	-10.4536
刚好	-10.4537
沟通交流	-10.454
毛病	-10.4542
这样想	-10.4543
非暴力沟通	-10.4543
立刻	-10.4544
你母亲	-10.4545
基	-10.455
的渴望	-10.4552
解决方法	-10.4553
对我们的	-10.4555
给予你	-10.4562
从来没有	-10.4562
受不了	-10.4562
就想	-10.4563
就觉得	-10.4563
的安全感	-10.4564
在自己的	-10.4564
埋怨	-10.4565
耳	-10.4566
是被	-10.457
干嘛	-10.4572
写作业	-10.4574
听从	-10.4575
离不开	-10.4582
下班	-10.4583
去探索	-10.4583
中考	-10.4586
要求自己	-10.4588
幼稚	-10.4588
给到你	-10.4589
校园	-10.4591
看到你的问题	-10.4592
在孩子	-10.4592
的准备	-10.4593
留在	-10.4595
′	-10.4596
样子	-10.4597
婚后	-10.4598
收拾	-10.4612
的特点	-10.4612
早年	-10.4619
厚	-10.462
不开	-10.462
例	-10.4625
你们的感情	-10.4626
的心理状态	-10.4627
电视剧	-10.4627
一片	-10.4631
鲜	-10.4635
是一样的	-10.4635
分手了	-10.4637
九	-10.4637
无意	-10.4637
不接纳	-10.4638
回想	-10.464
才知道	-10.464
一本	-10.4641
另一个人	-10.4647
岁了	-10.4653
的咨询	-10.4655
另一	-10.4657
?(	-10.4658
有时间	-10.4664
喜爱	-10.4673
讲话	-10.468
解决这个问题	-10.4684
说一下	-10.4691
前女友	-10.4692
要做	-10.4692
世间	-10.4698
和丈夫	-10.47
帮助他	-10.4702
是一个非常	-10.4704
院	-10.4704
你就可以	-10.4706
事情的	-10.4708
—	-10.4709
两点	-10.471
反映	-10.4712
喜欢自己	-10.4713
分别	-10.4713
陷入了	-10.4715
没有了	-10.4718
感受到你	-10.472
说法	-10.4723
伤害了	-10.4724
改变不了	-10.4724
耐	-10.4727
是人	-10.4728
问一下	-10.4732
保障	-10.4733
财富	-10.4733
戴	-10.4734
可行	-10.4739
我们来	-10.4739
学校的	-10.474
操作	-10.4741
向外	-10.4743
你的母亲	-10.4746
都不能	-10.4752
志	-10.4752
丧	-10.4755
打交道	-10.4759
终于	-10.4759
活在当下	-10.476
得知	-10.4768
你是不是	-10.4768
病人	-10.4769
还是因为	-10.4772
的根源	-10.4774
自己所	-10.4779
西	-10.4781
忧	-10.4782
你可以尝试	-10.4782
自己的心	-10.4782
不必要的	-10.4788
孤	-10.4788
一份工作	-10.4788
折	-10.4796
当一个人	-10.4797
的形式	-10.4798
请教	-10.48
悲	-10.4801
为之	-10.4803
搬	-10.4804
遇	-10.4805
巧	-10.4805
不像	-10.4806
天赋	-10.4807
一会儿	-10.4808
爱你的人	-10.481
告诉我们	-10.481
在外面	-10.4811
做了什么	-10.4812
盘	-10.4814
努力学习	-10.4824
️️	-10.4826
亦	-10.4828
和支持	-10.4828
糖	-10.4829
如果觉得	-10.4829
沙	-10.4829
小心翼翼	-10.4831
宝	-10.4834
付出了	-10.4835
去接受	-10.4836
在这种	-10.4839
我们对	-10.4844
对不对	-10.4844
明白了	-10.485
鼓	-10.4855
去感受	-10.4855
的恋爱	-10.486
不怕	-10.4862
有很大的	-10.4863
像是	-10.4866
不会因为	-10.4869
还是说	-10.4873
感到很	-10.4873
b	-10.4876
价	-10.4877
的原因是什么	-10.4879
公婆	-10.4879
打骂	-10.488
哪一种	-10.4881
靠谱	-10.4881
完整的	-10.4883
在工作	-10.4886
无法控制	-10.4892
油	-10.4893
亲爱的题主	-10.4895
于此	-10.4898
割	-10.4901
哥	-10.4901
差别	-10.4901
销售	-10.4903
是无法	-10.4906
后续	-10.4907
偏见	-10.4908
也应该	-10.4909
去处理	-10.491
我猜	-10.4911
面对自己	-10.4911
的人格	-10.4917
同龄人	-10.4918
如果能	-10.4919
18	-10.4924
如果不能	-10.4924
告诉我	-10.4925
要面对	-10.4925
寻	-10.4928
C	-10.4928
受害者	-10.4928
姥姥	-10.4928
更需要	-10.493
倍	-10.493
更优秀	-10.4935
乐趣	-10.4938
做错了	-10.4939
不过是	-10.4942
表达出	-10.4946
导师	-10.4947
打招呼	-10.4951
忧虑	-10.4952
这样说	-10.4955
不只是	-10.4959
你好题主	-10.496
一个孩子	-10.4963
问题是	-10.4965
瞬间	-10.4968
以上是我	-10.4976
离开了	-10.4977
有意	-10.4979
要考虑	-10.4982
精神分析	-10.4982
雨	-10.4983
那你就	-10.4986
不是你的错	-10.4987
会有很多	-10.499
器	-10.4991
也都	-10.4993
两者	-10.5
审视	-10.5
耽误	-10.5002
巨大	-10.5007
勉强	-10.501
的职业	-10.5011
想说	-10.5012
俗	-10.5012
的成长经历	-10.5012
也不一定	-10.5014
伴	-10.5016
损	-10.5018
你要知道	-10.5019
这样的想法	-10.502
建	-10.5021
激动	-10.5027
的方式去	-10.5028
加重	-10.5033
本质	-10.5034
这方面的	-10.5035
内化	-10.5038
不合理	-10.5041
拼	-10.5046
的书籍	-10.5047
托	-10.5049
p	-10.5049
埋	-10.5049
拔	-10.505
计较	-10.5051
爱她	-10.5051
激素	-10.5051
错过	-10.5052
能感受到你	-10.5053
盲目	-10.5055
绝对的	-10.5056
也是如此	-10.5056
人品	-10.5057
的不同	-10.5065
得出	-10.5066
总会有	-10.5066
波动	-10.5068
到自己	-10.5068
是值得	-10.5068
新鲜	-10.507
干净	-10.5076
孤立	-10.5077
▽`)	-10.5081
着想	-10.5084
我还	-10.5088
不好的事情	-10.509
的关键	-10.509
你不能	-10.5091
意识到了	-10.5093
变得更	-10.5094
爱着你	-10.5094
万一	-10.5096
生物	-10.5096
不成熟	-10.5097
这个想法	-10.5101
汗	-10.5101
逝	-10.5101
纯粹	-10.5102
趁	-10.5102
例子	-10.5103
教师	-10.5104
遇到困难	-10.5105
心理健康	-10.5108
改变了	-10.5116
你有没有	-10.5117
接受不了	-10.5118
自己是否	-10.5123
过度的	-10.5125
大了	-10.5125
没错	-10.5128
奇怪	-10.5132
行动起来	-10.5132
更高	-10.5133
一门	-10.5135
的现状	-10.5137
以来	-10.5138
■	-10.5143
怎么办呢	-10.5143
自我价值感	-10.5146
到底是什么	-10.5148
是不同的	-10.5149
勤	-10.5151
还想	-10.5154
是她	-10.5158
也希望	-10.5159
两个人在一起	-10.5162
不相信	-10.5163
中走出来	-10.5163
畅	-10.5165
这么大	-10.5166
实际情况	-10.5167
永	-10.5172
扬	-10.5174
4、	-10.5174
坦然	-10.5175
料	-10.5175
肚子	-10.5175
集	-10.5178
安全的	-10.5179
对你好	-10.5189
你会觉得	-10.5192
进行沟通	-10.5194
块	-10.5196
的定义	-10.5197
莫	-10.5197
和自己的	-10.5204
理性的	-10.5205
不要让	-10.5206
彼此都	-10.521
如果想	-10.5212
题主提到	-10.5213
来解决	-10.5213
营养	-10.5214
很不舒服	-10.5218
一方面是	-10.5218
她也	-10.5218
经历的	-10.5218
设	-10.5218
感觉很	-10.5223
诱惑	-10.5225
做为	-10.5225
让题主	-10.5225
输	-10.5226
写下	-10.5227
整天	-10.5231
这么说	-10.5235
那段	-10.5236
的幸福	-10.5238
该怎么	-10.524
可以感受到你	-10.5241
想想自己	-10.5243
很焦虑	-10.5244
顺从	-10.5245
阳	-10.525
才有可能	-10.5252
您的描述	-10.5253
你是个	-10.5254
乎	-10.5258
是否能	-10.5263
如果你想	-10.5263
建议您	-10.5264
不确定性	-10.5265
有很大	-10.5268
不舍	-10.5269
引起的	-10.527
搭	-10.5273
唠叨	-10.5274
戒	-10.5275
抢	-10.5275
”,“	-10.5278
弱小	-10.5279
原因是	-10.5279
他可能	-10.529
的前提下	-10.5292
?#	-10.5293
理解接纳认可	-10.5293
时间去	-10.5296
在做	-10.5299
很理解你	-10.5301
未知的	-10.5305
从题主的描述中	-10.5305
增长	-10.5306
归属感	-10.5307
负责任	-10.5312
的真实想法	-10.5314
你喜欢的	-10.5319
相当	-10.5321
又有	-10.5325
先从	-10.5326
的第一步	-10.5328
团队	-10.5328
有时候我们	-10.5335
建立起	-10.5336
能找到	-10.5337
只是想	-10.5338
波	-10.5343
我不知道你	-10.5346
你的困惑	-10.5351
吐	-10.5351
会发生	-10.5351
很多时候我们	-10.5352
撑	-10.5352
欢	-10.5352
软件	-10.5353
和父亲	-10.5355
盯着	-10.5356
虽然你	-10.536
如果你真的	-10.536
是否真的	-10.5363
去发现	-10.5367
弄清楚	-10.5369
家族	-10.5371
没有被	-10.5374
惊喜	-10.5378
的举动	-10.538
也想	-10.538
不出来	-10.5382
一套	-10.5388
理解你的	-10.5392
可能是你	-10.5393
换了	-10.5395
的友谊	-10.5397
米	-10.5403
为主	-10.5404
自尊心	-10.5404
帮到	-10.5409
就是说	-10.541
还有其他	-10.5418
说是	-10.5419
走过	-10.5419
组	-10.5419
不喜欢你	-10.5426
还好	-10.5429
注定	-10.5431
你的焦虑	-10.5431
抉择	-10.5432
第五	-10.5433
羞耻感	-10.5434
可惜	-10.5435
拿出	-10.5442
告别	-10.5445
各自的	-10.5446
15	-10.5448
有信心	-10.5452
博	-10.5453
的认识	-10.5456
而这些	-10.5457
一步一步	-10.5458
的话语	-10.5459
对应	-10.5462
底气	-10.5462
都无法	-10.5465
有许多	-10.5468
确诊	-10.5469
的说法	-10.547
这样的问题	-10.5471
的道路	-10.5472
这边	-10.5474
权力	-10.5476
移	-10.5476
感到焦虑	-10.5478
幼儿园	-10.5479
堵	-10.5481
[	-10.5481
寒	-10.5482
太阳	-10.5482
就容易	-10.5484
可私信	-10.5487
独特的	-10.5487
熟悉的	-10.5488
有一定	-10.5489
这些人	-10.5491
对自我	-10.5494
会一直	-10.5497
所以会	-10.5497
也很难	-10.5498
也是需要	-10.5498
现实生活中	-10.5499
消极的	-10.5499
说清楚	-10.55
不要轻易	-10.5501
也是这样	-10.5505
情绪和	-10.5506
闪	-10.5506
某种程度上	-10.5507
]	-10.5507
舒缓	-10.5509
实习	-10.5509
接纳自己的	-10.5512
什么都不	-10.5517
又能	-10.5521
你的心情	-10.5522
无论你	-10.5524
系	-10.5527
适合你	-10.5529
的伴侣	-10.553
害怕别人	-10.5531
说实话	-10.5532
陪伴你	-10.5533
维系	-10.5533
一个是	-10.5537
可以试试	-10.5538
的兴趣	-10.5541
你不喜欢	-10.5546
咨询师的	-10.5553
怨	-10.5553
起码	-10.5556
这个社会	-10.5557
客户	-10.5559
负面的	-10.5559
依据	-10.556
的那个人	-10.556
情景	-10.5561
定期	-10.5561
谈论	-10.5563
到一个	-10.5564
不明白	-10.5565
和异性	-10.5565
找到自己的	-10.5574
因此我们	-10.5581
班主任	-10.5586
联结	-10.5586
你可能会	-10.5587
比赛	-10.5588
听话	-10.5589
要先	-10.5593
的身上	-10.5594
可以是	-10.5598
组成	-10.5603
太高	-10.5607
或许可以	-10.5608
笨	-10.5609
警	-10.561
。1	-10.5611
畏	-10.5611
扛	-10.5611
满足感	-10.5611
拼命	-10.5613
冷淡	-10.5616
什么原因	-10.5617
药物治疗	-10.5618
你和他	-10.562
从来不	-10.5622
坦白	-10.5622
看上去	-10.5623
的内在	-10.5625
帮到你	-10.5626
搞清楚	-10.5627
把这个	-10.5629
有钱	-10.5629
伤痛	-10.5632
创	-10.5633
比较好的	-10.5634
不符合	-10.5634
自动	-10.5641
决定的	-10.5641
他没有	-10.5643
夸	-10.5644
诸多	-10.5644
结束语	-10.5645
没有能力	-10.5645
道路	-10.5647
来做	-10.565
!️	-10.565
的意识	-10.5651
的时光	-10.5655
漫长	-10.5658
闭	-10.5659
我们无法	-10.5662
隐私	-10.5663
反省	-10.5664
什么问题	-10.5666
体贴	-10.5667
是属于	-10.5667
约定	-10.5672
指出	-10.5673
在那里	-10.5676
猜	-10.568
想做的事情	-10.5681
没有意义	-10.5689
人与人之间	-10.569
妹	-10.5691
身心健康	-10.5691
很害怕	-10.5693
挫败感	-10.5696
对于你来说	-10.5702
就像你	-10.5705
孩子们	-10.571
心理状态	-10.5712
迈出	-10.5713
陷	-10.5716
旁观者	-10.5716
爷爷	-10.5717
挣钱	-10.5718
亲近的人	-10.5718
恐怕	-10.5719
与孩子	-10.5719
疼痛	-10.572
也不必	-10.5721
更加的	-10.5725
周末	-10.5728
书写	-10.5729
每一个人都	-10.573
走的	-10.5731
自己的父母	-10.5739
融	-10.5742
把我	-10.5742
轮	-10.5743
的重要性	-10.5744
表现得	-10.5747
不利	-10.5748
这并不是	-10.5754
升	-10.5754
能理解你	-10.5757
放松下来	-10.5761
有人说	-10.5766
倾向于	-10.5766
能力和	-10.5767
这样的方式	-10.5767
物理	-10.5767
胆	-10.5768
保持距离	-10.5769
青少年	-10.577
不合	-10.5773
比较容易	-10.578
楼主的描述	-10.5782
想要去	-10.5783
大学生	-10.5785
一半	-10.5785
迟	-10.5786
自我觉察	-10.5791
学习上	-10.5791
做饭	-10.5793
患得患失	-10.5797
荡	-10.5797
俗话说	-10.5798
书中	-10.5803
打工	-10.5805
不平衡	-10.5805
找一些	-10.5809
去表达	-10.5813
给自己一些	-10.5814
其实我	-10.5816
项目	-10.5817
根本不	-10.5822
短期	-10.5822
爷爷奶奶	-10.5824
50	-10.5825
委婉	-10.5825
隐瞒	-10.5825
正常生活	-10.5833
为他	-10.5838
情绪波动	-10.584
生活习惯	-10.5843
镜子	-10.5844
戏	-10.5849
尚	-10.585
希望你能够	-10.5853
生命中	-10.5854
你父亲	-10.5859
但他	-10.5864
是什么样子	-10.5864
但在	-10.5871
的动机	-10.5871
音	-10.5874
贪	-10.5875
服药	-10.5879
如果实在	-10.5885
就算是	-10.5887
压力太大	-10.589
时间久了	-10.5894
不尊重	-10.5895
也是很	-10.5897
不用太	-10.5901
是这样	-10.5901
阴	-10.5902
试探	-10.5904
以后的	-10.5905
整个人	-10.5906
相同的	-10.5909
你的家人	-10.591
很不错	-10.5914
的女孩子	-10.5915
他自己	-10.5915
因为这	-10.5918
个人成长	-10.5925
两个人之间	-10.5926
铁	-10.5926
结婚了	-10.5927
是自己的	-10.5927
听了	-10.5928
爬	-10.5929
最好是	-10.5931
内向的人	-10.5932
智	-10.5933
浪漫	-10.5933
出去玩	-10.5935
夫妻之间	-10.5946
自己的优势	-10.5946
习得	-10.5949
识别	-10.5952
挑剔	-10.5957
严厉	-10.5958
正念冥想	-10.5959
对自我的	-10.596
和成长	-10.5961
噢	-10.5961
感冒	-10.5962
12	-10.5966
跟对方	-10.5969
有些事	-10.5969
性欲	-10.597
现在已经	-10.5971
提醒你	-10.5974
有不同的	-10.5976
悟	-10.598
是不好的	-10.598
青	-10.5984
模糊	-10.5984
谋	-10.5985
今	-10.5985
渣男	-10.5985
玩笑	-10.5989
关联	-10.599
在意别人	-10.5991
简	-10.5991
的好处	-10.5992
强度	-10.5998
范围内	-10.5998
给了你	-10.6002
没有意识到	-10.6004
历史	-10.6008
做出选择	-10.6008
d	-10.6008
烧	-10.601
怎么去	-10.601
林	-10.6013
话说	-10.6017
孤独感	-10.6018
凡事	-10.602
付	-10.6027
要相信	-10.6033
朝着	-10.6035
剩	-10.6035
本来就是	-10.6037
过高	-10.6039
骨	-10.6039
脑子	-10.604
别人的事	-10.6043
平凡	-10.6046
只有你	-10.6051
很多问题	-10.6051
别人说	-10.6052
就是我们	-10.6052
是非常正常的	-10.6054
对于孩子	-10.6056
用自己的	-10.6058
才不会	-10.6058
了解对方	-10.6058
被看见	-10.6059
做出一些	-10.606
销	-10.6066
很强	-10.6068
兼职	-10.6068
锅	-10.6068
融洽	-10.6068
面具	-10.6074
看到自己的	-10.6077
塑造	-10.6081
经历了什么	-10.6082
被他人	-10.6084
是否会	-10.6086
民	-10.6086
什么的	-10.6087
丢	-10.6089
朋友之间	-10.6092
耗	-10.6093
案例	-10.6094
加班	-10.6095
暖暖	-10.6095
很好地	-10.6096
信号	-10.61
去了	-10.6102
有意义的	-10.6103
真实感受	-10.6106
达不到	-10.611
很重要的	-10.611
大致	-10.6112
沉迷	-10.6112
得到的	-10.6113
据	-10.6114
完了	-10.6115
要明白	-10.6115
官	-10.6116
的人和事	-10.6119
信任的	-10.6122
一样的	-10.6125
离职	-10.6127
这一次	-10.6127
一丝	-10.613
发生过	-10.6134
正式	-10.6136
的委屈	-10.6139
活出	-10.6144
初心	-10.6145
就是一种	-10.6146
封	-10.6148
P	-10.6149
打扮	-10.6149
喜欢上	-10.6152
敌	-10.6152
听过	-10.6154
自己的不足	-10.6156
拒绝了	-10.6156
理念	-10.6161
讲述	-10.6165
得多	-10.6166
不爱你	-10.6175
的家人	-10.6176
角	-10.6177
一家	-10.6182
感觉你	-10.6182
成熟的	-10.6185
你害怕	-10.6189
脑子里	-10.6194
的出现	-10.6197
清楚自己	-10.62
如果你们	-10.6201
亏	-10.6202
脑海里	-10.6204
也不需要	-10.6205
担当	-10.6206
被忽视	-10.621
多数	-10.6212
需要考虑	-10.6214
你还可以	-10.6214
会造成	-10.6215
调整一下	-10.6216
如何看待	-10.622
学习方法	-10.622
从小就	-10.6222
感激	-10.6224
严	-10.6226
一直都	-10.6227
思绪	-10.6234
实施	-10.6234
信任的人	-10.6236
的条件	-10.6238
现在的自己	-10.6239
让你感觉到	-10.624
不快乐	-10.6243
弹	-10.6246
秒	-10.6247
这些事	-10.6249
的困境	-10.625
发作	-10.625
给你的	-10.625
不是一个	-10.6257
咬	-10.6259
会认为	-10.6262
不见	-10.6263
掌控感	-10.6263
同一	-10.6263
感染	-10.6264
假装	-10.6265
答主	-10.6265
太在意	-10.6266
坐下来	-10.6267
也一样	-10.627
特别好	-10.6271
希望对方	-10.6272
主见	-10.6272
不高	-10.6274
具	-10.6277
的核心	-10.6279
益	-10.6285
感受到的	-10.6288
遵从	-10.6292
生活方式	-10.6295
解脱	-10.6296
如果一个人	-10.63
感受到你的	-10.6302
这其中	-10.6305
你好啊	-10.6305
的一种方式	-10.6308
的目光	-10.631
面对面	-10.6311
要做的就是	-10.6314
想通过	-10.6316
瘦	-10.6317
反驳	-10.6318
理清	-10.632
这些行为	-10.632
会更好	-10.6321
对你们	-10.6323
思维方式	-10.6325
软	-10.6327
为自己的	-10.6329
活力	-10.6334
公公	-10.6335
你最	-10.6338
不同意	-10.6342
讨	-10.6345
放松一下	-10.6347
参加一些	-10.6347
胆小	-10.635
记录下来	-10.6352
满意的	-10.6355
懒	-10.6358
题主在	-10.6359
什么事	-10.636
太多了	-10.636
联	-10.6361
纯	-10.6361
有多大	-10.6361
细心	-10.6362
能够感受到	-10.6368
也有可能是	-10.637
?2.	-10.637
多做	-10.6371
可能会有	-10.6372
的一句话	-10.6373
略	-10.6373
客体	-10.6374
后天	-10.6378
主动去	-10.6383
心理暗示	-10.6384
的诉求	-10.6384
不可避免	-10.6384
降	-10.6388
放弃自己	-10.6388
败	-10.6391
自我接纳	-10.6394
在平时	-10.6394
100	-10.6397
潜	-10.6399
试试看	-10.64
人物	-10.6401
深层	-10.6401
窗	-10.6402
境	-10.6407
希望可以帮到楼主	-10.6407
关注和	-10.6409
所以他	-10.6412
你可以去	-10.6415
的好朋友	-10.6416
意志力	-10.6416
有爱	-10.6417
可以接受	-10.6418
对待你	-10.642
影响着	-10.6423
承认自己	-10.6424
偷偷	-10.6426
内心里	-10.6427
自己到底	-10.6429
抵抗	-10.6429
几点建议	-10.643
友善	-10.6431
。■	-10.6436
的大	-10.6436
满足你	-10.6437
就在	-10.6441
4.	-10.6444
一家人	-10.6445
快感	-10.6448
恩	-10.645
福	-10.6456
泡	-10.6459
增进	-10.6463
及时的	-10.6463
表达自己的感受	-10.6464
生长	-10.6467
自我认知	-10.6467
网络上	-10.6467
自己的心情	-10.6468
你怎么	-10.6468
的行动	-10.6469
开学	-10.6476
几个问题	-10.6477
那我	-10.6479
不一致	-10.648
的来源	-10.6483
去关注	-10.6483
市	-10.6484
则是	-10.6486
不停的	-10.6487
举个例子	-10.6487
来进行	-10.6488
四年	-10.649
活的	-10.6492
是怎么样的	-10.6493
。5、	-10.6493
都是有	-10.6504
心理老师	-10.6506
说明他	-10.6508
美国	-10.651
而在	-10.6511
索	-10.6511
照顾孩子	-10.6513
茶	-10.6514
尽可能的	-10.6514
黄	-10.6514
害羞	-10.6514
抵	-10.6515
僵	-10.6515
这个词	-10.6516
S	-10.6517
怼	-10.6517
懦弱	-10.6518
迈	-10.6521
分配	-10.6521
医学	-10.6523
有其他	-10.6523
我们就会	-10.6526
恰恰	-10.6528
才是最重要的	-10.653
理解的	-10.6531
不是为了	-10.6531
慎重	-10.6533
请问	-10.6533
一些东西	-10.6534
深入的	-10.6542
觉察自己	-10.6543
遵守	-10.6544
城	-10.6544
敞开心扉	-10.6545
会变得	-10.655
钟	-10.6552
休息一下	-10.6563
爱别人	-10.6564
注	-10.6565
镜	-10.6568
五年	-10.657
走路	-10.6571
的资源	-10.6571
进来	-10.6572
一开始就	-10.6572
楼主提到	-10.6572
负面影响	-10.6574
延续	-10.6574
想象的	-10.6577
冷战	-10.6578
比较敏感	-10.6578
忘记了	-10.6579
很能理解你	-10.6582
照顾好	-10.6583
25	-10.6584
信赖	-10.6585
的亲人	-10.6586
受挫	-10.6591
是非常重要的	-10.6595
给自己带来	-10.6596
操心	-10.6597
躯体	-10.6598
有益	-10.6602
可怜	-10.6604
与人交往	-10.6605
家庭里	-10.6609
密	-10.6611
被伤害	-10.6612
单方面	-10.6615
如果在	-10.6615
尝试去	-10.6617
不顾	-10.6617
是因为我们	-10.6618
会成为	-10.6619
独一无二的	-10.6628
绕	-10.663
剂	-10.6631
撕	-10.6632
依恋关系	-10.6633
很努力	-10.6635
几种	-10.6637
了解他	-10.664
既然你	-10.6643
认为是	-10.6645
意味着什么	-10.6645
伴随着	-10.6646
把她	-10.6647
但是也	-10.6652
等于	-10.6657
我想说的是	-10.6659
r	-10.6659
我们所	-10.6659
脑海中	-10.666
是我的分析和建议	-10.666
死了	-10.6662
蓝	-10.6663
不擅长	-10.6663
很生气	-10.6663
只是为了	-10.6663
陪着	-10.6664
部门	-10.6665
前途	-10.6665
一味	-10.6665
上司	-10.667
决定了	-10.6671
更多地	-10.6672
坏的	-10.6674
伤人	-10.668
步骤	-10.6682
也比较	-10.6683
因而	-10.6687
禁	-10.6688
胜任	-10.6692
移情	-10.6693
的例子	-10.6693
积压	-10.6693
长的	-10.6697
有什么样的	-10.6701
的父亲	-10.6702
果断	-10.6704
貌	-10.6708
提到了	-10.6708
留恋	-10.6709
你的身体	-10.671
做起	-10.671
石	-10.6714
变了	-10.672
爱情的	-10.6723
素质	-10.6723
的身心	-10.6727
也是可以	-10.6735
架	-10.6741
因为在	-10.6743
u	-10.6743
两天	-10.6744
北	-10.6746
很多东西	-10.6746
莫名其妙	-10.6748
应付	-10.675
珍贵	-10.6751
手里	-10.6755
讲道理	-10.6757
本我	-10.6758
人都是	-10.6759
辅导	-10.6764
我一直	-10.6767
尊重你	-10.6769
理解你的感受	-10.6771
看得出	-10.6772
出了问题	-10.6775
很心疼	-10.6776
魔	-10.6776
做好准备	-10.6777
遗传	-10.6778
的文字	-10.6778
短暂的	-10.6778
又或者	-10.6779
解决问题的	-10.678
之路	-10.6781
就更	-10.6782
投入到	-10.6783
不安全	-10.6783
害怕失去	-10.6786
有权利	-10.6791
唯一的	-10.6793
有没有想过	-10.6799
会受到	-10.6799
运	-10.68
律	-10.6802
不仅仅	-10.6803
和能力	-10.6806
较大	-10.6809
的边界	-10.6809
照片	-10.681
按时	-10.681
比较高	-10.6817
早就	-10.6818
照顾自己	-10.6819
专心	-10.682
出发点	-10.6821
人士	-10.6822
有很多人	-10.6823
叙述	-10.6827
缓和	-10.6832
当别人	-10.6836
妇	-10.6837
体重	-10.6838
你的需求	-10.684
因此而	-10.6846
的小孩	-10.6847
后来我	-10.6848
被理解	-10.685
指的是	-10.685
说的是	-10.6854
帮助她	-10.6859
掌	-10.686
对自己说	-10.686
不会有	-10.6861
最多	-10.6864
恐怖	-10.6865
土	-10.6865
派	-10.6866
逛	-10.6868
读了	-10.6869
祝你早日	-10.6869
去追求	-10.6869
迷失	-10.687
如何处理	-10.6871
投资	-10.6873
?)	-10.6873
大部分人	-10.6874
找找	-10.6879
怎么想	-10.6881
小心	-10.6881
传达	-10.6881
很差	-10.6884
受过	-10.6886
不听	-10.6886
留给	-10.6887
源头	-10.6888
备考	-10.6889
越大	-10.6891
的利益	-10.6893
还是比较	-10.6893
→	-10.6897
伪装	-10.6897
解决方案	-10.6904
遗忘	-10.6905
鼓励自己	-10.6905
周围的	-10.6906
时间长了	-10.6918
闷	-10.6922
上升	-10.6924
设想	-10.6925
来看待	-10.6927
一定可以	-10.6929
孩子在	-10.693
狂	-10.6932
这个男生	-10.6933
远远	-10.6934
执着	-10.6943
平台上	-10.6945
避	-10.6948
生活上	-10.6952
牵	-10.6953
永远都	-10.6954
似乎是	-10.6955
从现在开始	-10.6958
就能够	-10.6958
开启	-10.6958
ω	-10.6959
统一	-10.6965
决心	-10.6968
做错	-10.6974
问你	-10.6974
分析了解问题	-10.6975
再多	-10.6979
一刻	-10.6982
转化	-10.6983
更快	-10.6985
姿态	-10.6986
不要放弃	-10.699
不认同	-10.6991
不怎么	-10.6992
沉重	-10.6993
好事	-10.6994
心事	-10.7
而产生	-10.7
我没有	-10.7001
不是那么	-10.7001
交换	-10.7002
这需要	-10.7003
潜在	-10.7004
是不对的	-10.7006
不是很好	-10.7009
裂	-10.7011
我们一起	-10.7013
解决不了	-10.7014
设计	-10.7016
看一些	-10.7025
焦虑感	-10.7033
责	-10.7034
无数	-10.7034
成长中	-10.7035
重要的事情	-10.7039
能看到	-10.704
会带来	-10.704
一点一点	-10.7041
和生活	-10.7042
说明了	-10.7043
也许你可以	-10.7044
看问题	-10.7046
改变现状	-10.7046
与他们	-10.7047
瑜伽	-10.7047
持久	-10.7048
你的描述我了解到	-10.7053
唯有	-10.7053
这份感情	-10.7055
只是我们	-10.7055
提高自己的	-10.7058
的同事	-10.7059
要做的	-10.7062
每次都	-10.7063
一会	-10.7064
不良情绪	-10.7066
繁	-10.7068
哪一个	-10.7069
界	-10.7071
与对方	-10.7073
小可爱	-10.7075
此时此刻	-10.7079
自己最	-10.7084
和压力	-10.7087
的自由	-10.7092
责任感	-10.7092
让你们	-10.7093
大自然	-10.7095
回想一下	-10.7095
也一定	-10.7096
愈	-10.7096
】【	-10.7097
通过你的描述	-10.71
科目	-10.7113
无能	-10.712
不认可	-10.7125
自己的缺点	-10.7127
比较少	-10.713
职位	-10.7131
的氛围	-10.7131
建立关系	-10.7131
码	-10.7133
这种事情	-10.7134
滴	-10.7137
坚决	-10.7138
专门	-10.7141
对你有所帮助	-10.7146
感兴趣的	-10.7148
有困惑	-10.715
几个月	-10.716
较为	-10.7165
还不够	-10.7166
循序渐进	-10.7169
碗	-10.7169
每一	-10.717
这让你	-10.7171
将会	-10.7173
希望能帮到你	-10.7173
得到满足	-10.7175
我们可以先	-10.7175
新环境	-10.7179
住了	-10.7182
的标签	-10.7184
你们可以	-10.719
一定能	-10.719
的倾向	-10.719
带来了	-10.7193
眼光	-10.7197
撞	-10.7198
惨	-10.7199
墙	-10.7199
原始	-10.72
看到别人	-10.7202
才发现	-10.7203
好好沟通	-10.7205
很在乎	-10.7209
更像是	-10.721
真爱	-10.7215
之间的感情	-10.7217
后者	-10.7218
桌	-10.7221
股	-10.7227
弟	-10.7228
没有达到	-10.7228
多种	-10.7231
不在意	-10.7231
时间段	-10.7242
感和	-10.7242
家庭成员	-10.7242
国外	-10.7243
害怕被	-10.7244
一只	-10.7245
你们彼此	-10.7249
功课	-10.725
可怕的	-10.725
下一步	-10.725
做做	-10.7253
圆	-10.7253
拿到	-10.7254
内心的感受	-10.7254
不小心	-10.7257
模	-10.7257
灭	-10.726
大于	-10.726
警惕	-10.726
和我们	-10.7261
厌烦	-10.7261
如果父母	-10.7261
压制	-10.7262
生育	-10.7264
给你一个抱抱	-10.7268
所以当	-10.7271
幸福感	-10.7273
不要着急	-10.7275
你的父亲	-10.7275
多关注	-10.7276
还不如	-10.7282
触碰	-10.7283
给自己定	-10.7284
的心灵	-10.7284
等着你	-10.7285
会选择	-10.7285
的想法和感受	-10.7287
你感觉	-10.7287
跳出	-10.7287
跟你说	-10.7288
的遭遇	-10.7289
皆	-10.7292
社团	-10.7293
发生关系	-10.7295
认定	-10.7296
这个行为	-10.7297
你们两个	-10.7297
头疼	-10.7298
结构	-10.7298
那么重要	-10.7302
负性	-10.7306
不想做	-10.7306
我们的情绪	-10.7307
的反馈	-10.7313
与母亲	-10.7313
你一直	-10.7315
如果想要	-10.7315
型的	-10.7318
电脑	-10.7321
(1)	-10.7322
容忍	-10.7322
鬼	-10.7323
频率	-10.7323
若是	-10.7323
在自己身上	-10.7323
长时间的	-10.7326
建立在	-10.7326
是非	-10.7328
一番	-10.7332
需要帮助	-10.7332
祝愿	-10.7333
也是正常的	-10.7334
可以让你	-10.7338
爽	-10.7343
一个人在	-10.7344
完成了	-10.735
爱一个人	-10.735
亲密的	-10.7351
射	-10.7351
形容	-10.7353
旁边	-10.7354
调整心态	-10.7354
占有欲	-10.7355
有很多的	-10.7357
怎么看	-10.7358
画面	-10.7362
情绪化	-10.7365
婚姻的	-10.7366
你的叙述	-10.7368
感谢你的问题	-10.7368
自我意识	-10.7369
年代	-10.7373
老是	-10.7374
希望我的回答能够	-10.7375
得好	-10.7378
避开	-10.7378
浓	-10.7379
最佳	-10.7379
投射到	-10.738
诚	-10.738
谈话	-10.7383
又觉得	-10.7385
协商	-10.7385
。2)	-10.7387
是很好的	-10.7387
觉知	-10.7387
正向	-10.7389
自己心里	-10.7389
只是一种	-10.7394
不高兴	-10.7394
酸	-10.7399
社会上	-10.7405
面临着	-10.7405
这可能是	-10.7409
处理问题	-10.7409
对未来的	-10.7411
性质	-10.7411
19	-10.7413
需要时间	-10.7414
天下	-10.7414
漏	-10.7415
状态下	-10.7416
静下来	-10.7416
步入	-10.7418
有一次	-10.7418
失利	-10.7419
的所有	-10.7427
婚姻关系	-10.7428
存在的问题	-10.7428
这样的感觉	-10.7428
也非常	-10.7431
不甘	-10.7432
理解你的心情	-10.7433
你并没有	-10.7434
就是因为	-10.7435
性教育	-10.7435
我已经	-10.7437
厌	-10.7439
现阶段	-10.744
坑	-10.7444
遭到	-10.7448
拆	-10.7449
别人的看法	-10.7449
那位	-10.7459
那边	-10.7462
自己的认知	-10.7463
之分	-10.7464
但是现在	-10.7473
的种种	-10.7474
重男轻女	-10.7477
好看	-10.748
人无完人	-10.748
宠	-10.7481
议论	-10.7482
你为什么	-10.7484
正因为	-10.7484
不通	-10.7485
提出来	-10.7488
失败了	-10.7491
教学	-10.7492
主导	-10.7499
展	-10.75
因为没有	-10.7505
填	-10.7509
可以改变	-10.7514
型人格	-10.7518
伤口	-10.7519
向上	-10.7522
还不错	-10.7524
分清	-10.7525
本能的	-10.7529
和改变	-10.7534
联想	-10.7535
这是很正常的	-10.7536
️。	-10.7537
很大程度上	-10.7543
小建议	-10.7544
累积	-10.7546
学习一些	-10.7546
被认可	-10.7546
一个新的	-10.7552
忍耐	-10.7554
促使	-10.756
罗	-10.756
你才会	-10.756
我们要学会	-10.7561
很严重	-10.7568
扰	-10.7571
证书	-10.7572
给楼主一个拥抱	-10.7574
就意味着	-10.7574
对自己的评价	-10.7575
一时的	-10.7575
h	-10.7576
在别人	-10.7576
有动力	-10.7578
证明你	-10.7579
清楚的	-10.758
祝你幸福快乐	-10.7581
对你说	-10.7581
自己的心态	-10.7593
也是在	-10.7594
我们内心	-10.7598
和平	-10.7603
并没有什么	-10.7604
=	-10.7605
方式来	-10.7605
麻	-10.7605
尖	-10.7606
遵循	-10.7607
在不断	-10.7607
不知道该怎么	-10.7607
流泪	-10.7608
协助	-10.7609
哲学	-10.761
ノ	-10.761
只有你自己	-10.761
这个家	-10.7612
帮助孩子	-10.7619
的冲动	-10.7622
帮他	-10.7624
在内心	-10.7625
学会了	-10.7628
事情发生	-10.7631
渣	-10.7633
衷	-10.7637
的言语	-10.7639
做的不好	-10.7639
换句话说	-10.764
触发	-10.7641
周边	-10.7642
有一句话	-10.7643
极大的	-10.7645
被压抑	-10.7646
的交往	-10.7646
只要我们	-10.7649
先把	-10.7651
二胎	-10.7652
向他	-10.7652
下一个	-10.7652
而是你	-10.7652
已经有	-10.7658
笑话	-10.7659
对待自己	-10.7662
做家务	-10.7663
的女人	-10.7664
这是我们	-10.7665
活下去	-10.7669
亚	-10.767
显示	-10.767
推荐你	-10.7671
督导	-10.7671
代表着	-10.7675
离异	-10.7676
责任心	-10.7677
到达	-10.7679
会感觉到	-10.7679
小伙伴	-10.7681
其他事情	-10.7683
这两种	-10.7684
时间来	-10.7686
速度	-10.7686
一定会有	-10.7688
但同时	-10.7692
心理学的	-10.7695
事儿	-10.7702
导致自己	-10.7703
唱歌	-10.7703
逛街	-10.7704
辅助	-10.7704
和他在一起	-10.7705
奇	-10.7714
将自己的	-10.7715
便是	-10.7717
一顿	-10.7718
这个情况	-10.772
安好	-10.7722
意志	-10.7726
上述	-10.7728
越好	-10.7728
款	-10.7728
手术	-10.7729
你的妈妈	-10.7733
你对他的	-10.7734
齐	-10.7736
指向	-10.7739
ε	-10.774
适度	-10.7747
提到的	-10.7749
交到	-10.775
我们现在	-10.7753
作品	-10.7756
的视角	-10.7756
何况	-10.7758
做出了	-10.776
蛋	-10.7766
盖	-10.7766
自己的工作	-10.7767
我的建议	-10.7767
的大脑	-10.7768
试一试	-10.777
现在的生活	-10.777
你的困扰	-10.7772
终身	-10.7773
继续下去	-10.7774
处女	-10.7777
如果你是	-10.7779
这说明	-10.778
如果可以的话	-10.7785
自己的状态	-10.7787
偶	-10.7793
句话	-10.7793
想太多	-10.7794
行为上	-10.7795
你也要	-10.7797
急于	-10.7797
卑微	-10.7801
我的理解	-10.7802
现任	-10.7803
不要给自己	-10.7804
灵活	-10.7805
无疑	-10.7805
一下自己的	-10.7807
建议你可以	-10.7807
放松自己	-10.7814
对她的	-10.7821
扩大	-10.7826
充分的	-10.7826
心智	-10.7827
成果	-10.7828
就一定	-10.783
理所当然	-10.7831
迅速	-10.7833
诗	-10.7833
我也会	-10.7833
如果你愿意	-10.7833
边缘	-10.7835
资本	-10.7838
表面上	-10.7839
极其	-10.7841
待遇	-10.7842
深处	-10.7844
如果他们	-10.7844
表现为	-10.7845
不会再	-10.7845
是一个人	-10.7848
放轻松	-10.7851
非常理解	-10.7851
边界感	-10.7853
就说	-10.7859
在哪	-10.7861
思考和	-10.7864
一切都是	-10.7865
对立	-10.7866
叶	-10.7867
爆	-10.7869
拉黑	-10.787
_	-10.787
初三	-10.7875
术	-10.7876
出来了	-10.7877
肯	-10.7881
你描述的	-10.7884
一味地	-10.7885
信任感	-10.7886
景	-10.789
的途径	-10.7891
基因	-10.7894
陪着你	-10.7896
扎	-10.7897
兄弟	-10.7897
也同样	-10.7897
可能也会	-10.7898
很心疼你	-10.7898
附	-10.7898
塞	-10.7899
砸	-10.7899
邻居	-10.79
给你带来了	-10.7902
这种心理	-10.7902
这个年纪	-10.7902
独特	-10.7908
常常会	-10.7914
解决的问题	-10.792
诊	-10.7922
察觉到	-10.7923
这样才能	-10.7926
现代	-10.793
载	-10.7931
甲	-10.7932
择	-10.7932
软弱	-10.7933
争执	-10.7933
纠正	-10.7933
某一个	-10.7935
薄	-10.7936
了解了	-10.7939
怎么会	-10.794
谢谢你	-10.7941
到这里	-10.7942
】!	-10.7946
你们之间的关系	-10.7949
对彼此	-10.795
的人来说	-10.795
是一个比较	-10.795
的区别	-10.7951
的差异	-10.7955
的一方	-10.7956
满足了	-10.7956
的界限	-10.7957
如果你能	-10.7957
日常生活	-10.7958
灰	-10.7959
即使你	-10.7963
不要让自己	-10.7965
琐事	-10.7965
督促	-10.7965
郁闷	-10.7966
隔阂	-10.7966
一大	-10.7967
别人的评价	-10.7968
乐意	-10.7971
最开始	-10.7972
情感上	-10.7973
也没什么	-10.7973
悔	-10.7974
向前	-10.7978
长相	-10.798
只要不	-10.7983
舒	-10.7986
兴	-10.7986
在日常生活中	-10.7987
容易被	-10.7987
是不是也	-10.7989
聚会	-10.7993
得很	-10.7994
眼中的	-10.7995
的环境中	-10.7996
艺	-10.7996
承担责任	-10.7998
挖掘	-10.7998
尝试一下	-10.7998
y	-10.7998
荣	-10.7999
你男友	-10.8004
藏在	-10.8006
会给你	-10.8007
经济上	-10.801
少年	-10.8011
是错的	-10.8012
当地	-10.8018
再者	-10.802
你和你	-10.8021
有几个	-10.8021
我们能	-10.8023
四个	-10.8024
来缓解	-10.8028
问他	-10.8029
一层	-10.8029
是多么	-10.8029
趋	-10.8031
雷	-10.8032
鸟	-10.8032
账	-10.8033
同伴	-10.8034
吃东西	-10.8034
优越感	-10.8034
出去走走	-10.8035
流派	-10.8035
自然就	-10.8039
婚姻中	-10.804
不正常	-10.804
你的男友	-10.8042
营	-10.8045
看他	-10.8047
足以	-10.8048
根据自己的	-10.8051
另一方	-10.8055
得罪	-10.8056
变得越来越	-10.8057
长处	-10.8064
文字中	-10.8065
眼泪	-10.8067
内耗	-10.8068
就把	-10.8074
分散	-10.8074
被骗	-10.8074
恋爱中	-10.8075
的风险	-10.8076
的一些想法	-10.8078
频	-10.808
具体情况	-10.808
认为你	-10.8081
光明	-10.8084
换来	-10.809
也没有什么	-10.809
没有问题	-10.809
始	-10.8091
教会	-10.8091
局限	-10.8094
生活里	-10.8096
逆	-10.8098
干脆	-10.8099
抹	-10.8099
最主要的	-10.8099
吹	-10.81
破裂	-10.81
你不需要	-10.8102
给你一个大大的拥抱	-10.8103
在亲密关系中	-10.8103
的言行	-10.8103
在现实生活中	-10.8107
看得出来你	-10.8115
内心深处的	-10.8116
可靠	-10.8116
也不可能	-10.8119
明星	-10.8119
赞	-10.8119
睡着	-10.8121
我们都知道	-10.8123
的分析	-10.8124
奶	-10.8128
延	-10.8129
危害	-10.8131
的主要	-10.8132
心目中	-10.8132
值得被	-10.8133
渴望被	-10.8133
当面	-10.8133
契机	-10.8134
你最近	-10.8142
深深地	-10.8143
!!!	-10.8146
自己给自己	-10.8155
伴随	-10.8156
核	-10.8158
它会	-10.8161
父母之间	-10.8163
静静	-10.8164
趣	-10.8166
羞愧	-10.8166
换一种	-10.8169
明白自己	-10.8169
目前的状态	-10.8171
的城市	-10.8172
工作和生活	-10.8173
认清	-10.8173
和态度	-10.8173
名字	-10.8174
新的环境	-10.8175
16	-10.8177
带给你的	-10.8177
要多	-10.8179
要相信自己	-10.8179
这其实	-10.818
怎么看待	-10.8185
从此	-10.8189
辛苦了	-10.8192
都不一样	-10.8192
彩	-10.8193
尽量不要	-10.8196
是否能够	-10.8197
开了	-10.8197
躺	-10.8198
薪	-10.8198
替你	-10.8199
支配	-10.8199
这位朋友	-10.82
作者	-10.82
竟然	-10.82
日后	-10.8205
能够感受到你	-10.8205
情绪状态	-10.8208
时间的	-10.8211
也许他	-10.8215
时间和	-10.8215
自己觉得	-10.8217
某一	-10.8217
不用担心	-10.8218
能得到	-10.8221
以下几点	-10.8222
找人	-10.8225
你的心里	-10.8227
只不过是	-10.8229
?【	-10.8232
的品质	-10.8233
撒	-10.8233
吐槽	-10.8234
勇于	-10.8235
这个年龄	-10.8239
来表达	-10.8241
难得	-10.8243
重新开始	-10.8243
身体上的	-10.8244
这会	-10.8246
换成	-10.825
我看到你	-10.8254
自己会	-10.8254
大城市	-10.8254
杯	-10.8261
感觉到你	-10.8263
充实自己	-10.8265
拖延症	-10.8266
唱	-10.8267
你的提问	-10.8267
我的想法	-10.8268
运气	-10.8271
使我们	-10.8272
不是因为	-10.8272
是因为什么	-10.8272
大概率	-10.8275
针对你	-10.8276
那么你就	-10.8277
养育者	-10.8277
在未来	-10.8285
觉得我	-10.8287
也不愿意	-10.8288
顿	-10.8289
这种状况	-10.8294
给你提供	-10.8296
没有人会	-10.8299
自我评价	-10.8301
来满足	-10.8302
枯燥	-10.8303
是不是真的	-10.8304
讨好型人格	-10.8305
社交恐惧	-10.8307
大一	-10.8309
但是她	-10.8309
太久	-10.8312
其实都是	-10.8313
朋友倾诉	-10.8319
即便是	-10.8321
21	-10.8323
我当时	-10.8324
和同事	-10.8326
发生在	-10.8328
透过	-10.8329
完成任务	-10.833
威	-10.8332
被关注	-10.8332
当孩子	-10.8332
闻	-10.8333
无处	-10.8333
找到适合自己的	-10.8333
的差距	-10.8333
触	-10.8334
您的问题	-10.8335
选择权	-10.8336
我们都是	-10.8336
你对自己的	-10.8338
躲避	-10.8339
等着	-10.8341
分手后	-10.8341
也可以选择	-10.8341
迁就	-10.8341
并不意味着	-10.8342
大众	-10.8343
实在是	-10.8345
平静下来	-10.8346
我们的生活	-10.8348
典型的	-10.8348
集中注意力	-10.8348
和你在一起	-10.8349
一代	-10.8352
很糟糕	-10.8353
自我调节	-10.8356
给彼此	-10.8365
的底线	-10.8366
验证	-10.8367
到时候	-10.8367
征	-10.8369
听音乐	-10.8369
的成功	-10.8371
散步	-10.8372
这些东西	-10.8374
吃亏	-10.8376
24	-10.8379
更喜欢	-10.8381
才能更好的	-10.8383
让自己更	-10.8383
加以	-10.8384
然后就	-10.8385
做心理咨询	-10.8385
近期	-10.8386
你要相信	-10.839
40	-10.839
向内	-10.839
大方	-10.8396
的生活方式	-10.84
李	-10.8401
的课程	-10.8402
D	-10.8404
需要一个	-10.8404
但实际上	-10.8405
有很多种	-10.8406
压迫	-10.8407
储	-10.8407
ง	-10.841
同一个	-10.8411
其中的	-10.8412
有条件	-10.8417
我们也要	-10.8417
的道理	-10.8418
?2、	-10.842
通过自己的努力	-10.842
不爽	-10.842
不能改变	-10.8422
做一下	-10.8423
是因为自己	-10.8424
想念	-10.8428
没有谁	-10.8429
应激	-10.843
阿	-10.8434
我以前	-10.8434
时不时	-10.8436
掉了	-10.8437
弃	-10.8437
泪	-10.8438
婚前	-10.8438
可以直接	-10.8439
。2,	-10.8439
让彼此	-10.844
幸福快乐	-10.8441
诉	-10.8442
零食	-10.8443
的时期	-10.8445
所以要	-10.8446
亲密关系中	-10.8451
三种	-10.8453
他还	-10.8453
孩子身上	-10.8455
写的	-10.8457
离世	-10.8457
在里面	-10.8459
都觉得	-10.8459
的诊断	-10.8464
心理的	-10.8466
你们俩	-10.8466
你们是	-10.8467
几十年	-10.8467
遇到过	-10.8468
心意	-10.847
出现在	-10.8471
印	-10.8472
而导致	-10.8473
感觉到了	-10.8474
浪	-10.8475
催促	-10.8476
健	-10.8477
的爱好	-10.8477
面对生活	-10.848
法则	-10.8481
还有一种	-10.8481
剩下的	-10.8483
努力了	-10.8485
回答你的问题	-10.8486
作为家长	-10.8487
常见	-10.849
喜欢什么	-10.8491
被迫	-10.8494
少数	-10.8494
对性	-10.8497
永远是	-10.8501
在你身上	-10.8503
稍	-10.8504
长久的	-10.8506
可以继续	-10.8506
描述来看	-10.8507
掩盖	-10.8509
玩具	-10.8511
撒谎	-10.8512
只要自己	-10.8513
便会	-10.8514
给我们带来	-10.8515
责怪自己	-10.8515
事事	-10.8516
背后的原因	-10.8516
不再是	-10.852
没问题	-10.8523
自己的努力	-10.8525
与人交流	-10.8528
向对方	-10.8532
和时间	-10.8536
只能说	-10.8536
本就	-10.8541
向他们	-10.8542
对母亲	-10.8543
烟	-10.8544
好不好	-10.8544
就会出现	-10.8544
排挤	-10.8544
摩擦	-10.8545
冲击	-10.8546
责骂	-10.8547
不喜欢自己	-10.8552
并不是说	-10.8553
不要怕	-10.8553
猜想	-10.8557
能给你	-10.8558
你身上	-10.8559
愿意去	-10.856
恐惧感	-10.8562
内心的想法	-10.8562
想象中的	-10.8564
的缺失	-10.8564
坚定的	-10.8567
还有一些	-10.8569
慌	-10.857
的前提	-10.8571
如果你不	-10.8573
遇到的问题	-10.8574
大概是	-10.8574
自由的	-10.8577
和家庭	-10.8577
抛	-10.8578
时时刻刻	-10.858
与她	-10.8583
背负	-10.8583
想到了	-10.8584
感兴趣的事情	-10.8587
你的老公	-10.8588
在心理学上	-10.859
与人相处	-10.8592
就像一个	-10.8593
是爱你的	-10.8599
值得被爱	-10.86
浮	-10.8603
而去	-10.8604
面对问题	-10.8606
勉强自己	-10.8607
座	-10.861
可以感受到	-10.8611
响	-10.8613
孝	-10.8614
不幸福	-10.8614
我们先	-10.8617
总是在	-10.8618
任性	-10.8621
会得到	-10.8623
好人	-10.8628
可以让我们	-10.8629
跟人	-10.8632
是为了什么	-10.8638
构成	-10.8639
建立亲密关系	-10.8642
从未	-10.8646
这是正常的	-10.8646
去接纳	-10.8647
武	-10.8649
嫌	-10.865
相处模式	-10.865
俱	-10.865
搜	-10.8651
左	-10.8652
择偶	-10.8652
页	-10.8653
一般人	-10.8654
寂寞	-10.8654
课题	-10.8657
觉得对方	-10.8661
敞开	-10.8668
是一位	-10.867
更好的自己	-10.8671
正处于	-10.8672
。※	-10.8673
中年	-10.8675
诉求	-10.8676
爱是	-10.8676
安静的	-10.8679
可能因为	-10.868
三个月	-10.868
比方说	-10.8682
看不见	-10.8684
潜移默化	-10.8686
赶紧	-10.8687
那么他	-10.8687
推测	-10.8688
从你的描述	-10.8688
跟孩子	-10.8689
过渡	-10.8691
私人	-10.8695
你们都	-10.87
外在的	-10.8702
特定	-10.8703
对你的影响	-10.8705
没有动力	-10.8705
经历中	-10.8707
写出来	-10.8708
潜意识中	-10.8709
对学习	-10.871
整合	-10.8711
你才能	-10.8714
这种情况下	-10.8717
学习中	-10.8719
T	-10.872
歇	-10.8722
很多事	-10.8723
低谷	-10.8725
就会被	-10.8725
一直没有	-10.8726
想要的东西	-10.8727
受伤害	-10.8727
都应该	-10.8728
的联系	-10.8732
还是想	-10.8732
不知道该如何	-10.8735
长得	-10.8738
恭喜你	-10.8739
比我	-10.8739
处处	-10.874
那么大	-10.8743
还得	-10.8745
这样的情绪	-10.8746
就得	-10.8749
来获得	-10.8754
国内	-10.8758
丢人	-10.8759
我之前	-10.8759
奋	-10.8759
占据	-10.8759
决策	-10.876
得以	-10.8762
可能还	-10.8763
控	-10.8766
很大的压力	-10.8766
也许在	-10.877
徒	-10.8771
的闪光点	-10.8771
为什么会这样	-10.8774
上去	-10.8775
这种现象	-10.8776
的女性	-10.8776
出路	-10.8777
无人	-10.8778
影响你的	-10.8779
尤其是在	-10.8779
像个	-10.878
复盘	-10.878
这是我	-10.8781
接受了	-10.8782
你的心	-10.8786
可爱的	-10.8789
安稳	-10.879
攻	-10.8793
的课题	-10.8794
圣	-10.8794
春	-10.8794
劳动	-10.8796
都已经	-10.8796
深层次	-10.8796
成瘾	-10.8797
角落	-10.8797
心里有	-10.8798
虽然我	-10.8799
专家	-10.8801
和父母沟通	-10.8804
和咨询师	-10.8804
自己感兴趣的	-10.8804
你发现	-10.8805
更应该	-10.8807
属于你的	-10.8808
惯	-10.8808
普通的	-10.8811
之所以会	-10.8812
尊重自己	-10.8816
性爱	-10.8817
不能理解	-10.8818
不自觉	-10.8818
我就是	-10.8818
不要被	-10.8822
发泄出来	-10.8825
扔	-10.8825
有意思	-10.8826
做到了	-10.8829
营造	-10.883
熊	-10.883
烂	-10.883
这样会	-10.8833
和睦	-10.8837
又要	-10.8843
的特质	-10.8844
是最重要的	-10.8848
会对你	-10.8849
我曾经	-10.8849
抑郁症患者	-10.8851
结局	-10.8853
善良的	-10.8855
还是在	-10.8857
的情绪状态	-10.8858
如果要	-10.886
你可以先	-10.8862
里面的	-10.8864
细腻	-10.8866
市场	-10.8867
挡	-10.8868
活泼	-10.8869
和需求	-10.887
探	-10.8871
针	-10.8871
自爱	-10.8871
把所有的	-10.8872
调整好	-10.8873
史	-10.8874
和矛盾	-10.888
愿意为	-10.8886
说得	-10.8887
跟随	-10.889
心理负担	-10.889
过不去	-10.8892
午	-10.8896
锻炼自己	-10.8897
题主的问题	-10.8897
特长	-10.8901
畏惧	-10.8902
街	-10.8903
一些时间	-10.8903
祝楼主	-10.8903
疏离	-10.8905
卷	-10.8905
案	-10.8909
学科	-10.8913
第二次	-10.8917
许多人	-10.892
我们知道	-10.892
从来都	-10.8921
话语	-10.8925
11	-10.8925
爱意	-10.8926
专业的心理咨询师	-10.8929
打人	-10.893
是否愿意	-10.8931
记忆力	-10.8934
舞	-10.8934
斗	-10.8934
和接纳	-10.8935
和你一起	-10.8936
大量的	-10.8938
纳	-10.8938
之上	-10.8938
两个方面	-10.8938
取舍	-10.894
可能存在	-10.8942
怕自己	-10.8942
同桌	-10.8944
素	-10.8946
拒绝别人	-10.8948
的个性	-10.895
新的生活	-10.8953
在意他人	-10.8954
去考虑	-10.8957
去适应	-10.8961
都是正常的	-10.8963
学会爱自己	-10.8971
好的一面	-10.8971
感情中	-10.8972
伸	-10.8977
而且还	-10.8977
分辨	-10.8978
和恐惧	-10.8982
为别人	-10.8983
成长经历	-10.8983
租	-10.8985
负面评价	-10.8986
康复	-10.8986
?*	-10.8987
强制	-10.899
用了	-10.8994
笔记	-10.8996
多想	-10.8998
在这个世界上	-10.9
的女儿	-10.9002
就不能	-10.9004
大多数人都	-10.9009
废	-10.9011
拓展	-10.9013
发表	-10.9013
?......	-10.9013
右	-10.9014
发掘	-10.9015
去体验	-10.9017
大量	-10.9017
甘	-10.9023
不顺	-10.9025
暗恋	-10.9025
努力地	-10.9031
缓解焦虑	-10.9031
你们两个人	-10.9031
有更好的	-10.9031
毕业后	-10.9032
不仅是	-10.9035
的是你	-10.9037
与家人	-10.9042
看到题主	-10.9044
找你	-10.9046
两个人都	-10.9048
尾	-10.9048
介入	-10.905
任何事情	-10.9053
不如别人	-10.9054
因此我们可以	-10.9054
交往中	-10.9062
也不好	-10.9064
得到别人的	-10.9064
什么东西	-10.9081
会比	-10.9083
柔	-10.9086
不耐烦	-10.9087
和鼓励	-10.9088
风雨	-10.9088
赞同	-10.909
舒适圈	-10.909
抛开	-10.9091
外婆	-10.9092
做着	-10.9092
想得到	-10.9093
有这样的想法	-10.9094
清单	-10.9095
疫情期间	-10.9096
某些事情	-10.9099
回顾	-10.91
和现实	-10.9101
士	-10.9102
有好处	-10.9102
新鲜感	-10.9104
获得了	-10.9106
发言	-10.9108
结束了	-10.9111
的刺激	-10.9112
在你们	-10.9113
阻	-10.9114
你说自己	-10.9115
感谢你	-10.9116
予	-10.9118
处境	-10.912
手淫	-10.9121
这个家庭	-10.9121
并不知道	-10.9123
摄	-10.9124
一无是处	-10.9124
来这里	-10.9124
偿	-10.9125
的情景	-10.9125
异性朋友	-10.9125
负罪感	-10.9126
及时止损	-10.9126
类型的	-10.9127
优缺点	-10.9128
吃的	-10.9132
一道	-10.9133
一些方法	-10.9135
生日	-10.9136
我不想	-10.9136
本性	-10.9139
但还是	-10.9139
成员	-10.9142
是怎么想的	-10.9142
以此来	-10.9143
发泄情绪	-10.9144
抽离	-10.9147
思考问题	-10.9147
持续的	-10.9148
更适合	-10.9151
生病了	-10.9152
要好	-10.9153
一个目标	-10.9157
后期	-10.9158
吼	-10.9159
有所改变	-10.9161
帅	-10.9161
看电影	-10.9161
受伤的	-10.9161
希望我的回答能够帮助到你	-10.9163
如期而至	-10.9166
的地步	-10.9167
急着	-10.917
知识点	-10.917
很强的	-10.917
不自在	-10.9171
和情感	-10.9171
坐在	-10.9173
现实生活	-10.9173
觉得别人	-10.9174
详细的	-10.9175
你曾经	-10.9175
内在小孩	-10.9176
一个朋友	-10.9177
知道他	-10.9181
受到影响	-10.9188
要做的是	-10.9188
维	-10.9189
认识到自己	-10.9189
接触到	-10.9193
被尊重	-10.9194
祝您	-10.9195
是不是可以	-10.9195
军	-10.9195
在努力	-10.9196
多看	-10.9196
愤	-10.9197
瓶	-10.9198
助人	-10.92
你的行为	-10.92
提示	-10.92
的模样	-10.9201
情绪问题	-10.9205
释放压力	-10.9207
这么想	-10.9208
着手	-10.9209
完全不	-10.921
之心	-10.9213
一起玩	-10.9213
一个过程	-10.9214
在现实中	-10.9214
给予自己	-10.9217
反思自己	-10.9218
身边的朋友	-10.922
惯性	-10.9222
我记得	-10.9223
握	-10.9224
放松心情	-10.9228
。○	-10.923
对于一个	-10.9232
野	-10.9233
可以适当	-10.9234
这些话	-10.9234
挤	-10.9234
不但	-10.9235
的生活状态	-10.9235
共鸣	-10.9237
或者说是	-10.9238
多方面	-10.9239
大哭	-10.924
相处时	-10.9243
温暖和	-10.9246
很好奇	-10.9249
有安全感	-10.925
无条件的	-10.9252
而来	-10.9253
他就会	-10.9256
并不一定	-10.926
某个人	-10.9261
等方面	-10.9261
开心快乐	-10.9262
的阴影	-10.9264
删	-10.9269
鼓励和	-10.9272
想成为	-10.9273
立场	-10.9274
公务员	-10.9275
这个时期	-10.9279
的概念	-10.928
意思是	-10.928
假期	-10.928
会使	-10.9286
玩耍	-10.9286
不带	-10.9288
岁月	-10.9289
。————————————————	-10.929
学习心理学	-10.9291
专业的心理咨询	-10.9293
他的行为	-10.9293
之后再	-10.9294
过错	-10.9294
的语气	-10.9294
看到您	-10.9296
在恋爱	-10.9297
老家	-10.9297
。)2、	-10.93
自觉	-10.93
不想去	-10.9302
能够接受	-10.9303
判	-10.9306
我看到了	-10.9309
难以接受	-10.931
很担心	-10.931
看成	-10.931
规范	-10.931
寄	-10.931
南	-10.9311
章	-10.9312
闯	-10.9313
懒惰	-10.9313
肌肉	-10.9313
业务	-10.9314
对婚姻	-10.9314
借鉴	-10.9315
教育孩子	-10.9315
吓	-10.9316
非常大的	-10.9322
相当于	-10.9324
能帮助你	-10.9324
应当	-10.9325
为对方	-10.9325
但是他们	-10.9328
好像是	-10.9329
线上	-10.933
怎么能	-10.9331
赢得	-10.9332
公开	-10.9334
使人	-10.9337
强加	-10.9338
他对你的	-10.9339
既然是	-10.934
冒	-10.9342
吃了	-10.9344
正常人	-10.9345
两个月	-10.9345
值得你	-10.9345
得起	-10.9345
正能量	-10.9346
狠	-10.935
买了	-10.9351
表演	-10.9351
升级	-10.9351
自己的兴趣爱好	-10.9352
在意别人的看法	-10.9353
甚	-10.9353
哟	-10.9353
心里面	-10.9357
在其中	-10.9358
会引起	-10.9358
还小	-10.9359
欠缺	-10.936
交流一下	-10.936
单一	-10.9366
见解	-10.9367
的拥抱	-10.9368
做好了	-10.9371
假如你	-10.9378
庆幸	-10.938
其他的事情	-10.9381
才是最	-10.9382
反映出	-10.9383
峰	-10.9387
•	-10.9389
敷衍	-10.9389
季	-10.939
而对于	-10.939
怀念	-10.9391
思维模式	-10.9392
比较强	-10.9394
对父母的	-10.9394
坚	-10.9395
调整自己的心态	-10.9397
就医	-10.9398
焦虑恐惧	-10.9398
也可以通过	-10.9401
如你所说	-10.9404
职业规划	-10.9408
做咨询	-10.9409
没有人可以	-10.9409
在这个时候	-10.9411
看得出你	-10.9412
不影响	-10.9418
我们不妨	-10.9419
某件事	-10.9424
挣	-10.9425
手中	-10.9425
凶	-10.9425
皮肤	-10.9427
失误	-10.9429
防止	-10.9429
起伏	-10.9429
愿世间美好与你	-10.9432
媳妇	-10.9433
但我想	-10.9435
遇事	-10.9436
的衣服	-10.9438
到来	-10.944
大学生活	-10.944
无用	-10.9445
固	-10.9446
的概率	-10.9447
经济独立	-10.9447
在我们的	-10.9449
与之	-10.9453
的感受和想法	-10.9453
感到非常	-10.9454
这个话题	-10.9457
删除	-10.9458
处事	-10.9458
都是需要	-10.946
卫	-10.9461
的信心	-10.9462
著名	-10.9463
式的	-10.9463
以下几个	-10.9463
敬	-10.9464
你可以把	-10.9465
幽默	-10.9465
忠诚	-10.9466
报警	-10.9467
所带来的	-10.9468
就像我们	-10.9468
深深	-10.9469
这个状态	-10.9469
放开	-10.9472
举动	-10.9472
就有了	-10.9475
感受一下	-10.9477
不顺心	-10.948
顺畅	-10.948
全面的	-10.9485
的内心世界	-10.9488
。5.	-10.9488
心灵的	-10.9489
看到你说	-10.9489
既然已经	-10.9491
反而是	-10.9491
情绪不稳定	-10.9492
无比	-10.9493
不定	-10.9493
可以寻求	-10.95
罚	-10.9502
立马	-10.9503
无可厚非	-10.9504
花时间	-10.9504
呗	-10.9505
字里行间	-10.9505
如果孩子	-10.9509
讨好别人	-10.9511
一点点的	-10.9515
看了你的	-10.9519
联想到	-10.9522
人人都	-10.9522
不久	-10.9524
这是因为	-10.9525
14	-10.9527
摇	-10.9527
祝福题主	-10.9529
真诚地	-10.953
就行了	-10.953
无趣	-10.9534
粗	-10.9537
做一件事	-10.9538
说一说	-10.954
纵	-10.9541
凉	-10.9541
到位	-10.9542
g	-10.9543
楼主需要	-10.9544
有时候会	-10.9545
早起	-10.9545
同理心	-10.9548
利弊	-10.9548
是个很	-10.9549
影子	-10.9551
很敏感	-10.9557
要改变	-10.9559
对方身上	-10.9559
你只需要	-10.9561
不够自信	-10.9564
恰恰是	-10.9564
在身边	-10.9564
有意识的	-10.9568
这是个	-10.9571
小女孩	-10.9571
生意	-10.9574
---	-10.9575
就是为了	-10.958
吻	-10.958
胡	-10.9582
相信你一定	-10.9582
恒	-10.9582
紧绷	-10.9583
疼爱	-10.9586
这种人	-10.959
积极地	-10.9593
很低	-10.9596
的正常	-10.9596
眼前的	-10.9598
不要过于	-10.9598
楚	-10.9598
很爱你	-10.9601
前者	-10.9602
把孩子	-10.9602
需要通过	-10.9605
一路	-10.961
别人对你的	-10.961
缓解压力	-10.9611
是否要	-10.9611
发生什么	-10.9614
看到了你的	-10.9615
但现在	-10.9615
一名	-10.9617
教训	-10.9617
是完全	-10.9618
不想要	-10.962
无缘无故	-10.962
浪费时间	-10.9621
阵	-10.9621
你爸爸	-10.9624
心理学中	-10.9626
哪些事情	-10.9627
的事情上	-10.9628
原来的	-10.9629
最坏	-10.963
找心理咨询师	-10.9635
保守	-10.9636
喜欢的东西	-10.9638
坏人	-10.9639
不论是	-10.964
喜欢她	-10.9641
过激	-10.9644
不成	-10.9647
减压	-10.9648
少一些	-10.9651
力气	-10.9654
要怎么	-10.9658
怎么样呢	-10.9658
严肃	-10.9659
失业	-10.966
动态	-10.966
视野	-10.9662
压力过大	-10.9662
感受到了你的	-10.9663
成长起来	-10.9665
也只能	-10.9669
容易产生	-10.9673
接收	-10.9675
不给	-10.9676
合适的人	-10.9678
有两种	-10.9678
但他们	-10.9679
无视	-10.968
的原则	-10.9681
优先	-10.9685
而是要	-10.9687
买房	-10.969
强行	-10.969
反倒	-10.9692
渴求	-10.9695
伯	-10.9697
鸡	-10.9697
弗洛伊德	-10.9698
肩	-10.9698
称之为	-10.9699
讲的	-10.97
你的丈夫	-10.9701
偶然	-10.9701
以上是我的一点建议	-10.9704
表达了	-10.9713
不佳	-10.9713
而产生的	-10.9713
为止	-10.9716
忽视了	-10.9718
首先是	-10.9719
把这种	-10.9719
中学	-10.9719
善良的人	-10.972
在成长过程中	-10.9727
已经开始	-10.9728
从容	-10.9729
惜	-10.973
间接	-10.9732
的决心	-10.9737
疲劳	-10.9737
残酷	-10.9738
搜索	-10.9738
申请	-10.9739
免费	-10.9739
养活自己	-10.9739
振	-10.974
就够了	-10.974
况且	-10.9741
劳逸结合	-10.9741
看待问题	-10.9742
积极向上	-10.9744
制定一个	-10.9748
起点	-10.9755
就说明	-10.9756
推动	-10.9758
千万	-10.9759
行事	-10.976
这个目标	-10.9761
在感情中	-10.9762
想要得到	-10.9763
实质	-10.9767
高级	-10.9773
汉	-10.9775
登	-10.9776
孕	-10.9778
不知不觉	-10.9779
涌	-10.9779
感觉到自己	-10.9781
对一个人	-10.9783
成年后	-10.9784
逼着	-10.9785
的功课	-10.9785
会有什么	-10.9787
手上	-10.9787
我们总是	-10.9788
又没有	-10.9789
育	-10.9793
随之	-10.9794
检	-10.9794
太少	-10.9794
的童年	-10.9795
人情	-10.9795
;2、	-10.9796
有任何	-10.9799
那一刻	-10.9799
你仍然	-10.98
有什么问题	-10.9801
二十	-10.9803
伤害别人	-10.9804
旁人	-10.9805
上天	-10.9806
都会遇到	-10.9807
哪些方面	-10.9809
楼主的内心	-10.9809
?1.	-10.9811
还是可以	-10.9816
赞赏	-10.9817
宁愿	-10.9818
为什么会有	-10.9818
激活	-10.9818
鼓起勇气	-10.9819
可以帮助我们	-10.982
对症下药	-10.982
现在的情况	-10.9821
自己认为	-10.9823
这个孩子	-10.9824
一切安好	-10.9825
迟到	-10.9827
精神科	-10.9828
儿女	-10.9829
很多次	-10.9832
虽	-10.9832
走出去	-10.9836
该不该	-10.9838
喜欢的事情	-10.9841
这一步	-10.9843
希望别人	-10.9845
每周	-10.9845
就如	-10.9845
目前的情况	-10.9847
17	-10.9848
面临的	-10.9848
想象中	-10.9849
未完成	-10.9855
社恐	-10.9856
意识自我	-10.9856
竭	-10.9857
潮	-10.9857
不动	-10.9857
祸	-10.9858
不由自主	-10.986
检验	-10.986
化妆	-10.986
转化为	-10.986
觉得自己很	-10.9862
已婚	-10.9864
约会	-10.9865
一张	-10.9866
无效	-10.987
有多么	-10.9872
并不想	-10.9877
最难	-10.988
工作能力	-10.9882
清理	-10.9886
赌	-10.9889
婚姻是	-10.9891
您说	-10.9893
超出	-10.9896
你妈	-10.9897
缠	-10.9898
对对方的	-10.9898
?3.	-10.99
网友	-10.99
出问题	-10.99
伟大	-10.9901
青年	-10.9902
全新的	-10.9906
恰好	-10.9909
凭什么	-10.9909
都是为了	-10.991
情节	-10.9911
旁	-10.9912
管教	-10.9912
我猜想	-10.9916
帮她	-10.9921
夸大	-10.9927
问题所在	-10.9932
就知道	-10.9934
有太多	-10.9936
袭	-10.9936
抖	-10.9936
家庭氛围	-10.9938
咋	-10.9938
焦躁	-10.9938
苛刻	-10.9938
色彩	-10.9939
醉	-10.9939
而这种	-10.994
纷	-10.994
的立场	-10.994
不回	-10.9941
如何面对	-10.9941
在这方面	-10.9941
?️	-10.9942
脑袋	-10.9942
多疑	-10.9943
很抱歉	-10.9948
关照	-10.9952
一个阶段	-10.9953
外出	-10.9954
是件	-10.9954
也并不是	-10.9954
还会有	-10.9958
的伤痛	-10.9959
但不是	-10.9959
上瘾	-10.996
渴望得到	-10.9963
为孩子	-10.9966
无意识的	-10.9972
泛化	-10.9972
和无助	-10.9973
是人类	-10.9976
粘	-10.9977
收益	-10.9978
陈	-10.9978
无形中	-10.9979
一种是	-10.9981
维度	-10.9983
独立自主	-10.9985
又如何	-10.9986
毕竟是	-10.9986
是一个很好的	-10.9986
不知道该怎么办	-10.9988
平常心	-10.9992
过去的事情	-10.9992
换工作	-10.9994
尝试过	-11
感觉不到	-11.0004
踏	-11.0005
称为	-11.0008
一分	-11.0009
苦难	-11.0011
同时又	-11.0011
离家	-11.0012
监	-11.0015
:1)	-11.0015
被孤立	-11.0016
直觉	-11.0016
X	-11.0017
迹	-11.0018
进行心理咨询	-11.002
除此之外	-11.0021
都比较	-11.0027
的回忆	-11.0028
把注意力放在	-11.0028
就很容易	-11.0029
重心	-11.003
看到他	-11.0031
固有	-11.0033
贴上	-11.0034
人间	-11.0038
两方面	-11.0043
最需要	-11.0044
劣势	-11.0048
的体现	-11.0049
这很正常	-11.005
行为背后	-11.0054
男女朋友	-11.0055
并没有那么	-11.0056
均	-11.0058
返	-11.0059
政	-11.0059
也就不会	-11.006
活跃	-11.0062
从这个角度	-11.0062
来临	-11.0062
睡眠质量	-11.0063
词语	-11.0064
重建	-11.0066
共处	-11.0067
你必须	-11.0068
做自己喜欢的事情	-11.0069
不负责任	-11.0072
想象的那么	-11.0073
到自己身上	-11.0074
身处	-11.0075
上进心	-11.0078
我也有	-11.0079
和看法	-11.008
深刻的	-11.0083
这段婚姻	-11.0083
行为模式	-11.0084
有一部分	-11.0085
不感兴趣	-11.0086
发生变化	-11.0087
那段时间	-11.0088
而现在	-11.009
自己的性格	-11.009
潜意识自我	-11.0092
表达自己的想法	-11.0096
抑制	-11.01
泥	-11.0101
含义	-11.0102
控制不了	-11.0103
要好好	-11.0103
丰	-11.0103
过上	-11.0105
祝您生活愉快	-11.0106
对外界	-11.0109
苛责自己	-11.011
希望能帮助到你	-11.011
作为父母	-11.0111
所做的	-11.0113
被重视	-11.0116
的相处方式	-11.0119
前期	-11.0124
享	-11.0125
对事情	-11.0131
短时间内	-11.0131
以免	-11.0132
表示理解	-11.0134
成为自己	-11.0137
跟朋友	-11.014
情感上的	-11.0141
环	-11.0142
连续	-11.0143
换一个角度	-11.0146
喜好	-11.0146
展开	-11.0147
看电视	-11.0148
朋友关系	-11.015
也是可以的	-11.0151
心理准备	-11.0154
对感情	-11.0154
的关系中	-11.0154
如果是这样	-11.0158
临床	-11.0159
带你	-11.0161
放空	-11.0161
真实的感受	-11.0162
一起努力	-11.0162
只要是	-11.0163
往后	-11.0165
自己的未来	-11.0173
有事	-11.0174
这事	-11.0177
苛责	-11.0177
完全没有	-11.0179
能够做到	-11.0179
拜	-11.0184
忠	-11.0184
港	-11.0186
自己的看法	-11.0187
简短	-11.0188
的圈子	-11.0189
业余	-11.0189
研	-11.019
能够感觉到	-11.019
沟通方式	-11.019
的基本	-11.019
心里话	-11.0191
相信你会	-11.0193
成为更好的自己	-11.0193
了许多	-11.0194
的眼睛	-11.02
去行动	-11.0201
遇到事情	-11.0207
出现了问题	-11.0208
的世界里	-11.0209
熟悉的人	-11.0213
语气	-11.0216
为什么呢	-11.0217
应有的	-11.0218
没有对错	-11.022
。️️️	-11.0223
非常理解你	-11.0224
兼	-11.0226
纠结于	-11.0227
进展	-11.0228
你可以通过	-11.0228
文中	-11.0229
表达方式	-11.0233
交集	-11.0235
人的一生	-11.0235
突出	-11.0238
这条路	-11.024
愧疚感	-11.0244
考量	-11.0245
这种关系	-11.0245
驱	-11.0245
往前走	-11.0246
至今	-11.0248
这样的关系	-11.0251
情绪管理	-11.0252
自己的家庭	-11.0252
早日走出	-11.0254
家中	-11.0254
条件允许	-11.0255
你自己也	-11.0256
过来的	-11.0257
走得	-11.026
历	-11.026
鞋	-11.0261
都有可能	-11.0265
阿德勒	-11.0266
先给你一个温暖的抱抱	-11.0267
的形成	-11.0267
冥想星球	-11.0268
是正确的	-11.0269
有用的	-11.027
面对现实	-11.0271
了很久	-11.0272
心理建设	-11.0277
很多很多	-11.0277
也罢	-11.0279
也有一些	-11.0281
宝贵的	-11.0291
是有限的	-11.0292
觉察一下	-11.0292
自行	-11.0293
如何解决	-11.0296
的全部	-11.0296
对着	-11.03
和谐的	-11.0301
也没关系	-11.0304
行动力	-11.0305
肤	-11.0305
自己的力量	-11.0307
经典	-11.0308
擦	-11.0308
紧密	-11.0308
猛	-11.0309
委	-11.0309
细致	-11.0309
两个孩子	-11.031
融合	-11.0311
局限性	-11.0313
好奇心	-11.0317
这个朋友	-11.032
释放出来	-11.0321
言行	-11.0323
特性	-11.0323
不肯	-11.0328
对方是否	-11.0329
费用	-11.033
哈哈	-11.0331
的角度去	-11.0335
一个个	-11.0336
。)3、	-11.0336
无法理解	-11.0338
他身上	-11.034
又或者是	-11.0344
的处理方式	-11.0347
眠	-11.0349
乏	-11.0349
觉得自己是	-11.035
肢体	-11.0351
贡献	-11.0352
无意义	-11.0352
首要	-11.0353
权益	-11.0353
给题主一个温暖的抱抱	-11.0354
平稳	-11.0356
意义上	-11.0364
精神状态	-11.0365
双向	-11.0365
什么事情都	-11.0371
的沟通方式	-11.0381
首先需要	-11.0383
体力	-11.0389
播	-11.0392
尊严	-11.0393
厌倦	-11.0394
损害	-11.0394
准确的	-11.0394
谈到	-11.0395
填补	-11.0395
权衡	-11.0395
诚实	-11.0396
独立的个体	-11.0399
熟人	-11.04
电视	-11.0401
会觉得自己	-11.0402
能够得到	-11.0404
爱与	-11.041
聚焦	-11.0411
对工作	-11.0421
这些情况	-11.0423
发生了什么事情	-11.0424
疏	-11.0425
的一点是	-11.0428
不停	-11.0428
弊	-11.0432
尿	-11.0433
强迫性	-11.0434
那么我们可以	-11.0434
敌意	-11.0435
忍让	-11.0436
从题主的	-11.0437
几句	-11.0437
大可不必	-11.0438
随着时间	-11.044
自已	-11.0444
做一些事情	-11.0449
只看到	-11.045
哪方面	-11.0452
很像	-11.0453
愤怒和	-11.0453
比较难	-11.0457
发自内心的	-11.0459
特别想	-11.0459
一人	-11.046
规	-11.0462
让妈妈	-11.0463
在学习上	-11.0464
和愤怒	-11.0468
做选择	-11.0468
对朋友	-11.047
在遇到	-11.047
大胆的	-11.0471
你就不会	-11.0472
无可	-11.0473
挺好	-11.0473
是好事	-11.0474
都是一种	-11.0474
扭曲	-11.0476
还有什么	-11.0479
你就要	-11.0479
毅力	-11.0479
麻木	-11.048
反击	-11.048
自助	-11.0481
这个东西	-11.0482
家人朋友	-11.0483
基础上	-11.0484
在你心里	-11.0484
在乎你	-11.0486
因为对方	-11.0487
也可以是	-11.0487
能够理解你	-11.0491
理想中的	-11.0499
为自己负责	-11.0501
产生一些	-11.0508
不好受	-11.0509
为你好	-11.0513
系统的	-11.0515
人心	-11.0515
版	-11.052
多多少少	-11.052
攀比	-11.0521
嗨	-11.0522
屏蔽	-11.0522
留下了	-11.0523
谎言	-11.0523
伦理	-11.0526
希望可以帮助到你	-11.0528
拉近	-11.0531
不想再	-11.0532
很长时间	-11.0532
访	-11.0533
没关系的	-11.0534
向别人	-11.0535
负面的情绪	-11.0536
情绪失控	-11.054
调动	-11.0543
熟练	-11.0548
憋	-11.0549
就像你说的	-11.055
认可自己	-11.0553
激起	-11.0557
回忆一下	-11.056
看到了你	-11.0563
票	-11.0563
做什么事情	-11.0564
萌	-11.0564
人生的意义	-11.0564
购物	-11.0565
追寻	-11.0567
不熟悉	-11.0572
不太会	-11.0573
才能让	-11.0573
的喜好	-11.0574
也很重要	-11.0574
现有的	-11.0581
病症	-11.0581
为了避免	-11.0581
断了	-11.0581
***	-11.0584
经济条件	-11.0586
提出了	-11.0587
一直都在	-11.0592
莫名的	-11.0592
给父母	-11.0596
新的朋友	-11.0598
与朋友	-11.0601
泄	-11.0602
也不太	-11.0604
题主应该	-11.0605
以下是我的分析	-11.0609
自己的内在	-11.0609
毫不	-11.0613
和其他人	-11.0613
制度	-11.0614
我身边	-11.0615
多沟通	-11.0615
和爸爸	-11.0618
绝不	-11.0618
老实	-11.062
劝说	-11.0621
更多的人	-11.0621
何必	-11.0626
都知道	-11.0628
就不会那么	-11.0628
会有不同的	-11.0629
锻炼身体	-11.0629
任何时候	-11.0631
焦点	-11.0632
这样的感受	-11.0633
自己的时间	-11.0633
速	-11.0634
错过了	-11.0635
的教育方式	-11.0635
适	-11.0635
家庭条件	-11.0635
侵	-11.0637
呆在	-11.0639
耻	-11.0642
论文	-11.0645
忽然	-11.0651
食欲	-11.0652
怪圈	-11.0654
在你面前	-11.0655
对父亲	-11.0661
才可能	-11.0661
也愿意	-11.0662
这个专业	-11.0662
关键在于	-11.0662
不停地	-11.0663
相信他	-11.0664
多长时间	-11.0664
集中在	-11.0665
相处的过程中	-11.0666
机器	-11.0666
下意识	-11.0667
你的痛苦	-11.0668
甚至还	-11.0669
分成	-11.0669
有可能会	-11.0688
以便	-11.0688
我个人觉得	-11.0689
扇	-11.0694
设立	-11.0695
心甘情愿	-11.0696
思念	-11.0698
让自己感到	-11.07
有那么多	-11.0701
体育	-11.0703
一起生活	-11.0707
帮我	-11.0707
主角	-11.0714
想问	-11.0718
看了你的问题	-11.0718
自然就会	-11.0718
遗	-11.0726
也可以尝试	-11.0726
引发的	-11.0728
过日子	-11.073
这其实是	-11.0731
祖	-11.0734
腹	-11.0735
志同道合	-11.0736
仇	-11.0736
服从	-11.0737
扯	-11.0737
踩	-11.0737
荒	-11.0738
读研	-11.0739
敏锐	-11.0739
有自己的想法	-11.0742
性格内向	-11.0742
就只能	-11.0742
多个	-11.0742
祝安好	-11.0744
一切都会	-11.0747
身为	-11.0749
可以解决	-11.075
你的选择	-11.0751
各个	-11.0753
只要有	-11.0753
不难	-11.0754
的天性	-11.0757
被接纳	-11.0758
楼主的问题	-11.0763
该怎么做	-11.0763
孩子的成长	-11.0764
这个样子	-11.0765
?3、	-11.0772
染	-11.0773
亲子	-11.0775
把对方	-11.0776
赛	-11.0777
自如	-11.0778
傲	-11.0779
灾难	-11.078
类似于	-11.078
满满	-11.0781
放在心上	-11.0781
讲究	-11.0783
触动	-11.0783
职责	-11.0783
赏	-11.0783
体内	-11.0786
让自己开心	-11.0786
美食	-11.0788
相识	-11.0788
全职	-11.0789
结婚后	-11.0789
看待对待	-11.0789
并未	-11.0792
恰当的	-11.0797
就会发现	-11.0798
问我	-11.0799
比我们	-11.0802
我的看法	-11.0806
被否定	-11.0812
敏感的人	-11.0815
很苦恼	-11.0817
再一次	-11.0817
影响到你的	-11.0818
三次	-11.0821
就很难	-11.0823
飘	-11.0824
货	-11.0826
我才	-11.0828
例外	-11.0829
你们在一起	-11.0829
学习效率	-11.0829
1)	-11.083
冷落	-11.083
去年	-11.083
的唯一	-11.0833
我个人认为	-11.0833
天使	-11.0834
把问题	-11.0835
的角度来看	-11.0839
总有一天	-11.084
也是非常	-11.084
乡	-11.0841
大宝	-11.0845
对自己的要求	-11.085
让步	-11.0853
自己的兴趣	-11.0854
爱不爱	-11.0855
有所不同	-11.0868
&	-11.0869
上来说	-11.087
兵	-11.087
教导	-11.087
壮	-11.087
的初衷	-11.0871
执念	-11.0872
在你的描述中	-11.0873
提高自己	-11.0873
在你身边	-11.0874
不能说	-11.0876
我们先来	-11.0878
这个男人	-11.0879
看待自己	-11.088
过去的经历	-11.0881
这个事实	-11.0882
告诉父母	-11.0883
做点什么	-11.0884
空气	-11.0894
育儿	-11.0895
看出来	-11.0896
技	-11.0896
对身体	-11.0897
你的家庭	-11.0898
不知道你有没有	-11.0899
的兴趣爱好	-11.0899
口中	-11.0902
目光	-11.0903
焦虑的情绪	-11.0903
进度	-11.0904
的状态下	-11.0904
进入了	-11.0907
是我们自己	-11.0908
生活和工作	-11.0909
很难做到	-11.091
充足的	-11.0913
迫切	-11.0914
有以下	-11.0915
预测	-11.0915
这并不	-11.0915
湾	-11.0916
不起来	-11.0916
虚假	-11.0917
公益	-11.0917
脚步	-11.0919
早已	-11.092
我们的人生	-11.0923
精神病	-11.0924
的频率	-11.0925
提及	-11.0927
你的潜意识	-11.0928
坏话	-11.093
必要的时候	-11.0935
的主人	-11.0936
高效	-11.0936
倾听者	-11.0937
先不要	-11.0938
很委屈	-11.094
的乐趣	-11.0943
你对她的	-11.0943
做一件事情	-11.0944
自己喜欢的人	-11.0944
那种感觉	-11.0946
星期	-11.0948
对于自己的	-11.0949
相对来说	-11.0954
更愿意	-11.0956
实际上是	-11.0958
勤奋	-11.0958
契合	-11.0959
突发	-11.0959
哈喽	-11.096
阿姨	-11.096
做主	-11.096
放纵	-11.0961
希望她	-11.0962
家庭教育	-11.0964
打架	-11.0965
感悟	-11.0969
自己的生命	-11.097
概率	-11.0972
的另一半	-11.0973
没有足够的	-11.0976
改掉	-11.0986
网课	-11.0987
等方式	-11.0989
反思一下	-11.099
适当地	-11.0991
跟妈妈	-11.0991
表达你的	-11.0992
是一件好事	-11.0992
或许你可以	-11.0994
最好的方式	-11.0997
大二	-11.0998
户	-11.0999
的成长环境	-11.1
希望通过	-11.1
虎	-11.1001
就会慢慢	-11.1001
要做的事情	-11.1002
羞	-11.1002
凑	-11.1003
生理上	-11.1003
颓废	-11.1004
斗争	-11.1005
言论	-11.1008
很能理解	-11.1009
控制不住自己	-11.101
真的很难	-11.101
他人的评价	-11.101
顺着	-11.1012
不习惯	-11.1016
更好的生活	-11.1016
加油哦	-11.1018
的信号	-11.1019
觉醒	-11.1022
不能因为	-11.1024
和难过	-11.1026
得失	-11.1027
得很好	-11.103
的次数	-11.1033
会有不一样的	-11.1034
能感觉到	-11.1035
探讨一下	-11.1035
就在于	-11.1036
低自尊	-11.1036
的无奈	-11.1038
才好	-11.104
势必	-11.1042
自己内心的想法	-11.1042
对爱情	-11.1043
丽	-11.1044
财产	-11.1046
秋	-11.1048
思虑	-11.1051
在这段关系中	-11.1051
转移自己的注意力	-11.1051
单词	-11.1053
很大的影响	-11.1053
你所描述的	-11.1054
找咨询师	-11.1055
我们的大脑	-11.1057
会怎样	-11.1057
一般情况下	-11.1058
最起码	-11.1061
不是特别	-11.1063
专注力	-11.1063
是人之常情	-11.1065
活成	-11.1066
虐待	-11.1066
坏处	-11.1067
新人	-11.1069
真实的想法	-11.1071
固定的	-11.1073
想表达	-11.1073
工作环境	-11.1076
再继续	-11.1077
还是觉得	-11.1078
找寻	-11.1081
个案	-11.1084
提起	-11.1085
先抱抱你	-11.1087
很不好	-11.1088
炎	-11.109
博士	-11.1092
下定决心	-11.1093
开诚布公	-11.1093
厕所	-11.1095
滋味	-11.1095
构	-11.1096
会好很多	-11.1098
胜利	-11.1098
生活在一起	-11.1101
对自己好	-11.1101
这不是你的错	-11.1102
双重	-11.1104
成为朋友	-11.1107
些许	-11.111
都有自己的	-11.1111
不可控	-11.1113
列出	-11.1113
尽量避免	-11.1113
很美好	-11.1114
安排好	-11.1117
当她	-11.1117
有时会	-11.1121
忘掉	-11.1121
90	-11.1122
遇到一个	-11.1124
也挺	-11.1125
对你的态度	-11.1127
应用	-11.1129
尝	-11.1133
你就能	-11.1134
必定	-11.1134
习惯于	-11.1135
并不需要	-11.1135
敲	-11.1136
正常现象	-11.1137
多巴胺	-11.1138
肠	-11.1139
幅	-11.114
收回	-11.114
耗费	-11.1141
^	-11.1141
别扭	-11.1142
确保	-11.1142
哇	-11.1144
心理学知识	-11.1144
我们只能	-11.1147
楼主说自己	-11.1148
宁	-11.1148
之余	-11.1149
专科	-11.115
那件事	-11.115
全身心	-11.1151
必然会	-11.1152
尽情	-11.1158
划分	-11.1159
的人在一起	-11.1161
考了	-11.1166
被满足	-11.1179
只有这样	-11.1182
没有时间	-11.1183
办公室	-11.1183
描	-11.1183
确定自己	-11.1183
总想	-11.1184
幻	-11.1184
成绩好	-11.1185
剥夺	-11.1185
盛	-11.1185
喜怒哀乐	-11.1186
在描述中	-11.1186
加油吧	-11.1188
总要	-11.1194
太好	-11.1195
休学	-11.1195
不合理的	-11.1196
个人建议	-11.1197
尽早	-11.1197
想象一下	-11.1197
录	-11.1199
的风景	-11.1202
分解	-11.121
轻松自然	-11.1212
头上	-11.1213
来访	-11.1214
。3)	-11.1214
不顺利	-11.1214
不知道您	-11.1218
一个人的时候	-11.122
舒适区	-11.122
自己的意愿	-11.1221
不排除	-11.1224
这就是你	-11.1224
告诉孩子	-11.1227
君	-11.1227
挨	-11.1228
精神上	-11.1231
遮	-11.1231
个小	-11.1234
程序	-11.1236
醒来	-11.1236
我知道你	-11.1237
对家庭	-11.124
一定程度的	-11.1243
婆媳关系	-11.1243
学习任务	-11.1246
倒是	-11.1248
骂你	-11.1249
反之	-11.125
逐	-11.1258
保证自己	-11.1261
高二	-11.1269
n	-11.127
如同	-11.127
一定程度上	-11.1273
绿	-11.1275
希望以上	-11.1276
固然	-11.1277
短暂	-11.1278
咨询室	-11.1278
私信	-11.1278
隐忍	-11.1279
凭借	-11.1279
列举	-11.1279
恰当	-11.128
请不要	-11.1283
一个男人	-11.1283
进入社会	-11.1286
心慌	-11.1288
一条路	-11.1288
没想到	-11.129
在某个	-11.129
妻	-11.1293
非常非常	-11.1297
我们的内心	-11.1305
其实并不是	-11.1306
心痛	-11.1306
自己喜欢的事情	-11.1307
体验过	-11.131
将就	-11.1317
的预期	-11.1321
咱	-11.1322
撒娇	-11.1323
部位	-11.1324
相应	-11.1325
疏解	-11.1326
你可以尝试着	-11.1326
对你而言	-11.1326
这件事上	-11.1327
流程	-11.1327
无法解决	-11.1329
的脾气	-11.133
自己不够好	-11.1336
确立	-11.1337
发生冲突	-11.134
这个方法	-11.134
我们都会	-11.1344
你还没有	-11.1346
值得拥有	-11.1348
供参考	-11.1348
发展出	-11.135
也不敢	-11.1352
很深的	-11.1353
有太多的	-11.1358
对他人的	-11.1362
是建立在	-11.1367
宠爱	-11.1367
不知道为什么	-11.1369
一点时间	-11.1369
尼	-11.137
绘画	-11.137
便宜	-11.137
智商	-11.137
彩礼	-11.137
必经	-11.1371
耿耿于怀	-11.1371
施加	-11.1371
我们也需要	-11.1371
构建	-11.1372
未成年	-11.1372
又害怕	-11.1374
坦诚的	-11.1375
见识	-11.1376
了不少	-11.1377
的苦恼	-11.1377
天气	-11.1379
学习计划	-11.1379
互相理解	-11.138
送给你	-11.1388
我们一起来	-11.139
是基于	-11.1392
我爸	-11.1394
待在	-11.1395
统	-11.1397
能看出	-11.1398
受欢迎	-11.1399
这种焦虑	-11.1404
的不安全感	-11.1407
学好	-11.1407
为什么我	-11.1408
不主动	-11.1408
配不上	-11.1414
因人而异	-11.1417
主意	-11.1418
一帆风顺	-11.1418
与异性	-11.1418
吃醋	-11.1418
有意识地	-11.1419
气愤	-11.142
你就会发现	-11.1421
大学毕业	-11.1423
对自身	-11.1425
全然	-11.1425
前后	-11.1426
很烦	-11.1429
的行为模式	-11.1436
找个时间	-11.1441
对异性	-11.1444
没有朋友	-11.1444
像一个	-11.1447
虽然说	-11.1448
本书	-11.1448
走入	-11.1449
的思路	-11.1454
可以问问	-11.1455
合格	-11.1457
是不是因为	-11.1458
任何一个	-11.1458
恼	-11.1459
信仰	-11.146
你的孩子	-11.1461
贫	-11.1462
愁	-11.1463
可以适当的	-11.1463
看作	-11.1463
表露	-11.1464
很显然	-11.1468
潜力	-11.1469
偏执	-11.147
成长环境	-11.1473
也很正常	-11.1475
第二种	-11.1477
很纠结	-11.1479
逼迫	-11.1481
过来人	-11.1485
好意	-11.1485
保护你	-11.1488
自学	-11.149
和女朋友	-11.149
关注到	-11.1491
在心理上	-11.1494
才能真正	-11.1495
获	-11.1496
没有太大	-11.1498
是平等的	-11.1498
他认为	-11.15
性冲动	-11.1502
洋	-11.1504
介	-11.1506
在咨询	-11.1508
灌输	-11.1508
会发生什么	-11.1509
觉察到自己	-11.1509
秘	-11.151
嘲讽	-11.151
错觉	-11.1511
朵	-11.1511
坚信	-11.1512
标题	-11.1512
多半	-11.1512
课堂	-11.1514
自我实现	-11.1514
复发	-11.1516
哭闹	-11.1518
在人际交往中	-11.152
所处的	-11.1521
初期	-11.1522
找到合适的	-11.1524
生活当中	-11.1528
就会变得	-11.1528
是完美的	-11.1533
要素	-11.1535
去学校	-11.1535
和婆婆	-11.1538
有兴趣	-11.1539
对你产生	-11.1542
可以不用	-11.1543
不等于	-11.1544
想像	-11.1546
岁的孩子	-11.1548
对外	-11.1549
在一起的时候	-11.1549
做人	-11.1551
第一时间	-11.1552
所能	-11.1552
横	-11.1555
炫耀	-11.1556
洁	-11.1557
夺	-11.1558
从描述中	-11.1558
糊	-11.1559
器官	-11.1559
严苛	-11.156
仪式感	-11.1561
预约	-11.1562
坏情绪	-11.1565
离去	-11.1567
相信题主	-11.1568
自己的观点	-11.157
去实现	-11.1571
终点	-11.1571
打卡	-11.1571
释	-11.1576
未婚	-11.1578
很幸福	-11.1578
读完	-11.1581
怎么做呢	-11.1581
抱抱您	-11.1583
自愿	-11.1584
但是我们可以	-11.1584
熬	-11.1587
回到家	-11.1588
头发	-11.1591
份工作	-11.1594
可以参考	-11.1595
不理想	-11.1597
自我认同	-11.1598
就不再	-11.1598
任何事情都	-11.16
️️️	-11.1602
开心的事情	-11.1603
很忙	-11.1603
◎	-11.1603
父母对你的	-11.1605
聆听	-11.1607
有利	-11.1607
送你	-11.1609
承担起	-11.161
还未	-11.1611
--	-11.1613
线下	-11.1613
可以看出楼主	-11.1614
也并不	-11.162
可以根据	-11.1621
想起来	-11.1622
一个小小的	-11.1622
大专	-11.1623
让你感受到	-11.1628
了这么多	-11.1632
沉浸	-11.1634
不知如何	-11.1637
精神上的	-11.1638
处于一个	-11.164
讲到	-11.1642
你说到	-11.1643
一根	-11.1644
最简单的	-11.1644
喂	-11.1648
心生	-11.165
夹	-11.1652
净	-11.1652
奖	-11.1652
尘	-11.1653
进了	-11.1654
姐妹	-11.1655
心仪的	-11.1656
看手机	-11.1657
考前	-11.1659
所以你会	-11.1666
不见得	-11.1666
吸收	-11.1668
学期	-11.1668
的地位	-11.1671
最关键的	-11.1672
很压抑	-11.1674
想做什么	-11.1677
处于一种	-11.1678
新生	-11.1678
年龄段	-11.1679
出国	-11.1682
无意中	-11.1685
为啥	-11.1687
这个原因	-11.1689
缺乏自信	-11.1689
讨厌自己	-11.169
是否需要	-11.1694
的灵魂	-11.1695
到处	-11.1695
阿凉	-11.1695
序	-11.1696
这样的一个	-11.1697
崇拜	-11.1701
放过自己	-11.1702
社交恐惧症	-11.1702
楼主可以尝试	-11.1705
吖	-11.1705
总比	-11.1706
个小时	-11.1709
新朋友	-11.1709
越界	-11.1709
认错	-11.1713
你和她	-11.1714
遇到一些	-11.1718
我们常说	-11.1718
人与人	-11.172
没有那么多	-11.1726
把所有	-11.1727
修正	-11.1728
需要做的是	-11.1729
闪光点	-11.1735
自我探索	-11.174
深厚	-11.174
在恋爱中	-11.1741
主题	-11.1744
屡	-11.1746
操控	-11.1747
农村	-11.1747
还不能	-11.1748
挖	-11.1749
就此	-11.1749
佩服	-11.175
桶	-11.175
菲尔	-11.175
掩饰	-11.1751
森	-11.1751
志愿	-11.1753
还是其他	-11.1755
受益	-11.1757
究竟是	-11.1759
打拼	-11.1759
开车	-11.1763
该做的	-11.1765
80	-11.1765
向父母	-11.177
也是个	-11.1774
相处中	-11.1777
发光	-11.1778
以后的生活	-11.1779
行为表现	-11.178
该怎样	-11.1781
力所能及的	-11.1784
很紧张	-11.1786
轨迹	-11.1789
或其他	-11.1789
我希望你	-11.1791
满满的	-11.1792
没有做好	-11.1796
一股	-11.1797
疯狂	-11.1797
与此同时	-11.1798
貌似	-11.1799
务	-11.1801
在于你	-11.1801
不妥	-11.1806
拿出来	-11.1807
通常是	-11.1808
观察到	-11.1808
强硬	-11.1815
想明白	-11.1816
浮现	-11.1817
又不是	-11.1818
我们的身体	-11.1821
都不知道	-11.1822
不去想	-11.1823
去对待	-11.1825
:*	-11.1827
的一些行为	-11.183
这也是一种	-11.1831
特定的	-11.1832
我们可以从	-11.1833
不知道该	-11.1834
还有一点	-11.1836
针对性	-11.1837
女主	-11.1841
坚持下来	-11.1842
辱	-11.1843
很快就	-11.1845
网恋	-11.1847
丢了	-11.1848
嫂	-11.1848
脱敏	-11.1848
咨访关系	-11.1848
扣	-11.1848
取悦	-11.1848
预防	-11.1849
个人认为	-11.1849
抽烟	-11.1849
不被理解	-11.1851
希望我的回答能对你有所帮助	-11.1851
自我暗示	-11.1854
的热情	-11.1859
精神疾病	-11.1861
给不了	-11.1865
动摇	-11.1867
曾经有过	-11.1869
发生改变	-11.1871
的命运	-11.1875
年前	-11.1875
不足以	-11.1877
的梦想	-11.188
维护自己的	-11.188
严重影响	-11.1881
不完	-11.1881
之道	-11.1882
用力	-11.1883
租房	-11.1884
和安全感	-11.1886
晚上好	-11.1886
很深	-11.1889
那么你可以	-11.189
爸	-11.1891
贯	-11.1893
须	-11.1896
颜值	-11.1896
象征	-11.1897
蒙	-11.1897
审美	-11.1899
散散步	-11.1899
分寸	-11.1899
相伴	-11.19
数据	-11.1902
指望	-11.1904
开导	-11.1904
一个机会	-11.1904
在你看来	-11.1906
短短	-11.1907
在路上	-11.1911
有没有什么	-11.1913
就成了	-11.1917
面临的问题	-11.1917
有一点点	-11.1917
退让	-11.1923
没有及时	-11.1933
童	-11.1933
状	-11.1935
采	-11.1936
做点	-11.1937
很常见	-11.1938
下属	-11.1938
有道理	-11.1939
我的回答	-11.194
如何应对	-11.1941
炸	-11.1941
转向	-11.1941
第一种	-11.1944
燃	-11.1944
结婚生子	-11.1945
透露	-11.1945
你女朋友	-11.1945
固执	-11.1945
看不惯	-11.1946
警察	-11.1946
可控	-11.1946
就不会再	-11.1947
遇上	-11.1947
眼界	-11.1948
去体会	-11.1949
很迷茫	-11.1952
~※	-11.1955
和担忧	-11.1956
所以你要	-11.1958
和女友	-11.196
做出决定	-11.1966
原有的	-11.1967
评价自己	-11.197
多看看	-11.1972
自然而然的	-11.1973
更进一步	-11.1974
私下	-11.1978
不要总是	-11.1981
心理咨询师的帮助	-11.1983
坦诚地	-11.1986
进化	-11.1986
感情上	-11.1987
考虑问题	-11.1988
生出	-11.1991
要做到	-11.1993
情绪稳定	-11.1993
急躁	-11.1994
无法自拔	-11.1994
修炼	-11.1996
债	-11.1996
心理方面	-11.1998
对家人	-11.1999
购买	-11.2
做梦	-11.2004
不曾	-11.2006
占有	-11.2007
学习压力	-11.2011
去争取	-11.2019
美满	-11.2019
别人的感受	-11.202
能够帮助你	-11.202
有些问题	-11.2023
当对方	-11.2025
执	-11.2025
充电	-11.2026
引导孩子	-11.2029
的表达方式	-11.2033
不管怎样	-11.2035
尝试着去	-11.2036
一个很好的	-11.2036
根本就	-11.2038
人格障碍	-11.2038
更高的	-11.2041
精力去	-11.2042
昏	-11.2043
骚	-11.2043
;2.	-11.2044
与男友	-11.2044
供你参考	-11.2044
喔	-11.2045
对亲密关系	-11.2046
摸索	-11.2046
越来越大	-11.2047
去医院检查	-11.2048
普通朋友	-11.2049
也算是	-11.2049
偶像	-11.205
把握好	-11.2055
住在一起	-11.206
三善	-11.206
更远	-11.206
穿着	-11.2062
老大	-11.2062
想得	-11.2067
有不少	-11.2068
这个女生	-11.2068
怕别人	-11.2068
块钱	-11.2072
贴标签	-11.2076
正向的	-11.2078
暗示自己	-11.2081
实际行动	-11.2091
噩梦	-11.2094
壁	-11.2094
拼搏	-11.2096
理解和支持	-11.2096
以后再	-11.2097
族	-11.2104
解除	-11.2106
能做的就是	-11.2106
应该如何	-11.2109
待人	-11.211
走神	-11.2115
控制情绪	-11.2116
学习状态	-11.2118
学习和生活	-11.212
控制自己的情绪	-11.213
舍	-11.2135
佳	-11.2139
瓜	-11.2141
娶	-11.2143
※	-11.2143
规矩	-11.2144
拿着	-11.2146
北京	-11.2146
给您一个温暖的抱抱	-11.2147
丢脸	-11.2148
能给你带来	-11.2148
厌学	-11.2149
祝你好运	-11.215
我和世界爱着你	-11.215
学生时代	-11.2159
一瞬间	-11.2165
感到痛苦	-11.2168
我们可以通过	-11.2169
您说的	-11.2177
交心	-11.2177
需要注意	-11.2178
一生中	-11.2178
为了孩子	-11.2179
订	-11.2188
对你的爱	-11.2189
娃	-11.2192
颜	-11.2192
道德感	-11.2192
龙	-11.2192
羞辱	-11.2192
疯	-11.2193
做起来	-11.2194
最基本的	-11.2194
篮	-11.2196
教练	-11.2196
的画面	-11.2196
密切	-11.2197
无论怎样	-11.2197
开开心心	-11.2198
缓冲	-11.2199
鉴于	-11.2205
绝对化	-11.2208
需要做的	-11.2208
都放在	-11.2209
这条	-11.2214
同居	-11.2215
高一	-11.2218
作为孩子	-11.222
观察一下	-11.2224
给他人	-11.2224
那是因为	-11.2227
可以帮到你	-11.2228
坚守	-11.2228
的辛苦	-11.2232
喜欢对方	-11.2235
选项	-11.2237
分享一下	-11.2239
乳	-11.2243
签	-11.2244
延伸	-11.2246
捉	-11.2247
弱势	-11.2247
对楼主的	-11.2247
O	-11.2248
把时间	-11.2248
陈述	-11.2248
无数次	-11.2248
平安	-11.2249
迟早	-11.2249
我了解到	-11.2251
比较严重	-11.2252
打败	-11.2254
你觉得呢	-11.2254
有空	-11.2257
的方案	-11.2264
可以避免	-11.2264
重度抑郁	-11.2265
不要担心	-11.2268
世俗	-11.2269
个人感觉	-11.2273
无常	-11.2277
有助于你	-11.2278
成绩不好	-11.2282
亲生	-11.2282
和无奈	-11.2287
迁	-11.2289
心理障碍	-11.2291
琐碎	-11.2295
斥	-11.2295
骑	-11.2295
谴责	-11.2295
珍	-11.2295
污	-11.2297
叔叔	-11.2297
谅解	-11.2297
送给	-11.2297
分裂	-11.2297
的局面	-11.2298
游泳	-11.2298
家境	-11.2302
在工作上	-11.2303
的心思	-11.2304
条路	-11.2305
或许是因为	-11.2307
多了解	-11.2307
的性格特点	-11.2315
好看的	-11.2315
大小	-11.2315
心理层面	-11.2317
内疚感	-11.232
多余的	-11.2323
何不	-11.2325
脸上	-11.2327
患有	-11.2329
心力	-11.2331
就是最好的	-11.2337
调整好自己	-11.2339
最高	-11.2339
的那一刻	-11.2341
早晚	-11.2341
如意	-11.2341
狼	-11.2345
是有原因的	-11.2347
甩	-11.2347
越容易	-11.2347
抖音	-11.2347
摊	-11.2348
升华	-11.2348
很矛盾	-11.2348
稀	-11.235
夏	-11.235
短板	-11.235
人与人之间的	-11.2352
指引	-11.2353
付出了很多	-11.2356
周期	-11.2356
也是为了	-11.2359
也是很正常的	-11.2363
理想化	-11.237
压抑的情绪	-11.2372
适度的	-11.2372
输出	-11.2373
不和谐	-11.2376
自我攻击	-11.2377
很伤心	-11.2378
做错事	-11.2379
会有一种	-11.2384
往前	-11.2386
那么我们就	-11.2388
多数人	-11.2389
父母的爱	-11.2392
非常能理解	-11.2393
拒	-11.2398
柔软	-11.2399
k	-11.24
旅程	-11.2401
倾述	-11.2402
高低	-11.2405
行动上	-11.2405
节目	-11.2405
局面	-11.2405
开阔	-11.2406
前景	-11.2409
处理事情	-11.2409
缓慢	-11.2417
去觉察	-11.2417
也很好	-11.2426
头脑中	-11.2427
要不然	-11.2429
小家庭	-11.2429
把你当	-11.2429
说教	-11.2433
的到来	-11.2433
让自己的生活	-11.2439
看清楚	-11.2441
敌人	-11.2442
自己的成长	-11.2442
已经发生了	-11.2444
多运动	-11.2447
那些人	-11.2448
更难	-11.2448
讯	-11.2449
壳	-11.2452
暑假	-11.2452
提升自我	-11.2452
懊悔	-11.2452
发达	-11.2454
呐	-11.2455
的节奏	-11.2456
刘	-11.2458
在这段	-11.246
真的喜欢	-11.2461
这背后	-11.2461
说服自己	-11.2462
婚姻里	-11.2464
有成就感	-11.2464
来往	-11.2466
之人	-11.2467
踏出	-11.2471
和他一起	-11.2472
中午	-11.2475
善待	-11.2476
完美的人	-11.2476
现在的工作	-11.2478
床上	-11.2479
让大家	-11.248
就不会有	-11.2481
是否存在	-11.2482
打乱	-11.2482
解决的办法	-11.2484
没有人能	-11.2484
我爱你	-11.2486
的礼物	-11.2489
必有	-11.2489
希望你们	-11.2489
做什么都	-11.2491
互补	-11.2494
邀请你	-11.2496
”——	-11.2497
自体	-11.2498
心理疏导	-11.2499
抄	-11.2502
泛	-11.2503
岛	-11.2503
随着时间的推移	-11.2504
疲	-11.2504
缝	-11.2504
碰撞	-11.2504
艰辛	-11.2506
引发了	-11.2508
婚恋	-11.2508
很厉害	-11.2509
简历	-11.2509
共情能力	-11.2511
分离焦虑	-11.2511
原理	-11.2514
60	-11.2514
社会支持	-11.2515
消失了	-11.2515
经历有关	-11.2517
敏	-11.2517
考证	-11.2524
围	-11.2524
理会	-11.2525
上心	-11.2526
看到的是	-11.2528
的真相	-11.2528
的情感需求	-11.2529
从你描述	-11.2531
有能力去	-11.2532
心理创伤	-11.2534
你的女朋友	-11.2535
心理能量	-11.2536
不清楚你	-11.2541
最亲近的人	-11.2542
谈谈心	-11.2545
去承担	-11.2545
扶	-11.2554
改变一下	-11.2554
奢	-11.2555
第六	-11.2556
蓄	-11.2556
笃定	-11.2557
领悟	-11.2557
每日	-11.2557
防备	-11.2558
工作内容	-11.2559
半夜	-11.2559
你要明白	-11.256
挂科	-11.256
是不可能的	-11.2562
一眼	-11.2564
那句话	-11.2571
工作生活	-11.2572
你是怎么	-11.2572
打个	-11.2573
对自己的看法	-11.2576
想的那么	-11.2581
这么久	-11.2582
那就要	-11.2583
更强	-11.2583
不在于	-11.2585
走出困境	-11.2589
风景	-11.2592
种子	-11.2593
做这件事	-11.2594
你知道吗	-11.2595
视为	-11.2596
一两个	-11.26
独立性	-11.2605
的相处中	-11.2606
协	-11.2606
哪儿	-11.2609
孔	-11.2609
幼年	-11.261
几个小建议	-11.2611
看看书	-11.2612
境界	-11.2612
给自己一点	-11.2612
立即	-11.2612
综上	-11.2614
自己的边界	-11.2614
原生家庭中	-11.2615
会怎么样	-11.2617
说了算	-11.2618
修养	-11.2619
相处过程中	-11.2619
同时也要	-11.2619
情绪反应	-11.2622
体现在	-11.2622
这一生	-11.2622
不小的	-11.2628
场所	-11.263
让他知道	-11.2633
片面	-11.2633
探索自己	-11.2634
高中的时候	-11.2634
这个事	-11.2637
去寻求	-11.2644
这就需要	-11.2645
状态不好	-11.2647
超出了	-11.2648
默默的	-11.2651
建立自己的	-11.2653
我们能做的	-11.2655
攻击自己	-11.2656
束	-11.2659
癖	-11.266
奥	-11.2661
惧怕	-11.2662
涩	-11.2662
拳	-11.2663
认真思考	-11.2664
早日摆脱	-11.2664
自暴自弃	-11.2665
侧面	-11.2665
很舒服	-11.2666
情绪上的	-11.2667
亲密的人	-11.2669
这个平台	-11.2672
没有信心	-11.2674
.........	-11.2678
考不上	-11.2679
自己的焦虑	-11.2681
瘾	-11.2683
去参加	-11.2689
已经过去了	-11.2691
觉得自己不够好	-11.2695
上级	-11.2698
他们之间	-11.2699
做成	-11.27
独立生活	-11.2703
能感觉到你	-11.2703
弱点	-11.2704
绝大多数	-11.2706
也未必	-11.2706
躁	-11.2707
考虑清楚	-11.271
可想而知	-11.2711
......”	-11.2712
虚伪	-11.2713
空闲	-11.2713
也可以找	-11.2713
窒息	-11.2715
此事	-11.2715
铺	-11.2715
迷恋	-11.2715
悄悄	-11.2716
平时多	-11.2716
答复	-11.2717
守护	-11.2717
别的事情	-11.2718
不可否认	-11.2721
最好的选择	-11.2721
最适合	-11.2722
可以尝试一下	-11.2722
顺应	-11.2723
表明你	-11.2725
听听音乐	-11.2725
我说的	-11.2727
跟我说	-11.273
买东西	-11.2734
期望值	-11.2737
境遇	-11.2737
而活	-11.274
母爱	-11.274
参	-11.274
心平气和的	-11.2742
是一件非常	-11.2744
时间内	-11.2753
一直处于	-11.2754
大三	-11.2756
探究	-11.2759
我们可以试着	-11.276
情感需求	-11.2761
29	-11.2762
的关系模式	-11.2762
适时	-11.2763
自己想要什么	-11.2764
取向	-11.2765
饰	-11.2766
批	-11.2767
船	-11.2768
学会拒绝	-11.2768
粉	-11.2768
点个赞	-11.2769
愿不愿意	-11.2769
夸赞	-11.2769
衰	-11.2769
牢固	-11.277
职业生涯	-11.277
逢	-11.277
不能完全	-11.2771
把精力	-11.2771
更严重	-11.2772
变故	-11.2774
用一种	-11.2776
放宽心	-11.2777
每一步	-11.2777
自己的爱好	-11.2777
去应对	-11.2777
祝题主	-11.2778
每件事	-11.2779
大家都是	-11.2782
亲亲	-11.2782
逼自己	-11.2785
下午	-11.2785
正常的现象	-11.2786
文学	-11.2787
书本	-11.2798
耍	-11.2798
妨碍	-11.2801
那天	-11.2804
原生家庭的影响	-11.2805
两难	-11.2809
根本原因	-11.2813
做的很好	-11.2814
去接触	-11.2817
很困难	-11.2818
也正是	-11.2818
与外界	-11.282
服用	-11.2821
表达情绪	-11.2822
捡	-11.2822
旋	-11.2822
每一种	-11.2822
功夫	-11.2823
矫情	-11.2823
期盼	-11.2824
裸	-11.2825
户外	-11.2825
产品	-11.2826
没有价值	-11.2826
相亲对象	-11.2826
争论	-11.2827
热闹	-11.2827
对方的感受	-11.2829
一座	-11.283
图书馆	-11.2836
的痛苦和	-11.2836
对过去	-11.2843
机遇	-11.2845
问答	-11.2845
在同一个	-11.2848
情形	-11.2852
日常生活中	-11.2853
可以做一些	-11.2857
自己的长处	-11.2859
自卑心理	-11.286
一点都不	-11.2862
不太清楚	-11.2862
宜	-11.2863
多多地	-11.2867
生活费	-11.2869
豆	-11.2873
郁	-11.2873
饮	-11.2873
冠	-11.2875
<<	-11.2876
做自己喜欢的事	-11.2876
姑	-11.2876
专业的咨询师	-11.2877
环节	-11.2878
症结	-11.2878
我们自身	-11.2879
保密	-11.2879
有利的	-11.2879
心扉	-11.2879
犯罪	-11.2881
很多事情都	-11.2882
既有	-11.2882
去解决问题	-11.2882
在成长的过程中	-11.2882
存在于	-11.2883
身高	-11.2884
小事情	-11.2884
又怎么	-11.2886
可以思考一下	-11.289
类似的情况	-11.2891
非常能够理解	-11.2891
最好的办法	-11.2893
任何一个人	-11.2894
到医院	-11.2895
怎么处理	-11.2897
自己的底线	-11.29
这种模式	-11.29
疗愈自己	-11.2901
自己的身上	-11.2901
控制感	-11.2903
其他同学	-11.2917
一体	-11.2919
把它们	-11.2923
想死	-11.2923
走上	-11.2923
保持着	-11.2924
找到原因	-11.2924
多参加	-11.2924
任何人都	-11.2925
仪	-11.2927
的时间里	-11.2927
顺序	-11.2931
屈	-11.2932
孤僻	-11.2932
首先你要	-11.2932
兼顾	-11.2933
居然	-11.2933
这一部分	-11.2933
延迟	-11.2937
万物	-11.2938
天空	-11.2942
这几年	-11.2944
活着的意义	-11.2945
专业知识	-11.2945
一回	-11.2946
已经过去	-11.2947
一定不要	-11.2947
生命的意义	-11.2948
你俩	-11.2952
依然会	-11.2953
社交圈	-11.2957
沟通和交流	-11.2957
什么事都	-11.2959
有耐心	-11.2959
好好想想	-11.2959
过程当中	-11.296
的顾虑	-11.2963
会影响我们	-11.2964
第一反应	-11.2965
时间和空间	-11.2965
成长的过程	-11.2967
已经成年	-11.2968
如果是因为	-11.2972
陪伴着	-11.2974
的思维模式	-11.2975
颗	-11.2978
方式方法	-11.2978
可以感受到你的	-11.2978
腰	-11.2983
映	-11.2983
炼	-11.2983
与其说	-11.2983
授	-11.2984
陆	-11.2985
你的故事	-11.2985
侮辱	-11.2985
你完全可以	-11.2985
丁	-11.2985
鸡汤	-11.2986
席	-11.2986
我觉得题主	-11.2986
欣慰	-11.2987
筛选	-11.2987
看你的描述	-11.2987
英雄	-11.2988
断绝	-11.2988
的隐私	-11.2989
下意识的	-11.299
数字	-11.2991
无心	-11.2993
一直都是	-11.2995
是有价值的	-11.2998
这样下去	-11.2999
适应环境	-11.3
可以理解为	-11.3002
生理上的	-11.3003
的境地	-11.3008
强迫行为	-11.3009
的结局	-11.301
能更好的	-11.3011
落后	-11.3011
可以缓解	-11.3016
也会觉得	-11.3017
本事	-11.3019
非常棒	-11.302
切实	-11.3023
而是因为	-11.3026
你是一个很	-11.3027
原谅自己	-11.3028
这说明你	-11.3028
说到底	-11.303
交流沟通	-11.3031
单单	-11.3031
妄想	-11.3031
扫	-11.3034
夜晚	-11.3035
失衡	-11.3037
赌博	-11.3037
以一种	-11.3037
晨	-11.3038
有观察到楼主	-11.3039
发生性关系	-11.3039
会有这样的	-11.304
的情绪反应	-11.3041
跳舞	-11.3041
从您的描述中	-11.3044
什么样子	-11.3044
格外	-11.3049
淡化	-11.3051
想想看	-11.3052
不相信自己	-11.3056
说明楼主	-11.3059
主动权	-11.3064
头痛	-11.3064
你们关系	-11.3072
自己的思维	-11.3072
嫁给	-11.3073
生命力	-11.3076
你可以试试	-11.3078
要及时	-11.308
是一名	-11.3082
这件	-11.3084
冒犯	-11.3084
也许你会	-11.3085
有很强的	-11.3086
就会越来越	-11.3086
分心	-11.3086
不太喜欢	-11.309
不爱我	-11.309
应该怎么做	-11.3094
涨	-11.3094
腾	-11.3094
总感觉	-11.3096
憋在心里	-11.3097
偏激	-11.3097
丢失	-11.3097
副作用	-11.3098
足够的安全感	-11.3098
要承担	-11.3098
三件事	-11.3098
应该做的	-11.3099
希望我的回答可以帮助到你	-11.3099
Karen	-11.31
给与	-11.3106
心累	-11.3112
不匹配	-11.3112
偏向	-11.312
又不想	-11.3124
生涯	-11.3126
进行调整	-11.3126
对视	-11.3126
明智	-11.3128
我也有过	-11.3128
赖	-11.3129
突	-11.313
正规的	-11.3132
造成伤害	-11.3134
所需要的	-11.3136
把这件事	-11.3137
不会轻易	-11.3141
良性	-11.3143
意味	-11.3144
羊	-11.3149
做真实的自己	-11.3151
覆	-11.3151
分享给你	-11.3152
惩罚自己	-11.3152
无形的	-11.3152
可能会觉得	-11.3152
温馨	-11.3152
有句话说	-11.3152
减弱	-11.3153
诚意	-11.3154
收费	-11.3154
受影响	-11.3154
挑选	-11.3155
几十	-11.3156
简直	-11.3157
不得不说	-11.3158
治疗师	-11.316
活出自己	-11.3164
打球	-11.3167
紧张焦虑	-11.3168
罗列	-11.3172
----	-11.3173
好吃的	-11.3174
继续努力	-11.3174
很多人都会有	-11.3177
亲密的关系	-11.3181
问过	-11.3183
在学校里	-11.3186
正当	-11.3186
对你的评价	-11.3189
可能会让你	-11.3192
潜能	-11.3193
偏偏	-11.3199
截	-11.3202
还记得	-11.3203
内心的声音	-11.3205
撩	-11.3205
概括	-11.3208
试过	-11.3208
方方面面	-11.3208
从楼主的描述中	-11.3208
苦闷	-11.321
共勉	-11.3211
根本没有	-11.3211
不理解你	-11.3212
刚才	-11.3212
准则	-11.3217
这样的生活	-11.3217
上帝	-11.3219
很难改变	-11.3224
麻烦别人	-11.3227
不敢表达	-11.3227
很多年	-11.3227
没有勇气	-11.3228
真正地	-11.3229
我们常常	-11.3233
不要太过	-11.3233
面上	-11.3239
在家庭中	-11.324
有类似	-11.3241
刚毕业	-11.3241
接受它	-11.3241
可能还会	-11.3243
亲密感	-11.3243
好好生活	-11.3245
的难处	-11.3246
七年	-11.3247
的事儿	-11.3254
知己	-11.3254
就诊	-11.3258
父爱	-11.326
常说	-11.3261
倦怠	-11.3262
你的原生家庭	-11.3262
乏味	-11.3263
试想一下	-11.3263
做的好	-11.3264
回过头	-11.3264
亏欠	-11.3264
的几率	-11.3264
我想告诉你	-11.3264
欢乐	-11.3264
耳朵	-11.3264
兰	-11.3264
网站	-11.3265
给你一个拥抱	-11.3267
很遗憾	-11.3271
要做好	-11.3272
就好比	-11.3273
娘家	-11.3274
联系方式	-11.3277
住校	-11.3282
积极主动	-11.3283
另外一方面	-11.3288
并不可怕	-11.3289
这段经历	-11.3292
的心意	-11.3294
存在的意义	-11.3297
会引发	-11.3298
的情形	-11.3302
所经历的	-11.3309
抱歉	-11.3309
进入到	-11.3311
苗	-11.3314
漂	-11.3317
漠	-11.3317
暴饮暴食	-11.3319
不要把自己	-11.3322
迈出第一步	-11.3322
开心的事	-11.3322
历程	-11.3323
结识	-11.3324
推荐一本书	-11.3325
开展	-11.3325
晋升	-11.3333
圆满	-11.3336
可贵	-11.3341
性需求	-11.3342
辩	-11.3347
做任何	-11.3349
无情	-11.3349
增添	-11.335
特别喜欢	-11.3352
受损	-11.336
跟他说	-11.3362
把手	-11.3365
已经成为	-11.3365
加之	-11.3366
这样的经历	-11.3372
倾诉一下	-11.3375
战斗	-11.3376
捏	-11.3376
专升本	-11.3377
信任的朋友	-11.3377
姨	-11.3377
功利	-11.3377
超级	-11.3377
懊恼	-11.3378
喜欢吃	-11.3379
退一步	-11.3379
越发	-11.338
梦境	-11.338
得来的	-11.338
报告	-11.3381
解压	-11.3383
完善自己	-11.3383
自己的错误	-11.3385
又有什么	-11.3388
所述	-11.3391
分清楚	-11.3396
变成一个	-11.3397
无条件的爱	-11.3398
也没有办法	-11.34
青春期的孩子	-11.3403
不管怎么样	-11.3407
会给你带来	-11.3407
阅	-11.3409
是怎样的呢	-11.341
回答问题	-11.3412
做不了	-11.3413
的魅力	-11.3414
一想到	-11.3414
最容易	-11.3415
太难	-11.3416
人体	-11.3421
唤起	-11.3423
箱	-11.3427
恐	-11.3429
残	-11.3429
公共	-11.3431
粗暴	-11.3431
自制力	-11.3433
叨	-11.3433
罪恶感	-11.3434
至关重要	-11.3434
虫	-11.3435
收集	-11.3435
舍弃	-11.3436
瓶颈	-11.3436
跳槽	-11.3437
搬出去	-11.3437
候	-11.3439
任由	-11.3441
足够好	-11.345
说谎	-11.345
也不错	-11.3452
最好的方法	-11.3452
让自己陷入	-11.3453
也有自己的	-11.3453
际	-11.3459
来帮助你	-11.3459
藏着	-11.3462
不知道怎么办	-11.3465
过得好	-11.3467
在不同的	-11.3473
第三者	-11.3476
深入了解	-11.3477
一笑	-11.3478
财	-11.3481
生产	-11.3486
厅	-11.3488
想要的是什么	-11.3489
胆怯	-11.3489
瞒	-11.349
雪	-11.349
传播	-11.349
制止	-11.3492
积攒	-11.3492
问题的根源	-11.3494
熬过	-11.3496
认真看完你的倾诉	-11.3496
志同道合的朋友	-11.3496
让他人	-11.3498
很讨厌	-11.3499
比例	-11.3499
对他来说	-11.35
调解	-11.3501
考上了	-11.3502
试错	-11.3503
升学	-11.3503
意识不到	-11.3506
更多的时间	-11.3506
写信	-11.351
对自己负责	-11.3511
被欺负	-11.3512
深陷	-11.3514
三天	-11.3516
脾气暴躁	-11.3518
多些	-11.3524
居住	-11.3524
底层	-11.3525
看看是否	-11.353
与父亲	-11.3531
相对于	-11.3533
启	-11.3534
当天	-11.3539
晕	-11.3544
滚	-11.3546
沉淀	-11.3548
痴	-11.3548
谦虚	-11.3549
组建	-11.3549
虚拟	-11.3549
挣脱	-11.3549
分享一下我	-11.3552
诱发	-11.3552
心理因素	-11.3555
烦心事	-11.3555
二者	-11.3555
教养	-11.3556
较少	-11.3557
———	-11.3559
是很正常的事情	-11.3563
数量	-11.3564
回想起	-11.3568
跟不上	-11.3569
非常痛苦	-11.357
为什么不能	-11.3573
天地	-11.3573
不知道你们	-11.3576
百度	-11.3577
很多人都会	-11.358
身体里	-11.3587
提升自己的能力	-11.3588
这个行业	-11.3592
内心的需求	-11.3593
在日常	-11.3596
题主目前	-11.36
仔细想想	-11.3601
热心	-11.3603
之类	-11.3604
能改变的	-11.3605
耀	-11.3607
E	-11.3607
仰	-11.3607
的角度来说	-11.3609
参照	-11.3609
问候	-11.3611
在婚姻中	-11.3612
几分钟	-11.3612
不听话	-11.3617
强迫思维	-11.3618
这一段	-11.3619
是相互的	-11.3627
被批评	-11.3627
帮助他人	-11.3629
流行	-11.363
一堆	-11.3633
带入	-11.3635
不好的情绪	-11.3638
班里	-11.3643
乃至	-11.3643
以致	-11.3644
这一切都	-11.3648
很重	-11.3651
考好	-11.3653
需要你去	-11.3655
忌	-11.3659
听取	-11.3659
是值得被爱的	-11.366
仅仅只是	-11.366
有人喜欢	-11.3661
掩	-11.3664
荷尔蒙	-11.3664
媒体	-11.3665
财务	-11.3665
拨	-11.3665
奶茶	-11.3666
考不好	-11.3667
调查	-11.3668
隔着屏幕	-11.3669
开头	-11.3669
流露	-11.3669
去看看心理医生	-11.3669
就有可能	-11.3676
一部	-11.3677
三个人	-11.3678
和别人交流	-11.3679
承受着	-11.3681
一下子就	-11.3682
竞争力	-11.3685
来决定	-11.369
自己想要的生活	-11.3696
讨厌的人	-11.37
喜不喜欢	-11.3706
美好的事情	-11.3706
互相尊重	-11.3708
考虑过	-11.3709
普	-11.3712
认真对待	-11.3714
很受伤	-11.3714
承	-11.3719
留下来	-11.372
早恋	-11.3721
妙	-11.3722
危	-11.3722
绳	-11.3723
窝	-11.3723
为中心	-11.3724
剖析	-11.3724
表象	-11.3724
纯洁	-11.3726
这些年	-11.3726
雅	-11.3726
I	-11.3726
研究表明	-11.3727
看完了你的叙述	-11.3728
所学	-11.3728
某件事情	-11.3729
命令	-11.3731
不方便	-11.3733
进取	-11.3737
比较低	-11.3741
自救	-11.3743
文字描述	-11.3743
太累了	-11.3746
促	-11.3748
宁静	-11.3751
推开	-11.3751
说一句	-11.3752
的局限	-11.3754
安定	-11.3767
不公	-11.3769
万事	-11.3771
只要你愿意	-11.3775
多接触	-11.3776
究	-11.3776
22	-11.3777
侧	-11.3779
用语言	-11.378
正确认识	-11.3781
咨询关系	-11.3782
摘	-11.3782
没啥	-11.3782
腔	-11.3783
癌症	-11.3783
从根本上	-11.3784
迎刃而解	-11.3785
悬	-11.3785
一见钟情	-11.3786
祝你生活愉快	-11.3788
请相信	-11.3789
离开家	-11.379
智力	-11.3791
怎么回事	-11.3792
噪音	-11.3793
很大一部分	-11.3794
只知道	-11.3799
全都	-11.3802
某一天	-11.3802
从业	-11.3802
渐	-11.3803
别人的眼光	-11.3804
眼下	-11.3809
很复杂	-11.3813
26	-11.3814
司	-11.3818
养育孩子	-11.382
两面	-11.3823
来判断	-11.3823
最好不要	-11.3832
细细	-11.3837
v	-11.384
村	-11.3841
兄弟姐妹	-11.3841
馆	-11.3842
臭	-11.3842
回避型依恋	-11.3843
迷惑	-11.3845
🤩	-11.3845
那我们就	-11.3847
越来越少	-11.3849
祝愿你	-11.385
以上是我的分析和建议	-11.3854
发生的事	-11.3855
所影响	-11.3856
温度	-11.3858
对这段感情	-11.3859
大大的拥抱	-11.3859
天然	-11.3862
不太一样	-11.3862
一件小事	-11.3874
学姐	-11.3879
遭	-11.3887
动起来	-11.3887
事务	-11.3897
鼻	-11.39
入职	-11.39
桥	-11.39
润	-11.3901
辱骂	-11.3903
欺凌	-11.3904
堆积	-11.3904
全盘	-11.3907
常人	-11.3908
优点和缺点	-11.3909
隐藏着	-11.3911
不健康的	-11.3913
是有一定	-11.3914
提出分手	-11.3917
闹矛盾	-11.3919
更换	-11.3925
莫名	-11.3927
何时	-11.3927
伤心难过	-11.3927
把控	-11.3927
多想想	-11.3928
小三	-11.3932
自己的思想	-11.3932
跟老师	-11.3932
烈	-11.3933
空白	-11.3938
唯	-11.3938
你和你的	-11.3941
为了满足	-11.3941
一起探讨	-11.3942
这两者	-11.3943
夫妻双方	-11.3945
什么地方	-11.3945
小组	-11.3946
》《	-11.3952
经济能力	-11.3952
调理	-11.3953
出色	-11.3957
在人际关系中	-11.3958
屋	-11.396
才是最好的	-11.396
er	-11.396
尚未	-11.3961
M	-11.3961
接收到	-11.3963
称赞	-11.3963
揭	-11.3963
N	-11.3964
鸭	-11.3964
感到孤独	-11.3968
希望我的回答对你有帮助	-11.3968
归属	-11.3969
应该怎么	-11.397
・)	-11.3971
继而	-11.3973
吸引到	-11.3973
影响了你的	-11.3974
轻度	-11.3977
冥想练习	-11.3977
每个月	-11.3978
心理科	-11.3982
人际关系中	-11.3985
干活	-11.3986
婆家	-11.3986
痛快	-11.3987
很可能是	-11.3996
生死	-11.3998
在咨询中	-11.3998
儿时	-11.4008
被忽略	-11.4013
期末	-11.4014
路人	-11.4014
生怕	-11.4016
自己的自信心	-11.4018
其中一个	-11.4021
宣	-11.4022
踢	-11.4022
揣测	-11.4023
跳出来	-11.4023
挽留	-11.4023
瞎	-11.4025
社区	-11.4025
神奇	-11.4025
传染	-11.4026
携手	-11.4027
恶劣	-11.4027
自己的节奏	-11.4032
这一年	-11.4032
那个男生	-11.4033
还是挺	-11.4034
丝毫	-11.4036
行为习惯	-11.4037
也曾	-11.4037
人和事	-11.4039
恐惧症	-11.4041
本心	-11.4044
异性恋	-11.4045
不着急	-11.4045
留学	-11.4045
一切顺利	-11.4045
输了	-11.4054
过一段时间	-11.4054
社交活动	-11.4056
更有利于	-11.4061
勇敢面对	-11.4061
其实是一种	-11.407
可以利用	-11.4071
困在	-11.4071
无法承受	-11.4071
躁狂	-11.4072
可能会出现	-11.4073
娘	-11.4076
害怕失败	-11.4076
不恰当	-11.4076
暴力倾向	-11.4079
继	-11.4079
举例	-11.408
仪式	-11.4081
很值得	-11.4082
滞	-11.4083
娇	-11.4083
冒险	-11.4084
孙	-11.4084
太太	-11.4084
被讨厌的勇气	-11.4085
预料	-11.4085
减退	-11.4086
哒	-11.4086
标志	-11.4087
自己的立场	-11.4087
剥	-11.4087
疑虑	-11.4087
语音	-11.4087
阐述	-11.4087
不要过度	-11.4088
量表	-11.4089
最坏的结果	-11.4089
希望我的回答对你有所帮助	-11.4089
既能	-11.4102
全世界	-11.4104
这种时候	-11.4105
社会功能	-11.411
姐夫	-11.4112
不自觉地	-11.4113
的一种表现	-11.4114
宝贵	-11.4114
轻轻	-11.4115
这三个	-11.4116
节点	-11.4122
多关心	-11.4128
建立自信	-11.4132
从你的描述里	-11.4133
拖着	-11.4135
抗争	-11.4135
伦	-11.4139
既可以	-11.4139
几个人	-11.414
让你产生了	-11.4141
兽	-11.4142
塔	-11.4144
愧	-11.4145
憋屈	-11.4145
仍旧	-11.4146
幻觉	-11.4147
⇨⇨	-11.4148
我们每个人都有	-11.4148
益处	-11.4148
石头	-11.4151
重新审视	-11.4151
13	-11.4152
建议题主可以	-11.4152
粗心	-11.4158
广泛	-11.4159
请假	-11.4161
三十	-11.4165
中医	-11.4165
感情基础	-11.4166
自己做主	-11.4166
生理需求	-11.4167
有害	-11.4171
除非你	-11.4176
得住	-11.4178
取决于你	-11.4184
身体状况	-11.4188
坦然面对	-11.4189
。)4、	-11.419
自然也就	-11.4196
闹钟	-11.4204
(3)	-11.4204
唤醒	-11.4206
捆绑	-11.4208
无知	-11.4208
废物	-11.4209
轻微	-11.4209
规避	-11.4209
折腾	-11.421
易怒	-11.4211
问一问	-11.4214
交代	-11.4215
这个道理	-11.4215
几句话	-11.4216
十几年	-11.4217
增加自己的	-11.4218
in	-11.422
辅导员	-11.4222
犯错误	-11.4226
回忆起	-11.4228
把自己的想法	-11.423
你的未来	-11.4231
这个部分	-11.4232
有些东西	-11.4233
摆正	-11.4233
副	-11.4238
成立	-11.4239
以上就是我	-11.4239
探索一下	-11.424
职业发展	-11.4243
跟家人	-11.4247
年轻的时候	-11.4249
刚刚开始	-11.4252
能感受到题主	-11.4254
寻找到	-11.4255
轨	-11.4257
就如同	-11.4258
虐	-11.4259
贬	-11.426
更倾向于	-11.4263
滋	-11.4264
生活节奏	-11.4265
运转	-11.4265
秀	-11.4266
年少	-11.4266
悠	-11.4267
的意志	-11.4268
爷	-11.4269
追逐	-11.427
吸烟	-11.427
拘	-11.427
歧视	-11.427
鲁	-11.4271
让家人	-11.4271
意想不到的	-11.4271
一个小时	-11.4271
的方向发展	-11.4272
嘴巴	-11.4273
为自己而活	-11.4274
三角	-11.4277
终生	-11.4283
学霸	-11.4283
不断学习	-11.4283
心理阴影	-11.4284
大家一起	-11.4285
一群	-11.4285
正常的生活	-11.4286
如果是这样的话	-11.429
表达自己的情绪	-11.4293
我能感受到你	-11.4293
的心声	-11.4294
同时你也	-11.4295
更合适	-11.4297
同理	-11.4298
我看到了你	-11.4299
十岁	-11.4299
处在一个	-11.43
需要做的就是	-11.431
心理活动	-11.4318
谓	-11.4323
需要调整	-11.4328
做更好的自己	-11.4328
哀	-11.4328
英	-11.433
材料	-11.433
阶	-11.433
拦	-11.433
阻抗	-11.4331
说错话	-11.4331
递	-11.4331
锋	-11.4332
不舍得	-11.4332
L	-11.4333
凌	-11.4334
谦	-11.4334
洗澡	-11.4334
提倡	-11.4334
认真看完了你的提问	-11.4335
否	-11.4336
变态	-11.4337
叛逆期	-11.4338
大部分人都	-11.4339
小姐姐	-11.4339
下心来	-11.434
已然	-11.4341
戒掉	-11.4341
溺爱	-11.4342
热线	-11.4342
(・	-11.4342
成长的过程中	-11.4343
中立	-11.4345
积极乐观	-11.4348
差劲	-11.435
生下来	-11.4351
轻生	-11.4352
想做的事	-11.4353
也要学会	-11.4356
距离感	-11.436
给自己一些时间	-11.4367
商量一下	-11.4374
低头	-11.4375
全身	-11.4379
等级	-11.4381
都是一样的	-11.4383
较高	-11.4388
先天	-11.4388
听歌	-11.4388
哪些地方	-11.4391
吞	-11.4392
揪	-11.4392
琢磨	-11.4394
所有事情	-11.4394
剧烈	-11.4395
光芒	-11.4395
一次又一次	-11.4398
女士	-11.4398
一同	-11.4402
主体	-11.4403
放任	-11.4403
同行	-11.4406
不妨先	-11.4406
客气	-11.4407
共同话题	-11.4408
这类人	-11.441
跨越	-11.441
觉得不舒服	-11.441
全能	-11.4411
所言	-11.4411
一面镜子	-11.4412
所致	-11.4413
落下	-11.4414
心跳	-11.4414
合理化	-11.4416
一笔	-11.4419
工作岗位	-11.4424
加剧	-11.4426
类似的事情	-11.443
时间管理	-11.4432
周围环境	-11.4435
提出的问题	-11.4443
隐隐	-11.4443
写出	-11.4449
材	-11.4453
三点	-11.4457
涵	-11.4457
在社会上	-11.4458
牵扯	-11.4458
臆	-11.4458
阻力	-11.4458
铃	-11.4459
拙	-11.4459
颜色	-11.4459
消磨	-11.446
随着年龄的增长	-11.446
夸夸	-11.446
给你一个大大的抱抱	-11.4461
问心无愧	-11.4461
能力不足	-11.4464
很远	-11.447
嘴上	-11.4472
美好的回忆	-11.4472
买单	-11.4472
从楼主的	-11.4473
控制住	-11.4478
怎么解决	-11.4478
谈一下	-11.4479
班上	-11.448
用这种方式	-11.4481
谈心	-11.4482
推进	-11.4485
不被爱	-11.4485
好的方面	-11.4492
鼠	-11.45
之内	-11.4508
。“”	-11.4514
产后	-11.4515
添	-11.4516
疲倦	-11.452
可以看出来	-11.4521
著	-11.4521
罩	-11.4521
笼	-11.4521
牵挂	-11.4522
元素	-11.4522
反刍	-11.4522
f	-11.4522
奉献	-11.4523
让我想起了	-11.4523
长此以往	-11.4524
拿起	-11.4525
视觉	-11.4527
何种	-11.4527
因为疫情	-11.4528
进食	-11.4529
住院	-11.4529
尽可能地	-11.4529
的态度方式	-11.4529
较好的	-11.453
多读书	-11.4532
母女	-11.4532
我也曾	-11.4532
其他原因	-11.4534
哭出来	-11.4535
这个过程中	-11.4538
知觉	-11.4541
不必太	-11.4542
往事	-11.4545
沉迷于	-11.4549
多做一些	-11.4551
保持良好的	-11.4553
陷在	-11.4559
六年	-11.4563
逼迫自己	-11.4566
祝你幸福	-11.4567
一些小建议	-11.4567
这个年龄段	-11.4581
险	-11.4582
薄弱	-11.4582
三四	-11.4582
写完	-11.4583
违	-11.4583
喘不过气	-11.4584
闭上眼睛	-11.4585
医疗	-11.4586
从以下几个方面	-11.4587
散散心	-11.4588
自控力	-11.4588
外面的世界	-11.4588
丰富多彩	-11.4588
简单来说	-11.4589
临近	-11.459
空洞	-11.4592
反弹	-11.4592
让自己变得更好	-11.4593
名词	-11.4596
可以回想一下	-11.4597
意识层面	-11.46
放假	-11.46
喝水	-11.4602
做得更好	-11.4607
听课	-11.4609
重要他人	-11.4612
会觉得很	-11.4614
有效的沟通	-11.4621
相差	-11.4621
出现这种情况	-11.4632
受委屈	-11.4642
稳固	-11.4648
完全不同	-11.4649
发生了什么事	-11.4649
庆	-11.465
之间的矛盾	-11.465
崩	-11.465
割舍	-11.4651
沿	-11.4652
欧	-11.4652
捕	-11.4653
可以先从	-11.4653
猜疑	-11.4653
社	-11.4653
另外一种	-11.4653
习得性无助	-11.4653
获得满足	-11.4654
浑身	-11.4654
通俗	-11.4654
臂	-11.4654
给楼主一个温暖的抱抱	-11.4655
班长	-11.4658
切记	-11.4659
不好的影响	-11.4659
一定不会	-11.466
制定计划	-11.4661
是安全的	-11.4662
修行	-11.4663
较多	-11.4665
各方面都	-11.4665
并不一定是	-11.4666
会遇到很多	-11.4668
意图	-11.4669
难关	-11.467
说出自己的想法	-11.4671
短时间	-11.4671
下午好	-11.4672
每个阶段	-11.4673
集中精力	-11.4679
找个咨询师	-11.4679
很强烈	-11.4683
回国	-11.4683
一百	-11.4683
希望题主可以	-11.4686
几个方面	-11.4694
续	-11.4701
明知道	-11.4702
本该	-11.4702
做的更好	-11.4707
白白	-11.471
苏	-11.4713
痒	-11.4715
路径	-11.4715
康	-11.4715
农	-11.4715
祟	-11.4715
迟钝	-11.4716
亲朋好友	-11.4717
浑浑噩噩	-11.4717
不具备	-11.4717
弯路	-11.4718
茫然	-11.4722
感到难受	-11.4723
童年时期	-11.4723
冬天	-11.4727
次数	-11.4727
发展成	-11.4736
像你一样	-11.4738
成长过程	-11.474
;3、	-11.474
学费	-11.4742
释放情绪	-11.4742
很有意思	-11.4748
难堪	-11.475
很多人都有	-11.4753
的情绪体验	-11.4754
初步	-11.4757
策	-11.476
二宝	-11.4763
末	-11.4764
验	-11.4764
属性	-11.4767
口头	-11.4767
明明知道	-11.4769
猎	-11.4772
硕士	-11.4777
单亲家庭	-11.4778
抬	-11.4779
等同于	-11.478
厨	-11.478
台词	-11.4781
伙	-11.4781
积极的心理暗示	-11.4782
说白了	-11.4782
考得	-11.4784
光环	-11.4785
产生矛盾	-11.4785
半小时	-11.4785
吸取	-11.4786
°	-11.4786
归于	-11.4787
事情本身	-11.4788
睡不好	-11.4798
他人身上	-11.4798
前妻	-11.4801
有这种想法	-11.4804
太难了	-11.4805
做了很多	-11.4807
更强大	-11.4809
得不到满足	-11.4815
暂停	-11.4822
知心	-11.4827
精神分裂症	-11.4833
疗	-11.4834
渐渐地	-11.4838
需要一个过程	-11.4839
舞蹈	-11.4844
残忍	-11.4844
颇	-11.4846
w	-11.4846
扶持	-11.4846
吾	-11.4847
辣	-11.4848
从你的文字中	-11.4848
跟他在一起	-11.4848
驾	-11.4848
从心理学的角度	-11.4852
从您的描述看	-11.4852
太强	-11.4856
你爸	-11.4859
丢掉	-11.4861
洗手	-11.4863
两个家庭	-11.4863
看的出来	-11.4863
放松训练	-11.4865
走走	-11.4867
让人感到	-11.4868
的日子里	-11.4873
向他人	-11.4875
对你很好	-11.4879
但事实上	-11.4882
搞得	-11.4886
多少钱	-11.4887
未能	-11.4887
做得很好	-11.489
工作经验	-11.4895
想告诉你	-11.4898
发信息	-11.4898
上网	-11.4904
确实很难	-11.4906
宇宙	-11.4908
吵闹	-11.4909
符	-11.4909
源自于	-11.4911
搭讪	-11.4911
也没必要	-11.4912
懈怠	-11.4912
诚恳	-11.4913
给你的建议	-11.4913
双性恋	-11.4914
OK	-11.4914
慌张	-11.4915
来得及	-11.4915
填满	-11.4915
归宿	-11.4916
触及	-11.4916
积蓄	-11.4916
充足	-11.4918
化学	-11.4918
深深地理解你的痛苦	-11.4918
亦或是	-11.4918
有同感	-11.4919
取代	-11.492
知晓	-11.4921
怎么才能	-11.4923
都是不一样的	-11.4926
坚定地	-11.4928
也不代表	-11.4928
一些小事	-11.4933
时间长	-11.4934
各种各样	-11.4935
好好珍惜	-11.494
真正的朋友	-11.494
期限	-11.494
最好的朋友	-11.4942
明确的目标	-11.4948
失落感	-11.4948
认同感	-11.495
自动化	-11.4955
不开心的事情	-11.4959
这段话	-11.4959
也没有关系	-11.4961
人生观	-11.4966
走过来	-11.4969
小气	-11.4969
我曾经也	-11.4972
自我疗愈	-11.4973
怎样才能	-11.4975
一切都好	-11.4977
卧	-11.4978
欺	-11.4978
姑姑	-11.4979
告白	-11.4979
肝	-11.4979
带动	-11.498
怯	-11.498
感知到	-11.498
未来的生活	-11.498
晒	-11.498
广阔	-11.4981
十全十美	-11.4981
证实	-11.4982
异样	-11.4982
宠物	-11.4985
水果	-11.4989
又怕	-11.4993
一杯	-11.4994
决定权	-11.4994
走的路	-11.4994
将注意力	-11.4995
上台	-11.4996
你的遭遇	-11.5001
欢迎关注我	-11.5002
也就意味着	-11.5006
遇到挫折	-11.5007
比较内向	-11.5009
一副	-11.501
来帮助自己	-11.5013
年龄阶段	-11.5013
占用	-11.5013
影响力	-11.5014
坦然接受	-11.5016
幼	-11.5018
不舒服的感觉	-11.5021
亲戚朋友	-11.5023
在想什么	-11.5032
总体	-11.5032
要么就是	-11.5035
重新建立	-11.5036
其他方式	-11.5036
成为什么样的人	-11.5042
辛	-11.5043
内心的冲突	-11.5043
玉	-11.5045
屏	-11.5045
毁灭	-11.5045
岗	-11.5046
深渊	-11.5047
滤	-11.5047
依附	-11.5047
释然	-11.5048
腻	-11.5048
测评	-11.5048
骚扰	-11.5048
无时无刻	-11.5049
解析	-11.5049
币	-11.5049
Ta	-11.505
为你点赞	-11.5051
希望我的回答可以帮到您	-11.5051
预言	-11.5053
校园暴力	-11.5054
启动	-11.5055
感触	-11.5057
如何对待	-11.5058
劳累	-11.506
报名	-11.506
无法满足	-11.5061
性侵	-11.5062
可以感受到你对	-11.5068
很容易被	-11.507
直面问题	-11.5075
感到自卑	-11.5078
认清自己	-11.5083
感兴趣的事	-11.5085
家乡	-11.5086
受虐	-11.5092
去图书馆	-11.5094
表达自己的需求	-11.5102
每一段	-11.5106
发生矛盾	-11.5106
有很大的关系	-11.511
叹	-11.5111
觉得委屈	-11.5111
非黑即白	-11.5113
幼儿	-11.5113
不适感	-11.5114
寄宿	-11.5114
不经意	-11.5114
这辈子	-11.5114
塌	-11.5115
病态	-11.5116
帖子	-11.5116
深思熟虑	-11.5116
伤感	-11.5116
判定	-11.5117
一段亲密关系	-11.5117
采纳	-11.5117
英国	-11.5118
违法	-11.5119
不知道你是否	-11.5119
老好人	-11.512
偏爱	-11.5122
文明	-11.5126
弄得	-11.5128
想办法解决	-11.5128
改造	-11.5133
充满着	-11.5138
一个良好的	-11.5141
驱使	-11.5141
建设	-11.5142
小小的建议	-11.5147
放在自己身上	-11.5149
人缘	-11.515
总结一下	-11.5154
几分	-11.5159
让她知道	-11.5163
吓到	-11.5165
提出这个问题	-11.5165
体质	-11.517
详	-11.5172
能力强	-11.5177
找到属于自己的	-11.5178
价格	-11.5181
限度	-11.5181
微博	-11.5181
昂	-11.5181
处女情结	-11.5182
不情愿	-11.5182
互联网	-11.5182
逗	-11.5182
十几岁	-11.5183
堕落	-11.5183
道德绑架	-11.5183
招聘	-11.5184
按部就班	-11.5184
预设	-11.5185
得不偿失	-11.5185
狗狗	-11.5186
律师	-11.5186
如果是后者	-11.5187
公正	-11.5189
必要时	-11.519
步入社会	-11.5193
传递给	-11.5196
得到缓解	-11.5197
无私	-11.5199
给自己一点时间	-11.5199
负向	-11.5201
列出来	-11.5203
做什么事	-11.5204
了解彼此	-11.5207
做得好	-11.5207
还挺	-11.5209
亲密接触	-11.521
所有的事情都	-11.5212
是非常好的	-11.5217
及其	-11.5218
做题	-11.5222
问题的关键	-11.5226
地球	-11.5229
巨	-11.523
迫于	-11.5231
高要求	-11.5235
性幻想	-11.5237
自己的梦想	-11.5238
出身	-11.5243
跃	-11.5246
弯	-11.5247
审	-11.5247
尽全力	-11.5248
淋	-11.5248
误区	-11.525
代沟	-11.525
绑	-11.525
晴	-11.525
驱动	-11.5251
比喻	-11.5251
睁	-11.5251
在别人身上	-11.5252
冷静一下	-11.5253
》、《	-11.5253
聚餐	-11.5254
顾忌	-11.5254
鼻子	-11.5254
遇到这种情况	-11.5255
教室	-11.5258
好久	-11.5258
感谢邀请	-11.5258
五个	-11.5259
没做好	-11.526
立足	-11.5261
年华	-11.5262
不在身边	-11.5263
自省	-11.5264
偷懒	-11.5267
就变成了	-11.5267
假想	-11.5273
默	-11.5274
肉体	-11.5275
高中生	-11.5276
会伤害到	-11.5282
共同进步	-11.5285
经济压力	-11.5292
合理安排	-11.5295
根本就不	-11.5297
也许是因为	-11.5301
谢	-11.5302
和父母的关系	-11.5302
建立起来	-11.5303
要面临	-11.5307
保存	-11.5308
辅	-11.5315
悔恨	-11.5317
遥	-11.5318
探寻	-11.5318
薪资	-11.5319
矫正	-11.5319
应激反应	-11.5319
默契	-11.532
模拟	-11.5321
地看待	-11.5321
打动	-11.5322
界定	-11.5322
抒发	-11.5324
退休	-11.5324
接纳自己的不完美	-11.5324
外卖	-11.5325
打扫	-11.5326
主人公	-11.5326
失调	-11.5328
上了大学	-11.5331
失意	-11.5332
才华	-11.5333
去看医生	-11.5333
不完美的自己	-11.5334
会好起来的	-11.5334
弹性	-11.5346
最有效的	-11.5348
2)	-11.5349
找机会	-11.5353
每年	-11.5357
人际边界	-11.5361
有点像	-11.5365
理科	-11.5368
善待自己	-11.537
到一定程度	-11.5371
静心	-11.538
辨	-11.5383
夕	-11.5386
矛盾冲突	-11.5386
涉	-11.5387
以自我为中心	-11.5387
狱	-11.5387
最后的结果	-11.5387
岁左右	-11.5388
瞧不起	-11.5389
老师们	-11.5389
善解人意	-11.539
不合理信念	-11.539
无理取闹	-11.5391
格局	-11.5391
家教	-11.5391
热爱生活	-11.5393
精神科医生	-11.5395
理财	-11.5395
自信起来	-11.5395
长大成人	-11.5398
远方	-11.5403
走到一起	-11.5404
听见	-11.5406
亲爱的朋友	-11.5409
渡过	-11.5409
建议楼主可以	-11.5417
无望	-11.5417
来找你	-11.5422
人设	-11.5424
强大起来	-11.5425
调整自己的状态	-11.5425
迎	-11.5427
继续保持	-11.543
心存	-11.5439
成家	-11.5445
办事	-11.5447
你的表述	-11.5449
朗	-11.5455
夸张	-11.5458
极致	-11.5459
丈	-11.5459
言行举止	-11.546
最低	-11.546
涡	-11.546
筹	-11.546
筋	-11.5461
没什么大不了	-11.5461
提不起兴趣	-11.5461
放平心态	-11.5462
膜	-11.5462
─	-11.5464
激	-11.5465
特意	-11.5465
觉察力	-11.5465
群里	-11.5466
老天的事	-11.5466
排名	-11.5466
形成一种	-11.5468
两周	-11.5472
各个方面	-11.548
恰	-11.5486
下次再	-11.5489
99	-11.5504
很善良	-11.5506
自认为	-11.5506
建立良好的	-11.5506
解决问题的方法	-11.5508
说出口	-11.551
不太了解	-11.5515
直视	-11.5516
的目的是什么	-11.552
羡慕别人	-11.5522
悦	-11.5525
档	-11.5526
持续时间	-11.5526
月份	-11.5529
附近	-11.5529
奖学金	-11.5529
园	-11.553
诀	-11.553
赞扬	-11.553
优异	-11.553
力不从心	-11.5531
实实在在	-11.5531
椅子	-11.5532
很长一段时间	-11.5533
还算	-11.5535
考到	-11.5536
问题在于	-11.5537
导向	-11.554
前辈	-11.5544
憋着	-11.5547
升职	-11.5547
人民	-11.5549
不值得被爱	-11.555
正视自己的	-11.5551
你们之间的感情	-11.5563
定义为	-11.5565
自己的心意	-11.5565
很好的朋友	-11.5567
互相帮助	-11.557
转化成	-11.5573
心烦	-11.5573
两个人的关系	-11.5574
人格特质	-11.5576
人脉	-11.5579
情绪背后	-11.5585
70	-11.559
世界观	-11.5595
发生过什么	-11.5595
前方	-11.5596
贱	-11.5598
亡	-11.56
念念不忘	-11.56
从另一个角度	-11.5601
关闭	-11.5601
诺	-11.5601
犹如	-11.5601
酷	-11.5601
池	-11.5601
1⃣️	-11.5603
是最棒的	-11.5605
患病	-11.5607
语言表达	-11.5608
很困惑	-11.5608
很幸运	-11.5611
余光	-11.5611
给自己留	-11.5615
学习的动力	-11.5615
这样那样的	-11.5619
●)	-11.5623
面目	-11.5625
坏习惯	-11.5628
自己想要的是什么	-11.5632
有效的方法	-11.5633
待在一起	-11.5638
所产生的	-11.5639
丝	-11.5641
能做什么	-11.5645
精力放在	-11.5646
没意思	-11.5647
一些其他的	-11.5648
让他们知道	-11.5654
宣泄情绪	-11.5657
那个女生	-11.5662
并不容易	-11.5662
能帮助到你	-11.5666
削	-11.567
顽	-11.567
表妹	-11.567
钥匙	-11.5671
织	-11.5671
框架	-11.5671
贷	-11.5671
日积月累	-11.5672
跌倒	-11.5672
卷入	-11.5673
磨练	-11.5674
•̀	-11.5675
运行	-11.5676
自立	-11.5676
调整好心态	-11.5678
不好的一面	-11.5679
无力无助	-11.5682
稳重	-11.5683
缘由	-11.5684
前夫	-11.5684
第三个	-11.5686
磨难	-11.5687
骗子	-11.5687
大师	-11.5688
现实世界	-11.5691
比不上	-11.5695
有意义的事情	-11.5696
无法忍受	-11.5697
听说过	-11.5698
的互动模式	-11.5701
跟你一样	-11.5702
剧情	-11.5705
代入	-11.5715
调整过来	-11.5723
看看有没有	-11.5732
并不重要	-11.5732
对我来说	-11.5734
原先	-11.5736
亵	-11.5741
or	-11.5741
沦	-11.5742
讽刺	-11.5743
宅	-11.5743
适用	-11.5743
言辞	-11.5745
一张纸	-11.5745
事半功倍	-11.5746
在这段感情中	-11.5746
枕	-11.5746
牛奶	-11.5746
教授	-11.5746
预想	-11.5747
注意力放在	-11.5747
希望这些文字	-11.5748
自控	-11.5749
怨气	-11.5751
。6、	-11.5752
妄	-11.5756
勇敢一点	-11.5759
凡事都	-11.5759
你们的婚姻	-11.576
换取	-11.5761
是从什么时候开始	-11.5764
极力	-11.5766
落实	-11.5766
换位思考一下	-11.5771
几个建议	-11.5771
看到你的提问	-11.5773
少女	-11.5776
乐于	-11.5781
工作效率	-11.5786
大象	-11.58
盲	-11.5804
比以前	-11.5804
讲出来	-11.5807
雾	-11.5813
忧郁	-11.5815
毕	-11.5815
捧	-11.5816
别人家的孩子	-11.5816
导火索	-11.5817
考完	-11.5817
一无所有	-11.5818
诱因	-11.5818
托付	-11.582
不得已	-11.5821
6.	-11.5822
顺便	-11.5824
懂得如何	-11.5827
听一听	-11.583
老人家	-11.5831
同学之间	-11.5833
很无助	-11.5834
非常理解你的感受	-11.584
现在的状况	-11.5844
精神出轨	-11.5851
找到适合	-11.5856
更有效	-11.586
过多地	-11.5867
很尴尬	-11.5867
在某些方面	-11.5867
把精力放在	-11.5869
非得	-11.5876
做作业	-11.5876
会给自己带来	-11.5882
慢下来	-11.5883
示好	-11.5885
照料	-11.5888
绑架	-11.5888
显著	-11.5889
霸凌	-11.5891
备胎	-11.5893
脸色	-11.5894
才导致	-11.5898
现代社会	-11.5898
进入婚姻	-11.5898
进程	-11.5898
自我认同感	-11.59
贷款	-11.59
话语权	-11.5901
一部分人	-11.5901
散发	-11.5903
相互理解	-11.5909
弱者	-11.5915
大海	-11.5915
客观事实	-11.5916
众多	-11.5919
就相当于	-11.5921
接纳认可	-11.5927
心怀	-11.5927
想象力	-11.593
幻听	-11.594
外力	-11.5943
感到困惑	-11.5946
有效沟通	-11.5947
合法	-11.5951
吃苦	-11.5957
田	-11.5958
镇	-11.596
彼	-11.5962
永远不会	-11.5962
老天爷的事	-11.5962
装修	-11.5962
知道自己想要什么	-11.5963
盈	-11.5963
脚踏实地	-11.5964
一成不变	-11.5964
医嘱	-11.5965
为人处世	-11.5965
转学	-11.5967
•́)	-11.5967
慌乱	-11.5967
给你一个温暖的拥抱	-11.5969
精准	-11.5971
烦闷	-11.5971
五分钟	-11.5971
科普	-11.5971
谈不上	-11.5972
改变轨迹	-11.5977
家里面	-11.5979
吃完	-11.5984
停下	-11.5985
圈子里	-11.5994
穿衣	-11.5996
体面	-11.5996
一秒	-11.5998
终将	-11.5998
一群人	-11.5999
经受	-11.6003
和孩子一起	-11.6005
拉开	-11.6006
较真	-11.6008
不够优秀	-11.601
重重	-11.6013
逃避现实	-11.6016
婚礼	-11.6022
暴力行为	-11.6026
想逃离	-11.6027
平衡点	-11.6028
会不自觉地	-11.603
条件反射	-11.6034
伐	-11.6034
早睡早起	-11.6035
血液	-11.6036
词汇	-11.6036
宽恕	-11.6036
肺	-11.6037
痕迹	-11.6037
检测	-11.6037
,++	-11.6037
格格不入	-11.6038
站在对方的角度	-11.6038
走一走	-11.6039
不顺眼	-11.6039
森田疗法	-11.6039
辨别	-11.604
恨意	-11.6049
便利	-11.6052
恶化	-11.6054
大多数时候	-11.6054
下一代	-11.6056
才算	-11.606
请允许我	-11.606
表面上看	-11.6069
遇到了什么	-11.6072
没有被满足	-11.6078
堆	-11.6079
很奇怪	-11.6085
感到高兴	-11.6086
下雨	-11.6088
和你分享	-11.6091
都是很正常的	-11.6098
很无奈	-11.61
色情	-11.6104
虑	-11.6104
第一印象	-11.6105
艰	-11.6107
绵	-11.611
业绩	-11.6111
注意力不集中	-11.6111
全心全意	-11.6111
履	-11.6111
奇迹	-11.6111
反反复复	-11.6112
黏	-11.6112
极限	-11.6113
打麻将	-11.6113
老一辈	-11.6113
不必太过	-11.6113
调整好自己的心态	-11.6115
虚弱	-11.6115
自豪	-11.6115
值不值得	-11.6117
急切	-11.6117
发抖	-11.6118
无助感	-11.6118
跑跑步	-11.6118
实质性的	-11.612
在人群中	-11.6122
会好一些	-11.6122
相关知识	-11.613
发觉	-11.6131
初二	-11.6132
总结经验	-11.6132
观看	-11.6134
此类	-11.6139
正规	-11.6141
是没有问题的	-11.615
心软	-11.6154
满足自己的需求	-11.6165
学术	-11.617
鉴	-11.6172
不合群	-11.6176
挥	-11.618
现场	-11.6181
男士	-11.6181
PUA	-11.6184
裂痕	-11.6186
内敛	-11.6186
配偶	-11.6186
赤	-11.6186
希望自己能够	-11.6186
眉	-11.6187
苛求	-11.6187
溢	-11.6187
棵	-11.6187
盐	-11.6187
自以为是	-11.6188
Dear	-11.6189
可耻	-11.6192
时间精力	-11.6192
借此	-11.6196
打断	-11.6198
小姑娘	-11.6198
解决问题的办法	-11.6204
一口气	-11.6209
气场	-11.6211
向前看	-11.6213
被称为	-11.6216
切断	-11.6217
两种情况	-11.6219
美女	-11.6225
典型	-11.6238
分类	-11.6239
产生怀疑	-11.6242
生活质量	-11.6243
困住	-11.6245
有条件的话	-11.625
怀着	-11.6251
绪	-11.6253
晓	-11.6254
怎	-11.6254
勇	-11.6255
未来的规划	-11.6257
炮	-11.6258
裤	-11.6259
暴食	-11.626
艳	-11.6263
旗	-11.6263
转折点	-11.6264
百分百	-11.6264
示弱	-11.6264
半个月	-11.6266
踏入	-11.6266
感到迷茫	-11.6269
同频	-11.6269
偏离	-11.6274
不对等	-11.628
作息时间	-11.6284
关乎	-11.6285
脉	-11.6286
听完	-11.629
算命	-11.6299
资金	-11.6299
看看能不能	-11.6304
一个词	-11.6314
考上大学	-11.6325
回顾一下	-11.6327
得到父母的	-11.6327
亲友	-11.633
有暴力倾向	-11.6336
杆	-11.6336
剪	-11.6337
趋势	-11.6338
达成共识	-11.6338
荣格	-11.6338
终止	-11.6338
攒	-11.6339
蜕变	-11.6339
武器	-11.6339
|	-11.634
传承	-11.634
桥梁	-11.634
ABC	-11.634
达成一致	-11.634
app	-11.6341
抬头	-11.6343
小蘑菇	-11.6344
躯体化	-11.6348
咨询师的帮助	-11.6349
倒不如	-11.635
看小说	-11.635
可以采用	-11.6354
电子	-11.6357
充实起来	-11.636
冒出来	-11.6363
心理辅导	-11.6367
质问	-11.6368
走到最后	-11.6375
岂不是	-11.638
做自己想做的事	-11.6384
虽说	-11.6387
周围的环境	-11.639
这块	-11.6391
如实	-11.6392
所描述的	-11.6396
给自己设定	-11.6399
追问	-11.6403
直白	-11.6409
扑	-11.6413
企图	-11.6414
矮	-11.6414
哀伤	-11.6415
辩证	-11.6416
奉	-11.6416
疏通	-11.6416
惰性	-11.6416
踏踏实实	-11.6416
模型	-11.6417
巩固	-11.6417
全力以赴	-11.6417
沉溺	-11.6418
让对方知道	-11.6419
老二	-11.642
使然	-11.6427
○	-11.6427
自闭	-11.6431
就足够了	-11.6433
才是真正的	-11.6434
懒得	-11.6436
口气	-11.6437
对策	-11.6439
爱慕	-11.6441
温柔世界	-11.6448
受苦	-11.6454
很艰难	-11.6455
积极的心态	-11.6468
围绕	-11.647
想要的结果	-11.6471
漫长的过程	-11.6472
提要求	-11.6472
继父	-11.6484
尊	-11.6487
平庸	-11.649
届	-11.6492
离家出走	-11.6493
吉	-11.6493
微妙	-11.6493
挠	-11.6494
慰藉	-11.6494
周遭	-11.6495
―	-11.6496
范围之内	-11.6496
轻视	-11.6497
复制	-11.6499
正所谓	-11.6503
期许	-11.6503
只需	-11.6507
精神分裂	-11.6512
区域	-11.6513
站起来	-11.6514
一段话	-11.6516
自负	-11.6517
半天	-11.6517
就好啦	-11.6517
心平气和	-11.6518
起作用	-11.6519
谢邀	-11.6519
成全	-11.6523
在你心中	-11.6537
心酸	-11.6538
婆媳	-11.6549
私密	-11.6549
>>>	-11.655
未曾	-11.6552
您提到	-11.6554
深受	-11.6558
会加重	-11.6561
诱	-11.6562
所拥有的	-11.6564
目前的状况	-11.6565
稿	-11.6567
跌	-11.657
演员	-11.657
援助	-11.6571
本职工作	-11.6571
践	-11.6572
溜	-11.6572
赔	-11.6572
布置	-11.6573
体制	-11.6573
纵容	-11.6573
潇洒	-11.6573
脸红	-11.6573
重拾	-11.6574
越想越	-11.6575
短期内	-11.6577
肢体接触	-11.6577
对您有所帮助	-11.6577
悲痛	-11.6578
对你有所启发	-11.6581
会不自觉的	-11.6582
发朋友圈	-11.6587
向前走	-11.6588
男女之间	-11.6592
第一位	-11.6593
35	-11.6598
最好的办法就是	-11.66
寻求心理咨询师的帮助	-11.6601
心情低落	-11.6602
同龄	-11.6603
迎来	-11.6603
所处的环境	-11.6603
;3.	-11.6606
三十岁	-11.6613
真正想要的	-11.6632
呈现出来	-11.6633
过度关注	-11.6633
吊	-11.6649
无所适从	-11.665
两性关系	-11.6651
存款	-11.6652
岸	-11.6652
宫	-11.6652
院校	-11.6652
舒畅	-11.6653
隙	-11.6653
录取	-11.6653
从您的陈述中	-11.6653
肆意	-11.6653
遵医嘱	-11.6654
消沉	-11.6655
很少有人	-11.6655
卸	-11.6663
通知	-11.6665
走不出来	-11.667
在原地	-11.6672
一对一	-11.6672
才能更好地	-11.6679
是成年人了	-11.6681
早早	-11.6685
天真	-11.6687
体检	-11.669
从而导致	-11.6694
解决不了问题	-11.6696
扩	-11.67
某些方面	-11.6724
称呼	-11.6727
沾	-11.6727
争辩	-11.6727
赴	-11.6728
躺在床上	-11.6728
乖巧	-11.6728
舆论	-11.6729
马斯洛	-11.673
必不可少	-11.6731
给你个大大的拥抱	-11.6731
屁	-11.6731
指标	-11.6731
加工	-11.6732
调侃	-11.6732
非常理解楼主的感受	-11.6734
给题主一个抱抱	-11.6734
养老	-11.6735
母子	-11.6735
恩爱	-11.674
孩子的教育	-11.6745
抚养者	-11.6746
足够强大	-11.6747
生理和心理	-11.6748
灰心	-11.6749
楼主描述的	-11.6749
外公	-11.6762
反向	-11.6765
.....	-11.6773
设限	-11.679
27	-11.6793
至亲	-11.6794
袋	-11.68
衡	-11.6805
on	-11.6806
囊	-11.6808
姓	-11.6808
唐	-11.6808
慈	-11.6808
富足	-11.6808
搁	-11.6808
追溯	-11.6809
窥	-11.681
惶恐	-11.6812
欢喜	-11.6812
可以帮助到你	-11.6813
旺盛	-11.6813
运作	-11.6813
Audrey	-11.6814
如果是前者	-11.6814
抽出	-11.6817
桌子	-11.6818
两句	-11.682
聊得来	-11.6822
究竟是什么	-11.6822
发消息	-11.683
分工	-11.6835
的原因之一	-11.6839
况	-11.6847
亲自	-11.6852
心脏	-11.6857
孕期	-11.6858
把目光	-11.6863
执着于	-11.6865
卸下	-11.6874
爹	-11.6884
崇	-11.6886
妆	-11.6887
乌	-11.6888
排序	-11.6889
不切实际	-11.6889
伤疤	-11.689
犹豫不决	-11.689
册	-11.689
在什么情况下	-11.6891
俭	-11.6891
无所事事	-11.6892
friend	-11.6892
兄	-11.6892
姨妈	-11.6892
仗	-11.6892
付诸行动	-11.6893
团结	-11.6893
公众	-11.6894
催婚	-11.6894
后盾	-11.6894
同事们	-11.6894
不自知	-11.6894
公主	-11.6898
看完你的描述	-11.6899
难熬	-11.6901
听上去	-11.6902
淡定	-11.6902
弟弟妹妹	-11.6903
第二步	-11.6903
做的不对	-11.6908
转机	-11.691
找借口	-11.6916
既定	-11.6917
相待	-11.6919
是你的错	-11.6923
高压	-11.6926
实在不行	-11.6927
总想着	-11.6936
的方式来表达	-11.6943
分明	-11.6946
会给我们带来	-11.6957
很差劲	-11.696
来到这个世界	-11.696
心理素质	-11.6962
所需	-11.6963
界限感	-11.6964
艾	-11.6968
帽	-11.697
八卦	-11.697
咽	-11.697
我们来看看	-11.6971
躁郁症	-11.6971
承载	-11.6971
黄金	-11.6972
无关紧要	-11.6973
半个小时	-11.6973
留住	-11.6973
凝	-11.6973
违反	-11.6974
普及	-11.6975
与众不同	-11.6975
促成	-11.6975
真挚	-11.6975
直播	-11.6976
提分手	-11.6978
毫无意义	-11.6979
短信	-11.6984
明知	-11.6988
相比于	-11.6993
理解和包容	-11.6995
苦苦	-11.6996
家人和朋友	-11.6999
个人隐私	-11.7006
这种做法	-11.7012
邀	-11.7023
...........................	-11.703
怜	-11.7044
几点小建议	-11.7048
仙	-11.7051
尊敬	-11.7052
抑	-11.7053
裁	-11.7053
揽	-11.7053
蝶	-11.7054
悲剧	-11.7054
猜忌	-11.7055
抚慰	-11.7055
有过类似	-11.7056
希望以下回答能帮助到你	-11.7057
柜	-11.7057
观众	-11.7057
良药	-11.7059
教养方式	-11.706
迷信	-11.706
大龄	-11.7061
笑容	-11.7061
使命	-11.7061
刷手机	-11.7063
进入大学	-11.7065
总归	-11.7068
5.	-11.7075
合群	-11.7078
拖累	-11.7083
所提到的	-11.7084
当回事	-11.7084
给自己贴标签	-11.7088
注意力集中	-11.7114
霸	-11.7115
好好活着	-11.7117
是有问题的	-11.7127
经理	-11.7129
是一个独立的个体	-11.7132
睹	-11.7132
捋	-11.7132
亿	-11.7133
革	-11.7134
盼	-11.7134
幕	-11.7134
暂且	-11.7135
几件	-11.7135
垮	-11.7136
仇恨	-11.7136
娃娃	-11.7136
马拉松	-11.7137
诚然	-11.7138
琴	-11.7138
宣传	-11.7139
酱	-11.714
正在经历	-11.7141
前进的动力	-11.7141
人或事	-11.7142
显现	-11.7143
集体活动	-11.7146
套路	-11.7148
条理	-11.7149
要好的朋友	-11.7151
装作	-11.7155
是一个不错的	-11.7161
错失	-11.7162
扩大自己的	-11.7167
新事物	-11.7176
微小	-11.7183
默认	-11.7187
>	-11.7196
升起	-11.7201
伏	-11.7212
。******	-11.7213
勾	-11.7214
姆	-11.7214
阴暗	-11.7217
捷	-11.7218
APP	-11.7219
根深蒂固	-11.7219
认知行为疗法	-11.7219
把关注点	-11.7219
计算	-11.722
乘	-11.7221
焦急	-11.7221
放一放	-11.7221
真的很棒	-11.7222
绝大部分	-11.7222
好与坏	-11.7222
邀答	-11.7222
洒脱	-11.7222
渴	-11.7222
消退	-11.7223
深交	-11.7226
长期处于	-11.7229
感慨	-11.7231
以下建议	-11.7231
社交场合	-11.7233
执行力	-11.7233
发呆	-11.7237
虚无	-11.7237
找一位	-11.7241
什么都不做	-11.7243
看到自己的优点	-11.7245
生理反应	-11.7245
很同情你	-11.7245
写字	-11.7245
越来越严重	-11.725
陌生的环境	-11.726
前几天	-11.726
好好沟通一下	-11.7266
或多或少都会	-11.7273
晚安	-11.7281
足够优秀	-11.7281
压力比较大	-11.7285
实则	-11.7291
是两个人的事	-11.7293
的应对方式	-11.73
谱	-11.73
斤	-11.7301
征服	-11.7302
哎	-11.7302
殊	-11.7302
紧紧	-11.7303
掐	-11.7303
点点滴滴	-11.7303
洛	-11.7305
科技	-11.7305
绽放	-11.7306
考察	-11.7308
鞋子	-11.7312
28	-11.7312
退行	-11.7315
搞定	-11.7317
停留	-11.7318
两位	-11.7326
小礼物	-11.7332
克服困难	-11.7335
有所收获	-11.7336
又何必	-11.7341
询	-11.7349
几条	-11.7353
慎重考虑	-11.7355
局限于	-11.7357
有经验的	-11.7366
不是一朝一夕	-11.7368
余生	-11.7372
加倍	-11.7374
神经症	-11.7376
植	-11.7386
欣喜	-11.7387
嚼	-11.7387
耕	-11.7387
昧	-11.7387
猪	-11.7388
杜	-11.7388
淹没	-11.739
休闲	-11.739
200	-11.7393
更年期	-11.7393
社团活动	-11.7395
屋子	-11.7395
两句话	-11.7401
多大年龄	-11.7404
没考好	-11.7404
只能说明	-11.7406
所有的人都	-11.7409
情侣之间	-11.7417
不够成熟	-11.7422
辩论	-11.7427
十分钟	-11.7437
过往经历	-11.7452
宿	-11.7465
在意别人的眼光	-11.7465
纪	-11.7468
豪	-11.7469
统计	-11.747
容纳	-11.7472
理所应当	-11.7472
曼	-11.7472
终极	-11.7473
瑕	-11.7473
汲取	-11.7474
瑶瑶	-11.7474
谈婚论嫁	-11.7474
皇	-11.7474
心路历程	-11.7475
斗志	-11.7475
箭	-11.7475
迟迟	-11.7476
奔跑	-11.7478
Yourfriend	-11.7478
对你想要问的问题有了一定的了解	-11.7483
报道	-11.7488
会越来越好的	-11.7488
不受控制	-11.7491
学识	-11.7495
精神层面	-11.7496
所认为的	-11.7504
产后抑郁	-11.7509
完成作业	-11.7512
不单单是	-11.7514
是因为什么原因	-11.7518
文科	-11.7528
................................	-11.7539
ti	-11.7541
・	-11.7546
顿饭	-11.7551
犹	-11.7556
梯	-11.7557
汇报	-11.7557
趋利避害	-11.7558
颠	-11.7558
厘	-11.7559
憎恨	-11.7559
赠	-11.756
挚	-11.756
钻牛角尖	-11.756
来不及	-11.7561
血缘关系	-11.7561
应该怎么办	-11.7561
闲暇	-11.7562
权衡利弊	-11.7562
体制内	-11.7562
门槛	-11.7562
F	-11.7563
总的来说	-11.7563
不是一件容易的事	-11.7563
破碎	-11.7564
驱动力	-11.7566
找专业的心理咨询师	-11.7567
境况	-11.757
工厂	-11.757
语文	-11.757
感官	-11.7575
正经	-11.758
工作和学习	-11.7581
通往	-11.7583
围绕着	-11.7586
有所启发	-11.7586
换一种方式	-11.7595
有了一定的	-11.7598
的一些看法	-11.7602
手工	-11.7612
该有的	-11.7622
做得不好	-11.7634
购	-11.7638
R	-11.7642
钻	-11.7643
灾	-11.7645
勒	-11.7645
盟	-11.7645
前段时间	-11.7646
舞台	-11.7647
勿	-11.7647
政策	-11.7648
报酬	-11.7648
肩膀	-11.7648
的产物	-11.7648
遥远	-11.7649
逃跑	-11.7649
彷	-11.7649
怀抱	-11.7651
偏向于	-11.7655
我想告诉你的是	-11.7656
需要注意的是	-11.7656
把你当成	-11.7657
别着急	-11.766
突破口	-11.7664
白费	-11.7672
物体	-11.7675
在职场上	-11.7677
答题	-11.7677
优越	-11.7678
希望有所帮助	-11.7679
个多月	-11.7686
打造	-11.7712
处事方式	-11.7717
枝	-11.773
小区	-11.7731
震	-11.7732
咖啡	-11.7733
因果	-11.7733
奇妙	-11.7734
en	-11.7734
舌	-11.7735
安逸	-11.7735
戳	-11.7735
变本加厉	-11.7735
暴怒	-11.7735
主观能动性	-11.7736
透彻	-11.7736
武志红	-11.7736
整洁	-11.7736
奖赏	-11.7737
拓宽	-11.7737
议题	-11.7737
先给你一个大的抱抱	-11.7737
大大方方	-11.7737
吃饱	-11.7738
钢琴	-11.7739
拖拉	-11.7739
可以留言或者私信	-11.774
希望我的回答能帮到你	-11.7741
。️**	-11.7742
不同程度的	-11.7748
繁衍	-11.7755
能力很强	-11.7756
面对和解决	-11.777
围着	-11.7772
两个字	-11.7777
添麻烦	-11.7779
渡	-11.7787
不爱说话	-11.7788
一段恋情	-11.7796
很能理解你的感受	-11.7797
想的那样	-11.7808
老虎	-11.7811
察	-11.7818
惧	-11.7821
只剩下	-11.7822
唯独	-11.7822
喷	-11.7822
包裹	-11.7823
秉	-11.7823
独自一人	-11.7823
民族	-11.7823
叙	-11.7824
垫	-11.7824
屑	-11.7824
坚韧	-11.7825
体育锻炼	-11.7825
神秘	-11.7827
不忍心	-11.7828
指挥	-11.7828
慢热	-11.7832
更深层次的	-11.7833
因果关系	-11.7834
知心朋友	-11.7834
场面	-11.7837
变得优秀	-11.7837
见证	-11.7838
归因于	-11.7845
全世界都	-11.7848
方面的知识	-11.7852
经济来源	-11.7858
双手	-11.7863
建设性	-11.7864
饭菜	-11.7888
幸福美满	-11.7896
阔	-11.7906
尽力而为	-11.7909
稍稍	-11.7911
自卑与超越	-11.7911
忽	-11.7912
盆	-11.7912
芽	-11.7912
姿势	-11.7912
一点一滴	-11.7913
尊重信任理解接纳认可	-11.7913
政治	-11.7913
求同存异	-11.7913
抚平	-11.7913
渐行渐远	-11.7913
希望对你有启发	-11.7914
愈合	-11.7915
趟	-11.7915
寥	-11.7915
健全	-11.7916
反移情	-11.7917
在职场中	-11.7917
祝融心理	-11.7918
直观	-11.792
开支	-11.7923
工程	-11.7923
一件坏事	-11.7925
忘不了	-11.7925
心平气和地	-11.7929
继续走下去	-11.7934
删掉	-11.7934
空闲时间	-11.794
路过的	-11.7941
是必然的	-11.7942
主流	-11.7955
两者之间	-11.796
去医院做	-11.7962
是可以改变的	-11.7964
是故意的	-11.797
发生了变化	-11.7978
分不清	-11.7983
路线	-11.7992
到底发生了什么	-11.7993
胸闷	-11.7997
正确看待	-11.7998
充沛	-11.7999
抵御	-11.7999
早晨	-11.7999
洁癖	-11.8
筑	-11.8
总而言之	-11.8
贫穷	-11.8
液	-11.8001
杰	-11.8001
串	-11.8002
秩序	-11.8002
戒备	-11.8002
公园	-11.8002
倘若	-11.8002
鸡蛋	-11.8002
应聘	-11.8002
救赎	-11.8003
停不下来	-11.8003
对与错	-11.8003
老年人	-11.8003
阻挡	-11.8003
快递	-11.8003
有针对性的	-11.8004
平均	-11.8004
施虐	-11.8006
擅长的领域	-11.8006
自由自在	-11.801
扔掉	-11.801
停药	-11.8011
当我在看完了你的描述	-11.8012
神经系统	-11.8012
债务	-11.8015
助理	-11.8017
浓度	-11.8022
到什么程度	-11.8027
内心真实的想法	-11.8029
舍得	-11.8038
生活和学习	-11.8041
是自己的错	-11.8043
整个过程	-11.8046
未被满足	-11.8054
恭喜	-11.8055
反面	-11.8069
身体和心理	-11.8069
旅	-11.807
龄	-11.8076
冤枉	-11.8091
尺	-11.8092
魄	-11.8092
杠	-11.8095
估	-11.8162
谷	-11.8178
攀	-11.8179
循	-11.818
训	-11.8183
坡	-11.8183
井	-11.8184
啃	-11.8185
仁	-11.8187
诸	-11.8196
擅	-11.8271
杨	-11.8276
寸	-11.8276
州	-11.8277
浇	-11.8278
党	-11.8279
茫	-11.8363
勃	-11.8367
链	-11.8367
献	-11.8368
络	-11.8369
卓	-11.8371
蜜	-11.8371
绘	-11.8371
遣	-11.8373
禅	-11.8462
淫	-11.8462
瓦	-11.8463
辆	-11.8463
航	-11.8466
Q	-11.8466
⊙	-11.8466
陶	-11.8466
诞	-11.8467
驶	-11.8562
怂	-11.8564
塑	-11.8603
炒	-11.8653
婶	-11.8656
罐	-11.8656
嗜	-11.8656
癌	-11.8659
苍	-11.8659
疫	-11.8688
腺	-11.8741
洪	-11.8751
叔	-11.8751
伞	-11.8752
弥	-11.8752
援	-11.8753
坠	-11.8754
湖	-11.8755
婆	-11.8824
济	-11.8848
彻	-11.885
庸	-11.885
钉	-11.8851
喘	-11.8852
恕	-11.8853
誓	-11.8854
〰	-11.8855
腕	-11.8949
卑	-11.895
踪	-11.895
暇	-11.8951
刹	-11.8951
誉	-11.8951
府	-11.8953
竞	-11.9045
泼	-11.9046
脂	-11.9048
译	-11.905
仿	-11.905
驻	-11.9053
哺	-11.9147
典	-11.9149
磁	-11.915
๑	-11.9153
惠	-11.9155
庄	-11.9156
唤	-11.9245
蹭	-11.9252
媒	-11.9253
韧	-11.9253
滥	-11.9254
妥	-11.9262
慎	-11.9351
衬	-11.9355
<	-11.9355
拐	-11.9358
刑	-11.9458
嘿	-11.9459
兑	-11.9459
x	-11.946
雄	-11.9462
搏	-11.9463
慕	-11.9531
汤	-11.9563
棍	-11.9563
泰	-11.9564
V	-11.9565
́	-11.9566
斩	-11.9568
這	-11.9654
廉	-11.9666
蛇	-11.9667
绷	-11.9667
企	-11.9671
猴	-11.9671
措	-11.9671
饼	-11.9672
窍	-11.9672
肿	-11.9674
栏	-11.9674
肾	-11.9674
咨	-11.9675
〕	-11.9678
〔	-11.9678
沟	-11.9698
溺	-11.9757
朋	-11.9757
竟	-11.976
津	-11.9777
浴	-11.9778
库	-11.9781
斜	-11.9781
颤	-11.9783
冬	-11.9874
⏩	-11.9883
煮	-11.9883
咳	-11.9886
溯	-11.9888
丛	-11.989
愛	-11.9973
抚	-11.9986
劣	-11.9995
肆	-11.9996
枪	-11.9998
睬	-11.9998
晶	-11.9999
希	-11.9999
祈	-11.9999
挟	-12
兆	-12
番	-12.0084
挫	-12.0102
江	-12.0108
歪	-12.0108
淘	-12.0109
H	-12.011
涂	-12.011
腐	-12.0111
孰	-12.0116
罢	-12.0126
棋	-12.0219
辉	-12.0219
蕴	-12.022
剑	-12.022
墨	-12.0221
咸	-12.0222
霍	-12.0222
撤	-12.0224
溃	-12.0225
婴	-12.0332
迪	-12.0334
芒	-12.0334
瞧	-12.0335
梁	-12.0335
鸣	-12.0338
烫	-12.0338
麦	-12.0339
酌	-12.034
奏	-12.0408
疾	-12.0447
窘	-12.0448
咯	-12.045
喉	-12.0452
唉	-12.0452
疤	-12.0453
域	-12.053
伪	-12.0565
澡	-12.0567
岳	-12.0568
欣	-12.0568
蹦	-12.0569
螺	-12.057
沼	-12.057
狐	-12.0663
携	-12.0681
蠢	-12.0682
昨	-12.0682
胀	-12.0682
咒	-12.0684
嘱	-12.0685
宏	-12.0685
捅	-12.0687
Z	-12.0687
赋	-12.0793
扭	-12.0796
申	-12.0797
磕	-12.0804
伍	-12.0804
拢	-12.0804
肋	-12.0805
岔	-12.0805
汁	-12.0807
疮	-12.0809
贤	-12.0918
伊	-12.0923
逾	-12.0923
舔	-12.0924
谨	-12.0928
裙	-12.0929
劈	-12.1044
拽	-12.1045
掰	-12.1045
觅	-12.1046
豁	-12.1047
湿	-12.1049
糕	-12.1095
拥	-12.1105
银	-12.116
凤	-12.1166
贞	-12.1167
掏	-12.1167
灌	-12.1169
蒂	-12.1169
扼	-12.1169
腆	-12.117
丫	-12.117
琐	-12.1171
乞	-12.1172
尤	-12.1286
宗	-12.1289
蔽	-12.129
魅	-12.1293
恳	-12.1294
悸	-12.1295
饶	-12.1295
`	-12.1296
粮	-12.1297
矣	-12.1297
概	-12.1414
菌	-12.1418
柴	-12.1419
愚	-12.142
摧	-12.1421
框	-12.1421
苟	-12.1423
叉	-12.1423
玄	-12.1428
稻	-12.1543
贝	-12.1544
钓	-12.1547
焉	-12.1548
障	-12.155
嘲	-12.155
堡	-12.1551
窄	-12.1552
為	-12.1668
曰	-12.1676
唠	-12.1677
肥	-12.1678
粒	-12.1678
褪	-12.1679
邻	-12.168
裕	-12.168
▶	-12.168
枯	-12.168
驰	-12.168
穴	-12.1681
乙	-12.1681
寡	-12.1681
痕	-12.1682
娩	-12.1806
醋	-12.1807
驳	-12.181
汽	-12.1811
眷	-12.1812
跪	-12.1812
筒	-12.1814
诫	-12.1815
驼	-12.1941
肚	-12.1942
韩	-12.1942
翔	-12.1944
梗	-12.1944
悖	-12.1945
齿	-12.1945
洒	-12.1947
惶	-12.2073
汇	-12.2073
冻	-12.2076
呵	-12.2077
蹲	-12.2077
氧	-12.2077
钢	-12.2078
叮	-12.2078
盗	-12.2079
婉	-12.2079
彰	-12.208
庞	-12.2081
恍	-12.2082
盒	-12.2082
個	-12.2193
咪	-12.221
什	-12.2213
钝	-12.2215
墓	-12.2217
摩	-12.2218
逊	-12.2219
径	-12.2221
來	-12.2332
颈	-12.235
悉	-12.2351
朦	-12.2351
卜	-12.2353
芬	-12.2354
凸	-12.2355
囤	-12.2356
刁	-12.2357
跤	-12.2357
柳	-12.2359
庭	-12.2458
培	-12.2459
盯	-12.2475
玲	-12.2495
契	-12.2495
讳	-12.2496
锤	-12.2496
弦	-12.2496
羽	-12.2497
芳	-12.2498
仓	-12.2501
孩	-12.2602
會	-12.2612
兮	-12.2632
妮	-12.2633
渺	-12.2633
懵	-12.2634
川	-12.2635
键	-12.2638
‍	-12.2639
殆	-12.264
肢	-12.264
弗	-12.2641
窃	-12.2643
侄	-12.2643
帝	-12.2747
锐	-12.2775
葬	-12.2781
惭	-12.2782
垂	-12.2783
揉	-12.2785
榜	-12.2785
們	-12.2906
飙	-12.2926
痘	-12.2928
咎	-12.293
🤗	-12.2931
萎	-12.2932
祥	-12.2933
舟	-12.2934
臣	-12.3074
拾	-12.3076
纲	-12.3078
q	-12.3078
茬	-12.3081
晦	-12.3081
桃	-12.3082
寿	-12.3082
竹	-12.3082
谧	-12.3084
蔑	-12.3225
嚷	-12.3227
坟	-12.3231
召	-12.3231
撼	-12.3232
迅	-12.3232
砍	-12.3232
耽	-12.3232
慧	-12.3233
恬	-12.3236
'	-12.3236
叠	-12.3375
屎	-12.3383
驯	-12.3384
县	-12.3384
侠	-12.3385
凯	-12.3385
赐	-12.3386
庇	-12.3386
熏	-12.3386
寂	-12.3387
甄	-12.3388
骄	-12.3388
谎	-12.3469
籍	-12.3491
肌	-12.3535
瞬	-12.3537
悄	-12.3537
宾	-12.3539
剖	-12.3539
朴	-12.3539
宵	-12.354
珠	-12.3541
劫	-12.3542
驴	-12.3543
晃	-12.3543
撇	-12.3543
殴	-12.3544
泽	-12.3546
综	-12.3687
鹿	-12.3695
毅	-12.3696
郎	-12.3699
拧	-12.37
婿	-12.3701
姿	-12.3703
鞭	-12.3704
倦	-12.3705
哲	-12.3846
榨	-12.386
K	-12.3861
亢	-12.3862
U	-12.3862
枚	-12.3863
巅	-12.3864
瑟	-12.3864
倔	-12.3866
慰	-12.402
椅	-12.4021
佩	-12.4024
膊	-12.4025
揣	-12.4025
🤔	-12.4025
披	-12.4026
曝	-12.4027
胶	-12.4028
碍	-12.4084
呈	-12.4126
厂	-12.4175
麼	-12.4179
莱	-12.4185
纹	-12.4191
G	-12.4191
栽	-12.4191
脖	-12.4191
绊	-12.4191
壤	-12.4192
葛	-12.4192
雌	-12.4192
棉	-12.4192
谣	-12.4193
嗓	-12.4193
鲸	-12.4193
Y	-12.4194
妖	-12.4194
怦	-12.4195
岂	-12.4269
媽	-12.4335
伟	-12.4345
暮	-12.4353
歉	-12.4357
卵	-12.436
{	-12.4361
J	-12.4362
媚	-12.4363
硕	-12.4363
铭	-12.4363
寝	-12.4364
耶	-12.4364
惘	-12.4365
瑾	-12.4367
乃	-12.442
菲	-12.4531
懦	-12.4531
碑	-12.4533
辙	-12.4533
谬	-12.4533
嫖	-12.4534
矜	-12.4536
翼	-12.4537
殖	-12.4538
▽	-12.4539
冥	-12.4654
婷	-12.4704
疚	-12.4706
扮	-12.4706
斑	-12.4706
漆	-12.4707
袜	-12.4708
茧	-12.4708
晾	-12.4709
吝	-12.471
搅	-12.471
蜷	-12.4711
崖	-12.4711
芝	-12.4711
罕	-12.4713
恭	-12.4713
膝	-12.4883
j	-12.4885
帖	-12.4886
肖	-12.4886
≠	-12.4887
赘	-12.4888
丹	-12.4888
酵	-12.4889
闺	-12.4889
绎	-12.4889
嚣	-12.489
锦	-12.489
睐	-12.4891
绩	-12.5048
慨	-12.5053
碌	-12.5054
躯	-12.5065
帘	-12.5066
邪	-12.5067
巾	-12.5067
粥	-12.5068
兔	-12.5068
桑	-12.5069
胁	-12.5069
W	-12.5069
讷	-12.507
Ю	-12.507
睿	-12.507
洲	-12.507
逞	-12.507
抠	-12.5071
莽	-12.5071
沐	-12.5071
旷	-12.5071
唾	-12.5071
匿	-12.5073
說	-12.5221
勉	-12.5244
浸	-12.525
乍	-12.5252
浩	-12.5253
隆	-12.5253
崭	-12.5254
秽	-12.5254
桎	-12.5254
梅	-12.5255
酿	-12.5256
喧	-12.5257
皱	-12.5257
瘤	-12.5257
椎	-12.5257
砺	-12.5258
靡	-12.5258
雇	-12.5259
壶	-12.5265
晋	-12.5408
鸿	-12.5436
冤	-12.5437
伺	-12.5439
萨	-12.5441
朱	-12.5442
焕	-12.5443
竖	-12.5443
尬	-12.5445
鄙	-12.5445
筷	-12.5446
膨	-12.5446
烤	-12.5446
帐	-12.5447
糙	-12.5447
搓	-12.5448
佐	-12.563
叛	-12.5631
棘	-12.5632
袖	-12.5634
蚊	-12.5634
聪	-12.5635
揍	-12.5637
陀	-12.5637
犬	-12.5637
殷	-12.5637
荆	-12.5638
z	-12.564
話	-12.5809
遵	-12.5818
腥	-12.5825
惑	-12.5827
骆	-12.5828
陌	-12.583
憎	-12.5831
央	-12.5831
渗	-12.5832
蚀	-12.5833
沌	-12.5833
🤝	-12.5835
嫩	-12.5835
搪	-12.5836
沒	-12.6021
奴	-12.6029
迂	-12.603
戈	-12.603
郑	-12.6031
努	-12.6031
沸	-12.6032
糗	-12.6032
狡	-12.6033
淤	-12.6033
撸	-12.6034
倚	-12.6034
囚	-12.6229
犒	-12.6234
魂	-12.6234
怡	-12.6235
钦	-12.6236
佬	-12.6236
沃	-12.6237
缕	-12.6238
ヾ	-12.6241
奠	-12.6242
堪	-12.629
暂	-12.6295
涯	-12.6319
實	-12.641
對	-12.6421
茨	-12.6434
戾	-12.6441
孟	-12.6441
俊	-12.6441
邦	-12.6442
邮	-12.6442
棚	-12.6443
燥	-12.6443
泊	-12.6444
柏	-12.6444
嘉	-12.6444
吟	-12.6445
埃	-12.6445
漱	-12.6445
哑	-12.6446
殿	-12.6446
俯	-12.6446
狮	-12.6446
夷	-12.6447
叭	-12.6448
拗	-12.6449
痔	-12.6453
妨	-12.6603
匹	-12.6631
析	-12.6651
拟	-12.6651
轰	-12.6655
醇	-12.6656
秦	-12.6656
¶	-12.6656
捂	-12.6657
乔	-12.6658
枉	-12.6658
柄	-12.666
谛	-12.666
昵	-12.666
桩	-12.6661
曹	-12.6669
過	-12.6847
忆	-12.687
昔	-12.687
拎	-12.687
萝	-12.687
狭	-12.6871
茅	-12.6871
匪	-12.6874
饥	-12.6874
蚁	-12.6874
渲	-12.6874
捣	-12.6876
堕	-12.6877
玛	-12.6878
衔	-12.6879
△	-12.688
僧	-12.7092
瑞	-12.7092
砖	-12.7093
舅	-12.7093
煌	-12.7094
矩	-12.7094
徐	-12.7097
郊	-12.7097
忡	-12.7098
允	-12.7099
纱	-12.71
蛙	-12.71
刨	-12.7101
鲍	-12.7101
枫	-12.7102
贺	-12.7315
§	-12.732
褒	-12.7321
涕	-12.7325
呦	-12.7326
嗅	-12.7327
谜	-12.7327
霜	-12.7327
茂	-12.7328
韵	-12.733
噪	-12.7522
呃	-12.7552
歧	-12.7552
堤	-12.7554
杭	-12.7554
翩	-12.7556
跷	-12.7557
蜂	-12.7558
宴	-12.7558
拮	-12.7558
泉	-12.7558
萍	-12.7558
咕	-12.7559
挪	-12.7559
姻	-12.7772
幽	-12.7786
辑	-12.7793
凳	-12.7794
鹅	-12.7794
刮	-12.7796
捶	-12.7797
喽	-12.7798
🦄	-12.7805
毫	-12.7852
尸	-12.8033
祷	-12.8034
蹈	-12.8035
瘫	-12.8035
寓	-12.8036
缸	-12.8037
脾	-12.8039
烹	-12.8041
钩	-12.8041
阀	-12.8043
掂	-12.8044
∇	-12.8045
阈	-12.8285
纠	-12.8286
筛	-12.8287
轴	-12.8288
倡	-12.8289
洽	-12.829
袒	-12.829
诈	-12.829
翁	-12.829
蔡	-12.8291
阐	-12.8291
岭	-12.8293
覺	-12.8518
雀	-12.8534
遂	-12.8538
帕	-12.8544
棱	-12.8544
掀	-12.8545
蚂	-12.8545
旨	-12.8545
▷	-12.8546
厉	-12.8546
坛	-12.8546
絮	-12.8546
嗑	-12.8547
啪	-12.8548
捐	-12.8549
矿	-12.855
⋯	-12.8786
浑	-12.8789
遏	-12.8802
⏫	-12.8803
绒	-12.8803
裹	-12.8808
犀	-12.8808
迭	-12.8809
役	-12.8809
奕	-12.8809
茁	-12.8809
掺	-12.8811
雕	-12.8811
恃	-12.8811
碾	-12.8812
涟	-12.8813
燕	-12.9068
萦	-12.9068
京	-12.9074
紫	-12.9077
盔	-12.9077
橘	-12.9077
贼	-12.9078
拴	-12.9079
贩	-12.9079
蒸	-12.9079
钙	-12.908
坍	-12.908
渊	-12.9081
烘	-12.9081
稚	-12.9082
丘	-12.9084
媛	-12.9085
別	-12.9346
峙	-12.935
}	-12.9351
售	-12.9351
颂	-12.9353
瑜	-12.9354
捆	-12.9354
诧	-12.9355
葱	-12.9355
秤	-12.9356
卿	-12.9356
哮	-12.9356
傍	-12.9357
稽	-12.9358
懈	-12.9358
娼	-12.9359
惚	-12.936
咖	-12.936
汹	-12.9361
哗	-12.9362
樣	-12.9627
剔	-12.9639
暑	-12.964
泻	-12.964
ㄓ	-12.9641
汀	-12.9642
匀	-12.9642
蜗	-12.9642
憨	-12.9642
梳	-12.9642
诶	-12.9642
览	-12.9643
嘘	-12.9643
肛	-12.9643
僻	-12.9643
凰	-12.9643
垒	-12.9644
煤	-12.9645
黎	-12.9645
址	-12.9645
佣	-12.9646
渔	-12.9646
淑	-12.9646
弓	-12.9646
￼	-12.9647
嫉	-12.9647
問	-12.9913
仔	-12.9918
噩	-12.993
靓	-12.9931
逸	-12.9934
荷	-12.9934
叽	-12.9935
扁	-12.9935
屠	-12.9935
×	-12.9936
铛	-12.9936
偎	-12.9936
歹	-12.9937
丸	-12.9937
熄	-12.9937
澈	-12.9938
溪	-12.9939
膏	-12.9939
缈	-12.994
辟	-12.9941
侯	-12.9941
涣	-12.9941
還	-13.0214
赵	-13.0222
旦	-13.023
怠	-13.0236
吴	-13.0237
吭	-13.0237
斧	-13.0238
唇	-13.0239
趴	-13.0239
嗦	-13.024
峻	-13.0241
庙	-13.0242
坊	-13.0243
骤	-13.03
抒	-13.0544
槽	-13.0545
焦	-13.0546
咐	-13.0548
呜	-13.0549
簧	-13.0549
聘	-13.0549
柯	-13.0549
甸	-13.055
遛	-13.0551
矛	-13.0551
迥	-13.0552
嘟	-13.0552
橡	-13.0553
盏	-13.0553
樊	-13.0553
梨	-13.0553
董	-13.0554
怅	-13.0555
腊	-13.0555
摹	-13.0555
愣	-13.0555
鼾	-13.0556
莲	-13.0557
孽	-13.0835
時	-13.0845
奈	-13.0865
澳	-13.0865
藤	-13.0867
莉	-13.0867
佑	-13.0868
禀	-13.0869
篱	-13.087
馅	-13.0872
讥	-13.0872
沓	-13.0873
蓬	-13.0873
憾	-13.0874
嗷	-13.0875
珊	-13.0875
〖	-13.0875
寐	-13.0876
〗	-13.0876
豫	-13.0876
哼	-13.0877
咧	-13.0877
厢	-13.0878
馋	-13.0879
趾	-13.088
題	-13.1196
內	-13.12
宰	-13.1202
胺	-13.1203
濒	-13.1204
嬉	-13.1205
孜	-13.1205
岩	-13.1205
杖	-13.1208
纾	-13.1208
儒	-13.1208
秃	-13.1208
淀	-13.1209
蝇	-13.1209
沧	-13.1209
癔	-13.121
帆	-13.1211
仆	-13.1211
瓣	-13.1212
🧡	-13.1212
涛	-13.1213
於	-13.1529
讓	-13.1532
畜	-13.1545
滨	-13.1545
毯	-13.1548
炉	-13.1548
呛	-13.155
捞	-13.1551
烛	-13.1551
枢	-13.1554
嗤	-13.1554
兜	-13.1554
焰	-13.1554
敷	-13.1555
锚	-13.1555
羡	-13.1556
督	-13.1557
冶	-13.1557
翰	-13.1559
谊	-13.1629
愉	-13.1898
宇	-13.1902
赦	-13.1904
谤	-13.1906
鸦	-13.1906
ᴗ	-13.1906
嵌	-13.1907
掠	-13.1907
喃	-13.1908
搂	-13.1908
酬	-13.1909
喻	-13.1909
凄	-13.191
惩	-13.191
颖	-13.191
祭	-13.1911
亘	-13.1911
奸	-13.1911
丨	-13.1911
淇	-13.1911
芹	-13.1913
◇	-13.1913
琪	-13.1915
蕾	-13.2268
ぴ	-13.227
莹	-13.2272
卢	-13.2273
妒	-13.2275
诽	-13.2277
郭	-13.2278
娜	-13.2278
瞩	-13.2279
恪	-13.2279
涅	-13.2279
亟	-13.2279
迸	-13.228
沫	-13.228
爪	-13.2281
绞	-13.2283
汪	-13.2284
厮	-13.2285
ㄛ	-13.2289
敞	-13.2472
鹰	-13.2631
親	-13.2642
痣	-13.2653
贸	-13.2655
關	-13.2657
扒	-13.2657
啼	-13.2658
韦	-13.266
绰	-13.2661
蔚	-13.2662
俏	-13.2662
栗	-13.2663
潭	-13.2664
氏	-13.2664
碳	-13.2664
诡	-13.2665
栋	-13.2665
梭	-13.2666
赫	-13.2666
遐	-13.2666
眨	-13.2666
掷	-13.2666
睫	-13.2667
陋	-13.2667
娱	-13.2667
灸	-13.2667
靶	-13.2671
凿	-13.2672
纽	-13.3054
踮	-13.3058
拂	-13.3059
勺	-13.306
仲	-13.3062
鸽	-13.3063
炫	-13.3064
崎	-13.3065
鳞	-13.3065
龟	-13.3065
颓	-13.3065
撮	-13.3066
躬	-13.3066
瞅	-13.3067
哔	-13.3067
囧	-13.3067
悍	-13.3067
宕	-13.3068
铸	-13.3068
纬	-13.3068
霆	-13.3069
翘	-13.3069
🥰	-13.3072
距	-13.3471
Ш	-13.3475
柱	-13.3476
拣	-13.3477
喳	-13.3479
矫	-13.3481
哆	-13.3482
憩	-13.3482
嗡	-13.3483
押	-13.3484
慑	-13.3484
∀	-13.3485
谅	-13.3912
藉	-13.3917
耿	-13.392
挽	-13.4361
盾	-13.4362
澜	-13.4364
媳	-13.4364
粹	-13.4366
械	-13.437
旺	-13.4372
诵	-13.4846
讽	-13.4849
睦	-13.5288
励	-13.5343
汰	-13.5345
膀	-13.5351
竿	-13.5353
噜	-13.5353
悯	-13.5872
刃	-13.5872
卦	-13.6426
琢	-13.6426
菇	-13.6428
翅	-13.643
噬	-13.6431
⇨	-13.6436
蛛	-13.7007
霾	-13.7013
啰	-13.7014
泳	-13.702
锻	-13.7638
泣	-13.8295
淹	-13.8298
括	-13.8301
戚	-13.8304
脆	-13.8305
烙	-13.9019
缚	-13.9022
惮	-13.9028
玫	-13.903
霉	-13.9787
窦	-13.9789
荐	-13.979
杏	-13.9792
缪	-14.062
侮	-14.0627
肽	-14.063
弛	-14.0631
谐	-14.1462
煎	-14.1526
槛	-14.153
摒	-14.153
赎	-14.1531
彤	-14.1532
呕	-14.1533
灼	-14.1535
俄	-14.1538
沛	-14.154
瞻	-14.1542
蔓	-14.2516
芥	-14.2522
绽	-14.2529
猝	-14.2539
偕	-14.2542
渠	-14.3641
羁	-14.3649
̀	-14.365
堑	-14.3651
啡	-14.3652
泌	-14.4893
御	-14.4895
嘻	-14.4901
檐	-14.4905
睛	-14.63
悼	-14.6317
苛	-14.632
厕	-14.6322
灿	-14.6327
邋	-14.6328
蒜	-14.633
潇	-14.6331
矢	-14.6335
侣	-14.7964
惰	-14.797
滔	-14.798
笃	-14.7987
拓	-14.7989
瑶	-14.7989
尴	-14.7992
毋	-14.7992
瑰	-14.7998
淌	-14.9976
蛾	-14.9984
肃	-14.9985
贡	-14.9985
芸	-14.9987
隶	-14.9988
茄	-14.999
讶	-14.9991
馁	-14.9991
唬	-14.9991
蔬	-14.9992
杞	-14.9999
牲	-15.2462
掘	-15.2472
恢	-15.2485
侃	-15.249
狄	-15.2494
遢	-15.2499
扉	-15.5653
惫	-15.5784
魁	-15.5817
藕	-15.5821
绍	-15.5827
伽	-15.5828
馨	-15.5832
衍	-16.068
绸	-16.0742
汲	-16.0797
谴	-16.0804
浏	-16.0811
虹	-16.0812
驭	-16.0816
倘	-16.082
逻	-16.082
讪	-16.0822
诅	-16.0822
舆	-16.0823
弈	-16.0825
疙	-16.0828
乒	-16.0828
浦	-16.0829
懊	-16.0829
敛	-16.0831
怖	-16.0839
蜕	-17.0461
髅	-17.0687
骷	-17.0688
酝	-17.0689
蛔	-17.069
缜	-17.0691
筝	-17.0692
瘠	-17.0693
膳	-17.0694
澎	-17.0695
湃	-17.0696
慷	-17.0697
辕	-17.0698
蹉	-17.0699
踵	-17.07
跎	-17.0701
绛	-17.0702
瘁	-17.0703
痿	-17.0704
崛	-17.0705
◾	-17.0706
讼	-17.0707
瞌	-17.0708
拇	-17.0709
秩	-17.0709
幌	-17.071
‿	-17.0711
憔	-17.0712
悴	-17.0713
彬	-17.0714
呱	-17.0715
◕	-17.0716
鸵	-17.0717
蔼	-17.0718
滕	-17.0719
邂	-17.072
逅	-17.0721
抨	-17.0722
黯	-17.0723
躇	-17.0724
踌	-17.0725
葡	-17.0726
萄	-17.0727
缥	-17.0728
氓	-17.0729
馒	-17.073
阉	-17.0731
砝	-17.0732
岌	-17.0733
兀	-17.0734
镳	-17.0735
辄	-17.0736
狈	-17.0737
漪	-17.0738
゙	-17.0739
饪	-17.074
暄	-17.0741
畸	-17.0742
惺	-17.0743
辗	-17.0744
绚	-17.0745
熠	-17.0746
咙	-17.0747
呻	-17.0748
̆	-17.0749
婪	-17.075
忏	-17.0751
铠	-17.0752
扪	-17.0753
丐	-17.0754
髓	-17.0755
肪	-17.0756
懑	-17.0757
┈	-17.0758
圳	-17.0759
侬	-17.076
惬	-17.0761
喋	-17.0762
耘	-17.0763
鼹	-17.0764
蜚	-17.0765
宙	-17.0766
啬	-17.0766
佼	-17.0767
梏	-17.0768
缤	-17.0769
猬	-17.077
咀	-17.0771
狸	-17.0772
乓	-17.0773
惋	-17.0773
衅	-17.0774
斟	-17.0775
胳	-17.0776
惴	-17.0777
骛	-17.0778
嗽	-17.0779
咄	-17.078
▪	-17.0781
嘈	-17.0782
胧	-17.0783
辍	-17.0784
蹶	-17.0785
◍	-17.0786
谩	-17.0787
痹	-17.0788
诠	-17.0789
腼	-17.079
愫	-17.0791
侥	-17.0792
疵	-17.0793
淆	-17.0794
锢	-17.0795
赡	-17.0796
徨	-17.0797
譬	-17.0798
阱	-17.0799
┅	-17.08
侈	-17.0801
兢	-17.0802
聆	-17.0803
漩	-17.0803
惦	-17.0804
̅	-17.0805
蝴	-17.0806
捍	-17.0807
痊	-17.0808
傅	-17.0809
诋	-17.081
蘑	-17.0811
猥	-17.0812
钮	-17.0813
肮	-17.0813
匙	-17.0814
紊	-17.0814
漓	-17.0815
窒	-17.0815
畴	-17.0816
徘	-17.0817
晰	-17.0817
钥	-17.0818
徊	-17.0818
袱	-17.0819
忑	-17.082
忐	-17.0821
璃	-17.0822
玻	-17.0823
酗	-17.0823
蹴	-17.0824
苹	-17.0825
坷	-17.0826
胞	-17.0827
姥	-17.0828
鸩	-17.0828
憬	-17.0828
憧	-17.0829
枷	-17.083
匆	-17.0831
澄	-17.0832
̄	-17.0833
葩	-17.0834
巩	-17.0834
拯	-17.0834
ᨐ	-17.0835
惕	-17.0836
寞	-17.0837
阂	-17.0837
隘	-17.0838
濡	-17.0838
抉	-17.0838
垃	-17.0839
圾	-17.084
辜	-17.0841
瘩	-17.0842
匮	-17.0842
沮	-17.0843
⃣	-17.0844
牺	-17.0845
暧	-17.0846
氛	-17.0847
馈	-17.0848
刍	-17.0849
础	-17.0849
