<unk>	0
<s>	0
</s>	0
,	-2.2402
。	-3.36025
的	-3.76368
你	-4.60037
了	-4.97671
和	-4.99259
是	-5.01229
自己	-5.06799
在	-5.11903
?	-5.14874
我	-5.3102
有	-5.40328
不	-5.47813
我们	-5.5773
、	-5.61242
他	-5.68693
也	-5.75678
“	-5.83405
就	-5.83816
去	-5.85556
可以	-5.88249
!	-5.88649
会	-5.94043
而	-6.00875
人	-6.04394
没有	-6.07966
对	-6.08002
她	-6.10544
”	-6.11571
所以	-6.13261
要	-6.18013
来	-6.18387
因为	-6.19745
一个	-6.19838
好	-6.1994
呢	-6.20255
的时候	-6.21467
但	-6.25365
如果	-6.28421
都	-6.28899
但是	-6.2894
上	-6.3029
这	-6.32035
的人	-6.32877
想	-6.3308
:	-6.33608
他们	-6.35176
楼主	-6.35265
可能	-6.35832
中	-6.35914
需要	-6.36604
这个	-6.37914
孩子	-6.38583
说	-6.39299
就是	-6.40396
很	-6.40498
一	-6.41053
一些	-6.41555
题主	-6.4641
被	-6.48392
还是	-6.48471
或者	-6.49043
别人	-6.51207
与	-6.5185
从	-6.52329
父母	-6.5388
这样	-6.54164
那么	-6.5546
多	-6.55524
时	-6.56377
其实	-6.57746
自己的	-6.58025
你的	-6.58191
能	-6.59649
问题	-6.59726
对方	-6.60905
到	-6.62142
做	-6.65746
学习	-6.68185
把	-6.69063
地	-6.69669
情绪	-6.71096
用	-6.73432
现在	-6.74951
更	-6.76756
生活	-6.77671
过	-6.78077
那	-6.79743
都是	-6.80068
工作	-6.80548
又	-6.80945
不是	-6.81339
爱	-6.83115
这种	-6.83162
吗	-6.83748
着	-6.84649
心	-6.86489
性	-6.86516
大	-6.86517
的事情	-6.86554
对于	-6.8921
】	-6.9016
觉得	-6.90357
选择	-6.91251
您	-6.92127
为	-6.92298
看	-6.92626
这些	-6.9351
能够	-6.94471
再	-6.95423
朋友	-6.957
还	-6.96246
只是	-6.97883
下	-6.99668
吧	-6.99805
让自己	-6.99983
什么	-7.00505
里	-7.0069
也是	-7.02154
比较	-7.03055
后	-7.0416
你们	-7.04564
喜欢	-7.04646
比如	-7.04953
;	-7.0535
一下	-7.05964
关系	-7.06338
不要	-7.06645
先	-7.07002
已经	-7.08433
时间	-7.09894
改变	-7.10512
得	-7.11072
【	-7.11678
当	-7.11734
你好	-7.12018
自我	-7.12176
感觉	-7.12705
的话	-7.14609
小	-7.14841
不能	-7.1545
很多	-7.16724
让你	-7.16763
沟通	-7.17726
面对	-7.17802
就会	-7.17967
让	-7.18862
想要	-7.19494
它	-7.20985
希望	-7.21074
努力	-7.21581
开始	-7.22006
然后	-7.23137
内心	-7.23842
心理	-7.24749
(	-7.25009
等	-7.25097
的问题	-7.25902
祝好	-7.26004
最	-7.28609
出	-7.28641
也会	-7.29353
事	-7.29595
点	-7.3056
首先	-7.30645
不好	-7.30694
一个人	-7.3132
焦虑	-7.31462
妈妈	-7.31916
通过	-7.31927
也许	-7.32081
非常	-7.32247
影响	-7.33328
无法	-7.34465
应该	-7.3462
看到	-7.36204
是否	-7.36282
无	-7.36757
害怕	-7.37372
或	-7.37396
如何	-7.38408
真的	-7.38543
之后	-7.38698
跟	-7.39298
表达	-7.4006
最后	-7.40442
没	-7.40467
所	-7.41235
一点	-7.41513
这是	-7.41924
而且	-7.42862
进行	-7.43586
一直	-7.43892
你可以	-7.44229
以	-7.4489
甚至	-7.44896
或许	-7.46505
感	-7.46965
却	-7.47168
当然	-7.47267
学	-7.47289
于	-7.48048
一样	-7.48778
理解	-7.48863
事情	-7.50996
一种	-7.5103
生	-7.51563
)	-7.51701
虽然	-7.52528
太	-7.5269
不会	-7.53082
家庭	-7.53696
担心	-7.53786
压力	-7.53937
给	-7.53966
以后	-7.547
来说	-7.54898
知道	-7.55017
有些	-7.5502
老师	-7.55487
子	-7.55569
帮助	-7.55737
接受	-7.55888
找	-7.55959
能力	-7.56041
感到	-7.56574
”,	-7.56961
方式	-7.56965
建议	-7.56993
对你	-7.57169
高	-7.57468
成长	-7.57699
一起	-7.57882
了解	-7.57961
～	-7.58043
是不是	-7.58401
并	-7.58526
并且	-7.58533
产生	-7.59056
我想	-7.59117
当你	-7.59212
如果你	-7.59274
个	-7.59288
才	-7.59639
还有	-7.59849
解决	-7.60459
比	-7.60889
痛苦	-7.60949
也可以	-7.613
他人	-7.61318
为什么	-7.62553
只有	-7.6292
的情绪	-7.63714
总是	-7.63845
找到	-7.64252
打	-7.64281
家	-7.64588
得到	-7.64683
思考	-7.64948
社会	-7.64975
感情	-7.6527
对自己	-7.65988
给你	-7.66573
这样的	-7.66877
那些	-7.68227
自	-7.68501
听	-7.68866
才能	-7.69778
怎么	-7.69879
走	-7.69922
之前	-7.69956
相处	-7.70437
出现	-7.70857
可	-7.7104
家人	-7.72153
之	-7.72476
因此	-7.72516
并不是	-7.72738
分	-7.72859
给自己	-7.72861
特别	-7.72867
等等	-7.73126
经历	-7.73552
向	-7.73791
感受	-7.73981
不同	-7.74018
将	-7.74052
原因	-7.74226
不想	-7.74579
认为	-7.74764
心里	-7.75162
学会	-7.75443
状态	-7.7556
都会	-7.76216
不知道	-7.76274
人生	-7.76642
而是	-7.76728
在一起	-7.76952
力	-7.7725
的方式	-7.7731
的关系	-7.78013
像	-7.78033
前	-7.78578
行为	-7.78847
获得	-7.79167
更加	-7.79247
发现	-7.79823
同时	-7.79833
母亲	-7.79847
以及	-7.79876
天	-7.80112
的事	-7.80519
起来	-7.80904
身体	-7.80909
啊	-7.81172
目标	-7.81388
的感觉	-7.81424
发展	-7.81641
越	-7.81657
吃	-7.82187
我觉得	-7.8235
交流	-7.82491
看看	-7.82516
那个	-7.83242
确实	-7.8341
成	-7.83517
遇到	-7.83522
慢慢	-7.83605
的想法	-7.84424
继续	-7.85275
是什么	-7.85366
存在	-7.85769
为了	-7.8591
环境	-7.86212
发	-7.86535
方面	-7.86575
只	-7.87675
真正	-7.87766
相信	-7.88043
是一个	-7.88291
咨询师	-7.8845
发生	-7.88647
好好	-7.88696
未来	-7.88727
关注	-7.89062
只要	-7.89121
情感	-7.89417
的原因	-7.89653
控制	-7.89851
其他	-7.8994
出来	-7.90117
接纳	-7.90318
手	-7.90597
的状态	-7.9069
者	-7.90755
方法	-7.90777
而不是	-7.91107
问	-7.91741
过去	-7.92558
的生活	-7.92805
似乎	-7.93159
可能会	-7.94538
题主你好	-7.9467
年	-7.95115
考虑	-7.9528
一定	-7.95559
伤害	-7.95847
的感受	-7.95968
......	-7.95972
世界	-7.96288
情况	-7.96434
主动	-7.96463
的行为	-7.96787
~	-7.96818
满足	-7.97106
三	-7.97151
是因为	-7.9731
完全	-7.97329
矛盾	-7.97534
调整	-7.9823
新	-7.98314
尝试	-7.98505
分析	-7.98644
并不	-7.98815
毕竟	-7.98824
结果	-7.99127
有时候	-7.99137
气	-7.99218
爱情	-7.99341
他的	-7.99731
婚姻	-8.00265
要求	-8.00647
个人	-8.00699
长	-8.00767
保持	-8.01293
自信	-8.01342
肯定	-8.01442
头	-8.01836
这件事	-8.01973
作为	-8.02127
坚持	-8.02335
处理	-8.02603
楼主你好	-8.02794
谁	-8.03034
也有	-8.03063
身上	-8.0328
幸福	-8.03784
重	-8.03839
难	-8.03948
岁	-8.04121
每天	-8.04124
很难	-8.04216
关于	-8.04393
咨询	-8.04441
成为	-8.04772
情	-8.04825
积极	-8.05034
的地方	-8.05411
这么	-8.05494
容易	-8.05587
现实	-8.05802
愿意	-8.0597
恐惧	-8.06158
如	-8.06363
世界和我爱着你	-8.06969
开	-8.07138
可是	-8.07801
呀	-8.08002
去做	-8.08285
的是	-8.0852
的时间	-8.08628
经常	-8.08682
父亲	-8.08786
自卑	-8.08887
我们可以	-8.09052
尊重	-8.09435
彼此	-8.09592
别	-8.09601
需求	-8.09756
起	-8.0991
抱抱你	-8.09923
一次	-8.10067
考	-8.11056
带	-8.11301
本	-8.12137
化	-8.12479
完成	-8.12758
受	-8.12971
导致	-8.13056
建立	-8.1321
拒绝	-8.13409
紧张	-8.1367
并没有	-8.13736
钱	-8.13745
独立	-8.14011
会有	-8.14119
性格	-8.14175
回	-8.14214
老公	-8.14403
快乐	-8.14467
压抑	-8.14657
付出	-8.14766
这个问题	-8.14893
行	-8.15635
你现在	-8.15664
专业	-8.15751
觉得自己	-8.15853
讲	-8.15909
怕	-8.16131
离开	-8.16308
加油	-8.16315
家长	-8.16422
只能	-8.166
想法	-8.16797
同学	-8.16838
不太	-8.17212
不过	-8.17273
和你	-8.17497
决定	-8.17541
认识	-8.17615
二	-8.17659
关心	-8.17874
有点	-8.17923
恋爱	-8.1813
不喜欢	-8.18187
结婚	-8.1842
习惯	-8.18963
男友	-8.1919
你会	-8.1933
目前	-8.19558
哦	-8.19619
相	-8.19975
理	-8.20024
更多	-8.20034
就像	-8.20259
一定要	-8.20569
是一种	-8.20714
的东西	-8.20714
即使	-8.20784
”。	-8.20792
写	-8.20796
曾经	-8.21182
期待	-8.21334
你自己	-8.21567
的情况	-8.22047
我也	-8.22378
少	-8.22445
可能是	-8.22492
做出	-8.23198
话	-8.23202
以上	-8.23261
那就	-8.23561
更多的	-8.23603
总	-8.23797
本身	-8.23951
请	-8.24167
照顾	-8.24233
怎样	-8.24242
更好的	-8.24463
对待	-8.24542
好像	-8.24776
各种	-8.24837
都有	-8.25464
外	-8.25711
失败	-8.25766
有没有	-8.25768
直接	-8.25795
社交	-8.25864
反应	-8.26237
两个人	-8.26502
有什么	-8.26541
放松	-8.26896
两	-8.26907
开心	-8.26918
明白	-8.2732
自然	-8.27599
住	-8.27723
把自己	-8.27738
分手	-8.27764
之间	-8.2784
也不	-8.2798
有一个	-8.28076
既然	-8.28256
不敢	-8.2847
困难	-8.28568
说话	-8.28916
我们的	-8.29138
——	-8.2914
学校	-8.29214
口	-8.29233
该	-8.29267
感受到	-8.29272
同	-8.29404
成功	-8.29408
不断	-8.29651
如果是	-8.29753
接触	-8.30273
度	-8.30319
面	-8.30727
如此	-8.30814
体验	-8.30985
另外	-8.31018
强	-8.31179
纠结	-8.31229
抑郁	-8.31902
的态度	-8.31907
逃避	-8.3211
你要	-8.32158
感觉到	-8.32202
任何	-8.32446
。【	-8.32557
运动	-8.32562
有很多	-8.32636
做好	-8.32692
低	-8.32716
女生	-8.32986
困扰	-8.33335
一般	-8.33401
正常	-8.3346
定	-8.33467
才会	-8.33626
谈	-8.33664
老	-8.34018
大家	-8.34158
变得	-8.34288
说明	-8.34375
拥有	-8.34699
第一	-8.34773
有人	-8.35086
变	-8.35299
放	-8.35515
联系	-8.35612
愤怒	-8.35701
️	-8.36009
很好	-8.36024
那样	-8.36035
意	-8.36176
大学	-8.36483
真	-8.36643
体	-8.36807
到了	-8.36934
全	-8.3713
病	-8.37216
分享	-8.37266
无论	-8.3729
的工作	-8.37303
让他	-8.37372
认知	-8.37397
以前	-8.37942
信任	-8.37964
你也	-8.3798
清楚	-8.38065
冲突	-8.38072
支持	-8.38079
》	-8.38085
的影响	-8.38167
寻找	-8.38229
见	-8.38485
水	-8.38646
动	-8.38704
放下	-8.3883
成绩	-8.3889
难过	-8.38992
花	-8.39308
《	-8.39479
的心理	-8.39512
考试	-8.39536
双方	-8.39606
其	-8.39682
身边	-8.39746
有了	-8.39762
当我们	-8.39811
行动	-8.39837
心理学	-8.40022
深	-8.40038
难受	-8.40186
的方法	-8.40348
每个人	-8.40445
其次	-8.40502
身	-8.40609
精神	-8.40801
经验	-8.41206
一切	-8.41206
不管	-8.41247
共同	-8.41824
期	-8.42126
试着	-8.42143
具体	-8.42183
男朋友	-8.42306
在意	-8.42729
玩	-8.42888
值得	-8.43047
阶段	-8.43058
死	-8.43578
对自己的	-8.43748
爸爸	-8.43863
解决问题	-8.43925
平时	-8.43943
内	-8.44418
做到	-8.44632
最近	-8.44903
孤独	-8.44958
除了	-8.4498
的孩子	-8.45039
快	-8.45079
事件	-8.4513
同事	-8.45194
好的	-8.45261
的朋友	-8.4531
当时	-8.4538
差	-8.45552
你说	-8.45954
也就	-8.45999
的过程	-8.46059
让人	-8.46066
掉	-8.4612
她们	-8.4622
委屈	-8.46324
是你	-8.46401
模式	-8.46454
重新	-8.46757
当下	-8.47114
心情	-8.47189
她的	-8.47684
及时	-8.47732
自己的情绪	-8.47817
放弃	-8.47914
敏感	-8.47947
渴望	-8.48314
自身	-8.48706
描述	-8.48809
不愿意	-8.49105
的能力	-8.49433
一段	-8.49679
的压力	-8.49806
才是	-8.4981
不舒服	-8.50145
不了	-8.50277
陪伴	-8.5045
。2.	-8.50468
优秀	-8.50535
原生家庭	-8.50577
这里	-8.50662
重要	-8.50668
提出	-8.50784
受到	-8.50809
从而	-8.50854
你需要	-8.51043
安全感	-8.51074
不用	-8.51197
机会	-8.51241
别人的	-8.51312
2	-8.51381
所有	-8.51444
治疗	-8.51499
父母的	-8.5163
提升	-8.51796
因为你	-8.52028
来看	-8.52052
转	-8.52184
交往	-8.52377
作	-8.52672
买	-8.52804
心理咨询	-8.5291
也没有	-8.52915
由于	-8.52967
计划	-8.53031
想象	-8.53133
做的	-8.53212
1	-8.53363
互相	-8.53389
。️	-8.53429
你在	-8.53467
不如	-8.53484
加	-8.53505
拿	-8.53544
离婚	-8.53554
知	-8.53556
你觉得	-8.5363
这件事情	-8.53819
你是	-8.54026
东西	-8.54301
追求	-8.54374
当中	-8.54457
越来越	-8.54487
我的	-8.54786
依赖	-8.55035
生气	-8.55086
名	-8.55126
不够	-8.55136
里面	-8.55305
往往	-8.55398
让我们	-8.55571
新的	-8.55731
亲密	-8.5575
减少	-8.55896
错	-8.55985
两个	-8.55995
或者是	-8.56056
给予	-8.56148
造成	-8.56301
来访者	-8.56519
:“	-8.56582
入	-8.56641
改善	-8.56841
苦	-8.56973
亲密关系	-8.5724
有关	-8.57718
根据	-8.57821
领导	-8.5809
必须	-8.58253
交	-8.58349
适应	-8.58491
进	-8.58531
由	-8.58769
讨厌	-8.59141
是个	-8.59207
3	-8.59251
对你的	-8.59321
正	-8.5933
太多	-8.59383
因	-8.59504
而已	-8.5992
的感情	-8.60002
寻求	-8.60152
生活中	-8.60264
远	-8.60356
就要	-8.60471
最好	-8.60521
安全	-8.60658
挺	-8.60765
~。	-8.60978
有所	-8.60997
表现	-8.61025
不再	-8.61301
实现	-8.61361
变化	-8.61615
读	-8.61626
承受	-8.61677
注意	-8.62033
不一样	-8.62035
自由	-8.62382
下来	-8.62419
往	-8.62458
活动	-8.62465
因素	-8.62605
进入	-8.62607
完	-8.62607
在你	-8.62626
思维	-8.62711
明	-8.62736
医生	-8.62866
换	-8.62894
求	-8.62934
美	-8.6302
的经历	-8.63089
形成	-8.63127
小时候	-8.63275
力量	-8.63404
真正的	-8.63496
倾诉	-8.63657
处于	-8.63823
不需要	-8.64022
美好	-8.64062
抑郁症	-8.64276
路	-8.64304
就可以	-8.64321
缓解	-8.64369
包括	-8.64604
内心的	-8.64793
最终	-8.6484
避免	-8.64899
人际关系	-8.64909
很好的	-8.65107
男生	-8.65158
失去	-8.65258
知识	-8.65545
高中	-8.65617
儿	-8.65622
言	-8.65755
同样	-8.65764
学生	-8.65977
认真	-8.66072
后来	-8.66187
5	-8.66448
帮	-8.66472
活	-8.66765
累	-8.66829
信息	-8.66846
及	-8.66884
聊天	-8.66935
让我	-8.66961
放在	-8.67083
亲	-8.67182
哭	-8.67501
很多人	-8.67503
书	-8.67605
为自己	-8.67616
承担	-8.67662
的需求	-8.67891
什么样的	-8.68029
你对	-8.68077
一方面	-8.68104
孩子的	-8.68218
女性	-8.68242
的看法	-8.68327
也要	-8.68531
第二	-8.68704
带来	-8.68757
的角度	-8.68914
回答	-8.68942
就好	-8.6895
很容易	-8.68958
人的	-8.69296
反而	-8.69393
和他	-8.69567
想想	-8.69787
也不会	-8.69792
干	-8.69844
伤	-8.69912
鼓励	-8.70104
怎么样	-8.70122
第三	-8.70143
型	-8.70484
取	-8.70499
那种	-8.70638
有一些	-8.70801
所以你	-8.70915
负责	-8.70986
更好	-8.71019
女	-8.71093
告诉	-8.7116
培养	-8.7117
这个时候	-8.71173
是在	-8.7136
释放	-8.71384
你就	-8.71386
永远	-8.71575
这种情况	-8.71611
事实	-8.71665
动力	-8.71693
一段时间	-8.71747
实	-8.71814
享受	-8.71825
空	-8.71987
难以	-8.72084
待	-8.72233
心态	-8.72267
手机	-8.72659
些	-8.72711
方向	-8.72769
#	-8.72794
应对	-8.72803
养	-8.72869
达到	-8.73064
叫	-8.73181
他们的	-8.73248
价值	-8.7337
稳定	-8.73408
很重要	-8.73637
确定	-8.7374
很多时候	-8.74064
心理咨询师	-8.74141
你想	-8.74217
觉察	-8.74265
————	-8.74303
眼	-8.74452
是有	-8.74579
条件	-8.74669
到底	-8.74822
男人	-8.74899
早	-8.74923
回到	-8.74971
道	-8.7503
爱自己	-8.75051
痛	-8.75052
既	-8.75328
家里	-8.75568
长期	-8.75805
提	-8.75825
态度	-8.75842
评价	-8.75864
跟你	-8.759
十	-8.7602
丈夫	-8.76102
比如说	-8.76113
健康	-8.76194
每	-8.76208
认可	-8.76332
人们	-8.76452
迷茫	-8.76556
日	-8.76606
属于	-8.76628
认同	-8.76758
增加	-8.77022
吵架	-8.77034
年龄	-8.77143
合	-8.7726
离	-8.7738
暂时	-8.77402
的结果	-8.77477
教	-8.7748
精力	-8.77504
答案	-8.77508
也不是	-8.77536
做什么	-8.77665
严重	-8.77715
内在	-8.7774
下去	-8.78003
程度	-8.78017
长大	-8.7803
变成	-8.7808
通	-8.7812
应该是	-8.78275
多少	-8.78313
这一点	-8.78531
光	-8.7864
女朋友	-8.78781
上的	-8.78919
让她	-8.7899
高考	-8.79009
不妨	-8.79041
教育	-8.79131
常	-8.79161
生命	-8.79193
进步	-8.79309
是为了	-8.79377
烦恼	-8.79638
接纳自己	-8.79708
准备	-8.7972
简单	-8.79764
还要	-8.79846
意义	-8.79873
想到	-8.79896
你好呀	-8.79955
安排	-8.79971
的性格	-8.80015
流	-8.80054
管	-8.80188
轻松	-8.80314
持续	-8.8034
产生了	-8.80449
某些	-8.80463
提高	-8.80584
对方的	-8.80742
出去	-8.80746
还会	-8.80857
尽量	-8.80917
依然	-8.80941
会不会	-8.81058
信	-8.81073
处	-8.81184
的表现	-8.81199
包容	-8.81212
女儿	-8.81239
判断	-8.81301
缺乏	-8.81581
自责	-8.81683
视	-8.81714
公司	-8.81975
于是	-8.82008
课	-8.82078
几	-8.8217
否定	-8.82186
的情感	-8.82216
按照	-8.82218
一点点	-8.8225
量	-8.82388
其中	-8.82392
白	-8.82502
陷入	-8.82535
今天	-8.82622
和别人	-8.8281
笑	-8.82868
在于	-8.82939
们	-8.83028
成熟	-8.83361
或者说	-8.83436
的过程中	-8.83439
次	-8.83495
女人	-8.83536
门	-8.83537
突然	-8.83631
现在的	-8.83811
在乎	-8.83847
无助	-8.83885
安慰	-8.83946
近	-8.84051
解释	-8.84127
相互	-8.8415
读书	-8.84171
还没有	-8.84184
真实	-8.84325
尤其是	-8.84326
吸引	-8.84436
时候	-8.84447
规划	-8.84555
的一种	-8.84775
其他人	-8.84794
断	-8.84818
聊	-8.84877
这就是	-8.84989
没有办法	-8.84993
坏	-8.85022
性的	-8.85084
不必	-8.85087
为你	-8.85193
有着	-8.85298
兴趣	-8.85331
婆婆	-8.85407
说的	-8.855
明确	-8.85532
指责	-8.85599
即	-8.85721
练习	-8.85799
至于	-8.85901
探索	-8.85991
-	-8.8604
的爱	-8.86065
至少	-8.86112
连	-8.86228
保护	-8.86778
观察	-8.8679
一天	-8.8684
一旦	-8.87095
舒服	-8.87142
看见	-8.87492
便	-8.87555
也很	-8.87598
大脑	-8.87658
某	-8.87997
。2、	-8.88047
你已经	-8.88077
慢慢的	-8.88114
出轨	-8.88199
根本	-8.88263
攻击	-8.88288
间	-8.88331
这个人	-8.88421
意识到	-8.88425
过度	-8.88449
外界	-8.88477
休息	-8.88479
每次	-8.88532
逐渐	-8.88655
退	-8.88857
且	-8.8895
负面情绪	-8.88993
就能	-8.89063
主	-8.89395
面前	-8.89462
"	-8.89709
重视	-8.89739
回应	-8.89915
也能	-8.90064
算	-8.90233
睡	-8.90277
反	-8.9029
潜意识	-8.90332
.	-8.90464
有个	-8.9061
建议你	-8.90762
四	-8.91154
帮助你	-8.91156
不容易	-8.91213
应	-8.9127
。(	-8.91457
带着	-8.91535
收获	-8.9174
类	-8.91758
足够	-8.91881
非	-8.91919
利	-8.91949
推	-8.91949
我们需要	-8.92037
场	-8.92057
忙	-8.92116
),	-8.92172
不可	-8.92177
尽	-8.92302
过于	-8.92346
记得	-8.92499
不足	-8.92561
经济	-8.9259
留	-8.92684
线	-8.927
解	-8.92875
在这里	-8.92886
倒	-8.93083
种	-8.93359
靠	-8.93361
做了	-8.93507
然	-8.93508
责任	-8.9367
其实是	-8.93695
标准	-8.9376
做一些	-8.93876
过程中	-8.93987
自己的想法	-8.93992
困惑	-8.94017
安	-8.94098
这份	-8.945
落	-8.94683
的确	-8.94755
亲人	-8.94846
不同的	-8.94878
清	-8.9495
爱你	-8.95057
的机会	-8.95099
部分	-8.95137
走出	-8.95169
或是	-8.9519
后悔	-8.95335
睡眠	-8.95475
引起	-8.95492
能量	-8.95493
看到你	-8.95601
怀疑	-8.95621
题	-8.95753
希望你	-8.95761
理想	-8.95772
就不会	-8.95959
温暖	-8.9601
症状	-8.96075
几个	-8.96096
您好	-8.96134
您的	-8.96154
风	-8.96328
调	-8.96427
它们	-8.96459
意识	-8.96484
也就是	-8.96627
约	-8.96704
不安	-8.96797
有可能	-8.96838
有时	-8.96846
很大	-8.96884
是很	-8.96909
弟弟	-8.97029
和父母	-8.97207
的情况下	-8.97238
抱抱	-8.9734
是否有	-8.97395
是我们	-8.97405
晚	-8.97498
语言	-8.97696
不开心	-8.97789
主要	-8.97873
背后	-8.97943
一份	-8.98036
与你	-8.98054
可以通过	-8.98084
是可以	-8.98208
文	-8.98217
是需要	-8.98291
道理	-8.98353
所有的	-8.9843
每个	-8.98443
提供	-8.98446
异性	-8.98505
指	-8.98527
客观	-8.98528
的认知	-8.98539
的人生	-8.98839
法	-8.99015
已	-8.99022
生活的	-8.99023
相对	-8.9905
晚上	-8.99123
创伤	-8.9921
使	-8.99249
仍然	-8.993
效果	-8.9938
结束	-8.99412
接下来	-8.99501
较	-8.99524
信心	-8.99718
都没有	-8.99877
调节	-8.99933
通常	-8.99947
祝	-8.99979
观	-9
我相信	-9.00008
车	-9.00031
从小	-9.00177
失望	-9.00307
改	-9.00435
此	-9.00571
热	-9.00605
正确	-9.0087
班	-9.00976
切	-9.01024
的帮助	-9.01202
另一方面	-9.01204
担忧	-9.01214
心中	-9.01231
美好的	-9.01348
步	-9.0145
选	-9.01528
件	-9.01596
楼主的	-9.01861
这个世界	-9.01976
我就	-9.01989
未	-9.01999
完美	-9.02008
给他	-9.02112
会觉得	-9.02236
都不	-9.02262
相信自己	-9.02346
哪些	-9.02349
半	-9.02399
拉	-9.02509
都可以	-9.02534
站在	-9.02553
做事	-9.0267
办法	-9.0269
求助	-9.02765
万	-9.02944
说出	-9.02948
一生	-9.02954
对象	-9.02987
的一个	-9.03054
和对方	-9.03222
幻想	-9.03229
乱	-9.0324
这也是	-9.03403
公	-9.0345
就算	-9.03629
初	-9.03803
强大	-9.03815
不仅	-9.0383
过程	-9.0395
合理	-9.04018
最好的	-9.0407
一定会	-9.04075
有些人	-9.04122
女友	-9.0415
观念	-9.0421
则	-9.04298
让他们	-9.04347
勇敢	-9.04498
提到	-9.0466
的痛苦	-9.04684
了很多	-9.04813
的心情	-9.04985
梦	-9.0501
男	-9.05037
层面	-9.05092
告诉你	-9.05416
亲爱的	-9.0546
游戏	-9.0548
理性	-9.05507
人格	-9.05617
你所	-9.05623
真心	-9.05687
说明你	-9.05711
短	-9.05777
批评	-9.05806
弱	-9.06011
童年	-9.06018
负面	-9.06019
一定的	-9.06042
懂	-9.0621
物	-9.06258
事物	-9.06336
伴侣	-9.0636
也需要	-9.06439
真实的	-9.06483
啦	-9.066
发泄	-9.06699
道德	-9.06748
有的人	-9.06849
自己的内心	-9.06908
刺激	-9.0691
对他	-9.06938
足	-9.07059
妻子	-9.07109
恨	-9.07135
穿	-9.07215
带来的	-9.0738
适合	-9.07389
进一步	-9.07416
机	-9.07436
消极	-9.07473
错误	-9.07536
不去	-9.07548
的目标	-9.07742
看起来	-9.07778
说出来	-9.07924
女孩	-9.07936
时期	-9.07979
从你的描述中	-9.08003
而你	-9.08033
的样子	-9.0811
而言	-9.08172
关爱	-9.08206
假	-9.08263
空间	-9.08286
跑	-9.08343
看待	-9.08394
方	-9.08412
还是要	-9.08461
报	-9.08537
～。	-9.08609
。3.	-9.0863
思想	-9.08726
位	-9.08773
极	-9.08811
回来	-9.08882
哪	-9.08929
姐姐	-9.08997
1.	-9.0909
的部分	-9.09113
中的	-9.09263
任务	-9.09434
我们要	-9.09472
这段	-9.09477
平	-9.09571
你能	-9.09644
分开	-9.09704
回忆	-9.09937
以为	-9.09981
内容	-9.10095
正确的	-9.10126
感谢	-9.10212
考研	-9.10384
声	-9.10411
告诉自己	-9.10413
面临	-9.10436
生理	-9.10555
随着	-9.10611
嫉妒	-9.10693
的选择	-9.10704
同时也	-9.10704
职业	-9.10717
积累	-9.10918
爱的	-9.10934
代	-9.11056
不知道你	-9.11107
个体	-9.11176
引导	-9.11258
男性	-9.11285
活着	-9.11294
的环境	-9.11335
还可以	-9.11432
:1、	-9.11463
曾	-9.11469
和她	-9.1153
改变自己	-9.11552
儿子	-9.11563
来自	-9.11576
的心态	-9.11806
过去的	-9.11858
内向	-9.11884
照	-9.11902
障碍	-9.11928
你有	-9.11985
上面	-9.1205
一定是	-9.12056
追	-9.12233
去面对	-9.1225
的一些	-9.12533
经过	-9.12585
没有人	-9.12608
五	-9.12622
楼楼	-9.12643
原谅	-9.12666
。3、	-9.12734
刚	-9.12983
耐心	-9.12993
跟他	-9.13012
吃饭	-9.1304
的力量	-9.13228
哪里	-9.13264
之间的	-9.13478
珍惜	-9.13535
不可能	-9.13546
过来	-9.13985
做自己	-9.14186
维持	-9.14293
每个人都	-9.14303
没有什么	-9.14369
接	-9.14412
知道自己	-9.14448
参加	-9.14471
愿	-9.146
顺利	-9.14721
克服	-9.14784
但是你	-9.14985
帮你	-9.15093
充满	-9.15123
伤心	-9.1515
体会	-9.15221
他人的	-9.15369
做的事情	-9.15548
悲伤	-9.15588
职场	-9.15945
讨论	-9.15952
成年人	-9.16006
允许	-9.16019
然而	-9.1603
大家都	-9.16056
角度	-9.16082
谈恋爱	-9.16128
久	-9.16174
了一个	-9.16384
要学会	-9.16491
可以尝试	-9.16627
自己的生活	-9.16714
是自己	-9.16758
记	-9.16766
品	-9.16786
合适的	-9.16808
会让你	-9.16914
一年	-9.16992
字	-9.17008
也许你	-9.17037
在这个	-9.17084
系统	-9.17101
都在	-9.17108
无论是	-9.17168
文字	-9.17182
作用	-9.17208
色	-9.17214
地方	-9.17294
轻	-9.1735
第一次	-9.17357
挑战	-9.1737
好处	-9.17375
哪怕	-9.17394
再次	-9.17461
看法	-9.17482
没办法	-9.1759
对吗	-9.17594
相关	-9.17651
感兴趣	-9.17715
许多	-9.17788
是非常	-9.17789
麻烦	-9.17927
何	-9.18058
骂	-9.18431
期望	-9.18454
抱怨	-9.1848
拥抱	-9.18591
回避	-9.18618
负	-9.18802
直	-9.18851
爱好	-9.18898
单	-9.18961
/	-9.18972
结	-9.19064
都要	-9.19123
把你	-9.19192
让孩子	-9.19223
得不到	-9.19246
基本	-9.19257
夫妻	-9.19392
打击	-9.19448
十分	-9.1958
各	-9.19634
装	-9.1968
基础	-9.19687
想着	-9.19809
群	-9.19916
权	-9.20002
送	-9.20031
理论	-9.20369
适当的	-9.204
为什么会	-9.20458
睡觉	-9.20461
感觉自己	-9.20662
状况	-9.20748
)。	-9.20767
关	-9.20837
不行	-9.20934
糟糕	-9.20981
看到了	-9.21033
不然	-9.21074
距离	-9.21076
火	-9.21128
失	-9.21228
急	-9.21237
总结	-9.21312
听到	-9.21407
青春期	-9.21546
工	-9.2156
欣赏	-9.21582
的要求	-9.21644
楼主可以	-9.21938
语	-9.21942
被人	-9.2206
不到	-9.22083
山	-9.22155
合适	-9.22158
*	-9.22178
一件	-9.22183
很少	-9.22218
对我	-9.22281
冥想	-9.22395
条	-9.22404
懂得	-9.22443
过得	-9.22448
数	-9.22526
自杀	-9.22636
遇见	-9.22823
精	-9.22918
也就是说	-9.22994
某种	-9.23008
的家庭	-9.23144
以下	-9.2336
婚	-9.23492
。2	-9.23577
慢	-9.23632
那么多	-9.23724
你也可以	-9.23727
的学习	-9.23742
证明	-9.2384
救	-9.23934
自己的感受	-9.23976
提问	-9.24011
节	-9.24051
平衡	-9.24066
摆脱	-9.24348
具有	-9.24368
随	-9.24403
受伤	-9.24546
分离	-9.2457
很大的	-9.2465
管理	-9.24731
制	-9.24786
回家	-9.24801
技能	-9.24967
女孩子	-9.2501
有过	-9.25023
遗憾	-9.25099
类似	-9.25134
你的感受	-9.25162
边界	-9.25309
存	-9.25383
人类	-9.25481
师	-9.25498
很多事情	-9.25577
外在	-9.25638
缺点	-9.25665
良好的	-9.2587
和谐	-9.25896
当初	-9.25938
按	-9.25967
见字如面	-9.2598
喝	-9.26008
做一个	-9.26073
能不能	-9.2615
后面	-9.26182
一直在	-9.26203
常常	-9.26233
看来	-9.2626
脸	-9.26346
发生了	-9.26411
若	-9.26412
找一个	-9.26498
祝你	-9.26512
和自己	-9.26548
毕业	-9.26733
。#	-9.26793
要么	-9.26815
药	-9.26866
表	-9.26939
学业	-9.26968
无力	-9.2699
有能力	-9.27196
你的问题	-9.27254
只会	-9.27342
挫折	-9.27426
目的	-9.27512
过分	-9.27512
偶尔	-9.2762
利用	-9.27652
一位	-9.27861
归	-9.27914
看了	-9.27983
着急	-9.2801
经历过	-9.28019
这一	-9.28024
不自信	-9.28027
好了	-9.28094
善良	-9.28196
脆弱	-9.28215
聊聊	-9.28228
在家	-9.28266
大部分	-9.28394
冲动	-9.28498
创造	-9.28525
疗愈	-9.28587
一件事	-9.28648
祝福你	-9.28688
如果我们	-9.28704
意味着	-9.28718
压	-9.29045
身边的人	-9.29135
坚定	-9.29286
级	-9.29352
有效	-9.29376
乐	-9.29378
:1.	-9.29443
饭	-9.29471
有一种	-9.29541
记忆	-9.29566
大概	-9.29641
争吵	-9.29826
了解到	-9.29955
远离	-9.29984
尽管	-9.30002
恢复	-9.30063
互动	-9.3013
不满	-9.30224
这段感情	-9.30286
唯一	-9.30357
不被	-9.30384
认为自己	-9.30482
水平	-9.30527
希望能	-9.3053
阅读	-9.30643
觉	-9.30686
多了	-9.3076
立	-9.30762
我认为	-9.30828
如果没有	-9.3084
反复	-9.30957
就好了	-9.3099
一边	-9.31093
允许自己	-9.31094
让对方	-9.31101
太大	-9.31108
反思	-9.31145
了解自己	-9.31146
原来	-9.31165
降低	-9.31198
是怎样的	-9.31441
针对	-9.3147
一句话	-9.31494
表达自己	-9.31514
实际上	-9.31547
都会有	-9.3158
失眠	-9.31627
20	-9.31647
月	-9.3179
每个人都有	-9.31858
这些问题	-9.31895
关键	-9.31917
倾听	-9.32074
不对	-9.32118
边	-9.32181
试	-9.32234
就不	-9.32298
陪	-9.32401
专业的	-9.32467
证	-9.3258
周	-9.32648
最重要的	-9.32676
正常的	-9.32719
有自己的	-9.32782
4	-9.32784
理智	-9.32824
对你来说	-9.32877
辛苦	-9.33017
终	-9.33044
什么时候	-9.33094
留下	-9.33111
怪	-9.33133
改变的	-9.33133
经	-9.33231
坐	-9.33244
梳理	-9.33304
一部分	-9.33338
找不到	-9.33339
全部	-9.33344
原则	-9.3344
我们都	-9.3348
对孩子	-9.33554
喜	-9.33754
命	-9.33844
脾气	-9.33862
2.	-9.33904
心疼	-9.33908
不断的	-9.34038
无奈	-9.34053
找个	-9.34149
百	-9.34184
丰富	-9.34188
本来	-9.34345
的小	-9.34406
温柔	-9.34414
想一想	-9.34422
费	-9.34444
忽视	-9.34495
可以试着	-9.34555
现象	-9.3464
可以看出	-9.34737
之中	-9.34926
这次	-9.34936
投入	-9.34974
只要你	-9.35051
烦躁	-9.35117
锻炼	-9.3523
这段关系	-9.35234
竞争	-9.35425
和孩子	-9.35477
关系的	-9.35539
好好的	-9.35566
事业	-9.35711
别的	-9.35719
紧	-9.35777
包	-9.35794
生存	-9.35796
借	-9.35821
词	-9.3594
的意义	-9.36003
讨好	-9.36042
也是一种	-9.36119
冷静	-9.36217
例如	-9.36259
其他的	-9.36265
暴力	-9.36389
评判	-9.36493
相信你	-9.36538
将来	-9.36654
否则	-9.36722
强迫	-9.36742
私	-9.36818
我们会	-9.3682
勇气	-9.37006
一句	-9.37047
排斥	-9.37108
帮忙	-9.37115
6	-9.37147
的存在	-9.37193
绝	-9.37199
这样做	-9.37237
你还	-9.3728
依恋	-9.37313
也不要	-9.37387
修	-9.37395
脑	-9.37409
做不到	-9.37592
科	-9.37637
选择了	-9.37666
不一定	-9.37736
食	-9.37754
但你	-9.37823
因为我们	-9.37875
物质	-9.37924
重复	-9.37937
你内心	-9.38056
之所以	-9.38058
一方	-9.38069
剧	-9.38164
冷	-9.38194
如果有	-9.38231
容	-9.383
保护自己	-9.38442
喜欢的	-9.38579
么	-9.38585
尝试着	-9.38603
一件事情	-9.38723
正是	-9.38865
拖延	-9.38944
和朋友	-9.38982
妹妹	-9.39106
疾病	-9.39136
什么都	-9.39159
刻意	-9.39202
实际	-9.39229
的期待	-9.39306
你会发现	-9.3934
偏	-9.39518
每一个	-9.39581
推荐	-9.39594
你就会	-9.39594
更容易	-9.39635
现	-9.39645
掌握	-9.39698
怎么办	-9.39726
的责任	-9.3975
初中	-9.39823
清晰	-9.39852
说了	-9.39881
所谓的	-9.39972
不管是	-9.40003
破	-9.40019
式	-9.40022
停	-9.40068
如果他	-9.40077
宣泄	-9.40123
你很	-9.4017
一切都	-9.40197
时刻	-9.40287
不应该	-9.40316
下次	-9.40321
角色	-9.40345
结合	-9.40477
怎么做	-9.40482
注意力	-9.40554
声音	-9.40606
年轻	-9.40693
淡	-9.40695
出现了	-9.40696
不得不	-9.40749
使用	-9.40769
神	-9.4081
回复	-9.40821
尴尬	-9.40826
最大的	-9.40829
过往	-9.40926
母	-9.40928
独处	-9.40957
症	-9.40958
影响到	-9.40973
真的是	-9.41085
的目的	-9.41127
很正常	-9.41146
医院	-9.41169
总之	-9.41222
小事	-9.41481
原	-9.41538
保证	-9.41693
国	-9.41708
检查	-9.41711
积极的	-9.41722
满	-9.41801
深入	-9.41803
血	-9.41901
部	-9.41911
缺少	-9.41991
类型	-9.42036
擅长	-9.42039
ta	-9.42204
参考	-9.42206
恶	-9.42325
引发	-9.42372
不知	-9.42374
的信息	-9.42433
的内容	-9.42492
问问	-9.42555
搞	-9.42566
犯	-9.42619
几乎	-9.42798
资源	-9.42957
对她	-9.43006
另一个	-9.43041
室友	-9.43063
给我	-9.43165
采取	-9.4327
是不	-9.43314
千	-9.43429
你可能	-9.43506
仔细	-9.43527
脚	-9.43753
故事	-9.43759
排	-9.43814
闹	-9.43834
题主说	-9.43834
代表	-9.43887
作业	-9.43975
保	-9.44015
我们自己	-9.4402
提升自己	-9.44294
补	-9.44316
和他们	-9.44364
一辈子	-9.44445
你应该	-9.44449
背	-9.44454
真诚	-9.44478
生病	-9.44508
。3	-9.44574
整个	-9.44583
处在	-9.44658
意见	-9.44722
人生的	-9.44729
优	-9.44815
自己内心	-9.44823
死亡	-9.44833
当成	-9.44838
慢慢地	-9.44964
想办法	-9.45009
念	-9.45053
特质	-9.4507
心理问题	-9.45103
思考一下	-9.45173
在生活中	-9.45283
哪个	-9.45305
~~~	-9.45313
的动力	-9.45318
确实是	-9.45391
诊断	-9.45445
重要的	-9.45511
这也	-9.45582
你的内心	-9.45588
怀	-9.45588
海	-9.45653
参与	-9.45764
情绪的	-9.45831
你说的	-9.4591
表示	-9.45935
见面	-9.46049
强烈	-9.46098
有的时候	-9.46193
消	-9.46254
去改变	-9.46255
给孩子	-9.46357
即便	-9.46444
争取	-9.46454
某个	-9.46503
有机会	-9.46585
的世界	-9.46678
明明	-9.4671
问问自己	-9.46715
是一件	-9.46755
发挥	-9.46843
观点	-9.46875
世	-9.46881
去看	-9.46901
果	-9.46909
妈	-9.46964
越是	-9.46995
那么就	-9.47031
训练	-9.47092
发现自己	-9.47109
承认	-9.47159
共	-9.47294
打开	-9.47306
一时	-9.47369
在你的	-9.47436
顺	-9.47482
这时候	-9.47642
也许是	-9.47661
长久	-9.47771
依靠	-9.47775
我会	-9.47816
这句话	-9.47847
问题的	-9.47874
来讲	-9.47914
两人	-9.47942
忽略	-9.48031
与其	-9.48211
占	-9.48235
的观点	-9.48319
谈谈	-9.48333
产	-9.48482
限	-9.485
小孩	-9.48576
可以先	-9.48621
抗拒	-9.48687
复杂	-9.487
特别是	-9.48767
亲戚	-9.48786
坦诚	-9.48788
去找	-9.48815
看书	-9.48924
掌控	-9.48937
双	-9.4895
也不能	-9.48964
经营	-9.48975
质	-9.49014
体现	-9.49024
并非	-9.49053
子女	-9.49064
网络	-9.49078
的心	-9.49234
这些事情	-9.4926
了自己	-9.4927
理由	-9.49312
再去	-9.49356
说你	-9.49362
熟悉	-9.49374
表达出来	-9.49387
不确定	-9.49406
我很	-9.4944
爱人	-9.49482
有一定的	-9.49506
程	-9.49635
那里	-9.49645
文化	-9.49733
反抗	-9.49784
上学	-9.49805
总会	-9.49838
优点	-9.49927
平静	-9.50023
跳	-9.50161
的焦虑	-9.50172
简单的	-9.50188
行业	-9.50259
备	-9.50308
你的父母	-9.50338
适当	-9.50383
自信心	-9.50408
内心深处	-9.50421
就需要	-9.5054
关系中	-9.50603
那么你	-9.50671
害	-9.50699
左右	-9.50749
与人	-9.50857
也会有	-9.50945
和家人	-9.50955
满意	-9.51012
人际交往	-9.51049
的评价	-9.51156
没有得到	-9.51166
缘	-9.51245
让你感到	-9.51248
好奇	-9.51355
未来的	-9.51362
可以去	-9.51364
羡慕	-9.51381
失去了	-9.51402
余	-9.51429
你老公	-9.51434
了吗	-9.5144
日常	-9.51525
不好的	-9.51624
邀请	-9.51676
你没有	-9.51711
的内心	-9.51801
宝	-9.51803
友情	-9.51857
期间	-9.51927
差异	-9.51934
治愈	-9.51988
希望自己	-9.52009
这些都是	-9.52033
说说	-9.52047
投射	-9.5206
段	-9.52191
让别人	-9.5226
遇到了	-9.52287
三个	-9.523
并不能	-9.52324
但我	-9.52327
希望你能	-9.52339
身心	-9.52463
好朋友	-9.52479
会出现	-9.52514
正在	-9.52545
收	-9.52548
...	-9.52689
##	-9.52769
提醒	-9.52782
不爱	-9.52833
来自于	-9.52909
真的很	-9.52978
负担	-9.5301
养成	-9.53067
象	-9.53105
没什么	-9.53131
举	-9.53189
实在	-9.53329
一下自己	-9.5338
出来的	-9.53394
很难受	-9.53477
大多数	-9.535
不懂	-9.53521
上班	-9.53651
致	-9.53653
A	-9.53671
成了	-9.53675
马	-9.53677
猜测	-9.53713
一开始	-9.53718
告诉他	-9.53726
的父母	-9.53756
不完美	-9.53808
话题	-9.53866
的方式来	-9.53942
奶奶	-9.5401
平台	-9.54084
思	-9.54102
题主可以	-9.54122
我知道	-9.54136
是指	-9.54143
你们之间	-9.54181
还在	-9.54233
造成的	-9.54381
技巧	-9.54402
不上	-9.5448
与他人	-9.54517
忘记	-9.54523
提前	-9.54534
我在	-9.5462
那是	-9.54666
你提到	-9.54684
的建议	-9.54722
这就	-9.54725
平等	-9.548
人际	-9.54873
着你	-9.54959
的沟通	-9.55189
强烈的	-9.55226
这是一个	-9.55378
相似	-9.55418
心灵	-9.55422
很累	-9.55451
是怎么	-9.55609
苦恼	-9.5566
散	-9.55704
所以我们	-9.55706
始终	-9.55733
自己喜欢的	-9.55743
可以在	-9.55754
用心	-9.55788
很痛苦	-9.55832
”“	-9.55845
因为我	-9.55885
犯错	-9.56027
在学校	-9.56112
之类的	-9.56159
业	-9.56206
的方向	-9.56296
形	-9.56413
遭遇	-9.5656
每天都	-9.56628
误会	-9.56638
安静	-9.5671
金	-9.56731
10	-9.56734
服	-9.56763
分钟	-9.56772
看了你的描述	-9.56782
都需要	-9.56812
缺	-9.56813
爸妈	-9.57019
学历	-9.57037
衣服	-9.57053
一场	-9.57114
方面的	-9.57139
消失	-9.5715
特点	-9.57163
欲	-9.57174
能否	-9.57233
片	-9.57236
的反应	-9.57253
把握	-9.57291
时代	-9.57313
几年	-9.57379
的经验	-9.5739
会让	-9.57502
善	-9.57513
校	-9.57533
之外	-9.57583
在家里	-9.57624
给你带来	-9.57638
太过	-9.57672
张	-9.57676
为什么要	-9.57692
句	-9.57701
现状	-9.57701
还能	-9.57716
他会	-9.57735
定义	-9.57746
神经	-9.5776
对我们	-9.57814
疫情	-9.57831
不满意	-9.57835
e	-9.57939
计	-9.57948
众	-9.57967
困	-9.58035
成就感	-9.58049
很想	-9.58166
预	-9.582
欲望	-9.58231
味	-9.58259
硬	-9.58271
造成了	-9.58292
存在的	-9.58323
看着	-9.58345
的一面	-9.58374
眼里	-9.58464
把自己的	-9.58511
被别人	-9.58532
嘛	-9.5854
啥	-9.58558
有助于	-9.58563
止	-9.58568
是很正常的	-9.58664
融入	-9.58675
洗	-9.58728
前任	-9.5874
自身的	-9.58801
和他人	-9.58868
制定	-9.58876
你是否	-9.58897
题主的	-9.58901
但是我	-9.58917
呼吸	-9.58984
你认为	-9.59011
突破	-9.59032
战	-9.59071
记住	-9.59103
喜欢你	-9.59127
这种感觉	-9.59176
热情	-9.59189
的路	-9.59209
一些事情	-9.59226
づ	-9.59393
是什么呢	-9.59407
宝宝	-9.5941
课程	-9.5941
疲惫	-9.59421
样	-9.59472
规则	-9.59576
任何人	-9.59579
球	-9.59581
转变	-9.59666
合理的	-9.59743
?”	-9.59829
记录	-9.59856
的同时	-9.59977
被爱	-9.60022
在哪里	-9.60063
度过	-9.60081
房	-9.60138
说过	-9.60187
甚至是	-9.60191
老板	-9.60277
失落	-9.60298
阴影	-9.60448
那就是	-9.6048
研究	-9.60572
你们的	-9.60581
老人	-9.60647
正面	-9.60658
做得	-9.60825
争	-9.60846
欺负	-9.60915
想起	-9.6094
图	-9.61186
觉得你	-9.61191
不得	-9.61209
了你的	-9.61301
助	-9.61325
梦想	-9.61342
打算	-9.61359
o	-9.6136
首先要	-9.6139
走出来	-9.61417
配合	-9.61586
惩罚	-9.61594
我们在	-9.61605
感受到了	-9.61638
给她	-9.61658
脱	-9.61668
周围	-9.61705
有效的	-9.6171
画	-9.61734
这位	-9.6176
充	-9.61764
可以理解	-9.6178
男孩	-9.61812
是最	-9.61838
发生了什么	-9.6194
论	-9.61979
有哪些	-9.62104
坚强	-9.62109
主观	-9.62148
愉快	-9.62218
那你	-9.62227
风险	-9.62294
的做法	-9.62359
节奏	-9.62424
那么我们	-9.62461
爸爸妈妈	-9.62467
贵	-9.62617
可以选择	-9.62673
办	-9.62686
在我们	-9.62699
之一	-9.62731
黑	-9.62752
直到	-9.62772
为何	-9.62914
a	-9.62922
成长的	-9.62964
有这样的	-9.63001
你的描述	-9.63079
乐观	-9.6309
回报	-9.63135
这方面	-9.63146
是如何	-9.63161
不够好	-9.63188
很棒	-9.63212
在这	-9.63235
利益	-9.63288
可怕	-9.63295
商量	-9.63309
对话	-9.63335
望	-9.63355
闲	-9.63357
值	-9.63416
虚	-9.63435
足够的	-9.63499
所谓	-9.63534
危险	-9.63562
自己的人生	-9.63627
不清楚	-9.63638
都能	-9.63665
规律	-9.63668
聊一聊	-9.63701
绝对	-9.63736
更有	-9.63806
还需要	-9.63808
暗示	-9.63858
符合	-9.63859
究竟	-9.64
让楼主	-9.64044
有问题	-9.64097
反馈	-9.64149
的价值	-9.64155
可以多	-9.64209
不理解	-9.6423
厌恶	-9.64251
任	-9.64266
养育	-9.64324
恋人	-9.644
的意见	-9.64423
有帮助	-9.64552
第	-9.64572
表明	-9.6459
不适	-9.64612
缺失	-9.64662
各自	-9.64751
视频	-9.64795
也好	-9.6484
循环	-9.64872
相应的	-9.64903
意思	-9.64917
出生	-9.64926
查	-9.6496
挽回	-9.64977
老婆	-9.64998
专注	-9.65001
信念	-9.65007
阳光	-9.65108
沉	-9.65128
被动	-9.65147
在一个	-9.65221
还没	-9.65286
闺蜜	-9.65301
重点	-9.65384
静	-9.65426
恋	-9.65428
分析一下	-9.65465
认识到	-9.6552
的优点	-9.65524
兴趣爱好	-9.65535
的伤害	-9.65572
妈妈的	-9.65596
如果对方	-9.65686
弄	-9.65689
世界上	-9.6569
演	-9.65699
六	-9.65765
弥补	-9.65775
人家	-9.65775
相反	-9.65839
这样的情况	-9.65871
会产生	-9.65891
几次	-9.65912
逼	-9.65934
有一天	-9.65967
的同学	-9.66099
复	-9.66117
忍受	-9.66143
评估	-9.66182
友谊	-9.66221
拖	-9.66258
醒	-9.66273
的婚姻	-9.66372
贴	-9.66435
什么事情	-9.66523
的理由	-9.66531
做的事	-9.66533
有限	-9.66584
成就	-9.666
明显	-9.66648
思路	-9.6675
不错	-9.66776
上了	-9.66815
或许你	-9.66886
激情	-9.66891
事实上	-9.66939
更好地	-9.66963
细节	-9.67008
每个人的	-9.67076
依旧	-9.6712
这个过程	-9.67173
特殊	-9.67205
奖励	-9.67213
1、	-9.67222
会更	-9.67255
或许是	-9.67282
成人	-9.67312
可能你	-9.67314
但是我们	-9.67389
自己也	-9.6741
是正常的	-9.6741
。*	-9.67498
你们的关系	-9.67501
把它	-9.67754
的声音	-9.6781
呆	-9.67819
根	-9.67822
的好	-9.67865
道歉	-9.67921
过了	-9.68073
作为一个	-9.68082
细	-9.68101
其实你	-9.68156
因为他	-9.6831
长大了	-9.68393
可以从	-9.68545
显得	-9.68594
患	-9.68598
理解你	-9.68627
大人	-9.68695
必然	-9.68724
发脾气	-9.68735
你想要	-9.68781
很久	-9.68781
长辈	-9.68855
姑娘	-9.68862
达成	-9.68914
这不是	-9.68918
尽快	-9.68946
的权利	-9.68979
陌生人	-9.69002
到你	-9.69013
优势	-9.69039
的困扰	-9.69058
价值感	-9.69081
:1	-9.69086
这是一种	-9.69087
两年	-9.691
是什么样的	-9.69101
微	-9.69132
皮	-9.69144
心思	-9.6916
这么多	-9.6916
减轻	-9.69186
的变化	-9.69236
喜欢的人	-9.69306
你是一个	-9.6931
的发展	-9.69347
实践	-9.69376
愉悦	-9.69381
收入	-9.69382
需要你	-9.69431
马上	-9.69444
中国	-9.69464
对别人	-9.69465
你的想法	-9.69588
热爱	-9.69601
将自己	-9.69635
与自己	-9.69685
成年	-9.6969
不代表	-9.69732
体会到	-9.69802
烦	-9.69834
更多的是	-9.69924
造	-9.69932
不论	-9.6999
家庭的	-9.70033
照顾好自己	-9.70129
比你	-9.70219
支	-9.70304
赚钱	-9.7036
有用	-9.70369
区别	-9.70398
勇敢的	-9.70421
知道你	-9.70457
忘	-9.70458
很快	-9.7048
如果真的	-9.70563
不那么	-9.70589
完美的	-9.70702
的恐惧	-9.70823
内在的	-9.70895
表白	-9.70899
对此	-9.70928
刚刚	-9.70943
B	-9.70955
探讨	-9.71012
自尊	-9.71034
至	-9.71048
吵	-9.71061
带给	-9.71078
高三	-9.71106
金钱	-9.71108
适	-9.71155
会被	-9.71157
很强	-9.71171
价值观	-9.71251
增强	-9.71302
不错的	-9.71445
会影响	-9.71491
特	-9.71521
听听	-9.7154
的习惯	-9.71622
尽力	-9.7166
功能	-9.7168
孤单	-9.7168
圈	-9.71699
我自己	-9.71725
惊	-9.71813
天天	-9.71851
一致	-9.71888
让你觉得	-9.71893
不值得	-9.71918
复习	-9.71947
的支持	-9.71976
渐渐	-9.72004
优秀的	-9.72131
给我们	-9.72228
7	-9.72234
可以找	-9.72323
投	-9.72419
刚开始	-9.72436
当下的	-9.72498
是真的	-9.72514
自己想要的	-9.72573
转移	-9.72596
层	-9.72634
红	-9.72675
必须要	-9.72706
嘴	-9.72779
同性恋	-9.72799
不起	-9.72826
必	-9.72872
夜	-9.72878
非常的	-9.72905
想过	-9.72909
患者	-9.7298
底	-9.72996
不住	-9.73086
不少	-9.73139
称	-9.73139
打破	-9.73292
。1.	-9.73392
准	-9.73406
怒	-9.73423
你的情绪	-9.73473
我们就	-9.73522
题主您好	-9.73539
心理医生	-9.73548
就有	-9.73608
确认	-9.7367
真实的自己	-9.73677
礼物	-9.73706
隔	-9.73824
就是你	-9.73838
岗位	-9.73886
笔	-9.7398
普通	-9.73994
也可能	-9.74016
怀孕	-9.74026
没必要	-9.74048
升	-9.74231
情况下	-9.7428
后果	-9.74306
技术	-9.74427
途径	-9.74429
肯定是	-9.74436
调整自己	-9.74569
前进	-9.74701
是因为你	-9.74806
缺乏安全感	-9.74821
你说你	-9.7486
给出	-9.7491
年纪	-9.751
劲	-9.75135
亲近	-9.75259
翻	-9.75321
30	-9.75322
极端	-9.75331
多大	-9.75339
态	-9.75426
在自己	-9.75461
了呢	-9.75471
同样的	-9.75516
八	-9.7553
这种状态	-9.75531
音乐	-9.75547
舍友	-9.7558
找到自己	-9.75613
不合适	-9.75643
界限	-9.75715
3.	-9.75743
有一点	-9.75747
电影	-9.75842
在心里	-9.75891
没有任何	-9.759
与父母	-9.75909
给了	-9.7602
异	-9.76094
担心自己	-9.76119
和解	-9.7612
第四	-9.76121
消耗	-9.76121
早日	-9.76122
自律	-9.76129
易	-9.76138
限制	-9.76141
等待	-9.76208
男女	-9.76233
丢	-9.76241
经历了	-9.76253
暴露	-9.76328
的相处	-9.76391
爆发	-9.76418
能理解	-9.76471
启发	-9.76522
的成长	-9.76569
不良	-9.76586
头脑	-9.7659
职	-9.76594
给对方	-9.76752
只不过	-9.76852
圈子	-9.76869
眼中	-9.76971
慢慢来	-9.77004
台	-9.77091
在面对	-9.77145
你心里	-9.77193
古	-9.77218
一条	-9.77251
场合	-9.77304
舒适	-9.77309
什么是	-9.7734
的状况	-9.77346
来的	-9.7742
有多	-9.77451
难道	-9.77544
号	-9.77678
需	-9.77729
不是很	-9.7774
酒	-9.77806
心理上	-9.77813
假设	-9.77813
有趣	-9.77852
绝望	-9.77908
劝	-9.77916
不愉快	-9.77974
楼主你好呀	-9.77984
是谁	-9.78047
的一部分	-9.78063
发生的	-9.7809
的故事	-9.78099
的努力	-9.78113
格	-9.78147
没关系	-9.78158
这点	-9.78204
假如	-9.78233
怀疑自己	-9.78426
我觉得你	-9.78429
一步	-9.78594
的知识	-9.78598
无条件	-9.78736
过多	-9.78754
促进	-9.78776
刷	-9.78841
转移注意力	-9.78898
和感受	-9.78903
的思维	-9.78909
活在	-9.7892
楼主说	-9.78925
逻辑	-9.78926
崩溃	-9.78949
言语	-9.79034
取得	-9.79036
要知道	-9.7911
帮助自己	-9.79112
毫无	-9.79146
透	-9.79196
太多的	-9.79208
▁	-9.79213
潜	-9.79229
今年	-9.79278
进去	-9.79309
传	-9.79335
父	-9.79346
对比	-9.79374
奋斗	-9.79433
大的	-9.79465
小孩子	-9.79471
和行为	-9.79545
的办法	-9.79581
动物	-9.79688
站	-9.79707
类似的	-9.79824
身边的	-9.79844
%	-9.79848
属于自己的	-9.79882
从你的	-9.79896
几天	-9.79926
的眼光	-9.79968
当做	-9.8007
宿舍	-9.80132
想要的	-9.80216
善于	-9.8032
3、	-9.80351
员	-9.80357
会很	-9.80476
要不要	-9.80479
询问	-9.8053
和妈妈	-9.80584
过的	-9.80658
客	-9.80667
的错误	-9.80683
。1、	-9.8072
试试	-9.80737
稍微	-9.80746
影响了	-9.80755
很有	-9.80762
我个人	-9.80764
整	-9.80765
充实	-9.80828
单位	-9.80833
抱	-9.8101
多年	-9.81016
群体	-9.81028
是对	-9.81053
科学	-9.81106
预期	-9.81124
是比较	-9.8114
去解决	-9.81152
消息	-9.81208
变成了	-9.81221
下面	-9.81271
寻求帮助	-9.81279
这是你	-9.81311
去学习	-9.81379
做好自己	-9.81392
承诺	-9.81409
和我	-9.81416
看不到	-9.81446
未必	-9.81618
练	-9.81678
的体验	-9.81682
呈现	-9.81693
就没有	-9.81785
里的	-9.81801
不太好	-9.81807
忍	-9.81822
这个事情	-9.81846
的标准	-9.81905
看完	-9.81956
己	-9.8196
义	-9.81985
考上	-9.81993
:(1)	-9.82027
我是	-9.82036
感恩	-9.82081
维护	-9.82105
治	-9.8214
为此	-9.82161
就像是	-9.82178
去想	-9.82217
共情	-9.8229
会让我们	-9.82396
招	-9.82476
如果不	-9.82506
多一些	-9.82535
相亲	-9.82565
是要	-9.82567
威胁	-9.82599
一个人的	-9.82626
隐藏	-9.82631
很高兴	-9.82649
对您	-9.82655
友	-9.82678
多久	-9.82692
彼此的	-9.82822
s	-9.82833
可能需要	-9.82872
表现出	-9.82879
来源于	-9.82885
外向	-9.82911
8	-9.8294
这样的人	-9.82947
曾经的	-9.82959
修复	-9.82985
母亲的	-9.82994
是没有	-9.83015
的作用	-9.83076
交朋友	-9.83121
走向	-9.83154
如果说	-9.83159
然后再	-9.83203
去寻找	-9.8325
有利于	-9.83252
眼睛	-9.8333
是你的	-9.83374
i	-9.83413
具备	-9.8342
诉说	-9.83453
列	-9.83463
也没	-9.83499
的是什么	-9.83509
彻底	-9.83562
原本	-9.83626
悲	-9.8367
祝福	-9.837
去思考	-9.83747
嫌弃	-9.83783
双方都	-9.83812
都很	-9.83866
潜意识里	-9.839
纸	-9.83926
他说	-9.84121
示	-9.84132
领域	-9.8417
是我	-9.842
令人	-9.84222
这些都	-9.84225
对抗	-9.84335
谢谢	-9.84377
大胆	-9.84421
的意思	-9.84431
深刻	-9.84462
加上	-9.84469
试着去	-9.84522
特征	-9.84529
了自己的	-9.84539
印象	-9.84675
做决定	-9.84681
的呢	-9.84739
排除	-9.8475
高兴	-9.84753
处理好	-9.84766
从中	-9.84774
输	-9.84786
健康的	-9.84874
焦虑和	-9.84877
顾虑	-9.84948
源	-9.84955
才有	-9.84974
率	-9.85037
所在	-9.85044
省	-9.85262
拍	-9.85291
没有必要	-9.85308
许	-9.85374
陌生	-9.85396
都不是	-9.85414
跟她	-9.85416
又是	-9.85424
抓	-9.8545
效率	-9.85451
三年	-9.85483
电	-9.8549
但如果	-9.85546
说到	-9.85565
所说的	-9.85599
不愿	-9.85618
菜	-9.85619
迷	-9.85623
效应	-9.85659
放心	-9.85724
目前的	-9.8574
失恋	-9.85777
要有	-9.85828
警	-9.8587
元	-9.85881
可以说	-9.85881
不在	-9.85888
没有那么	-9.85896
面子	-9.85924
要去	-9.8597
说什么	-9.86012
独	-9.86034
充分	-9.86099
不要太	-9.86257
停止	-9.86268
以至于	-9.86273
多多	-9.86299
是一个很	-9.86342
平常	-9.86361
错了	-9.86385
希望能够	-9.86395
荣	-9.864
概念	-9.86421
愧疚	-9.86445
的话题	-9.86446
家里人	-9.86495
建议楼主	-9.8657
基于	-9.86666
的决定	-9.86709
杂	-9.86736
性别	-9.86766
对你有	-9.86769
仅仅	-9.86827
学习的	-9.86862
看你	-9.86865
轻易	-9.86877
呼	-9.86879
老师的	-9.86922
可爱	-9.87055
认识自己	-9.87181
当自己	-9.87211
的日子	-9.87232
持	-9.87233
但又	-9.87235
当前	-9.87248
哥哥	-9.87258
不断地	-9.87267
回去	-9.87313
也是一个	-9.8737
描述中	-9.87383
故意	-9.874
婴儿	-9.8744
去医院	-9.87665
命运	-9.87699
你又	-9.87705
导致的	-9.87705
我想你	-9.87739
所以我	-9.87825
冲	-9.87865
会对	-9.87904
可以把	-9.87908
对对方	-9.8791
详细	-9.87938
痛苦的	-9.87982
什么呢	-9.87983
自私	-9.87983
匹配	-9.88027
「	-9.88028
」	-9.88034
现在的你	-9.88113
本能	-9.88154
的矛盾	-9.88198
跑步	-9.88218
此时	-9.88246
漂亮	-9.88258
品质	-9.88259
普遍	-9.88294
『	-9.88301
内疚	-9.8834
的对象	-9.88355
你知道	-9.88366
藏	-9.88426
外界的	-9.88441
还是会	-9.88452
我现在	-9.88465
长时间	-9.88481
仅	-9.88531
』	-9.88555
给别人	-9.88561
学着	-9.88593
安心	-9.8868
很多人都	-9.88735
幸运	-9.88806
自己的问题	-9.88812
在这个过程中	-9.88829
可以考虑	-9.88858
折磨	-9.88875
我感觉	-9.88901
阻碍	-9.88911
的付出	-9.88928
两种	-9.88983
份	-9.88999
帮到你	-9.89089
辈	-9.89157
又会	-9.89172
领	-9.89275
了一些	-9.89493
抱抱题主	-9.89531
辞职	-9.89555
深呼吸	-9.89623
+	-9.89671
集体	-9.89694
我们每个人	-9.89712
愿你	-9.89817
艰难	-9.89822
的背后	-9.89876
树	-9.89943
一段感情	-9.89968
单纯	-9.89986
独自	-9.90011
的空间	-9.90067
合作	-9.90072
正视	-9.90097
一个问题	-9.90138
自己的需求	-9.90152
富	-9.9017
冷漠	-9.90195
很多的	-9.90226
的身体	-9.90232
疑惑	-9.90243
的那种	-9.90245
可能是因为	-9.9025
反感	-9.90278
严格	-9.90322
和男友	-9.90358
动作	-9.90455
幸	-9.90479
磨合	-9.90547
这段时间	-9.90549
衣	-9.90557
那个时候	-9.90577
都不会	-9.90586
的思想	-9.90629
我可以	-9.90649
我要	-9.9067
飞	-9.90843
你希望	-9.9086
劳	-9.9088
过去了	-9.90927
越来越好	-9.90949
要想	-9.91045
令	-9.91082
小时	-9.91095
脱离	-9.91099
自己内心的	-9.91134
能够理解	-9.91151
无法改变	-9.91182
还有很多	-9.91212
消除	-9.91218
的因素	-9.91247
动机	-9.91278
全面	-9.91363
干扰	-9.91374
疑	-9.91393
差不多	-9.91406
是对的	-9.9141
理解和	-9.91436
他也	-9.91496
因为自己	-9.91533
除	-9.91616
暴	-9.91687
无关	-9.91727
是他	-9.9173
超过	-9.91757
工资	-9.91778
放大	-9.91798
有些事情	-9.91809
不一样的	-9.91839
也在	-9.9186
生活中的	-9.91868
自己的能力	-9.91892
说自己	-9.9203
意识到自己	-9.92119
上课	-9.92227
不知道怎么	-9.92283
看到你的	-9.92338
自恋	-9.9236
骗	-9.92381
很喜欢	-9.92404
控	-9.9247
斯	-9.92483
朋友圈	-9.92484
想要什么	-9.92493
姐	-9.92503
稳	-9.92552
要是	-9.92625
觉得很	-9.92637
可以尝试着	-9.9265
摸	-9.92658
套	-9.9266
相比	-9.92679
居	-9.92721
源于	-9.92752
代价	-9.92822
倾向	-9.92825
智慧	-9.92831
魅力	-9.92836
另一半	-9.92851
满足自己	-9.92876
~~	-9.92888
你一定	-9.92903
主要是	-9.9293
电话	-9.92931
闭	-9.92943
让您	-9.92974
能感受到	-9.93205
的回答	-9.93257
和焦虑	-9.93378
沟通一下	-9.93401
杀	-9.93401
药物	-9.93443
非常理解你的心情	-9.93478
明确的	-9.93494
哈	-9.93494
局	-9.93531
这些情绪	-9.93582
。4、	-9.93616
项	-9.93623
在这样的	-9.93641
·	-9.93659
天生	-9.93703
其它	-9.93711
强势	-9.93721
替	-9.93735
注意到	-9.93817
这部分	-9.93827
的答案	-9.9383
权威	-9.93867
激发	-9.93935
什么样的人	-9.94119
幸福的	-9.94135
建议题主	-9.94145
个月	-9.94243
嗯	-9.94274
效	-9.94278
工作中	-9.94297
谁都	-9.94365
不适合	-9.94386
微信	-9.94428
误解	-9.94432
他对你	-9.94498
低落	-9.9459
浪费	-9.94609
看到的	-9.94618
进而	-9.94681
过多的	-9.94709
华	-9.94821
之间的关系	-9.9485
首	-9.94865
n	-9.94881
底线	-9.94888
靠近	-9.94889
置	-9.9492
家庭中	-9.94932
是想	-9.94934
看重	-9.94992
可以感受到你	-9.95027
形式	-9.95034
给你温暖的抱抱	-9.95063
欺骗	-9.95086
妥协	-9.95094
介意	-9.9514
的年龄	-9.95183
所有人	-9.95185
但也	-9.95193
说的话	-9.95254
去尝试	-9.95297
想要改变	-9.95351
危机	-9.95357
奔	-9.95374
变得更好	-9.95386
眼前	-9.95388
】1.	-9.95419
最重要的是	-9.9542
压力大	-9.95442
更重要	-9.95471
肉	-9.95619
日子	-9.95642
对楼主	-9.95645
觉察到	-9.95658
带给你	-9.95708
叫做	-9.95742
表面	-9.9575
范围	-9.95751
并不会	-9.95788
试图	-9.95793
给自己一个	-9.95794
破坏	-9.95795
完善	-9.95807
互	-9.95809
会发现	-9.95813
犹豫	-9.95813
他是	-9.95891
关怀	-9.95897
中间	-9.9591
否定自己	-9.9597
卡	-9.95997
床	-9.96044
会更加	-9.96049
在他	-9.96136
同性	-9.96136
法律	-9.96205
点赞	-9.96225
休	-9.96258
这个世界上	-9.96261
罪	-9.96283
的理解	-9.96323
解决的	-9.96354
。(2)	-9.96452
树立	-9.96481
之下	-9.96495
的角色	-9.96498
尤其	-9.96542
传统	-9.96565
导致你	-9.96576
父亲的	-9.96609
这样的话	-9.96719
算是	-9.96738
不安全感	-9.96757
对于自己	-9.96855
工作上	-9.96877
前面	-9.9697
。4.	-9.96976
地位	-9.96981
挑	-9.96997
等到	-9.97008
做过	-9.97051
不公平	-9.97079
不适应	-9.97089
这一切	-9.9711
你的提问	-9.97196
l	-9.97246
房子	-9.97321
会遇到	-9.97328
七	-9.97339
说我	-9.97367
息	-9.97373
和想法	-9.97385
丑	-9.97434
亮	-9.97439
多么	-9.97444
比较大	-9.97452
而不	-9.97533
尽可能	-9.97543
三观	-9.97548
展现	-9.97561
随时	-9.97604
的意愿	-9.9761
广	-9.97686
这么做	-9.97716
卖	-9.9782
这份工作	-9.97832
逃	-9.97845
干涉	-9.97847
感知	-9.97869
只需要	-9.97882
想改变	-9.9791
外部	-9.97943
议	-9.97991
男孩子	-9.98045
出了	-9.98061
告诉她	-9.98085
多次	-9.98089
露	-9.98094
就会有	-9.98186
室	-9.98222
乖	-9.98241
从小到大	-9.98271
的未来	-9.9828
的美好	-9.98288
自己喜欢	-9.98298
困境	-9.98299
就越	-9.98302
很长	-9.98303
自己的价值	-9.98323
极度	-9.98399
有所帮助	-9.98431
够	-9.98488
能做到	-9.98515
一下子	-9.98569
快速	-9.98573
周围的人	-9.98581
。)	-9.98628
默默	-9.98712
资	-9.98721
坦然	-9.98734
了解一下	-9.98742
凭	-9.98749
去了解	-9.98759
产生的	-9.98778
巨大的	-9.98791
的自我	-9.98812
考验	-9.98843
自残	-9.98888
书籍	-9.98924
出门	-9.98933
先给楼主一个抱抱	-9.98938
引	-9.99097
形成了	-9.9917
不是吗	-9.99171
隐	-9.99201
玩手机	-9.99208
身份	-9.99343
自主	-9.99348
超	-9.99366
综合	-9.99395
你不	-9.99446
的位置	-9.99485
敢于	-9.99527
的勇气	-9.99609
商	-9.99614
到底是	-9.99616
聚	-9.99624
不自觉	-9.99722
目	-9.99764
走到	-9.9979
丧失	-9.99813
不是你	-9.99822
就可以了	-9.9984
的成绩	-9.99869
每个人都是	-9.99871
什么样	-9.9988
本人	-9.99894
不幸	-9.99907
稳定的	-9.99932
往往是	-9.9994
时光	-9.99954
宽	-9.99954
院	-9.99958
不仅仅是	-10.0003
出发	-10.0005
机制	-10.0012
胡思乱想	-10.0014
医	-10.0017
你真的	-10.0021
抽	-10.0023
之处	-10.0028
那时候	-10.0031
网	-10.0031
你的生活	-10.0035
恋情	-10.0035
好好地	-10.0035
顾	-10.004
仿佛	-10.004
不能接受	-10.0041
但这	-10.0041
城市	-10.0042
敢	-10.0043
施	-10.0048
放不下	-10.0058
的可能性	-10.0059
懂事	-10.006
希望我的	-10.0069
和老公	-10.0073
相关的	-10.0075
接受自己	-10.0079
守	-10.008
这种情绪	-10.008
无意识	-10.0083
优秀的人	-10.0088
区	-10.0089
因为他们	-10.0093
每一次	-10.0095
端	-10.0095
没法	-10.0095
暧昧	-10.0097
如果自己	-10.0102
你目前	-10.0102
的那个	-10.0102
的专业	-10.0105
从你	-10.0108
之前的	-10.011
防御	-10.011
相爱	-10.0111
爱他	-10.0112
我不知道	-10.012
对于你	-10.012
你对自己	-10.0121
我能	-10.0126
这个阶段	-10.0128
仅仅是	-10.0128
影	-10.0134
方案	-10.0137
择	-10.014
乎	-10.014
也不知道	-10.0143
路上	-10.0144
可以看出你	-10.0147
会越来越	-10.0148
是最好的	-10.0148
难度	-10.015
使得	-10.0155
解读	-10.0157
的一切	-10.0158
随便	-10.0159
看到自己	-10.0162
对他人	-10.0165
说不定	-10.017
质量	-10.0172
这类	-10.0173
严重的	-10.0174
背景	-10.0183
花钱	-10.0185
复合	-10.0187
害怕自己	-10.0188
有力量	-10.0189
找工作	-10.0191
伤害自己	-10.0197
我不	-10.0198
摆	-10.0207
奇	-10.0209
人在	-10.0218
没有安全感	-10.022
温	-10.0224
前提	-10.0229
隐私	-10.0233
化解	-10.0242
就是这样	-10.0242
小小的	-10.0249
自己去	-10.0253
遇	-10.026
两者	-10.0262
从事	-10.0265
顶	-10.0269
熟	-10.0269
了什么	-10.0271
厉害	-10.0271
好感	-10.0276
今后	-10.028
的关注	-10.0281
的注意力	-10.0287
护	-10.0292
形象	-10.0295
显然	-10.0296
的女生	-10.0299
具体的	-10.0309
小学	-10.0313
深深的	-10.0315
外面	-10.032
表达自己的	-10.0321
看似	-10.0323
出于	-10.0324
这种方式	-10.0324
就是一个	-10.0326
正如	-10.0327
打扰	-10.0335
却是	-10.0338
团	-10.0341
的教育	-10.0342
必要	-10.0348
属	-10.0349
的创伤	-10.0366
你内心的	-10.0371
的咨询师	-10.0372
衡量	-10.0373
向你	-10.0373
他们会	-10.0374
最初	-10.0379
不做	-10.0379
相同	-10.0383
而感到	-10.0385
不合	-10.0406
付	-10.0408
不知道如何	-10.0416
吓	-10.0416
你妈妈	-10.0422
的模式	-10.0423
重要的是	-10.0427
显	-10.0432
最大	-10.0434
胖	-10.0435
灵魂	-10.0435
比较好	-10.0445
这种想法	-10.0447
跟着	-10.0447
脏	-10.0449
心中的	-10.0453
排解	-10.0454
希望题主	-10.0455
毒	-10.0459
的程度	-10.0463
对父母	-10.0464
岁的	-10.0485
强迫症	-10.0486
小说	-10.0495
疗法	-10.0502
明天	-10.0504
下降	-10.0506
巧	-10.0507
礼	-10.0507
准确	-10.0509
没人	-10.0509
抱抱你呀	-10.051
学到	-10.0512
超越	-10.0513
给你一个	-10.0514
和母亲	-10.0514
设	-10.0517
所以在	-10.0522
跟别人	-10.0528
找出	-10.0528
需要去	-10.0531
松	-10.0531
志	-10.0532
狗	-10.0535
单身	-10.0546
对他们	-10.0549
习惯了	-10.0553
识	-10.0557
请你	-10.0559
可以做	-10.056
生命的	-10.0563
看看自己	-10.0567
忍不住	-10.0569
但我们	-10.057
自然而然	-10.0571
此刻	-10.0572
希望我的回答能	-10.0573
迫	-10.0575
你想要的	-10.0575
该如何	-10.0577
会感到	-10.058
的爱情	-10.058
防	-10.0583
开朗	-10.0586
执行	-10.0587
看的	-10.0587
的错	-10.0592
固定	-10.06
异地	-10.0601
一个小	-10.0602
看得出来	-10.0606
这种行为	-10.0609
用来	-10.0609
心理学家	-10.0612
良好	-10.0617
真相	-10.0621
不要因为	-10.0622
我们也	-10.0631
回归	-10.0637
来了	-10.0649
自己的优点	-10.0657
总有	-10.0658
坚持下去	-10.0659
爱和	-10.0667
一个月	-10.0669
减	-10.0672
受到了	-10.0673
一直都	-10.0673
就开始	-10.0676
前男友	-10.0682
不说	-10.0684
的期望	-10.0685
根据你的描述	-10.0686
青春	-10.0694
索	-10.0701
同意	-10.0708
的烦恼	-10.071
如今	-10.0711
自己在	-10.0712
不清	-10.0713
做些什么	-10.0716
混	-10.0719
但是如果	-10.0724
也无法	-10.0726
击	-10.0729
带孩子	-10.0731
得到了	-10.0732
不信任	-10.0734
和情绪	-10.0738
使你	-10.0749
说服	-10.075
旧	-10.075
本身就	-10.0757
对未来	-10.0759
直面	-10.0761
可以用	-10.0764
遭受	-10.0768
作息	-10.0771
还是有	-10.078
减肥	-10.0782
述	-10.0784
第一个	-10.0788
碰到	-10.0789
你的情况	-10.0793
会在	-10.0794
是你自己	-10.0798
自慰	-10.08
不要去	-10.0801
成为了	-10.0803
势	-10.0804
无聊	-10.0804
现实中	-10.0805
在此	-10.0817
了解你	-10.0818
想清楚	-10.0822
怎样的	-10.0827
支撑	-10.0828
安抚	-10.0828
哪些是	-10.0832
组	-10.0841
强化	-10.0843
旅游	-10.0846
写下来	-10.0852
就业	-10.0853
你的朋友	-10.0855
一面	-10.0859
答应	-10.0861
所有人都	-10.0864
抛弃	-10.0867
很高	-10.0869
体验到	-10.0873
导致了	-10.0873
云	-10.0874
意愿	-10.0882
差距	-10.0883
才能够	-10.0885
再加上	-10.0886
俩	-10.0888
交际	-10.0893
意外	-10.0894
的困惑	-10.0894
各方面	-10.0896
能做的	-10.0897
反而会	-10.0898
。**	-10.0899
自动	-10.0904
阻	-10.0905
哪怕是	-10.0907
做法	-10.0907
取决于	-10.0909
梳理一下	-10.0913
给你一些	-10.0915
自然会	-10.0934
接近	-10.094
情绪低落	-10.0941
的缺点	-10.0945
好好学习	-10.0948
贬低	-10.0954
如果你觉得	-10.0958
不要把	-10.0958
上进	-10.0959
的交流	-10.0961
和理解	-10.0966
德	-10.0968
的阶段	-10.0968
好多	-10.0969
质疑	-10.0971
是否可以	-10.0974
在学习	-10.0974
温暖的	-10.0975
年轻人	-10.0977
成为一个	-10.0977
去看看	-10.0978
不受	-10.0981
方便	-10.0982
辩	-10.0984
雨	-10.0985
借口	-10.099
和人	-10.099
那我们	-10.0992
做事情	-10.0994
做不好	-10.0995
没有错	-10.0996
疼	-10.0999
周围人	-10.1001
诉求	-10.1003
由此	-10.1003
为人	-10.1003
楼	-10.1006
孕	-10.101
夫	-10.101
该怎么办	-10.1011
国家	-10.1013
胜	-10.1013
这里面	-10.1018
人生中	-10.1024
过后	-10.1025
能接受	-10.103
乐趣	-10.1033
划	-10.1034
适合自己的	-10.1036
改正	-10.1041
抱着	-10.1048
归因	-10.1049
情侣	-10.105
累了	-10.1051
但其实	-10.1051
连接	-10.1058
嘲笑	-10.1064
不知道自己	-10.1066
很开心	-10.1068
顺其自然	-10.1068
会因为	-10.1078
跟自己	-10.1081
伤害到	-10.1082
不要再	-10.1085
赢	-10.1085
真是	-10.1086
很有可能	-10.1087
忽略了	-10.1094
不重要	-10.1094
专	-10.1094
束缚	-10.1096
获取	-10.1096
几点	-10.1098
伤痛	-10.1102
会导致	-10.1102
中心	-10.1115
错过	-10.1118
义务	-10.1118
句话	-10.1121
怨	-10.1124
你都	-10.1128
睡不着	-10.113
的任务	-10.1132
对自己有	-10.1134
总是会	-10.1147
一段关系	-10.1148
十年	-10.1148
一颗	-10.1149
**	-10.1151
良	-10.1152
也可能是	-10.1155
这只是	-10.1155
可以说是	-10.1161
静下心来	-10.1161
白天	-10.1163
各种各样的	-10.1165
交给	-10.1172
聪明	-10.1172
哄	-10.1175
传递	-10.1176
会让人	-10.1185
没那么	-10.1185
赶	-10.119
考虑到	-10.1191
变好	-10.1201
‘	-10.1202
网上	-10.1205
蛮	-10.1209
我想说	-10.1211
念头	-10.1216
。——	-10.1222
达	-10.1225
巴	-10.1235
本身就是	-10.1237
一些问题	-10.1241
估计	-10.1242
走下去	-10.1243
完全可以	-10.1245
就已经	-10.1245
健身	-10.125
’	-10.125
除非	-10.1251
另	-10.1253
证明自己	-10.1253
民	-10.1254
额	-10.1255
给题主	-10.126
星	-10.1265
暗	-10.1265
更高	-10.1267
催	-10.1271
希望对你有所帮助	-10.1271
饮食	-10.1271
是从	-10.1278
娱乐	-10.1285
体谅	-10.1288
不配	-10.1292
楼主您好	-10.1292
不知道题主	-10.1296
餐	-10.1301
干预	-10.1302
黑暗	-10.1307
过好	-10.1308
经常会	-10.1308
很可能	-10.1308
可见	-10.1316
性行为	-10.1318
逆	-10.132
的原生家庭	-10.1322
熬夜	-10.1331
我看到	-10.1333
王	-10.1336
店	-10.1337
爱护	-10.1345
替代	-10.1354
在我看来	-10.1354
是很难	-10.1358
那个人	-10.136
导	-10.1362
戒	-10.1365
帮助到	-10.1365
千万不要	-10.1367
抵触	-10.137
些什么	-10.1372
或多或少	-10.1372
只是一个	-10.1377
这都是	-10.1377
整理	-10.1377
自己的行为	-10.1378
也许会	-10.1378
好吗	-10.1385
设定	-10.1389
迟	-10.1389
的念头	-10.1399
甜	-10.1405
磨	-10.1411
克	-10.1413
友好	-10.1416
鱼	-10.1418
背叛	-10.1419
交友	-10.1423
恰当	-10.1424
喜欢他	-10.143
重大	-10.1432
宝贝	-10.1437
正念	-10.1441
其实也	-10.1442
损失	-10.1446
的观念	-10.145
碎	-10.1451
牵	-10.1452
很难过	-10.1453
抚养	-10.1453
玩游戏	-10.146
抑郁情绪	-10.1461
只是在	-10.1462
草	-10.1466
答	-10.1469
往往会	-10.1474
半年	-10.148
悲观	-10.1486
耳	-10.1486
平和	-10.15
运	-10.15
做朋友	-10.1502
情境	-10.1503
的认可	-10.1508
需要我们	-10.1512
这时	-10.1512
肯定会	-10.1514
胸	-10.1515
换位思考	-10.1521
关心你	-10.1527
有多少	-10.1529
的女孩	-10.1533
地去	-10.1535
有必要	-10.154
器	-10.1544
我也是	-10.1551
有更多的	-10.1553
缓	-10.1553
感情的	-10.1554
并不代表	-10.1556
形成的	-10.156
的现象	-10.1561
标	-10.1562
纳	-10.1564
不允许	-10.1569
学习成绩	-10.1569
也是可以	-10.1573
●	-10.1578
说不	-10.1579
!(^_-)	-10.158
确	-10.1581
我们每个人都	-10.1581
是一样的	-10.1581
存在着	-10.1586
作出	-10.1588
找到一个	-10.1592
疑问	-10.1593
要看	-10.1596
不堪	-10.1603
更大	-10.1604
自卑感	-10.1605
面试	-10.1607
给人	-10.1607
更大的	-10.1619
可能在	-10.1623
精彩	-10.1624
搭	-10.1634
亲情	-10.1645
自己想	-10.1651
挣扎	-10.1651
前行	-10.1651
好坏	-10.1653
找回	-10.1653
的处境	-10.1657
冷静下来	-10.1658
只是你	-10.1663
做个	-10.1664
客观的	-10.1669
外人	-10.1671
而非	-10.1672
来到	-10.1673
情商	-10.1674
对题主	-10.1674
强迫自己	-10.1675
你喜欢	-10.1689
歌	-10.1692
食物	-10.1692
心意	-10.1694
他就	-10.1699
咱们	-10.1701
沉默	-10.1701
▲	-10.1708
想去	-10.1708
认	-10.1721
可能就是	-10.1721
告知	-10.1722
跟父母	-10.1725
穷	-10.1733
介绍	-10.1736
信号	-10.1739
对错	-10.1739
自我成长	-10.1746
好友	-10.1746
暴躁	-10.1748
去看待	-10.1752
牺牲	-10.1752
链接	-10.1754
不算	-10.1755
跨	-10.1756
随意	-10.1764
收到	-10.1772
是否是	-10.1778
本来就	-10.1787
靠自己	-10.1788
微笑	-10.1788
总觉得	-10.1794
决心	-10.1796
走了	-10.1802
攻击性	-10.1802
画画	-10.1807
给楼主	-10.1808
可能性	-10.1809
0	-10.1809
却没有	-10.1811
不易	-10.1812
你觉得自己	-10.1815
遍	-10.182
※	-10.1823
牌	-10.1823
局限	-10.1823
的根源	-10.1824
采用	-10.1824
不合理	-10.183
途	-10.1835
模	-10.1835
我都	-10.1849
也只是	-10.1849
逃离	-10.1849
同情	-10.1855
告	-10.1856
激励	-10.1857
现在你	-10.1857
手段	-10.1862
非常重要	-10.1864
看出	-10.1866
焦虑不安	-10.1868
反对	-10.187
努力的	-10.1871
曲	-10.1871
的事件	-10.1872
如果楼主	-10.1879
要注意	-10.1889
会让自己	-10.189
普通人	-10.189
锁	-10.1905
只有自己	-10.1907
见到	-10.1908
心动	-10.1908
是不一样的	-10.1915
却又	-10.1916
我们应该	-10.1916
无限	-10.1922
你男朋友	-10.1922
设置	-10.1922
躯体	-10.1923
奇怪	-10.1923
还是需要	-10.1924
是会	-10.1926
否认	-10.1928
嫁	-10.193
TA	-10.1938
含	-10.194
刀	-10.1941
向往	-10.1945
感同身受	-10.1945
定位	-10.1946
的愿望	-10.1948
小建议	-10.1948
这样的状态	-10.195
懒	-10.1951
从描述中可以了解到	-10.1952
可能有	-10.1961
注重	-10.1963
功课	-10.1971
我相信你	-10.1974
统	-10.1976
放手	-10.1977
务	-10.1977
换一个	-10.1977
背后的	-10.1978
人与人之间	-10.1979
焦虑情绪	-10.1982
毁	-10.199
被拒绝	-10.1991
这样一个	-10.1991
吐	-10.1991
辞	-10.1992
看一下	-10.1996
胎	-10.1998
一项	-10.1998
员工	-10.2
请求	-10.2002
的陪伴	-10.2004
板	-10.2005
赚	-10.2007
的生命	-10.2017
学习和	-10.2019
我们不能	-10.2022
缩	-10.2025
再来	-10.2026
的欲望	-10.2029
所以楼主	-10.203
善意	-10.2035
出口	-10.2035
不出	-10.2036
一点点分析和建议	-10.2039
人群	-10.2039
让父母	-10.2042
比如你	-10.2042
不好意思	-10.2043
告诉他们	-10.2045
偷	-10.2049
加强	-10.2049
习	-10.2053
到现在	-10.2067
未知	-10.207
爱的人	-10.2077
看过	-10.2077
密	-10.2078
爸	-10.2078
布	-10.2079
侵	-10.2079
大多数人	-10.2082
表述	-10.2083
无需	-10.2085
表现出来	-10.2087
二是	-10.2087
非常好	-10.2091
的基础上	-10.2091
t	-10.2093
一般来说	-10.2099
向前	-10.2102
理解自己	-10.2102
性取向	-10.2103
不希望	-10.2104
是吗	-10.2104
恋爱关系	-10.2106
发生的事情	-10.2112
身边人	-10.2114
自在	-10.2115
在关系中	-10.2115
心结	-10.2122
当时的	-10.2122
这样的事情	-10.2127
碰	-10.2132
不大	-10.2133
注	-10.2141
你的人生	-10.2144
着自己	-10.2147
的改变	-10.2148
儿童	-10.2149
冰	-10.215
机构	-10.2154
00	-10.2159
另一种	-10.216
是好的	-10.2161
关心和	-10.2164
开放	-10.2165
座	-10.2167
踏实	-10.2168
小的时候	-10.217
克制	-10.2171
准备好	-10.2171
和你一样	-10.2175
有价值	-10.2175
一系列	-10.2186
勇敢地	-10.219
你才	-10.2192
沉浸在	-10.2195
的信念	-10.2195
什么都不	-10.2201
自己的身体	-10.2207
大多	-10.2207
家暴	-10.2218
的时候就	-10.2219
对生活	-10.2222
躲	-10.2235
去理解	-10.2244
情结	-10.2246
依	-10.2247
解答	-10.2249
坏事	-10.2255
忌	-10.2255
堂	-10.2258
想做	-10.2259
在工作中	-10.2262
自己所	-10.2265
好起来	-10.2269
要明白	-10.2269
更是	-10.2272
转移到	-10.2274
忧	-10.2276
封闭	-10.2277
是不会	-10.2278
认真的	-10.2279
有些时候	-10.2281
只想	-10.2282
2、	-10.2283
忘了	-10.2287
给你一个温暖的抱抱	-10.2289
它的	-10.2292
你看	-10.2293
希望楼主	-10.2293
有可能是	-10.2297
比较多	-10.2302
一遍	-10.2315
来源	-10.2319
如果题主	-10.2321
对他的	-10.2321
给您	-10.2327
不了解	-10.2327
会比较	-10.2328
的重要	-10.233
知道了	-10.2332
等于	-10.2332
问自己	-10.2337
的语言	-10.2337
相处的	-10.234
走进	-10.2341
敌	-10.2343
每一天	-10.2344
不舍	-10.2345
强调	-10.2345
猫	-10.2349
学习上	-10.2352
还是很	-10.2353
听话	-10.2355
氛围	-10.2358
自己身上	-10.2365
音	-10.2365
运用	-10.2366
主义	-10.237
一些建议	-10.2371
境	-10.2371
心理上的	-10.2372
多数	-10.2372
自己的目标	-10.2376
自己想要	-10.2378
为难	-10.238
需要做的	-10.2383
所以才会	-10.2391
羞耻	-10.2396
太过于	-10.2402
身体的	-10.2412
的书	-10.2412
顾及	-10.2425
反过来	-10.2425
功	-10.2432
有很大的	-10.2432
。4	-10.2433
也知道	-10.244
我说	-10.2444
的真实	-10.2444
前提是	-10.2446
基本上	-10.2454
题主现在	-10.2455
恶性循环	-10.2455
的快乐	-10.2457
惹	-10.2458
纠缠	-10.2458
的描述	-10.246
也不想	-10.246
可以试试	-10.2462
为什么不	-10.2466
清晰的	-10.2469
使自己	-10.2471
饱	-10.2472
挂	-10.2473
的互动	-10.2474
我建议你	-10.2479
学校的	-10.248
心理学上	-10.248
频率	-10.2494
展示	-10.2496
个人的	-10.2497
实验	-10.2497
现实的	-10.2502
把他	-10.2502
聊聊天	-10.2502
一个好的	-10.2508
确实会	-10.251
指导	-10.2512
抗	-10.2517
故	-10.2518
一名	-10.2521
多去	-10.2521
不如意	-10.2527
愈	-10.2529
快乐的	-10.2536
素	-10.2537
数学	-10.2541
能感受到你	-10.2542
牙	-10.2546
责备	-10.2546
繁	-10.2548
的年纪	-10.255
也是有	-10.2552
工作的	-10.2555
楼主内心	-10.2557
尔	-10.256
早上	-10.256
温和	-10.2561
对孩子的	-10.2566
小目标	-10.2566
做出改变	-10.2566
英语	-10.2567
有意义	-10.2574
第一步	-10.2574
充满了	-10.2574
会慢慢	-10.2581
活出	-10.2584
题主的描述	-10.2584
暖	-10.2586
措施	-10.2586
今	-10.2586
也能够	-10.2586
结论	-10.2587
即使是	-10.2588
折	-10.2597
般	-10.2601
和老师	-10.2602
不止	-10.2602
是由	-10.2603
入睡	-10.2603
上大学	-10.2604
实力	-10.2606
的后果	-10.2611
就好像	-10.2612
希望对你有帮助	-10.2621
成功的	-10.2622
沮丧	-10.2623
才可以	-10.2623
和男朋友	-10.2629
可能也	-10.263
会把	-10.264
就不要	-10.264
那时	-10.2644
还不	-10.2645
就应该	-10.2648
创	-10.2649
才会有	-10.2651
在我	-10.2653
这可能	-10.2653
越多	-10.2655
的症状	-10.2655
抓住	-10.2672
倾向于	-10.2674
恐慌	-10.2675
的人际关系	-10.2678
糟	-10.2679
题目	-10.2681
如果她	-10.2682
自我保护	-10.2684
您可以	-10.2686
的相处模式	-10.2691
增	-10.2691
受到伤害	-10.2694
料	-10.2694
刺	-10.2698
宽容	-10.2699
刻	-10.2702
但是在	-10.2702
楼主现在	-10.2704
看一看	-10.2707
关注自己	-10.2707
常见的	-10.2711
看清	-10.2715
逐步	-10.2717
如何去	-10.2717
一些小	-10.2719
研究生	-10.272
吃药	-10.2722
的事物	-10.2723
对吧	-10.273
频	-10.273
棒	-10.2732
自己一个人	-10.2733
补充	-10.2737
@	-10.2738
陷	-10.2738
给自己一些	-10.2739
发现了	-10.2742
回头	-10.2745
因为她	-10.2746
术	-10.2748
仍	-10.275
加重	-10.2751
约束	-10.2754
即可	-10.2755
找到了	-10.2759
当年	-10.2766
服务	-10.277
免	-10.2773
触	-10.2785
是这样吗	-10.2786
西	-10.2789
大部分人	-10.2792
核心	-10.2795
配	-10.28
块	-10.2802
即将	-10.2813
自己的选择	-10.2819
继	-10.2825
把注意力	-10.2825
以外	-10.2826
也就会	-10.2826
坎	-10.283
他在	-10.2832
希望我的回答	-10.2838
时常	-10.2859
把这些	-10.2865
倍	-10.2867
喜欢一个人	-10.2867
的负面情绪	-10.2867
其实我们	-10.2871
跟他们	-10.2872
赞美	-10.2873
样子	-10.2873
涉及到	-10.2875
寻求专业	-10.2875
工具	-10.2876
组织	-10.2883
自我否定	-10.2884
和痛苦	-10.2891
习惯性	-10.2892
场景	-10.2898
策	-10.2901
希望你可以	-10.2904
傻	-10.2904
似	-10.2909
提升自己的	-10.291
凡	-10.2914
两次	-10.2914
发出	-10.2916
篇	-10.2924
释怀	-10.2925
越来越多	-10.2926
误	-10.2926
当事人	-10.2926
给他们	-10.2938
虐	-10.294
妙	-10.2942
如果可以	-10.2942
倾	-10.2943
与否	-10.2947
被抛弃	-10.2948
不甘心	-10.295
出错	-10.2951
的关键	-10.2955
起到	-10.296
赋予	-10.2964
他们也	-10.2965
换个	-10.2967
到最后	-10.2968
消化	-10.297
停下来	-10.2973
完美主义	-10.2975
的信任	-10.299
久了	-10.2996
等你	-10.2998
沉迷	-10.3001
换个角度	-10.3003
正向	-10.3007
可以让自己	-10.3012
房间	-10.3021
的学生	-10.3021
报复	-10.3022
画面	-10.3024
当我	-10.3025
有种	-10.3026
企业	-10.3036
题主好	-10.3038
可能就	-10.3052
不来	-10.3054
策略	-10.3056
专业人士	-10.3057
祝愿	-10.3064
位置	-10.3067
很小	-10.3068
在意别人	-10.3073
活得	-10.3077
的判断	-10.3079
当作	-10.3083
不存在	-10.3085
控制欲	-10.3086
发育	-10.3087
征	-10.3094
哥	-10.3096
风格	-10.3099
就是在	-10.31
这本书	-10.3104
出现的	-10.3106
非要	-10.3106
不理	-10.3108
印	-10.3112
深度	-10.3112
可不可以	-10.3115
素质	-10.3116
公平	-10.3119
就很	-10.3129
以前的	-10.3129
很辛苦	-10.3129
不出来	-10.3132
抱抱楼主	-10.3134
。(3)	-10.3135
的生活中	-10.3136
甜蜜	-10.3137
疏远	-10.3137
空虚	-10.3138
秘密	-10.3138
偏差	-10.314
家庭关系	-10.3145
保留	-10.3147
下一次	-10.3148
生孩子	-10.3149
不要害怕	-10.3149
区分	-10.3149
感觉很	-10.315
少了	-10.3153
心情不好	-10.3153
性生活	-10.3153
感到很	-10.3156
你们之间的	-10.3156
每当	-10.3157
自己的事情	-10.3157
禁	-10.3171
是很重要的	-10.3176
保护好自己	-10.3183
要做	-10.3184
事后	-10.3186
的时刻	-10.3189
罢了	-10.3189
稍	-10.3191
很简单	-10.3192
环境中	-10.3192
尚	-10.3192
队	-10.3194
你父母	-10.32
漫长	-10.3201
失控	-10.3205
其实就是	-10.3208
而我们	-10.321
爱我	-10.3211
饿	-10.3212
敬	-10.3213
自我怀疑	-10.3217
帮助我们	-10.3221
熬	-10.3225
感性	-10.323
匮乏	-10.3233
喊	-10.3234
有一定	-10.3235
哪种	-10.3242
的事实	-10.3243
的男生	-10.3245
艺术	-10.3252
家里的	-10.3252
变得更加	-10.3253
培训	-10.3253
哭泣	-10.3253
如果不是	-10.3254
欢迎	-10.3261
分为	-10.3266
恋爱中	-10.3267
浅	-10.327
这样子	-10.327
凡事	-10.3279
生物	-10.3279
语气	-10.3281
拼	-10.3286
当前的	-10.3288
交谈	-10.3288
一起去	-10.3308
激烈	-10.3311
的计划	-10.3313
成长过程中	-10.3313
没事	-10.3313
会影响到	-10.3319
当他	-10.3321
的发生	-10.3326
弹	-10.3329
久而久之	-10.333
决	-10.3332
规定	-10.3336
自己的孩子	-10.334
适度	-10.334
损	-10.3345
让自己变得	-10.3346
发生过	-10.3349
是这样的	-10.3349
无力感	-10.3349
彩	-10.335
以往	-10.3351
猜	-10.3353
短期	-10.3353
煎熬	-10.3353
畏	-10.3354
这两个	-10.3355
与别人	-10.3358
楼主好	-10.3363
心境	-10.3364
缘分	-10.3367
弃	-10.3367
一次次	-10.3368
卷	-10.3371
想哭	-10.3371
爱上	-10.3372
就去	-10.3374
的愤怒	-10.3392
是出于	-10.3395
复杂的	-10.3397
没能	-10.3401
考虑一下	-10.341
身体健康	-10.3413
的能量	-10.3413
看到你的描述	-10.3415
你的文字	-10.3416
真诚的	-10.3416
疏导	-10.3418
波	-10.3425
的基础	-10.3426
乡	-10.3431
对她的	-10.3432
魔	-10.3433
资料	-10.3434
会有一些	-10.3436
与他	-10.344
是什么原因	-10.3442
不在乎	-10.3445
压抑自己	-10.3446
可以做到	-10.3453
都是在	-10.3454
但是又	-10.3454
谨慎	-10.3455
在一定程度上	-10.3455
想知道	-10.3463
无法接受	-10.3463
每个人都有自己的	-10.3465
察觉	-10.3466
不是说	-10.3466
了吧	-10.3475
的形象	-10.3475
打电话	-10.348
的本质	-10.3486
好看	-10.3488
这些想法	-10.3489
的人格	-10.3492
只是因为	-10.3493
很优秀	-10.3494
混乱	-10.3495
朝	-10.3496
错误的	-10.3497
挺好的	-10.3497
的距离	-10.35
自己的事	-10.3503
的亲密关系	-10.3509
秒	-10.3512
灯	-10.3515
在外	-10.3523
走过	-10.3527
还有就是	-10.3527
呵护	-10.3533
的冲突	-10.3539
你可以试着	-10.3539
心底	-10.3544
是可以理解的	-10.3556
只会让	-10.3557
根源	-10.3561
遇到的	-10.3561
写日记	-10.3563
你愿意	-10.3563
人性	-10.3565
兴奋	-10.3572
男方	-10.3572
希望得到	-10.3573
落差	-10.3581
消费	-10.3582
的回应	-10.3587
标签	-10.3588
觉得他	-10.3592
牢	-10.3592
被理解	-10.3593
你还是	-10.3595
解决办法	-10.3595
先生	-10.3595
福	-10.3607
=	-10.3609
愿望	-10.3611
价	-10.3611
软	-10.3614
这才是	-10.3622
我们来	-10.3622
给自己带来	-10.3623
先从	-10.3624
难题	-10.3629
分歧	-10.3635
听起来	-10.3636
生活在	-10.3639
同学们	-10.3644
状态下	-10.3644
看得	-10.3648
妇	-10.3653
资格	-10.3654
事儿	-10.3657
陪你	-10.3661
已经是	-10.3662
一步步	-10.3663
去做一些	-10.3667
建	-10.367
不一定是	-10.3673
支持你	-10.3676
太阳	-10.3676
糊	-10.3677
不接受	-10.3678
概率	-10.3678
闪光点	-10.3679
和同学	-10.368
特定	-10.3682
阅历	-10.3688
存在感	-10.369
很能理解你	-10.3691
你不是	-10.3694
回想一下	-10.3699
没有关系	-10.3701
也有可能	-10.3705
人员	-10.3708
士	-10.3708
每个人都会有	-10.3709
时间去	-10.371
什么问题	-10.3712
在这种情况下	-10.3713
供	-10.3714
坦	-10.3715
腿	-10.3717
你不想	-10.3719
班级	-10.3723
题主你好呀	-10.3723
忙碌	-10.3723
打压	-10.373
清楚自己	-10.3731
是一件很	-10.3731
亲子关系	-10.3734
打游戏	-10.3734
官	-10.3735
莫	-10.3737
楼主在	-10.3737
社会上	-10.3743
简	-10.3743
的困难	-10.3751
表情	-10.3754
木	-10.3756
责怪	-10.3757
同一个	-10.3759
特别的	-10.376
创业	-10.376
有勇气	-10.3764
帮助别人	-10.3764
就是要	-10.3771
诊	-10.3771
可以帮助你	-10.3781
紧急	-10.3785
其实也是	-10.3786
代替	-10.3788
感动	-10.3788
～～	-10.3798
气质	-10.3799
自我价值	-10.3803
最重要	-10.3808
认真地	-10.3808
正是因为	-10.3808
。●	-10.3814
强大的	-10.3822
想一下	-10.383
的精力	-10.3833
欠	-10.3838
是由于	-10.384
缺陷	-10.3841
频繁	-10.3844
必要的	-10.3848
干什么	-10.385
恩	-10.3857
常态	-10.3858
清醒	-10.3859
诉	-10.3863
范围内	-10.3868
孤	-10.3869
你可以选择	-10.3869
婚姻中	-10.387
在自己的	-10.3871
此外	-10.3874
哀	-10.3884
内部	-10.3887
证据	-10.3888
一是	-10.3888
不懂得	-10.3889
为主	-10.3889
的钱	-10.389
在工作	-10.3891
在做	-10.3893
但是却	-10.3893
临	-10.3895
界	-10.3898
避	-10.3898
有两个	-10.3903
吸引力	-10.3904
被满足	-10.3904
其他方面	-10.3905
爬	-10.3906
狠	-10.3907
睡前	-10.391
从前	-10.3912
比自己	-10.3916
疏	-10.3917
希望对楼主有所帮助	-10.3918
努力去	-10.3918
转化	-10.392
评	-10.3921
变的	-10.3922
好一点	-10.3924
不稳定	-10.3926
怨恨	-10.3928
层次	-10.3928
皆	-10.3929
对你有帮助	-10.393
现在的状态	-10.3933
完整	-10.3936
集中	-10.3937
或许会	-10.3937
初恋	-10.3946
协调	-10.3948
表现的	-10.3954
如果我	-10.3967
政	-10.3968
包含	-10.3968
彼此之间	-10.3969
后者	-10.397
一定有	-10.3973
你能够	-10.398
处事	-10.3981
关键是	-10.3984
甚至会	-10.3985
起床	-10.3985
表扬	-10.3987
零	-10.3989
停留在	-10.3992
迎合	-10.3993
辅导	-10.4
不该	-10.4005
钟	-10.4007
的边界	-10.4007
挫败	-10.4009
意志	-10.401
益	-10.4013
谈一谈	-10.4014
逝	-10.4015
战胜	-10.4015
做些	-10.4019
不知道楼主	-10.4025
夫妻关系	-10.4026
好转	-10.4028
就会觉得	-10.4028
漫	-10.4029
本质上	-10.403
佛	-10.4032
这种感受	-10.4036
对人	-10.4039
家务	-10.4042
让你感觉	-10.4042
上来	-10.4043
希望能够帮助到你	-10.4044
你也会	-10.4045
令你	-10.4046
分数	-10.4046
另外一个	-10.4049
毛	-10.4051
所以题主	-10.4052
的不满	-10.4054
午	-10.4054
的确是	-10.4055
阳	-10.4058
视角	-10.4064
但是他	-10.4072
高度	-10.4072
编	-10.4073
影响到了	-10.4074
批判	-10.4074
解决了	-10.4075
河	-10.4076
m	-10.4077
模仿	-10.4078
滋养	-10.4079
舒缓	-10.408
无所谓	-10.4081
慎重	-10.4083
委屈自己	-10.4084
相遇	-10.4086
可以看到	-10.4088
她说	-10.4093
游	-10.4097
所以说	-10.41
更何况	-10.4106
步入	-10.4106
早期	-10.4108
伙伴	-10.4111
在网上	-10.4112
建立起	-10.4114
出现问题	-10.4114
希望可以	-10.4115
理想的	-10.4118
灰	-10.4121
动手	-10.4126
一类	-10.4131
严	-10.4134
每个人都会	-10.4136
叛逆	-10.4137
录	-10.414
违背	-10.4141
独立的个体	-10.4142
新闻	-10.4142
单纯的	-10.4144
美丽	-10.4144
的活动	-10.4146
以此	-10.4146
对你有所帮助	-10.4149
选择的	-10.415
这么多年	-10.4154
爱着	-10.4158
九	-10.416
你似乎	-10.4161
都没	-10.4163
和其他	-10.4168
的恋爱	-10.4168
”、“	-10.4168
的场景	-10.4169
让它	-10.4173
我妈	-10.4178
一本书	-10.418
长大后	-10.4181
孝顺	-10.4184
的效果	-10.4184
明显的	-10.4185
开玩笑	-10.4188
的优势	-10.4191
权利	-10.4194
流动	-10.4197
改进	-10.4197
比起	-10.4198
我们也可以	-10.42
h	-10.4207
担	-10.4209
次数	-10.421
一味的	-10.4212
的精神	-10.4215
长远	-10.4216
情感的	-10.4217
评论	-10.4228
女方	-10.4228
测试	-10.423
的职业	-10.4234
日常生活	-10.4239
精神分析	-10.424
感受不到	-10.4243
留言	-10.4243
自己的心态	-10.4244
超我	-10.4246
你所说的	-10.4248
自己感兴趣的	-10.425
眼神	-10.425
退缩	-10.425
长期的	-10.4252
去世	-10.4252
结局	-10.4252
执着	-10.4255
跟我	-10.4256
一把	-10.4257
她会	-10.4258
欢	-10.4269
解决不了	-10.4269
窗	-10.4271
插	-10.4273
把事情	-10.4278
比别人	-10.4282
僵	-10.4288
你对他	-10.429
去探索	-10.4291
博	-10.4293
抱有	-10.4298
很在意	-10.4298
这么说	-10.4299
时间和精力	-10.4299
焦虑症	-10.4301
讨	-10.4303
积	-10.4305
缺爱	-10.4306
蛋	-10.4312
得了	-10.4314
️️️	-10.4314
身材	-10.4315
喝酒	-10.4315
的遭遇	-10.4329
做完	-10.433
在这种	-10.4336
我真的	-10.4337
榜样	-10.4337
很不容易	-10.4338
喜悦	-10.4339
入手	-10.4339
心疼你	-10.434
移情	-10.4342
的记忆	-10.4342
团体	-10.4345
可能就会	-10.4351
没用	-10.4351
像是	-10.4354
滑	-10.4358
熟悉的	-10.4358
100	-10.4359
侵犯	-10.436
适合你	-10.436
不同的人	-10.4365
控制自己	-10.4365
操	-10.4371
对不起	-10.4373
冷暴力	-10.4374
不相信	-10.4375
C	-10.4376
物品	-10.4376
小朋友	-10.4385
控制不住	-10.4385
好好爱自己	-10.4387
就这样	-10.4389
从题主的描述中	-10.4391
帮助他	-10.4393
或者其他	-10.4398
也有很多	-10.4401
怎么说	-10.4403
教师	-10.4404
但却	-10.441
吸	-10.4411
幻	-10.4414
分散	-10.4416
有好感	-10.442
理解你的感受	-10.4421
昨天	-10.4427
文章	-10.4427
我还	-10.4427
教训	-10.4428
找到自己的	-10.443
另一	-10.4439
桌	-10.4441
提醒自己	-10.4443
不至于	-10.4444
范	-10.4445
的印象	-10.4445
这说明	-10.4445
卫生	-10.4449
转换	-10.4456
个性	-10.4458
如下	-10.4459
大事	-10.4459
时机	-10.4461
种种	-10.4462
心理压力	-10.4465
很清楚	-10.4468
不管你	-10.4468
的点	-10.4469
你是不是	-10.447
一些人	-10.4472
终究	-10.4472
的价值观	-10.4475
从你的描述来看	-10.4478
年级	-10.4479
就会产生	-10.4484
c	-10.4485
补偿	-10.4492
酸	-10.4493
病情	-10.4496
行为模式	-10.4498
文字中	-10.45
恶意	-10.45
的各种	-10.4507
都说	-10.4507
一丝	-10.4509
写作	-10.4513
同一	-10.4513
心理疾病	-10.4515
复读	-10.4516
的担忧	-10.452
你的母亲	-10.452
那一刻	-10.4522
仅供参考	-10.4523
带有	-10.4525
闷	-10.4531
心理老师	-10.4532
去接受	-10.4534
的男人	-10.4535
附	-10.4535
看不起	-10.4538
放弃了	-10.4541
更能	-10.4541
那份	-10.4545
异地恋	-10.4545
成为你	-10.4547
什么原因	-10.4552
就意味着	-10.4554
是无法	-10.4556
做起	-10.4563
多一点	-10.4565
日记	-10.4566
已经有了	-10.4567
每一个人	-10.457
希望可以帮到你	-10.457
对我们的	-10.457
再说	-10.4571
发火	-10.4574
慌	-10.4576
阻止	-10.4582
认清	-10.4582
这方面的	-10.4582
从你的描述	-10.4585
需要的是	-10.4587
负能量	-10.4589
速	-10.459
貌	-10.4595
岁了	-10.4596
思维模式	-10.4597
独一无二的	-10.4599
早点	-10.46
杯	-10.4603
◆	-10.4604
什么事	-10.4605
狂	-10.4609
更重要的是	-10.461
的本能	-10.4623
表达方式	-10.4624
夸奖	-10.4624
骄傲	-10.4624
告诉对方	-10.4625
催眠	-10.4627
恶心	-10.4635
我的建议是	-10.4639
一块	-10.4639
诚	-10.4643
难免会	-10.4644
有信心	-10.4644
肯定自己	-10.4649
渠道	-10.4651
社团	-10.4652
能让你	-10.4654
付出了	-10.4655
在大学	-10.4656
无法控制	-10.4656
加入	-10.4659
外貌	-10.466
还有一个	-10.4662
表面上	-10.4662
不能够	-10.4663
给到	-10.4665
和爱	-10.4666
防御机制	-10.4669
也希望	-10.4671
伤害你	-10.4672
所以才	-10.4673
现代	-10.4673
寝室	-10.4674
借助	-10.4676
整体	-10.4679
带来了	-10.4681
有足够的	-10.4682
遇到问题	-10.4682
想必	-10.4682
镜	-10.4689
所说	-10.4696
不知所措	-10.4697
变得更	-10.47
意味着什么	-10.4701
的准备	-10.4702
被父母	-10.4704
的成长经历	-10.4705
跳出	-10.4705
世上	-10.4708
明白了	-10.4713
胃	-10.4717
可能只是	-10.4722
的咨询	-10.4726
你的男朋友	-10.4727
和支持	-10.4728
你会觉得	-10.4729
留意	-10.4733
据	-10.4734
想想自己	-10.4736
摔	-10.4738
S	-10.474
9	-10.4742
解开	-10.4742
索取	-10.4743
历	-10.4743
这样的行为	-10.4745
反正	-10.4745
超出	-10.4748
能力和	-10.475
都不能	-10.4751
测	-10.4751
灵	-10.4757
难免	-10.4758
扮演	-10.4759
放到	-10.4759
款	-10.4761
心理治疗	-10.4762
洁	-10.4762
它是	-10.4764
联	-10.4765
!”	-10.4766
沟通交流	-10.4769
加深	-10.4776
去努力	-10.4778
朋友们	-10.4783
的某些	-10.4785
香	-10.4785
是怎样	-10.479
也是很	-10.4793
花费	-10.4794
不多	-10.4795
旅行	-10.4798
去处理	-10.4803
满满	-10.4803
制造	-10.4806
洞	-10.4808
有情绪	-10.481
一周	-10.4813
平淡	-10.4814
中考	-10.4816
专注于	-10.4817
不利于	-10.4818
有压力	-10.4822
(2)	-10.4823
应激	-10.4825
要考虑	-10.4826
不是你的错	-10.4827
就想	-10.4828
到一个	-10.4831
理解你的	-10.4834
舍不得	-10.4835
付出的	-10.4838
一直以来	-10.4838
我发现	-10.4844
自己的心	-10.4846
涉及	-10.4849
暂时的	-10.4851
阴	-10.4853
分泌	-10.4855
单独	-10.4855
解决这个问题	-10.4856
环境下	-10.4856
第二个	-10.4861
如果只是	-10.4861
演讲	-10.4861
平复	-10.4862
家庭环境	-10.4866
大声	-10.4869
永	-10.4874
牛	-10.4875
分担	-10.4877
浓	-10.4879
正好	-10.488
寄托	-10.488
无能为力	-10.488
礼貌	-10.4881
锅	-10.4882
接着	-10.4887
强求	-10.4887
隔离	-10.489
的身份	-10.4893
你母亲	-10.4895
东	-10.4901
监督	-10.4904
压力很大	-10.4912
关系里	-10.4915
成本	-10.4917
听从	-10.4918
结交	-10.4918
去完成	-10.4925
一个过程	-10.4929
会变得	-10.4933
留在	-10.4935
本科	-10.4935
婚后	-10.4941
开口	-10.4948
追求完美	-10.495
你们的感情	-10.4951
心平气和	-10.4951
见过	-10.4955
迎接	-10.4956
很明显	-10.4959
借钱	-10.4961
异常	-10.4962
寻	-10.4966
消极情绪	-10.4968
也不用	-10.4974
问一下	-10.4978
无论如何	-10.498
扩大	-10.498
的渴望	-10.4982
体系	-10.4987
会有很多	-10.4995
外表	-10.4996
第二天	-10.4998
如果您	-10.4999
就行	-10.5007
的心理状态	-10.5011
得好	-10.5013
码	-10.5013
监	-10.5016
非暴力沟通	-10.5019
毛病	-10.5019
这并不是	-10.5019
立刻	-10.502
不要给自己	-10.5023
从来没有	-10.5028
离不开	-10.5032
解决方法	-10.5042
埋怨	-10.5042
你可以尝试	-10.5045
不下去	-10.5047
?(	-10.5047
干嘛	-10.5047
也不必	-10.5048
周围的	-10.5048
刚好	-10.505
回想	-10.5051
写作业	-10.5052
对自我的	-10.5054
值得被爱	-10.5055
有关系	-10.5059
静静	-10.5064
幼稚	-10.5064
怎么去	-10.5066
怎么办呢	-10.5067
校园	-10.5069
这样想	-10.5069
的方式去	-10.5072
给到你	-10.5074
受不了	-10.5074
的安全感	-10.5074
′	-10.5077
下班	-10.5079
分手了	-10.508
陷入了	-10.5081
斗	-10.5083
看到你的问题	-10.5085
我曾经	-10.5085
就觉得	-10.5086
收拾	-10.5087
原因是	-10.5089
例	-10.509
寒	-10.5091
更为	-10.5092
展	-10.5093
早年	-10.5099
一代	-10.51
有意思	-10.5106
厚	-10.5106
要求自己	-10.511
是自己的	-10.511
电视剧	-10.5111
鲜	-10.5111
粗	-10.5115
一个孩子	-10.5116
于此	-10.512
努力学习	-10.5123
一片	-10.5124
只是想	-10.5127
基	-10.513
另一个人	-10.5133
给予你	-10.5139
无意	-10.5144
个小时	-10.5154
讲话	-10.5159
一方面是	-10.516
那你就	-10.5162
能找到	-10.5169
不接纳	-10.5169
不会因为	-10.5172
才知道	-10.5173
前女友	-10.5173
你就可以	-10.5174
世间	-10.518
是一个非常	-10.518
希望他	-10.5184
弟	-10.5184
的形式	-10.5199
耐	-10.5201
两点	-10.5202
分别	-10.5202
喜爱	-10.5203
和丈夫	-10.5203
有条件	-10.5206
著	-10.5207
不开	-10.5207
谋	-10.5208
保障	-10.5208
咬	-10.5209
财富	-10.521
戴	-10.5211
改变不了	-10.5215
都无法	-10.5215
操作	-10.5217
向外	-10.5217
一本	-10.5221
你的叙述	-10.5223
活在当下	-10.5231
你的家人	-10.5231
丧	-10.5232
打交道	-10.5236
伤害了	-10.5239
是否真的	-10.524
解脱	-10.5242
能感觉到	-10.5242
得知	-10.525
可行	-10.5251
的路上	-10.5251
终于	-10.5252
可能是你	-10.5253
的底线	-10.5257
当一个人	-10.5258
在外面	-10.5259
爱你的人	-10.5262
说法	-10.5263
是否能	-10.5264
的特点	-10.5265
不必要的	-10.5274
如果觉得	-10.5276
p	-10.5276
搬	-10.5277
你可能会	-10.5278
要面对	-10.5279
的书籍	-10.5281
天赋	-10.5282
爆	-10.5282
一会儿	-10.5283
下意识	-10.5284
请教	-10.5285
书中	-10.5287
做了什么	-10.5291
盘	-10.5293
他可能	-10.5294
反映	-10.5295
病人	-10.5296
去感受	-10.5297
糖	-10.5302
我不知道你	-10.5305
沙	-10.5307
添	-10.5307
小心翼翼	-10.5308
亦	-10.5308
完了	-10.5309
正规	-10.5309
尝	-10.531
理性的	-10.5317
一份工作	-10.5318
财	-10.5319
不像	-10.5321
还是因为	-10.5324
判	-10.5327
塞	-10.5328
给我们带来	-10.5329
鼓	-10.533
挡	-10.5332
还想	-10.5338
打骂	-10.5344
也应该	-10.5344
过度的	-10.5344
更需要	-10.5344
对不对	-10.5346
b	-10.535
害怕别人	-10.535
告诉我	-10.5351
这样说	-10.5352
换一种	-10.5353
完整的	-10.5354
公婆	-10.5356
不要让	-10.5359
靠谱	-10.5359
决定的	-10.5361
哪一种	-10.5362
和自己的	-10.5363
油	-10.5369
你要知道	-10.5371
告诉我们	-10.5374
割	-10.5377
销售	-10.5379
差别	-10.5381
同龄人	-10.5382
后续	-10.5384
偏见	-10.5386
说一下	-10.5388
表达出	-10.5394
希望我的回答能够	-10.5401
奖	-10.5402
我们一起来	-10.5402
受害者	-10.5402
封	-10.5403
姥姥	-10.5403
衷	-10.5404
总会有	-10.5405
齐	-10.5405
风景	-10.5408
我猜	-10.5409
做错了	-10.5416
导师	-10.5417
为之	-10.5418
之间的感情	-10.5418
不怕	-10.5418
18	-10.542
或许可以	-10.5421
打招呼	-10.5427
题主提到	-10.543
忧虑	-10.543
不成熟	-10.5435
不顺	-10.5435
以上是我	-10.5436
你有没有	-10.5436
有很大	-10.5444
亲爱的题主	-10.5449
鬼	-10.5452
灭	-10.5453
彼此都	-10.5454
你好题主	-10.5455
的原因是什么	-10.5458
有时间	-10.5459
想说	-10.546
独特的	-10.5463
绝对的	-10.5464
把这个	-10.5466
来进行	-10.5467
如果不能	-10.5475
不好的事情	-10.5476
审视	-10.5477
耽误	-10.5479
现在已经	-10.5484
的主要	-10.5484
勉强	-10.5489
俗	-10.5489
伴	-10.5492
股	-10.5492
不过是	-10.5495
u	-10.5498
看到自己的	-10.5498
还是说	-10.5505
离开了	-10.5506
瞬间	-10.5507
激动	-10.5509
千万	-10.5514
内化	-10.5516
接收	-10.5518
心理健康	-10.5518
如果能	-10.552
铁	-10.5522
围	-10.5522
托	-10.5523
计较	-10.5524
埋	-10.5526
很理解你	-10.5526
系	-10.5527
拔	-10.5527
激素	-10.553
盲目	-10.553
也是如此	-10.5533
自我价值感	-10.5536
多做	-10.5536
️️	-10.5544
波动	-10.5546
本质	-10.5546
新鲜	-10.5549
副	-10.555
P	-10.5551
烂	-10.5551
该怎么	-10.5552
干净	-10.5552
角	-10.5554
感受到你	-10.5559
▽`)	-10.5562
想做的事情	-10.5563
也不一定	-10.5564
生理上	-10.5567
遇到困难	-10.5571
的定义	-10.5572
纯粹	-10.5575
说的是	-10.5577
汗	-10.5577
孤立	-10.5579
趁	-10.558
未知的	-10.5583
—	-10.5584
爱着你	-10.5588
很爱	-10.5588
得出	-10.5588
这个想法	-10.5593
一门	-10.5594
意识到了	-10.5596
万一	-10.5601
的意识	-10.5601
接受不了	-10.5603
回顾	-10.5609
行动起来	-10.5611
相当于	-10.5611
很多时候我们	-10.5613
人品	-10.5615
中走出来	-10.5617
各自的	-10.5617
有意义的	-10.5621
勤	-10.5625
的现状	-10.5626
参加一些	-10.5629
■	-10.563
更优秀	-10.5631
扬	-10.5634
没错	-10.5635
还有其他	-10.5637
到底是什么	-10.5638
畅	-10.5639
两个人在一起	-10.564
巨大	-10.564
实际情况	-10.5645
如果你想	-10.5645
这么大	-10.5645
负责任	-10.5646
是值得	-10.5647
集	-10.5649
艺	-10.565
并不一定	-10.5653
肚子	-10.5653
4、	-10.5654
莫名	-10.5655
研	-10.5656
有时候我们	-10.5658
爱她	-10.5661
健	-10.5662
也是需要	-10.5672
你的心情	-10.5674
的人和事	-10.568
进行沟通	-10.5685
改变了	-10.5686
则是	-10.5687
营养	-10.5689
太在意	-10.569
在那里	-10.5696
不只是	-10.5697
诱惑	-10.5698
这样的想法	-10.57
不尊重	-10.5701
来解决	-10.5702
”,“	-10.5703
是因为我们	-10.5704
以来	-10.5706
的举动	-10.5706
例子	-10.5708
整天	-10.571
很不舒服	-10.5713
感受到你的	-10.5713
你是个	-10.5721
你喜欢的	-10.5723
○	-10.5724
让题主	-10.5726
那段	-10.5728
才有可能	-10.5729
表现得	-10.5731
写下	-10.5733
理解接纳认可	-10.5745
不确定性	-10.5745
d	-10.5746
抢	-10.5748
你不喜欢	-10.5748
r	-10.5748
青	-10.5749
要先	-10.575
智	-10.5753
债	-10.5753
唠叨	-10.5753
订	-10.5754
?#	-10.5758
针对性	-10.5759
着想	-10.5759
的前提下	-10.576
我们无法	-10.5766
您的描述	-10.577
精神科	-10.577
换了	-10.5771
冒	-10.5774
顺从	-10.5774
的友谊	-10.5779
弱小	-10.5779
增长	-10.5782
归属感	-10.5782
我们所	-10.5784
建议您	-10.5785
有意	-10.5787
的真实想法	-10.5789
比较好的	-10.579
的第一步	-10.5791
是否会	-10.5795
做为	-10.5801
扎	-10.5803
堆	-10.5804
团队	-10.5805
如果想	-10.5811
无论你	-10.5815
如果实在	-10.5818
感到焦虑	-10.5819
如果你真的	-10.582
需要考虑	-10.5822
石	-10.5825
撑	-10.5828
软件	-10.583
相当	-10.5831
去发现	-10.5833
盯着	-10.5835
和成长	-10.5837
来做	-10.5837
这些人	-10.584
也是这样	-10.5845
烟	-10.5847
的伴侣	-10.585
弄清楚	-10.5852
家族	-10.5853
鸡	-10.5854
惊喜	-10.5859
满足感	-10.5859
深层次	-10.586
我看到了	-10.5864
好好沟通	-10.5866
自己的优势	-10.5873
可以适当	-10.5876
说清楚	-10.5878
米	-10.5879
的话语	-10.588
一套	-10.5885
局面	-10.5887
自尊心	-10.5887
第五	-10.589
的说法	-10.5893
舞	-10.5903
浮	-10.5906
羞耻感	-10.5908
注定	-10.5911
可惜	-10.5912
激	-10.5915
帮到	-10.5919
不要轻易	-10.592
告别	-10.5924
的道路	-10.5927
拿出	-10.5928
扔	-10.593
剂	-10.5932
也很难	-10.5933
想要去	-10.5933
对你好	-10.5934
一步一步	-10.5936
底气	-10.5941
15	-10.5942
你和他	-10.5942
现实生活中	-10.5943
的那个人	-10.5946
会一直	-10.595
确诊	-10.595
你的困惑	-10.595
一大	-10.5952
而这些	-10.5953
移	-10.5953
[	-10.5953
专业的心理咨询师	-10.5953
堵	-10.5956
幼儿园	-10.5956
这边	-10.5959
没有能力	-10.5959
权力	-10.5959
定期	-10.5967
可私信	-10.5969
律	-10.5973
对应	-10.5976
始	-10.5976
楼主的描述	-10.5978
]	-10.5979
纵	-10.598
闪	-10.5983
实质	-10.5983
某种程度上	-10.5984
不明白	-10.5985
组成	-10.5986
实习	-10.5988
用自己的	-10.5988
不喜欢你	-10.5988
孩子们	-10.5989
做主	-10.5992
私人	-10.5996
很焦虑	-10.6002
是属于	-10.6002
课题	-10.6002
的立场	-10.6006
维系	-10.601
说实话	-10.601
想到了	-10.6016
诸	-10.6019
是不同的	-10.6025
和父亲	-10.6026
就是说	-10.6028
徒	-10.6031
就容易	-10.6033
起码	-10.6034
依据	-10.6035
客户	-10.6036
谈论	-10.6039
的内在	-10.6059
联结	-10.6059
看上去	-10.6063
班主任	-10.6063
比赛	-10.6064
不符合	-10.6067
自我觉察	-10.6068
每一个人都	-10.6068
去表达	-10.6068
相同的	-10.6071
得到满足	-10.6076
对待你	-10.6077
陪伴你	-10.6079
的资源	-10.6081
道路	-10.6083
笨	-10.6083
拼命	-10.6086
冷淡	-10.6087
扛	-10.6088
抖	-10.6089
太高	-10.6089
坦白	-10.609
药物治疗	-10.6095
从来不	-10.6095
是什么样子	-10.6098
如同	-10.6101
有许多	-10.6104
!️	-10.6105
了解对方	-10.6106
还好	-10.6106
的时光	-10.6106
这样的问题	-10.6109
不见	-10.6111
引起的	-10.6112
虽	-10.6113
搞清楚	-10.6116
正常生活	-10.6118
的女孩子	-10.6123
前者	-10.6124
夸	-10.6125
诸多	-10.6126
有钱	-10.6126
能理解你	-10.6127
结束语	-10.6128
满足你	-10.6134
又能	-10.6138
送给	-10.6139
话说	-10.6141
反省	-10.6142
如果你们	-10.6143
书写	-10.6143
体贴	-10.6147
自己的兴趣爱好	-10.6149
约定	-10.6156
住了	-10.6157
和异性	-10.616
麻	-10.6165
茶	-10.6165
身心健康	-10.6167
珍贵	-10.6168
踏	-10.6169
挫败感	-10.6169
妹	-10.617
对于孩子	-10.6173
觉察自己	-10.6173
每一	-10.6176
对于你来说	-10.6181
指出	-10.6182
内向的人	-10.6182
称为	-10.6184
你的焦虑	-10.6186
专心	-10.6186
丝	-10.6189
检	-10.619
爷爷	-10.6192
迈出	-10.6192
挣钱	-10.6193
旁观者	-10.6193
寄	-10.6193
疼痛	-10.6196
亲近的人	-10.6197
恐怕	-10.6197
与孩子	-10.6203
这个社会	-10.6206
周末	-10.6206
删	-10.6206
比较容易	-10.6211
融	-10.6216
的重要性	-10.6217
轮	-10.6218
对未来的	-10.6222
做饭	-10.6222
没有意义	-10.6226
就像你	-10.6229
找一些	-10.6231
心理状态	-10.6236
保持距离	-10.6236
希望你能够	-10.6238
这样的方式	-10.6238
胆	-10.6241
青少年	-10.6243
放松下来	-10.6244
物理	-10.6251
12	-10.6255
别人的评价	-10.6256
情景	-10.6258
妥	-10.6263
有人说	-10.6265
憋	-10.6273
荡	-10.6273
患得患失	-10.6274
大学生	-10.6277
的动机	-10.6277
俗话说	-10.6278
打工	-10.6293
项目	-10.6293
整个人	-10.6294
被他人	-10.6299
爷爷奶奶	-10.63
隐瞒	-10.6301
委婉	-10.6303
利弊	-10.6303
一半	-10.6303
别人的事	-10.6304
没有意识到	-10.6304
个人成长	-10.6311
的困境	-10.6314
趣	-10.6315
需要时间	-10.6315
可以改变	-10.6315
情绪波动	-10.632
交换	-10.6322
戏	-10.6324
镜子	-10.6325
自己的父母	-10.6326
正念冥想	-10.6329
不平衡	-10.6332
你可以去	-10.6333
压力太大	-10.6337
自己的心情	-10.6337
50	-10.6341
贪	-10.6353
一顿	-10.6353
撞	-10.6355
本来就是	-10.6358
提高自己的	-10.6359
自己的不足	-10.6362
各个	-10.6363
服药	-10.6363
很害怕	-10.6364
不利	-10.6367
很多问题	-10.6368
生命中	-10.637
时间久了	-10.6372
不用太	-10.6375
承认自己	-10.6377
特别好	-10.6378
急于	-10.638
军	-10.638
试探	-10.6381
朋友之间	-10.6387
两个人之间	-10.6391
试试看	-10.6395
成长经历	-10.6399
生活习惯	-10.6402
延	-10.6402
不仅仅	-10.6407
浪漫	-10.6408
出去玩	-10.641
习得	-10.6423
妻	-10.6423
夫妻之间	-10.6424
婚前	-10.6425
会造成	-10.6427
挑剔	-10.6431
过高	-10.6432
严厉	-10.6434
庆幸	-10.6436
逼迫	-10.6437
给了你	-10.6439
噢	-10.6441
・	-10.6441
识别	-10.6442
感冒	-10.6444
玩笑	-10.6447
性欲	-10.6448
提醒你	-10.645
容易被	-10.6452
悟	-10.6454
渣男	-10.6458
模糊	-10.646
的好朋友	-10.6461
主动去	-10.6463
关联	-10.6465
被看见	-10.6468
强度	-10.6477
历史	-10.6481
孤独感	-10.6481
薪	-10.6483
结婚了	-10.6484
烧	-10.6486
很努力	-10.6487
林	-10.6487
孝	-10.6488
得多	-10.649
幼	-10.6493
自己的缺点	-10.6494
说明他	-10.6496
对你们	-10.6496
做出选择	-10.6497
有些事	-10.6497
育	-10.6497
最好是	-10.6508
就算是	-10.6511
剩	-10.6512
好的一面	-10.6514
朝着	-10.6514
真实感受	-10.6514
骨	-10.6515
肢体	-10.6517
想象中的	-10.6523
跟对方	-10.6525
你的身体	-10.6526
平凡	-10.6526
我的理解	-10.6527
尝试去	-10.653
才不会	-10.6533
比较敏感	-10.6536
经历了什么	-10.654
销	-10.6542
很不错	-10.6545
融洽	-10.6546
兼职	-10.6547
脑子	-10.6548
如何看待	-10.6549
面具	-10.6551
让你感觉到	-10.6556
你父亲	-10.6559
这需要	-10.6564
做出一些	-10.6565
耗	-10.6566
耻	-10.6567
掌	-10.6567
案例	-10.6571
幸福快乐	-10.6573
有不同的	-10.6573
加班	-10.6573
暖暖	-10.6577
要相信	-10.6579
达不到	-10.6585
被忽视	-10.6587
在平时	-10.6588
的兴趣	-10.6591
此时此刻	-10.6604
大致	-10.6604
塑造	-10.6605
目光	-10.6605
哈哈	-10.6605
离职	-10.6606
很好地	-10.6606
正式	-10.6607
是非常正常的	-10.6608
情形	-10.6608
遗	-10.6611
这一次	-10.6619
满意的	-10.662
打扮	-10.6624
甲	-10.6625
有几个	-10.6627
理念	-10.6636
会认为	-10.6639
祝你早日	-10.664
四年	-10.6644
脑子里	-10.6645
讲述	-10.6647
一家	-10.6648
如果一个人	-10.6651
恐	-10.6653
从小就	-10.6656
活泼	-10.6656
细腻	-10.6658
婚姻关系	-10.6658
看一些	-10.6664
亏	-10.668
脑海里	-10.6681
的核心	-10.6681
播	-10.6682
内心里	-10.6683
认为是	-10.6683
年龄段	-10.6693
听过	-10.6699
担当	-10.6699
龄	-10.6703
要做的就是	-10.6704
感激	-10.6705
鞋	-10.6708
实施	-10.6711
会成为	-10.6711
思绪	-10.6712
改变现状	-10.6716
信任的人	-10.6716
思维方式	-10.6717
拒绝了	-10.6721
调整一下	-10.6721
学习方法	-10.6728
生活方式	-10.6732
掌控感	-10.674
之心	-10.674
发作	-10.674
感染	-10.6742
不停的	-10.6742
也一样	-10.6743
假装	-10.6744
答主	-10.6745
坐下来	-10.6748
的反馈	-10.6748
的一种方式	-10.6752
现在的自己	-10.6752
两天	-10.6754
你好啊	-10.6756
这些事	-10.6756
主见	-10.6756
这些行为	-10.6756
固	-10.676
长处	-10.6761
听了	-10.6763
鼻	-10.6763
是不好的	-10.6764
这其中	-10.6764
有其他	-10.6768
想通过	-10.6771
遵从	-10.6771
不快乐	-10.6781
这是很正常的	-10.6784
也不需要	-10.6787
均	-10.6792
反驳	-10.6793
瘦	-10.6793
理清	-10.6812
了解他	-10.6813
公公	-10.6817
T	-10.6819
不爱你	-10.682
不同意	-10.6824
活力	-10.6825
面对面	-10.6828
胆小	-10.6829
记录下来	-10.6829
被伤害	-10.6832
将会	-10.6833
能看到	-10.6836
纯	-10.6839
只是为了	-10.6842
去关注	-10.6842
平台上	-10.6848
略	-10.6849
客体	-10.6851
自我认知	-10.6852
的小孩	-10.6853
细心	-10.6853
希望对方	-10.6854
的一句话	-10.6855
有多大	-10.6856
自我接纳	-10.686
可以接受	-10.6861
也有可能是	-10.6862
非常理解	-10.6863
不可避免	-10.6866
败	-10.6867
还不够	-10.6871
?2.	-10.6876
降	-10.6877
深层	-10.6878
意志力	-10.688
权衡	-10.6881
心理暗示	-10.6881
康复	-10.6884
太多了	-10.6885
希望可以帮到楼主	-10.6888
一只	-10.6891
。■	-10.6891
放松一下	-10.6893
偷偷	-10.6895
关注和	-10.6902
表达自己的感受	-10.6904
抵抗	-10.6905
楼主提到	-10.6906
友善	-10.6907
就是一种	-10.691
放弃自己	-10.6912
具	-10.6918
后天	-10.6922
罗	-10.6922
怎么会	-10.6923
有很多人	-10.6926
你还可以	-10.6927
快感	-10.6929
综	-10.6932
泡	-10.6934
y	-10.6935
家庭里	-10.6936
增进	-10.6939
4.	-10.6941
自我认同	-10.6945
网络上	-10.6947
纪	-10.6957
市	-10.6959
助人	-10.6961
仇	-10.6961
举个例子	-10.6961
默	-10.6962
是怎么样的	-10.6966
请问	-10.6968
。5、	-10.6968
来看待	-10.6969
受过	-10.697
以下几点	-10.697
是因为什么	-10.697
与人交往	-10.6973
医学	-10.6979
一开始就	-10.6979
开学	-10.6983
不要放弃	-10.6983
黄	-10.6984
生长	-10.6984
能够感受到	-10.6988
何必	-10.6988
抵	-10.699
懦弱	-10.6992
害羞	-10.6993
怼	-10.6994
意义上	-10.6994
美国	-10.6997
迈	-10.6998
喜欢上	-10.6998
分配	-10.6998
不一致	-10.6999
这个词	-10.7002
宁	-10.7003
不安全	-10.7004
早就	-10.7006
会更好	-10.7009
才是最重要的	-10.7014
中年	-10.7015
城	-10.7018
外婆	-10.7018
遵守	-10.7021
一些东西	-10.7022
敞开心扉	-10.7023
照顾孩子	-10.7026
一家人	-10.7027
是非常重要的	-10.7029
朋友倾诉	-10.7029
恰恰	-10.7033
赌	-10.7043
的例子	-10.7044
五年	-10.7047
延续	-10.7048
影响着	-10.705
休息一下	-10.7051
冷战	-10.7053
寂	-10.7053
信赖	-10.7056
负面影响	-10.7059
不是为了	-10.7064
我们可以先	-10.7065
受挫	-10.7065
如何处理	-10.7067
走路	-10.7069
25	-10.7072
忘记了	-10.7076
操心	-10.7077
因而	-10.7077
顿	-10.7077
可怜	-10.7083
不顾	-10.7086
一定可以	-10.7094
决定了	-10.7098
的来源	-10.7099
依恋关系	-10.7103
绕	-10.7105
撕	-10.7107
单方面	-10.7107
自己的工作	-10.7108
的利益	-10.7114
陪着	-10.7116
几种	-10.7117
是我的分析和建议	-10.7117
技	-10.7118
让你们	-10.7119
被压抑	-10.7121
对自己说	-10.7123
伴随着	-10.7126
几个问题	-10.7127
我想说的是	-10.713
一味	-10.713
人物	-10.7131
进来	-10.7132
你的父亲	-10.7132
脑海中	-10.7135
蓝	-10.7142
照顾好	-10.7142
有益	-10.7142
部门	-10.7142
前途	-10.7143
去追求	-10.7144
的一些想法	-10.7147
尽可能的	-10.7147
上司	-10.7149
自己到底	-10.7153
步骤	-10.7153
当别人	-10.7162
的目光	-10.7165
后来我	-10.7167
胜任	-10.7167
赏	-10.7167
积压	-10.7169
发自内心	-10.7171
体育	-10.7173
深入的	-10.7174
更多地	-10.7177
死了	-10.7178
心理准备	-10.718
圆	-10.718
做好准备	-10.7184
果断	-10.7187
不擅长	-10.7187
留恋	-10.7189
害怕失去	-10.7194
轨迹	-10.7198
出了问题	-10.7201
一定能	-10.7204
一刻	-10.7211
爱别人	-10.7213
应付	-10.7213
换成	-10.7215
那么重要	-10.7216
架	-10.7216
很生气	-10.7219
北	-10.7221
察	-10.7221
不认可	-10.7223
莫名其妙	-10.7226
伤人	-10.7227
下午	-10.7228
之路	-10.723
比较高	-10.723
承	-10.724
讲道理	-10.724
变了	-10.7246
短暂的	-10.7246
有什么样的	-10.7248
手里	-10.7249
弊	-10.7252
遗传	-10.7254
悔	-10.726
这样才能	-10.7263
投入到	-10.7267
很多东西	-10.7268
有没有想过	-10.7273
说明了	-10.7277
有权利	-10.7279
缓和	-10.7279
的身心	-10.7284
照片	-10.7286
提到了	-10.7286
几点建议	-10.7289
因此而	-10.7293
出发点	-10.7297
按时	-10.73
你的妈妈	-10.7303
所处的	-10.7306
强迫性	-10.7308
体重	-10.7328
你的描述我了解到	-10.7331
找找	-10.7331
的想法和感受	-10.7333
较大	-10.7333
人士	-10.7334
把所有的	-10.7338
派	-10.7338
焦虑感	-10.734
土	-10.734
恐怖	-10.7344
逛	-10.7344
你的需求	-10.7344
时间长了	-10.7346
迷失	-10.7347
投资	-10.735
善待	-10.7351
源头	-10.7352
怎么想	-10.7358
传达	-10.7359
备考	-10.7359
也许你可以	-10.7361
看得出	-10.7364
g	-10.7372
伪装	-10.7373
→	-10.7374
虎	-10.7376
哪一个	-10.7377
再多	-10.7381
遗忘	-10.7383
解决方案	-10.7385
读了	-10.7388
焦点	-10.7394
常常会	-10.7395
设想	-10.7396
惜	-10.7396
建立关系	-10.7398
愿意为	-10.7403
屋	-10.7404
要做的	-10.7405
指的是	-10.7407
帮助她	-10.7414
远远	-10.7415
的氛围	-10.7423
规	-10.7425
祝福题主	-10.7431
吹	-10.7433
图书馆	-10.7433
这个男生	-10.7435
从现在开始	-10.7436
开启	-10.7438
得很好	-10.7439
越大	-10.7441
ω	-10.7443
上升	-10.7445
不想做	-10.7448
分析了解问题	-10.7451
很在乎	-10.7455
统一	-10.7456
不在意	-10.7459
心理咨询师的帮助	-10.746
姿态	-10.7462
笼	-10.7462
扯	-10.7462
鼓励自己	-10.7467
根据自己的	-10.7469
的情绪状态	-10.747
沉重	-10.7471
在自己身上	-10.7474
最多	-10.7474
也一定	-10.7475
更快	-10.7484
会感觉到	-10.7486
序	-10.7486
裂	-10.7488
很差	-10.7491
本我	-10.7491
比较少	-10.7492
设计	-10.7492
不知不觉	-10.7493
上述	-10.7495
这份感情	-10.7504
责	-10.7508
是不对的	-10.7511
而导致	-10.7513
小心	-10.7514
叙述	-10.7517
无数	-10.7519
存在的问题	-10.7522
撒	-10.7522
这个年龄	-10.7524
瑜伽	-10.7524
持久	-10.7524
不认同	-10.7527
不良情绪	-10.7532
责任感	-10.7534
都已经	-10.7541
见解	-10.7545
唯有	-10.7547
一点一点	-10.7548
这两种	-10.7548
重要的事情	-10.7555
自己喜欢的事情	-10.7562
小可爱	-10.7563
】【	-10.7566
不是很好	-10.757
会带来	-10.757
启	-10.7573
每次都	-10.7575
等着你	-10.7578
职位	-10.7583
大自然	-10.7587
你也要	-10.759
几个月	-10.7595
心事	-10.7598
做错	-10.7599
科目	-10.7599
坚决	-10.7614
滴	-10.7614
这种事情	-10.7616
是非	-10.7617
多关注	-10.7617
专门	-10.7618
我的建议	-10.762
的标签	-10.7625
才发现	-10.7632
户	-10.7632
成长中	-10.7633
留给	-10.7638
但同时	-10.7642
扫	-10.7642
碗	-10.7642
纷	-10.7645
对待自己	-10.7647
角落	-10.7648
循序渐进	-10.7649
怎么看	-10.765
真实的想法	-10.7651
希望能帮到你	-10.7657
很心疼	-10.7662
不要着急	-10.7664
惨	-10.7671
较为	-10.7672
诗	-10.7672
原始	-10.7673
的倾向	-10.7673
墙	-10.7676
有困惑	-10.7679
占有欲	-10.7682
没有达到	-10.7686
新环境	-10.7689
更像是	-10.7694
跟你说	-10.7696
如果想要	-10.7696
。2)	-10.77
天下	-10.7705
脉	-10.7705
幸福感	-10.7706
秘	-10.7707
家庭成员	-10.7708
解决的问题	-10.7718
国外	-10.7724
下一步	-10.7728
觉得自己很	-10.7733
贫	-10.7734
真爱	-10.7735
劣势	-10.7736
无能	-10.7736
看到别人	-10.7737
不小心	-10.7738
生活上	-10.7738
压制	-10.7739
厌烦	-10.7739
爱一个人	-10.7743
不知道该怎么	-10.7745
还不如	-10.7746
你们两个	-10.7747
若是	-10.7749
给你一个抱抱	-10.7753
时间段	-10.776
眼光	-10.7763
溺	-10.7765
酬	-10.7766
分裂	-10.777
认定	-10.777
结构	-10.777
生育	-10.7771
这个家	-10.7773
需要帮助	-10.7773
看到了你的	-10.7774
拿到	-10.7775
头疼	-10.7776
专科	-10.7777
获	-10.7779
能得到	-10.7786
通过你的描述	-10.779
给自己定	-10.7791
触碰	-10.7792
的界限	-10.7794
浪	-10.7794
授	-10.7798
多种	-10.7798
发生关系	-10.7798
(1)	-10.7798
电脑	-10.78
容忍	-10.78
你们彼此	-10.7801
一定会有	-10.7803
贴标签	-10.7803
本能的	-10.7804
理解你的心情	-10.7804
二十	-10.7808
爽	-10.7814
这个行为	-10.7815
负性	-10.7821
射	-10.7828
调整心态	-10.7828
也是正常的	-10.7829
形容	-10.7829
阿德勒	-10.783
旁边	-10.7832
的言语	-10.7836
大于	-10.7845
做做	-10.7846
自我意识	-10.7846
早日走出	-10.7847
感谢你的问题	-10.7847
建议你可以	-10.7848
与母亲	-10.7856
最佳	-10.7856
这可能是	-10.7858
迎	-10.7859
避开	-10.7859
振	-10.7861
面临着	-10.7861
协商	-10.7863
给你带来了	-10.7864
一番	-10.7865
谈话	-10.7867
觉知	-10.7871
投射到	-10.7885
永远都	-10.7891
漏	-10.7892
看问题	-10.7894
证明你	-10.7895
19	-10.7897
只有你自己	-10.7898
年代	-10.7899
失利	-10.7899
不要让自己	-10.7901
性教育	-10.7906
厌	-10.7913
处理问题	-10.7915
不高兴	-10.792
不甘	-10.7921
坑	-10.7922
只是一种	-10.7922
现阶段	-10.7922
拆	-10.7923
宜	-10.7924
的环境中	-10.7925
长时间的	-10.7925
性质	-10.7929
事情发生	-10.7934
对你说	-10.7936
静下来	-10.7936
列出	-10.7938
老是	-10.7939
那边	-10.7942
内心的感受	-10.7942
教学	-10.7945
我们要学会	-10.7947
遭到	-10.7948
那位	-10.7954
重男轻女	-10.7954
人无完人	-10.7958
议论	-10.7959
的心灵	-10.7959
宠	-10.796
的种种	-10.7969
填	-10.7972
之分	-10.7973
伤口	-10.7975
一切都是	-10.7977
这种心理	-10.7977
主导	-10.7979
情绪化	-10.798
不通	-10.7982
问他	-10.7983
分清	-10.7985
型人格	-10.7989
这样的感觉	-10.7991
固然	-10.7991
别人的看法	-10.7998
向上	-10.8011
驾	-10.8016
很大程度上	-10.802
你对他的	-10.802
联想	-10.802
累积	-10.8022
最好的办法	-10.8022
安好	-10.8023
证书	-10.8025
还不错	-10.8028
你的困扰	-10.8028
忍耐	-10.8029
促使	-10.8044
挥	-10.8045
泄	-10.8046
扰	-10.8047
对自己的评价	-10.8047
束	-10.8047
卸	-10.8051
Q	-10.8052
胡	-10.8053
给楼主一个拥抱	-10.8054
祝你幸福快乐	-10.806
提出来	-10.8061
生活里	-10.8063
美满	-10.8064
一个新的	-10.8064
被认可	-10.807
那么你就	-10.8073
经历中	-10.8074
维	-10.8074
是否能够	-10.8075
正因为	-10.8077
族	-10.808
带给你的	-10.808
流泪	-10.8082
遵循	-10.8083
尖	-10.8083
哲学	-10.8085
协助	-10.8086
ノ	-10.8094
很心疼你	-10.8107
渡	-10.8108
渣	-10.8109
炸	-10.8112
并没有什么	-10.8114
换句话说	-10.8114
活下去	-10.8117
怎么看待	-10.8118
周边	-10.812
触发	-10.8121
极大的	-10.8123
二胎	-10.8135
的视角	-10.8135
离异	-10.8138
做的不好	-10.8139
做家务	-10.8141
亚	-10.8142
显示	-10.8146
督导	-10.8146
帮他	-10.8147
抬	-10.8147
其他事情	-10.8149
现在的生活	-10.8151
四个	-10.8151
我们也要	-10.8152
借鉴	-10.8154
有一句话	-10.8157
和平	-10.8157
速度	-10.8157
缺乏自信	-10.8158
笑话	-10.8159
到达	-10.8159
很严重	-10.8159
小伙伴	-10.8163
帮助孩子	-10.8164
童	-10.8166
和他在一起	-10.8166
不会再	-10.8167
响	-10.8176
继续下去	-10.818
唱歌	-10.818
逛街	-10.8181
难得	-10.8181
辅助	-10.8181
变得越来越	-10.8183
代表着	-10.8184
某一个	-10.8184
舍	-10.8186
指向	-10.8187
责任心	-10.8198
充分的	-10.8207
奋	-10.821
伯	-10.821
手术	-10.8217
ε	-10.8224
可能也会	-10.8235
何况	-10.8236
这个情况	-10.8238
柔	-10.8241
盖	-10.8241
力所能及	-10.8245
起伏	-10.8248
试一试	-10.8248
终身	-10.8255
处女	-10.8258
如果可以的话	-10.8263
藏在	-10.8264
偶	-10.827
抛	-10.8274
卑微	-10.8276
边界感	-10.8276
灵活	-10.8279
现任	-10.8281
无疑	-10.8288
根本不	-10.8288
心智	-10.83
到这里	-10.8301
线上	-10.8302
想太多	-10.8302
估	-10.8304
夺	-10.8306
看得出来你	-10.8306
典型的	-10.8307
迅速	-10.8309
理所当然	-10.831
信任感	-10.8313
边缘	-10.8314
越好	-10.8315
成果	-10.8315
交到	-10.8317
作品	-10.8318
资本	-10.8319
待遇	-10.832
亲密关系中	-10.8321
在你身上	-10.8322
极其	-10.8322
如果你愿意	-10.8323
很多人都会	-10.8327
放轻松	-10.8333
深处	-10.8333
表现为	-10.8334
便是	-10.8335
叶	-10.8343
当地	-10.8344
拉黑	-10.8346
_	-10.835
看到您	-10.8357
你才会	-10.8359
随着时间	-10.8359
景	-10.8362
一味地	-10.8362
初三	-10.8366
肯	-10.8367
你描述的	-10.8368
也同样	-10.8368
基因	-10.8369
吼	-10.8374
砸	-10.8375
兄弟	-10.8375
在日常生活中	-10.8376
邻居	-10.8376
这个年纪	-10.8391
察觉到	-10.8391
在哪	-10.8398
甘	-10.8399
软弱	-10.8407
争执	-10.8408
渴望被	-10.8408
载	-10.8409
陪着你	-10.8409
重心	-10.841
纠正	-10.8412
甚	-10.8413
对立	-10.842
你们之间的关系	-10.8426
双向	-10.8426
构	-10.8427
承担责任	-10.8429
琐事	-10.8437
一张	-10.8438
x	-10.8439
薄	-10.8442
督促	-10.8443
隔阂	-10.8444
郁闷	-10.8445
一道	-10.8447
可以直接	-10.8449
谢谢你	-10.8453
乐意	-10.8454
行为上	-10.846
兴	-10.8463
舒	-10.8464
也没什么	-10.8468
夹	-10.8471
长相	-10.8472
挖掘	-10.8473
聚会	-10.8473
是多么	-10.8474
最开始	-10.8474
的言行	-10.848
都不一样	-10.848
足以	-10.8487
如果你能	-10.8503
趋	-10.8503
是一个很好的	-10.8504
介	-10.8504
雷	-10.8505
鸟	-10.8507
流派	-10.8507
姨	-10.8507
你的男友	-10.8507
优越感	-10.8507
描	-10.8508
癖	-10.8508
同伴	-10.8508
账	-10.8509
出去走走	-10.8513
吃东西	-10.8513
空闲	-10.8516
作者	-10.8518
另一方	-10.8522
再者	-10.8525
营	-10.8525
来缓解	-10.8527
值得被	-10.8527
能够感受到你	-10.8529
一层	-10.8533
被关注	-10.8535
我们都知道	-10.8538
少年	-10.8539
我们先来	-10.8542
在现实生活中	-10.8542
内耗	-10.8544
眼泪	-10.8544
得罪	-10.8545
具体情况	-10.856
经济上	-10.856
工作和生活	-10.8566
对彼此	-10.8566
光明	-10.857
在亲密关系中	-10.857
目前的状态	-10.8571
干脆	-10.8574
抹	-10.8575
愁	-10.8575
最主要的	-10.8575
破裂	-10.8576
可靠	-10.8577
被骗	-10.8579
新的环境	-10.8579
尽量不要	-10.8583
给你一个大大的拥抱	-10.8585
这其实是	-10.8595
奶	-10.8596
明星	-10.8598
也不可能	-10.86
而产生的	-10.8603
遭	-10.8604
危害	-10.8605
滋	-10.8605
斥	-10.8608
心目中	-10.8609
契机	-10.861
港	-10.8612
也没有什么	-10.8614
睡着	-10.8616
深深地	-10.8618
还有一些	-10.8623
是不是真的	-10.8624
核	-10.8625
!!!	-10.8628
教会	-10.8631
赞	-10.8631
社会支持	-10.8631
伴随	-10.8633
是错的	-10.8633
要相信自己	-10.8635
找到适合自己的	-10.8636
协	-10.8637
换来	-10.8639
羞愧	-10.864
塌	-10.864
尾	-10.8641
的圈子	-10.8645
分手后	-10.8645
我想告诉你	-10.8646
名字	-10.8652
不用担心	-10.8652
父母之间	-10.8653
暴力倾向	-10.8655
偏向	-10.8662
替你	-10.8665
尝试一下	-10.8667
16	-10.8672
躺	-10.8675
竟然	-10.8676
支配	-10.8677
日后	-10.8679
是一个比较	-10.8681
这位朋友	-10.8683
教养	-10.8684
只不过是	-10.8687
辛苦了	-10.8691
当面	-10.8696
从此	-10.8704
才是最	-10.8705
章	-10.8707
是有限的	-10.8707
娃	-10.871
犹	-10.871
使我们	-10.871
不能改变	-10.8712
吐槽	-10.8712
给你提供	-10.8712
的城市	-10.8714
勇于	-10.8714
让彼此	-10.8716
背后的原因	-10.8717
让自己更	-10.8726
重新开始	-10.8726
针对你	-10.8735
三种	-10.8735
普	-10.8737
也不愿意	-10.8738
大城市	-10.8739
并不意味着	-10.8739
躁	-10.874
晨	-10.8742
唱	-10.8743
身体上的	-10.8743
粉	-10.8744
拖延症	-10.8745
这样的情绪	-10.8748
运气	-10.8751
养育者	-10.8751
你的老公	-10.8761
有两种	-10.8765
自我评价	-10.8769
的生活方式	-10.8771
促	-10.8772
温暖和	-10.8775
枯燥	-10.8777
向内	-10.8778
是个很	-10.8778
讨好型人格	-10.8778
我看到你	-10.878
这种状况	-10.878
恐惧感	-10.8788
立场	-10.879
社交恐惧	-10.8791
与人相处	-10.8793
完成任务	-10.8801
即便是	-10.8803
闻	-10.8808
威	-10.8809
透过	-10.8812
不正常	-10.8812
大概率	-10.8812
躲避	-10.8814
做心理咨询	-10.8819
选择权	-10.882
验证	-10.882
没有人会	-10.8823
迁就	-10.8823
平静下来	-10.8825
和你在一起	-10.8826
无处	-10.8827
集中注意力	-10.8828
只能说	-10.883
也可以选择	-10.8832
太久	-10.8832
自我调节	-10.8837
充实自己	-10.8838
你的心里	-10.8846
便会	-10.8847
<<	-10.8848
大众	-10.8848
给彼此	-10.8848
听音乐	-10.8849
散步	-10.885
才能更好的	-10.885
这些东西	-10.8852
21	-10.8854
吃亏	-10.8855
24	-10.886
近期	-10.8861
你要相信	-10.8867
但实际上	-10.8868
D	-10.8879
李	-10.8879
肩	-10.888
储	-10.888
到时候	-10.888
加以	-10.888
压迫	-10.8881
40	-10.8881
对母亲	-10.8881
非常理解你	-10.8882
阵	-10.8884
通过自己的努力	-10.8884
实在是	-10.889
?2、	-10.8892
ง	-10.8892
迁	-10.8904
不爽	-10.8905
阿	-10.8905
就会出现	-10.8907
以下几个	-10.891
很糟糕	-10.8911
泪	-10.8913
蒙	-10.8915
时不时	-10.8915
大方	-10.8916
零食	-10.8919
几十年	-10.8921
有很多种	-10.8925
想念	-10.8928
很大的压力	-10.8933
离世	-10.894
还有一种	-10.894
抚	-10.8946
就像一个	-10.8947
孩子身上	-10.8947
法则	-10.8951
催促	-10.8952
剩下的	-10.8953
被迫	-10.8955
你们俩	-10.8956
潜意识中	-10.8966
与人交流	-10.8967
回答你的问题	-10.8968
少数	-10.8968
作为家长	-10.8968
因此我们可以	-10.8971
喜欢什么	-10.8976
玩具	-10.8983
宣	-10.8986
撒谎	-10.8987
掩盖	-10.8987
润	-10.899
责怪自己	-10.8992
去适应	-10.8995
得到别人的	-10.8997
不要怕	-10.8999
可以让我们	-10.9002
很多事	-10.9006
遇到过	-10.901
责骂	-10.9015
排挤	-10.9019
屈	-10.9021
冲击	-10.9021
摩擦	-10.9022
M	-10.9023
猜想	-10.9027
对你的影响	-10.9032
自己的努力	-10.9036
怎么能	-10.9043
从未	-10.9054
珍	-10.9054
时时刻刻	-10.9055
训	-10.9056
背负	-10.9059
认识到自己	-10.9063
独特	-10.9071
拒绝别人	-10.9072
在心理学上	-10.908
勉强自己	-10.9081
大概是	-10.9082
铺	-10.9092
建立亲密关系	-10.9094
恭喜你	-10.91
我们不妨	-10.9101
事事	-10.9101
遇到的问题	-10.9106
是否愿意	-10.9108
容易产生	-10.911
的差距	-10.911
之所以会	-10.9112
任性	-10.9112
向对方	-10.9115
内心的想法	-10.9121
想要的东西	-10.9124
构成	-10.9124
嫌	-10.9124
择偶	-10.9125
武	-10.9126
俱	-10.9127
搜	-10.9128
页	-10.9128
左	-10.9129
绊	-10.9129
焦虑恐惧	-10.9132
正处于	-10.9134
是为了什么	-10.9137
一般人	-10.9141
敞开	-10.9142
的生活状态	-10.9144
属于你的	-10.9145
这是正常的	-10.9148
是爱你的	-10.9148
不知道该如何	-10.9152
像个	-10.9153
是好事	-10.9154
三个月	-10.9156
受伤害	-10.9159
赶紧	-10.9161
看不见	-10.9161
推测	-10.9161
潜移默化	-10.9163
比方说	-10.9165
过渡	-10.9174
集中在	-10.9178
意识自我	-10.9181
差劲	-10.9183
任何事情	-10.9185
整合	-10.9188
唯	-10.9189
这种情况下	-10.9191
歇	-10.9197
你们两个人	-10.92
陈	-10.92
低谷	-10.9202
国内	-10.921
写出来	-10.9211
没有动力	-10.9214
处处	-10.922
相处模式	-10.9221
常见	-10.9231
驱	-10.9231
决策	-10.9233
辨	-10.9233
违	-10.9235
占据	-10.9236
尘	-10.9237
有这样的想法	-10.9239
长得	-10.9241
怎么样呢	-10.9244
这种现象	-10.9251
复盘	-10.9252
为什么会这样	-10.9256
得以	-10.9262
圣	-10.9267
攻	-10.9269
春	-10.9271
晕	-10.9271
新的生活	-10.9271
成瘾	-10.9272
出路	-10.9274
安稳	-10.9277
专家	-10.928
惯	-10.9281
和父母沟通	-10.9282
大多数人都	-10.9282
的情景	-10.9289
劳动	-10.9293
熊	-10.9297
丢人	-10.9304
发泄出来	-10.9304
猛	-10.9307
营造	-10.9307
和睦	-10.9314
许多人	-10.9316
和你一起	-10.9325
11	-10.9326
抑郁症患者	-10.9327
学科	-10.9329
潜意识自我	-10.9336
不能理解	-10.9341
市场	-10.9343
涂	-10.9344
探	-10.9347
史	-10.935
跟随	-10.9367
心理负担	-10.9368
既然已经	-10.9369
街	-10.9378
畏惧	-10.9379
疏离	-10.938
特长	-10.938
缓解焦虑	-10.9386
过不去	-10.9388
案	-10.9391
第二次	-10.9391
异性朋友	-10.9393
锻炼自己	-10.9394
的课题	-10.9403
符	-10.9404
从来都	-10.9409
祸	-10.9414
敲	-10.9414
擦	-10.9415
取舍	-10.9417
记忆力	-10.9418
描述来看	-10.9419
同桌	-10.9422
从楼主的描述中	-10.9423
两个人都	-10.9426
在这个世界上	-10.9426
爱意	-10.9428
大量的	-10.9431
学会爱自己	-10.9437
的个性	-10.9439
良性	-10.9446
呐	-10.9453
伸	-10.9453
分辨	-10.9459
笔记	-10.946
针	-10.9461
负面评价	-10.9464
都是正常的	-10.9466
并不知道	-10.9467
强制	-10.9473
受到影响	-10.9477
反思自己	-10.9483
会使	-10.9483
交往中	-10.9485
两个方面	-10.9485
大量	-10.9486
废	-10.9488
骑	-10.949
发掘	-10.9491
右	-10.9491
孙	-10.9492
拓展	-10.9493
发表	-10.9498
暗恋	-10.9503
毕业后	-10.9509
自爱	-10.9518
递	-10.9523
一起玩	-10.9526
介入	-10.9528
免费	-10.9529
话语	-10.953
相识	-10.9534
租	-10.9537
以此来	-10.9554
不如别人	-10.9558
不耐烦	-10.956
喻	-10.9562
风雨	-10.9567
赞同	-10.9568
舒适圈	-10.9568
疫情期间	-10.9568
抛开	-10.9569
清单	-10.957
都会遇到	-10.9571
新鲜感	-10.9574
什么东西	-10.9578
否	-10.958
某些事情	-10.9582
在意他人	-10.9589
予	-10.9592
开心快乐	-10.9593
负罪感	-10.9599
摄	-10.96
偿	-10.9601
一无是处	-10.9601
发言	-10.9601
措	-10.9603
手淫	-10.9604
及时止损	-10.9604
优缺点	-10.9607
来这里	-10.961
一些方法	-10.9613
是怎么想的	-10.9614
处境	-10.9614
很敏感	-10.9615
是建立在	-10.9622
发泄情绪	-10.9626
到自己身上	-10.9629
后期	-10.9632
残	-10.9633
帅	-10.9638
生日	-10.9639
抽离	-10.9642
的地步	-10.9645
不自在	-10.9646
希望我的回答能够帮助到你	-10.9646
内在小孩	-10.9647
如期而至	-10.9649
巨	-10.9649
要做的是	-10.965
有一部分	-10.9658
愤	-10.967
这些话	-10.9671
急着	-10.9671
有所改变	-10.9672
瓶	-10.9674
涵	-10.9678
知识点	-10.9679
的模样	-10.9679
在现实中	-10.9679
提示	-10.9681
反映出	-10.9684
大学生活	-10.9687
看电影	-10.9689
释放压力	-10.969
握	-10.9699
惯性	-10.9699
感到非常	-10.9702
诱	-10.9704
野	-10.9709
际	-10.971
身边的朋友	-10.971
挤	-10.9711
如你所说	-10.9711
放松心情	-10.9711
接触到	-10.9713
共鸣	-10.9713
>	-10.9715
祝您	-10.9719
把你当	-10.9725
假期	-10.9735
大哭	-10.9739
被尊重	-10.9745
看得出你	-10.9747
着手	-10.9749
更适合	-10.9749
某个人	-10.975
公务员	-10.9751
熟悉的人	-10.9753
玩耍	-10.9757
。)2、	-10.976
学习心理学	-10.9762
岁月	-10.977
自觉	-10.9773
能帮助你	-10.9774
难以接受	-10.9776
成员	-10.9777
之后再	-10.9778
心里面	-10.9781
规范	-10.9783
南	-10.9785
两个月	-10.9785
肌肉	-10.9786
媳妇	-10.9787
懒惰	-10.9787
假如你	-10.9788
闯	-10.979
谨	-10.979
业务	-10.9791
倦怠	-10.9791
过错	-10.9796
专业的心理咨询	-10.9796
非常大的	-10.9797
老家	-10.98
公开	-10.9802
教育孩子	-10.981
赢得	-10.9814
应当	-10.9817
就有了	-10.9818
焦	-10.9822
能够接受	-10.9823
很常见	-10.9823
等方面	-10.9825
正能量	-10.9826
在意别人的看法	-10.9829
表演	-10.983
升级	-10.9832
欠缺	-10.9833
强加	-10.9833
哟	-10.9834
使人	-10.9839
意思是	-10.9842
这个时期	-10.9849
没有人可以	-10.985
放开	-10.9852
比较强	-10.9859
能给你带来	-10.9859
峰	-10.9861
季	-10.9863
柱	-10.9864
敷衍	-10.9866
的感受和想法	-10.9866
•	-10.9869
F	-10.9871
怀念	-10.9871
调整自己的心态	-10.9877
得起	-10.9885
工作能力	-10.9887
职业规划	-10.9888
坚	-10.9894
看到你说	-10.9898
材	-10.9898
挣	-10.9899
某件事	-10.99
崩	-10.9902
凶	-10.9902
防止	-10.9903
皮肤	-10.9905
你的丈夫	-10.9906
失误	-10.9908
愿世间美好与你	-10.9915
单一	-10.9917
就医	-10.9917
的内心世界	-10.9921
经济独立	-10.9927
最坏	-10.993
花时间	-10.993
建设	-10.993
遇事	-10.9932
卫	-10.9934
看成	-10.9935
人人都	-10.9938
险	-10.9939
相信你一定	-10.9939
忠诚	-10.994
遥	-10.994
幽默	-10.9941
奢	-10.9942
报警	-10.9948
这个话题	-10.9951
面对现实	-10.9954
所带来的	-10.9956
也可以通过	-10.9959
顺畅	-10.996
删除	-10.996
感受到了你的	-10.9964
不顺心	-10.9969
罚	-10.9973
情绪不稳定	-10.9975
无可厚非	-10.998
呗	-10.9981
字里行间	-10.9983
立马	-10.9984
无趣	-10.9986
讨好别人	-10.9989
做一件事	-10.9991
不要过于	-10.9992
恰恰是	-11.0002
联想到	-11.0003
摇	-11.0006
14	-11.0006
善良的人	-11.001
相信你会	-11.001
真诚地	-11.0014
就行了	-11.0017
缓解压力	-11.0018
同理心	-11.0019
早起	-11.002
凉	-11.002
影子	-11.0033
严重影响	-11.0035
说一说	-11.0036
找心理咨询师	-11.0038
力气	-11.004
产品	-11.0044
不够自信	-11.0045
无比	-11.0046
有意识的	-11.0049
---	-11.0051
究	-11.0052
疲	-11.0054
吻	-11.0056
换工作	-11.0057
兵	-11.0058
恒	-11.0058
紧绷	-11.006
疼爱	-11.0061
这段婚姻	-11.0064
楚	-11.0073
感受一下	-11.0079
小女孩	-11.008
浪费时间	-11.0083
生意	-11.0089
喜欢的东西	-11.0091
婴	-11.0092
保守	-11.0098
无缘无故	-11.0099
哪些事情	-11.0107
楼主的内心	-11.0114
高级	-11.0114
减压	-11.0123
买房	-11.0127
渴求	-11.0133
制定一个	-11.0136
严肃	-11.0138
视野	-11.0139
压力过大	-11.0139
动态	-11.0142
一路	-11.0142
失业	-11.0143
反倒	-11.0144
在感情中	-11.0145
过激	-11.0155
同时又	-11.0156
在成长过程中	-11.0158
看待问题	-11.0159
能看出	-11.0167
称之为	-11.0172
弗洛伊德	-11.0173
漠	-11.0174
偶然	-11.0177
扣	-11.0179
优先	-11.0179
很低	-11.018
举动	-11.018
强行	-11.0184
成长起来	-11.0184
以上是我的一点建议	-11.0187
到位	-11.019
无视	-11.0193
间接	-11.0195
从容	-11.0199
不佳	-11.02
坏人	-11.0207
残酷	-11.0214
园	-11.0214
疲劳	-11.0214
就够了	-11.0214
养活自己	-11.0215
申请	-11.0215
从题主的	-11.0216
搜索	-11.0216
村	-11.0217
况且	-11.0218
劳逸结合	-11.0218
积极向上	-11.0222
该不该	-11.0224
推动	-11.0224
渴望得到	-11.0227
很多次	-11.023
社	-11.0234
深深	-11.0235
哪些方面	-11.0237
为止	-11.0239
的成长环境	-11.024
成年后	-11.0245
汉	-11.0248
登	-11.0249
目前的情况	-11.0251
懵	-11.0254
不经意	-11.0255
涌	-11.0255
现在的情况	-11.0256
起点	-11.0263
行事	-11.0265
很爱你	-11.0267
未完成	-11.0269
;2、	-11.0274
轨	-11.0284
旁人	-11.0287
豪	-11.0291
宁愿	-11.0296
激活	-11.0296
鼓起勇气	-11.0298
对症下药	-11.0298
逼着	-11.0304
可以帮助我们	-11.0305
一切安好	-11.0308
儿女	-11.0322
每周	-11.0323
竭	-11.0331
阶	-11.0331
这一步	-11.0332
龙	-11.0332
赞赏	-11.0333
不由自主	-11.0334
潮	-11.0334
社恐	-11.0334
化妆	-11.0334
检验	-11.0337
问题所在	-11.0337
17	-11.0338
转化为	-11.0345
已婚	-11.0349
无效	-11.0351
情节	-11.0354
有多么	-11.0357
迟到	-11.0361
腹	-11.037
吞	-11.0371
太少	-11.0372
缠	-11.0375
很深的	-11.0375
烈	-11.0376
清理	-11.0377
网友	-11.0377
伟大	-11.0379
青年	-11.0379
旁	-11.0382
恰好	-11.0389
表达自己的想法	-11.039
凭什么	-11.0393
夸大	-11.0395
我猜想	-11.0398
管教	-11.0406
家庭氛围	-11.0406
醉	-11.0412
袭	-11.0413
苛刻	-11.0414
污	-11.0414
稀	-11.0415
帝	-11.0415
焦躁	-11.0415
色彩	-11.0415
脑袋	-11.0418
咋	-11.0419
很抱歉	-11.043
关照	-11.0434
男女朋友	-11.0439
上瘾	-11.044
能够感觉到	-11.0441
被孤立	-11.0445
外出	-11.0447
就不会那么	-11.0448
泛化	-11.0449
无形中	-11.0453
粘	-11.0453
收益	-11.0454
爷	-11.0454
尽全力	-11.0455
晒	-11.0457
维度	-11.0458
不知道该怎么办	-11.0462
独立自主	-11.0462
展开	-11.0466
感觉不到	-11.0467
平常心	-11.0472
发生变化	-11.0472
人的一生	-11.0473
想象的那么	-11.0476
离家	-11.0478
会好起来的	-11.0479
发生了什么事情	-11.0485
身处	-11.0487
:1)	-11.0492
悦	-11.0493
叹	-11.0495
X	-11.0495
迹	-11.0496
被重视	-11.0496
进行心理咨询	-11.0498
除此之外	-11.0498
直觉	-11.0501
苦难	-11.0502
全新的	-11.0513
两方面	-11.0523
妄想	-11.0524
固有	-11.0534
返	-11.0535
围绕	-11.0536
从这个角度	-11.0536
词语	-11.0537
勾	-11.0537
活跃	-11.0538
是人之常情	-11.0538
睡眠质量	-11.0541
来临	-11.0542
又或者是	-11.0542
吸取	-11.0543
重建	-11.0544
共处	-11.0549
那段时间	-11.055
这很正常	-11.0552
不负责任	-11.0561
上进心	-11.0569
这条路	-11.057
抑制	-11.0573
欺	-11.0575
含义	-11.0577
短时间内	-11.0577
泥	-11.0577
表示理解	-11.0578
丰	-11.0578
苛责自己	-11.0583
...........................	-11.0583
祝您生活愉快	-11.059
前期	-11.0591
控制不了	-11.0595
希望能帮助到你	-11.0595
的相处方式	-11.0597
享	-11.0602
做自己喜欢的事情	-11.061
看电视	-11.061
以免	-11.061
环	-11.0614
至今	-11.0616
对外界	-11.0616
颜	-11.0618
临床	-11.0618
行为背后	-11.0618
连续	-11.0619
遮	-11.062
屏	-11.062
衰	-11.062
换一个角度	-11.0622
条件允许	-11.0626
能够做到	-11.0626
把注意力放在	-11.0635
遇到事情	-11.0638
觉察一下	-11.0638
真实的感受	-11.064
放空	-11.0647
往后	-11.0648
苛责	-11.0656
拜	-11.066
总比	-11.066
忠	-11.066
成为更好的自己	-11.0666
简短	-11.0668
业余	-11.0668
心里话	-11.0669
纠结于	-11.068
些许	-11.0682
出现了问题	-11.0696
兼	-11.0701
往前走	-11.0703
进展	-11.0705
况	-11.0713
突出	-11.0713
交集	-11.0714
没有对错	-11.0717
愧疚感	-11.0717
费用	-11.0723
考量	-11.073
尼	-11.0735
应有的	-11.0735
也没关系	-11.0735
局限性	-11.0739
先给你一个温暖的抱抱	-11.0744
冥想星球	-11.0746
紧密	-11.0746
自己的内在	-11.0752
也罢	-11.0758
的角度来看	-11.076
不好受	-11.0761
心理建设	-11.0765
文中	-11.0774
谎	-11.0779
肤	-11.0781
疾	-11.0783
精神状态	-11.0783
经典	-11.0783
委	-11.0785
不肯	-11.0786
罩	-11.0787
挚	-11.0787
细致	-11.0788
融合	-11.0789
。)3、	-11.0793
释放出来	-11.0797
两难	-11.0801
特性	-11.0802
行动力	-11.0808
只看到	-11.0809
自行	-11.081
好奇心	-11.0814
关键在于	-11.0818
情绪管理	-11.0819
乏	-11.0823
疗	-11.0823
眠	-11.0823
无意义	-11.0824
贡献	-11.0825
权益	-11.0831
平稳	-11.0833
首要	-11.0836
给题主一个温暖的抱抱	-11.0839
自然就会	-11.085
孩子的成长	-11.0867
拘	-11.0868
尊严	-11.0869
厌倦	-11.0869
损害	-11.0873
诚实	-11.0873
电视	-11.0873
什么事情都	-11.0877
熟人	-11.0883
填补	-11.0886
幼儿	-11.0886
聚焦	-11.0893
忍让	-11.0894
的处理方式	-11.09
哪方面	-11.0901
咒	-11.0908
腾	-11.0909
摩	-11.091
尿	-11.0911
大可不必	-11.0913
几句	-11.0914
体力	-11.0914
敌意	-11.0914
调动	-11.0929
自已	-11.0934
做一些事情	-11.0938
难关	-11.0938
言行	-11.0938
扩	-11.0941
扭曲	-11.0953
毅力	-11.0954
森	-11.0955
麻木	-11.0956
负面的情绪	-11.0956
反击	-11.096
爱不爱	-11.0967
自助	-11.0969
分享给你	-11.0972
做什么事情	-11.0976
为自己负责	-11.0979
所做的	-11.0982
理想中的	-11.0983
的一点是	-11.0983
君	-11.0993
谎言	-11.0994
版	-11.0996
攀比	-11.0997
伦理	-11.1
屏蔽	-11.1001
多多少少	-11.1001
访	-11.1004
嗨	-11.1006
希望可以帮助到你	-11.1008
主角	-11.1011
拉近	-11.1012
情绪失控	-11.1018
很大的影响	-11.1024
熟练	-11.1024
就像你说的	-11.1027
为了避免	-11.1027
很长时间	-11.1031
蠢	-11.1035
概括	-11.1035
玉	-11.1038
萌	-11.1039
购物	-11.104
票	-11.1041
人生的意义	-11.1042
论文	-11.1043
追寻	-11.1044
激起	-11.1058
病症	-11.1062
的教育方式	-11.1068
自己的生命	-11.1081
贷	-11.1082
公共	-11.1083
N	-11.1083
毫不	-11.1085
以下是我的分析	-11.1092
劝说	-11.1093
会有不同的	-11.1099
家庭条件	-11.11
老实	-11.1102
回忆一下	-11.111
锻炼身体	-11.1111
该怎么做	-11.1116
任何时候	-11.1118
庸	-11.1124
食欲	-11.1124
不停地	-11.1126
怪圈	-11.113
忽然	-11.1131
在你面前	-11.1133
制度	-11.1138
不妥	-11.1141
机器	-11.1143
多长时间	-11.1149
该怎样	-11.1157
扇	-11.1169
阴暗	-11.1171
以便	-11.1171
心甘情愿	-11.1172
设立	-11.1172
经济条件	-11.1172
思念	-11.1177
我个人觉得	-11.1178
看了你的问题	-11.119
并未	-11.1192
体内	-11.1211
过日子	-11.1211
祖	-11.1212
志同道合	-11.1212
荒	-11.1213
敏锐	-11.1213
踩	-11.1214
相处的过程中	-11.1215
读研	-11.1218
公众	-11.1221
***	-11.1227
性格内向	-11.1227
祝安好	-11.1227
状	-11.1227
类似于	-11.1234
很难做到	-11.1235
我个人认为	-11.1238
服从	-11.1244
染	-11.1245
赛	-11.1249
这个样子	-11.125
灾难	-11.1255
傲	-11.1257
厕	-11.1257
职责	-11.1258
放在心上	-11.126
盈	-11.1261
触动	-11.1261
讲究	-11.1261
现有的	-11.1262
网课	-11.1262
全职	-11.1266
1)	-11.1267
分成	-11.127
自如	-11.1271
美食	-11.1271
亲子	-11.1281
精神病	-11.1281
自己的兴趣	-11.1292
看待对待	-11.1295
对自己的要求	-11.1296
痕	-11.1298
飘	-11.13
过去的经历	-11.1304
货	-11.1305
例外	-11.1306
冷落	-11.1309
我们的大脑	-11.1315
学习效率	-11.1319
做点什么	-11.132
总有一天	-11.1322
天使	-11.1323
三次	-11.1328
互相理解	-11.1337
让步	-11.134
宗	-11.1343
&	-11.1345
壮	-11.1346
执念	-11.1346
伙	-11.1347
的初衷	-11.1348
教导	-11.1348
在你的描述中	-11.1351
在你身边	-11.1355
知己	-11.1355
会发生什么	-11.1358
大宝	-11.1363
有所不同	-11.1363
正常的现象	-11.1365
育儿	-11.1366
生活和工作	-11.1371
不知道你有没有	-11.1381
空气	-11.1385
预测	-11.1387
家庭教育	-11.139
迫切	-11.1392
虚假	-11.1393
慕	-11.1393
湾	-11.1395
公益	-11.1395
早已	-11.1397
脚步	-11.14
自己内心的想法	-11.14
会有不一样的	-11.14
提及	-11.1409
倾听者	-11.1416
坏话	-11.1417
星期	-11.1424
勤奋	-11.1428
的主人	-11.1429
器官	-11.1431
做一件事情	-11.1432
必要的时候	-11.1434
阿姨	-11.1436
契合	-11.1436
突发	-11.1437
相对来说	-11.1437
就不会再	-11.1439
进度	-11.1439
没有足够的	-11.144
答复	-11.1442
放纵	-11.1442
哈喽	-11.1445
打架	-11.1445
感悟	-11.1446
高效	-11.1447
能做的就是	-11.1448
那种感觉	-11.1449
最好的方式	-11.1452
改掉	-11.1455
财产	-11.1457
对你的态度	-11.1458
驱动	-11.1461
很苦恼	-11.1463
必然会	-11.1464
他人的评价	-11.1468
是一件好事	-11.1471
颓废	-11.1476
凑	-11.1476
裹	-11.1477
捷	-11.1477
羞	-11.1477
虐待	-11.148
觉醒	-11.1482
斗争	-11.1483
言论	-11.1488
反思一下	-11.149
控制不住自己	-11.1492
面临的问题	-11.1493
加油哦	-11.15
低自尊	-11.1504
丽	-11.1516
植	-11.1522
得失	-11.1524
秋	-11.1525
思虑	-11.1526
忘掉	-11.1527
单词	-11.1529
转移自己的注意力	-11.1529
婚恋	-11.153
能帮助到你	-11.153
在这段关系中	-11.1531
应该怎么做	-11.1534
一般情况下	-11.1537
势必	-11.154
最起码	-11.1543
顺着	-11.1543
专注力	-11.1545
找到合适的	-11.1548
坏处	-11.1548
个案	-11.1554
找寻	-11.1559
下定决心	-11.1567
博士	-11.1569
炎	-11.157
滋味	-11.157
开诚布公	-11.157
胜利	-11.1575
这不是你的错	-11.1578
不可控	-11.1586
双重	-11.1587
尽量避免	-11.159
正常现象	-11.1598
提起	-11.1599
90	-11.1604
划分	-11.1605
会好很多	-11.1613
幅	-11.1613
肠	-11.1613
忽	-11.1613
多巴胺	-11.1614
必定	-11.1614
确保	-11.1615
耗费	-11.1615
适当地	-11.1618
哇	-11.162
别扭	-11.1621
^	-11.1622
探讨一下	-11.1626
全身心	-11.1629
心理学知识	-11.1635
找咨询师	-11.1636
个人建议	-11.1639
之余	-11.164
那件事	-11.1643
尽情	-11.1648
什么事都	-11.1655
收回	-11.1657
剥夺	-11.1658
垮	-11.1659
办公室	-11.1661
两面	-11.1662
喜怒哀乐	-11.1663
盛	-11.1664
休学	-11.168
尽早	-11.1681
活成	-11.1681
轻松自然	-11.1693
。3)	-11.1693
来访	-11.1694
舒适区	-11.1694
分解	-11.1698
处于一种	-11.1698
瓜	-11.17
挨	-11.1703
炮	-11.1703
肆	-11.1709
一定程度的	-11.171
程序	-11.1714
婆媳关系	-11.1719
维护自己的	-11.172
逐	-11.173
不知如何	-11.1732
旅	-11.1734
反之	-11.1747
一定程度上	-11.1749
彼	-11.175
一个小小的	-11.175
隐忍	-11.1751
溯	-11.1752
绿	-11.1753
列举	-11.1754
暇	-11.1754
凭借	-11.1755
跟我说	-11.1756
心慌	-11.1766
短暂	-11.1769
没想到	-11.1773
痛快	-11.178
进入社会	-11.1784
一条路	-11.1791
典	-11.1794
值得拥有	-11.1796
撒娇	-11.1799
彻	-11.1801
咱	-11.1801
流程	-11.1803
部位	-11.1805
疏解	-11.1805
对你而言	-11.1805
发生冲突	-11.1814
咨询室	-11.1819
确立	-11.1823
宠爱	-11.1833
供参考	-11.1838
任何事情都	-11.1838
彩礼	-11.1844
幕	-11.1845
智商	-11.1845
f	-11.1845
绘画	-11.1846
便宜	-11.1847
耿耿于怀	-11.1847
构建	-11.1847
必经	-11.1849
见识	-11.1852
施加	-11.1852
百度	-11.1875
受欢迎	-11.1883
截	-11.1891
配不上	-11.1891
岁的孩子	-11.1895
大学毕业	-11.1895
一帆风顺	-11.1895
因人而异	-11.1896
有意识地	-11.1897
痘	-11.1897
气愤	-11.1897
吃醋	-11.19
主意	-11.1912
全然	-11.1916
塑	-11.1925
找个时间	-11.1925
是平等的	-11.1933
恼	-11.1936
拓	-11.1938
信仰	-11.1938
齿	-11.1939
本书	-11.1942
表露	-11.1942
偏执	-11.1944
很显然	-11.1951
走入	-11.1953
第二种	-11.1954
潜力	-11.1955
份工作	-11.1958
未成年	-11.196
合格	-11.1979
灌输	-11.1981
洋	-11.1982
嘲讽	-11.1986
朵	-11.1987
错觉	-11.1988
坚信	-11.199
标题	-11.1992
课堂	-11.1992
哭闹	-11.1995
在人际交往中	-11.1996
复发	-11.1999
很烦	-11.2
初期	-11.2007
性冲动	-11.2007
横	-11.2027
腰	-11.2031
严苛	-11.2032
承担起	-11.2032
饮	-11.2032
歉	-11.2033
疤	-11.2033
炫耀	-11.2034
姿	-11.2035
要素	-11.2041
仪式感	-11.2042
预约	-11.2045
未婚	-11.2047
打卡	-11.2052
释	-11.2054
让你感受到	-11.2054
从描述中	-11.206
自愿	-11.2068
曾经有过	-11.2071
读完	-11.2071
终点	-11.2074
学期	-11.2075
◎	-11.2078
勒	-11.2081
聆听	-11.2083
--	-11.2086
行为表现	-11.2098
大专	-11.2107
的一些行为	-11.2114
姐妹	-11.2121
最关键的	-11.2123
喂	-11.2124
发光	-11.2126
衍	-11.2126
绳	-11.2128
净	-11.2129
我们常说	-11.2129
舅	-11.2133
心仪的	-11.2137
最简单的	-11.2137
邀答	-11.2141
吸收	-11.2142
不见得	-11.2147
无意中	-11.2165
阿凉	-11.2174
井	-11.2174
垫	-11.2178
社交恐惧症	-11.2178
出国	-11.2179
崇拜	-11.2179
为啥	-11.2181
适得其反	-11.2181
放过自己	-11.2182
吖	-11.2185
越界	-11.2189
认错	-11.2189
深厚	-11.2196
修正	-11.2216
姆	-11.2217
开车	-11.222
宿	-11.2223
屡	-11.2223
农村	-11.2223
掩饰	-11.2223
挖	-11.2224
操控	-11.2226
志愿	-11.2226
佩服	-11.2227
桶	-11.2228
菲尔	-11.2232
受益	-11.2236
主题	-11.2237
打拼	-11.224
80	-11.2244
租房	-11.2259
疯狂	-11.2274
与此同时	-11.2274
兰	-11.2276
貌似	-11.2277
屁	-11.2279
不足以	-11.228
一股	-11.229
.........	-11.2297
拿出来	-11.2306
辱	-11.2319
扭	-11.232
强硬	-11.2321
抽烟	-11.2322
坚持下来	-11.2323
筋	-11.2324
嫂	-11.2324
浮现	-11.2324
脱敏	-11.2324
咨访关系	-11.2325
预防	-11.2325
自我暗示	-11.2326
捋	-11.2326
网恋	-11.2328
取悦	-11.2329
仁	-11.233
希望我的回答能对你有所帮助	-11.2334
动摇	-11.2336
精神疾病	-11.2343
女主	-11.2353
豆	-11.2365
贯	-11.2368
颜值	-11.2371
誉	-11.2373
须	-11.2373
象征	-11.2374
欣	-11.2374
审美	-11.2374
慈	-11.2375
相伴	-11.2377
分寸	-11.2377
帖	-11.2377
数据	-11.2378
散散步	-11.2379
纠	-11.2416
椅	-11.2418
燃	-11.2419
拒	-11.2422
采	-11.2456
呵	-11.2467
狭	-11.2469
雪	-11.2472
执	-11.2501
骚	-11.2518
昏	-11.2519
兽	-11.2519
I	-11.252
尺	-11.252
懈	-11.2522
喔	-11.2526
江	-11.2567
壁	-11.2568
佳	-11.2602
娶	-11.2616
苏	-11.2658
疯	-11.267
篮	-11.2673
乳	-11.2713
竞	-11.2719
O	-11.272
捉	-11.2721
签	-11.2721
雅	-11.2771
铃	-11.2775
末	-11.2806
狼	-11.282
拾	-11.2823
摊	-11.2824
夏	-11.2827
甩	-11.2827
洒	-11.2828
k	-11.2876
震	-11.2922
呕	-11.2922
刘	-11.2924
讯	-11.2926
壳	-11.2929
泛	-11.2977
岛	-11.2978
缝	-11.2978
抄	-11.2982
敏	-11.2994
企	-11.3023
扶	-11.3031
蓄	-11.3034
怜	-11.3078
汇	-11.3079
孔	-11.3081
淘	-11.3083
岂	-11.3083
辅	-11.3114
奥	-11.3131
涩	-11.3138
拳	-11.3141
瘾	-11.3153
淋	-11.3188
钻	-11.3189
绘	-11.3189
涉	-11.3189
络	-11.3191
参	-11.3209
饰	-11.3239
船	-11.324
批	-11.3245
逢	-11.3247
耍	-11.3287
裸	-11.3293
捡	-11.3296
旋	-11.3297
剥	-11.3298
郁	-11.3347
冠	-11.3348
喘	-11.3349
姑	-11.3353
串	-11.3403
仪	-11.3405
颗	-11.3442
映	-11.346
炼	-11.3461
丁	-11.3461
席	-11.3462
陆	-11.3462
蝶	-11.3466
R	-11.3515
H	-11.3521
涨	-11.3568
摧	-11.3571
突	-11.3604
赖	-11.361
羊	-11.3624
逸	-11.3625
覆	-11.3626
惠	-11.3628
径	-11.3681
撩	-11.3682
湖	-11.3682
孩	-11.3698
谢	-11.3719
劣	-11.3735
裕	-11.3739
苗	-11.379
银	-11.3791
漂	-11.3793
恰	-11.3814
厂	-11.3849
捏	-11.3852
阅	-11.3889
愚	-11.3903
箱	-11.3903
唤	-11.3905
虫	-11.391
叨	-11.3911
慨	-11.3912
候	-11.3938
厅	-11.396
跌	-11.3965
瞒	-11.3966
滚	-11.4021
痴	-11.4024
讳	-11.4027
仰	-11.4082
耀	-11.4083
E	-11.4084
渺	-11.4138
艾	-11.414
掩	-11.4141
暂	-11.4141
拨	-11.4143
窝	-11.4198
危	-11.4199
侧	-11.4253
腔	-11.4255
蒂	-11.4256
摘	-11.426
悬	-11.4261
肺	-11.4261
渐	-11.4283
司	-11.4292
v	-11.4311
🤩	-11.4315
臭	-11.4316
馆	-11.432
伏	-11.4371
桥	-11.4375
憎	-11.4377
揭	-11.4438
▶	-11.4439
鸭	-11.4441
叠	-11.4496
踢	-11.4497
瞎	-11.4501
田	-11.4555
歪	-11.4558
滞	-11.4558
蔽	-11.4559
恭	-11.456
娇	-11.4561
晴	-11.4562
娘	-11.4564
哒	-11.4568
伦	-11.461
番	-11.4617
塔	-11.4618
愧	-11.4623
挟	-11.4625
贬	-11.4734
睁	-11.4741
鲁	-11.4742
赤	-11.4743
秀	-11.4744
悠	-11.4747
英	-11.4795
谓	-11.4799
L	-11.4803
拦	-11.4805
锋	-11.4806
凌	-11.4807
谦	-11.4808
揪	-11.4873
曼	-11.4933
拙	-11.4934
臆	-11.4934
碍	-11.4964
鼠	-11.4986
鄙	-11.4998
肥	-11.5123
捕	-11.5124
扑	-11.5124
庆	-11.5127
臂	-11.5127
沿	-11.5128
欧	-11.5133
续	-11.5177
农	-11.5189
痒	-11.519
棘	-11.519
祟	-11.519
磕	-11.5191
康	-11.5195
慰	-11.5252
猎	-11.5254
乌	-11.5255
厨	-11.5259
°	-11.5264
验	-11.5267
w	-11.532
吾	-11.5322
颇	-11.5323
辣	-11.5324
酱	-11.5395
肝	-11.5454
卧	-11.5456
怯	-11.5458
辛	-11.5518
岗	-11.552
勿	-11.5523
滤	-11.5523
币	-11.5525
腻	-11.5525
窄	-11.5588
棵	-11.559
袒	-11.5591
详	-11.5654
昂	-11.5655
逗	-11.5656
惑	-11.5661
审	-11.5722
弯	-11.5724
跃	-11.5724
绑	-11.5725
盾	-11.573
嘻	-11.5734
渴	-11.5793
狱	-11.5864
葛	-11.5866
夕	-11.5867
丈	-11.5933
筹	-11.5934
朗	-11.5934
聘	-11.5934
涡	-11.5934
赘	-11.5936
膜	-11.5936
─	-11.594
档	-11.6003
邪	-11.6005
佩	-11.6005
诀	-11.6008
谣	-11.6008
孰	-11.6009
贱	-11.6072
洪	-11.6075
池	-11.6076
弥	-11.6077
亡	-11.6077
酷	-11.6077
诺	-11.6078
削	-11.6145
织	-11.6148
顽	-11.6149
亵	-11.6213
沦	-11.6218
枕	-11.622
宅	-11.622
妄	-11.6245
盲	-11.628
毕	-11.629
雾	-11.6292
捧	-11.6293
锦	-11.6294
遂	-11.6369
剑	-11.6435
镇	-11.6438
惰	-11.6441
耽	-11.6443
伐	-11.6512
贺	-11.6512
汀	-11.6517
虑	-11.6543
艰	-11.658
履	-11.6584
绵	-11.659
黏	-11.6592
盐	-11.6662
淹	-11.6663
眉	-11.6663
溢	-11.6665
鉴	-11.67
勇	-11.673
绪	-11.6732
晓	-11.6733
裤	-11.6734
芬	-11.6738
旗	-11.674
蜕	-11.6741
艳	-11.6741
怎	-11.6741
|	-11.6804
攒	-11.6815
剪	-11.6816
杆	-11.6817
概	-11.6884
奉	-11.689
矮	-11.6893
谊	-11.6896
碌	-11.696
尊	-11.6961
届	-11.6966
鞭	-11.6967
吉	-11.6969
挠	-11.6969
绽	-11.6972
―	-11.6976
稿	-11.7045
饥	-11.7046
溜	-11.7048
践	-11.7049
澜	-11.7049
赔	-11.705
吊	-11.7123
揣	-11.7124
梁	-11.7125
岸	-11.7125
槛	-11.7125
宫	-11.7125
隙	-11.7128
赴	-11.7203
览	-11.7207
弛	-11.7207
沾	-11.7208
袋	-11.7277
唐	-11.7282
衡	-11.7282
诵	-11.7282
搁	-11.7284
囊	-11.7285
姓	-11.7286
奴	-11.7287
窥	-11.729
崇	-11.7363
册	-11.7363
妆	-11.7364
俭	-11.7364
械	-11.7366
仗	-11.7367
兄	-11.7368
斩	-11.7368
爹	-11.7372
帽	-11.7447
咽	-11.7448
凝	-11.7449
邀	-11.7492
荷	-11.7527
仙	-11.7527
抑	-11.7528
凤	-11.7528
沛	-11.7528
裁	-11.7529
赎	-11.7529
砖	-11.7529
揽	-11.7529
滥	-11.7531
柜	-11.7532
霸	-11.7591
睹	-11.7604
盼	-11.7608
钩	-11.7609
嗦	-11.761
琴	-11.761
霉	-11.761
革	-11.7611
亿	-11.7612
乘	-11.7696
汰	-11.7698
洛	-11.7775
殊	-11.7777
汲	-11.7778
哎	-11.7778
掐	-11.7779
憾	-11.778
谱	-11.778
斤	-11.778
询	-11.7832
耕	-11.7862
猪	-11.7863
嚼	-11.7864
杜	-11.7865
昧	-11.7865
埃	-11.7867
皇	-11.7941
箭	-11.7944
瑕	-11.7954
奸	-11.8027
梯	-11.803
厘	-11.8033
颠	-11.8033
赠	-11.8039
购	-11.8119
宰	-11.8119
盟	-11.812
寡	-11.812
灾	-11.812
妒	-11.8123
彷	-11.8127
枝	-11.8207
戳	-11.8209
惩	-11.8211
舌	-11.8212
屑	-11.8296
倘	-11.8296
喷	-11.8298
惧	-11.8299
秉	-11.83
叙	-11.8303
尤	-11.8378
媳	-11.8382
殖	-11.8383
阔	-11.8383
盆	-11.8389
励	-11.839
芽	-11.8391
趟	-11.8392
寥	-11.8395
液	-11.8476
筑	-11.8476
杰	-11.8476
澡	-11.8479
掺	-11.8479
诈	-11.8481
纽	-11.8565
魄	-11.857
悼	-11.8571
杠	-11.8574
妨	-11.8601
攀	-11.8652
谷	-11.8656
坡	-11.8657
循	-11.8658
腐	-11.866
啃	-11.8661
噬	-11.8749
钢	-11.8749
寸	-11.875
党	-11.875
州	-11.8751
擅	-11.8752
浇	-11.8755
杨	-11.876
茫	-11.8839
链	-11.8842
献	-11.8843
蜜	-11.8845
讶	-11.8846
卓	-11.8847
贸	-11.8847
勃	-11.8847
遣	-11.8848
淫	-11.8931
瓦	-11.8933
醋	-11.8937
辆	-11.8939
陶	-11.8941
焉	-11.8941
⊙	-11.8942
诞	-11.8942
禅	-11.8943
馁	-11.8943
航	-11.8944
啰	-11.9033
驶	-11.9035
怂	-11.9035
敛	-11.9036
炒	-11.9128
罐	-11.9129
癌	-11.9132
嗜	-11.9133
苍	-11.9135
婶	-11.9135
疫	-11.9191
伞	-11.9224
腺	-11.9224
援	-11.9225
坠	-11.9225
叔	-11.9227
婆	-11.9313
钉	-11.9325
济	-11.9325
誓	-11.933
恕	-11.9331
〰	-11.9332
卑	-11.9424
腕	-11.9425
踪	-11.9426
刹	-11.9426
羁	-11.9427
府	-11.9427
脂	-11.9517
译	-11.9519
仿	-11.9524
泼	-11.9525
挽	-11.9526
灿	-11.953
驻	-11.9533
哺	-11.9623
磁	-11.9626
庄	-11.963
๑	-11.9635
韧	-11.9724
芥	-11.9728
媒	-11.9729
弗	-11.9729
蹭	-11.9729
慎	-11.9831
衬	-11.9832
拐	-11.9832
<	-11.9837
刑	-11.9929
兑	-11.9935
雄	-11.9936
搏	-11.9936
陋	-11.9937
殿	-11.9941
嘿	-11.9943
晰	-12.0032
汤	-12.0033
V	-12.0039
棍	-12.0039
泰	-12.0039
́	-12.005
廉	-12.0143
猴	-12.0144
蛇	-12.0145
肿	-12.0146
栏	-12.0147
绷	-12.0148
窍	-12.0149
饼	-12.0149
〔	-12.0149
〕	-12.0149
肾	-12.0149
竹	-12.015
咨	-12.0153
沟	-12.0185
這	-12.0205
津	-12.0241
竟	-12.0242
朋	-12.025
宾	-12.0251
烙	-12.0252
浴	-12.0254
陀	-12.0254
颤	-12.0255
库	-12.0256
斜	-12.0257
浏	-12.0259
冬	-12.0342
⏩	-12.0358
煮	-12.0359
咳	-12.0361
丛	-12.0363
淌	-12.0368
希	-12.0471
晶	-12.0472
祈	-12.0472
兆	-12.0474
枪	-12.0474
睬	-12.0476
驴	-12.0481
愛	-12.0483
挫	-12.055
摒	-12.0583
罢	-12.0596
蕴	-12.0692
辉	-12.0695
溃	-12.0695
撤	-12.0697
墨	-12.0697
霍	-12.0698
棋	-12.0699
灼	-12.0702
咸	-12.0702
膀	-12.0702
芒	-12.0801
瞧	-12.0807
鸣	-12.081
迪	-12.0813
烫	-12.0814
麦	-12.0815
酌	-12.0815
柏	-12.0816
奏	-12.0909
窘	-12.0923
姥	-12.0925
隘	-12.0926
咯	-12.0927
喉	-12.0927
唉	-12.0927
翅	-12.0929
悯	-12.0931
域	-12.1009
岳	-12.1035
伪	-12.104
蹦	-12.1045
沼	-12.1045
螺	-12.1051
携	-12.1157
宏	-12.1158
昨	-12.1158
嘱	-12.1161
胀	-12.1161
捅	-12.1162
狐	-12.1167
Z	-12.1169
兜	-12.117
赋	-12.127
汁	-12.1271
申	-12.1276
疮	-12.1278
伍	-12.1278
肋	-12.1281
拢	-12.1282
岔	-12.1285
伊	-12.139
贤	-12.1395
逾	-12.1397
捣	-12.1397
蔓	-12.1399
谅	-12.1399
裙	-12.1402
舔	-12.1403
湿	-12.1521
劈	-12.1522
拽	-12.1522
唬	-12.1522
觅	-12.1523
掰	-12.1523
豁	-12.1524
尸	-12.1642
朱	-12.1642
腆	-12.1643
丫	-12.1643
扼	-12.1644
掏	-12.1646
梅	-12.1646
灌	-12.1646
贞	-12.1647
乞	-12.1648
琐	-12.1659
拥	-12.1675
粮	-12.1763
钮	-12.1763
恳	-12.1768
悸	-12.1768
葩	-12.1768
诅	-12.1769
棱	-12.1769
魅	-12.1769
饶	-12.1771
隶	-12.1772
矣	-12.1776
`	-12.1778
框	-12.189
叉	-12.189
茧	-12.1892
糕	-12.1895
苟	-12.1896
柴	-12.1898
玄	-12.19
菌	-12.1901
贝	-12.2015
稻	-12.2016
堡	-12.2021
钓	-12.2021
障	-12.2025
嘲	-12.2027
褪	-12.2151
粒	-12.2154
曰	-12.2156
驰	-12.2156
唠	-12.2156
乙	-12.2156
邻	-12.2157
穴	-12.2158
枯	-12.2159
為	-12.2196
蔬	-12.2279
驳	-12.2285
娩	-12.2285
跪	-12.2286
茄	-12.2287
汽	-12.2288
筒	-12.2288
诫	-12.2288
眷	-12.2288
噜	-12.2415
肚	-12.2415
韩	-12.2416
梗	-12.2417
驼	-12.2418
翔	-12.242
酗	-12.2422
悖	-12.2422
冻	-12.2552
恍	-12.2553
蹲	-12.2553
盗	-12.2555
惶	-12.2555
盒	-12.2555
庞	-12.2556
叮	-12.2556
彰	-12.2558
婉	-12.2558
氧	-12.2559
钝	-12.2684
咪	-12.2686
逊	-12.2691
墓	-12.2692
驭	-12.2694
邋	-12.2694
缕	-12.2696
什	-12.2726
個	-12.2763
颈	-12.2822
悉	-12.2824
朦	-12.2828
凸	-12.2828
卜	-12.283
柳	-12.2832
跤	-12.2834
囤	-12.2836
刁	-12.2836
來	-12.2859
庭	-12.2942
培	-12.295
盯	-12.2955
契	-12.2965
仓	-12.2968
玲	-12.297
虹	-12.2971
芳	-12.2972
锤	-12.2973
羽	-12.2974
弦	-12.2974
弈	-12.2977
妮	-12.3097
兮	-12.3106
肢	-12.311
键	-12.3113
侄	-12.3113
翁	-12.3113
颖	-12.3114
‍	-12.3115
川	-12.3115
嘘	-12.3115
殆	-12.3116
窃	-12.3116
遢	-12.3118
會	-12.3137
垂	-12.3257
葬	-12.3258
锐	-12.3258
榜	-12.3258
惭	-12.326
揉	-12.326
飙	-12.3398
橡	-12.3403
咎	-12.3405
萎	-12.3406
祥	-12.3408
舟	-12.3409
🤗	-12.341
們	-12.3439
纲	-12.3547
晦	-12.3549
臣	-12.355
q	-12.3555
茬	-12.3556
淑	-12.3558
寿	-12.3559
桃	-12.3562
谧	-12.3567
j	-12.369
蔑	-12.37
嚷	-12.3703
迅	-12.3704
坟	-12.3705
召	-12.3705
刃	-12.3707
撼	-12.371
砍	-12.3711
慧	-12.3713
'	-12.3716
恬	-12.3718
侠	-12.3854
县	-12.3855
凯	-12.3855
屎	-12.3859
驯	-12.3859
庇	-12.386
骄	-12.3862
赐	-12.3862
甄	-12.3864
熏	-12.3864
籍	-12.3966
剖	-12.4007
劫	-12.4007
瞬	-12.401
宵	-12.4012
悄	-12.4012
沫	-12.4014
朴	-12.4014
殴	-12.4014
肌	-12.4014
珠	-12.4016
撇	-12.4017
晃	-12.4018
泽	-12.4018
毅	-12.4167
郎	-12.4172
鹿	-12.4172
婿	-12.4174
拧	-12.4179
倦	-12.4179
哲	-12.4329
巅	-12.4331
榨	-12.4333
枚	-12.4334
瑟	-12.4335
亢	-12.4336
K	-12.4339
倔	-12.4339
U	-12.4341
膊	-12.4494
披	-12.45
🤔	-12.4504
胶	-12.4505
曝	-12.4505
呈	-12.4613
莱	-12.4657
壤	-12.4665
棉	-12.4666
脖	-12.4669
纹	-12.4669
嗓	-12.4669
G	-12.4669
雌	-12.4671
怦	-12.4671
栽	-12.4672
妖	-12.4673
Y	-12.4674
鲸	-12.4675
麼	-12.4745
伟	-12.4821
暮	-12.4831
乒	-12.4832
铭	-12.4837
寝	-12.4837
卵	-12.4838
{	-12.4839
耶	-12.484
硕	-12.484
J	-12.4841
惘	-12.4842
媚	-12.4842
瑾	-12.485
媽	-12.4869
辙	-12.5002
嫖	-12.5003
碑	-12.5005
谬	-12.5006
菲	-12.5007
懦	-12.5009
翼	-12.5013
矜	-12.5017
▽	-12.5022
乃	-12.5064
冥	-12.5141
疚	-12.5178
斑	-12.5183
袜	-12.5183
婷	-12.5183
芝	-12.5185
扮	-12.5185
吝	-12.5187
漆	-12.5187
芸	-12.5187
晾	-12.5188
崖	-12.5189
罕	-12.519
蜷	-12.519
搅	-12.5191
滔	-12.5355
≠	-12.536
酵	-12.5362
膝	-12.5362
肖	-12.5364
丹	-12.5365
睐	-12.5366
绎	-12.5367
嚣	-12.5367
闺	-12.5372
绩	-12.5532
讷	-12.5534
躯	-12.5539
粥	-12.554
Ю	-12.554
帘	-12.5541
W	-12.5541
抠	-12.5542
巾	-12.5542
莽	-12.5544
洲	-12.5544
旷	-12.5544
桑	-12.5545
兔	-12.5545
胁	-12.5545
沐	-12.5545
睿	-12.5546
匿	-12.5547
逞	-12.5548
唾	-12.5553
勉	-12.5722
瘤	-12.5727
椎	-12.5728
浸	-12.5728
桎	-12.573
乍	-12.5731
隆	-12.5731
崭	-12.5731
靡	-12.5731
秽	-12.5731
雇	-12.5732
砺	-12.5733
酿	-12.5733
皱	-12.5734
喧	-12.5735
竿	-12.5735
壶	-12.5737
浩	-12.5739
說	-12.5803
鸿	-12.5916
伺	-12.5918
竖	-12.5918
萨	-12.5918
糙	-12.5919
筷	-12.5919
焕	-12.5919
膨	-12.592
烤	-12.592
晋	-12.5922
帐	-12.5922
矢	-12.5922
尬	-12.5924
冤	-12.5927
搓	-12.5928
叛	-12.61
殷	-12.6104
佐	-12.6107
z	-12.6112
荆	-12.6114
袖	-12.6114
聪	-12.6114
揍	-12.6115
蚊	-12.6117
犬	-12.612
遵	-12.6293
骆	-12.63
蚀	-12.6304
渗	-12.6306
陌	-12.6306
腥	-12.6307
央	-12.6308
搪	-12.6311
沌	-12.6312
🤝	-12.6314
嫩	-12.6315
話	-12.6369
淤	-12.6503
糗	-12.6505
迂	-12.6506
努	-12.6508
戈	-12.6508
郑	-12.651
倚	-12.6511
沸	-12.6512
撸	-12.6513
狡	-12.6513
沒	-12.6537
沃	-12.6704
囚	-12.6707
魂	-12.6708
碳	-12.671
钦	-12.6713
怡	-12.6714
奠	-12.6715
犒	-12.6716
佬	-12.6717
ヾ	-12.6724
堪	-12.6761
涯	-12.6806
孟	-12.691
茨	-12.6911
嘉	-12.6913
俊	-12.6914
吟	-12.6915
邦	-12.6915
棚	-12.6915
狮	-12.6916
泊	-12.6916
俯	-12.6917
戾	-12.6917
漱	-12.6918
邮	-12.6919
拗	-12.6921
偕	-12.6922
夷	-12.6922
燥	-12.6923
哑	-12.6923
叭	-12.6924
痔	-12.6925
對	-12.695
實	-12.6967
曹	-12.7097
醇	-12.7121
匹	-12.7122
¶	-12.7125
拟	-12.7127
轰	-12.7127
析	-12.7128
秦	-12.713
捂	-12.7131
桩	-12.7134
谛	-12.7134
柄	-12.7138
枉	-12.7138
昵	-12.7138
乔	-12.7139
玛	-12.7343
萝	-12.7346
忆	-12.7347
渲	-12.7348
昔	-12.7349
蚁	-12.735
衔	-12.7351
匪	-12.7351
堕	-12.7352
拎	-12.7353
△	-12.7355
缪	-12.7356
茅	-12.7356
過	-12.7397
瑞	-12.756
僧	-12.7566
允	-12.7569
窦	-12.7572
鲍	-12.7573
徐	-12.7573
郊	-12.7574
矩	-12.7575
瞻	-12.7576
忡	-12.7576
蛙	-12.7578
煌	-12.7578
刨	-12.7579
纱	-12.758
枫	-12.7584
§	-12.7787
涕	-12.7795
褒	-12.7799
茂	-12.7801
谜	-12.7803
嗅	-12.7806
韵	-12.7806
霜	-12.7807
呦	-12.781
噪	-12.8003
堤	-12.8017
杭	-12.8027
萍	-12.8029
翩	-12.8029
泉	-12.8031
歧	-12.8031
拮	-12.8032
咕	-12.8032
蜂	-12.8036
跷	-12.8036
宴	-12.8036
挪	-12.8038
呃	-12.8043
毫	-12.8204
幽	-12.8262
凳	-12.8268
辑	-12.827
鹅	-12.8271
姻	-12.8272
刮	-12.8274
捶	-12.8277
喽	-12.8279
🦄	-12.828
蹈	-12.8504
缸	-12.8507
寓	-12.8507
祷	-12.851
脾	-12.8511
瘫	-12.8512
烹	-12.8513
猝	-12.8515
阀	-12.8517
掂	-12.852
∇	-12.8526
轴	-12.8757
岭	-12.8762
倡	-12.8763
筛	-12.8764
蔡	-12.8764
阈	-12.8765
洽	-12.8768
阐	-12.8768
雀	-12.9008
啪	-12.9014
蚂	-12.9018
矿	-12.9019
厉	-12.9019
坛	-12.902
絮	-12.9021
帕	-12.9023
▷	-12.9023
旨	-12.9024
掀	-12.9024
嗑	-12.9029
捐	-12.9029
覺	-12.9077
浑	-12.9257
濡	-12.9276
迭	-12.9278
绒	-12.928
碾	-12.928
遏	-12.9281
犀	-12.9282
役	-12.9284
恃	-12.9285
奕	-12.9286
茁	-12.9287
⏫	-12.9288
涟	-12.9291
雕	-12.9292
⋯	-12.9293
京	-12.9543
渊	-12.9548
贩	-12.9548
拴	-12.955
贼	-12.955
丘	-12.955
盔	-12.955
燕	-12.9551
紫	-12.9554
萦	-12.9554
蒸	-12.9554
钙	-12.9557
烘	-12.9558
坍	-12.9559
橘	-12.956
稚	-12.9561
媛	-12.9562
捆	-12.9822
峙	-12.9825
哮	-12.9826
卿	-12.9828
瑜	-12.9828
秤	-12.9829
}	-12.983
售	-12.9831
颂	-12.9831
娼	-12.9834
汹	-12.9834
稽	-12.9834
葱	-12.9835
绸	-12.9835
傍	-12.9835
惚	-12.9835
诧	-12.9836
哗	-12.9836
杞	-12.984
咖	-12.9843
別	-12.9877
ㄓ	-13.0108
憨	-13.011
剔	-13.0112
梳	-13.0117
凰	-13.0117
泻	-13.0117
嫉	-13.0117
垒	-13.0118
匀	-13.0118
址	-13.0119
煤	-13.012
佣	-13.012
肛	-13.0121
￼	-13.0123
僻	-13.0123
诶	-13.0123
暑	-13.0123
渔	-13.0123
弓	-13.0123
黎	-13.0124
蜗	-13.0124
樣	-13.0165
仔	-13.0397
屠	-13.0403
偎	-13.0406
叽	-13.0408
靓	-13.0408
扁	-13.0408
涣	-13.041
缈	-13.0412
侯	-13.0412
溪	-13.0412
歹	-13.0413
×	-13.0413
膏	-13.0415
丸	-13.0416
熄	-13.0417
铛	-13.0418
堑	-13.0418
辟	-13.0419
澈	-13.0419
噩	-13.0423
問	-13.0441
怠	-13.0702
趴	-13.0706
旦	-13.0706
吭	-13.0708
斧	-13.071
赵	-13.0712
吴	-13.0715
庙	-13.0716
唇	-13.0717
坊	-13.0718
峻	-13.0718
彤	-13.0722
還	-13.078
骤	-13.082
槽	-13.1017
抒	-13.1017
腊	-13.1019
柯	-13.1019
遛	-13.102
鼾	-13.1022
梨	-13.1024
咐	-13.1024
簧	-13.1026
摹	-13.1027
矛	-13.1028
怅	-13.1028
呜	-13.1028
莲	-13.1029
樊	-13.1029
迥	-13.103
甸	-13.103
盏	-13.1031
董	-13.1032
嘟	-13.1034
愣	-13.1035
沓	-13.1336
澳	-13.1341
佑	-13.1342
篱	-13.1343
禀	-13.1344
馋	-13.1345
珊	-13.1345
莉	-13.1349
蓬	-13.1349
讥	-13.135
哼	-13.135
豫	-13.1351
咧	-13.1353
嗷	-13.1353
馅	-13.1353
〖	-13.1354
〗	-13.1354
厢	-13.1356
藤	-13.1356
趾	-13.1357
寐	-13.1357
奈	-13.1359
孽	-13.1381
時	-13.1386
仆	-13.1677
孜	-13.1679
沧	-13.168
淀	-13.168
胺	-13.1681
濒	-13.1681
毋	-13.1681
纾	-13.1681
嬉	-13.1682
岩	-13.1682
瓣	-13.1683
蝇	-13.1683
儒	-13.1683
杖	-13.1684
涛	-13.1684
秃	-13.1686
蛾	-13.1687
🧡	-13.1691
帆	-13.1691
癔	-13.1693
內	-13.1694
題	-13.1713
滨	-13.1999
畜	-13.2017
焰	-13.2022
捞	-13.2023
翰	-13.2024
枢	-13.2025
毯	-13.2026
呛	-13.2026
烛	-13.2027
炉	-13.2029
羡	-13.203
嗤	-13.203
冶	-13.203
锚	-13.2032
敷	-13.2038
於	-13.2066
督	-13.2068
讓	-13.2084
掠	-13.2372
谤	-13.2374
愉	-13.2374
赦	-13.2375
喃	-13.2382
祭	-13.2383
◇	-13.2384
亘	-13.2385
凄	-13.2386
芹	-13.2386
宇	-13.2388
淇	-13.2388
搂	-13.2389
琪	-13.2389
丨	-13.2391
鸦	-13.2391
嵌	-13.2392
ᴗ	-13.2392
蕾	-13.2735
诽	-13.2744
ㄛ	-13.2746
娜	-13.2747
魁	-13.2749
爪	-13.2751
卢	-13.2752
迸	-13.2753
绞	-13.2754
厮	-13.2754
ぴ	-13.2756
亟	-13.2756
汪	-13.2757
瞩	-13.2758
郭	-13.2758
鸩	-13.2758
恪	-13.276
莹	-13.2763
涅	-13.2763
敞	-13.2977
栗	-13.3127
痣	-13.3128
眨	-13.3129
扒	-13.3132
韦	-13.3133
睫	-13.3135
啼	-13.3135
氏	-13.3136
凿	-13.3136
栋	-13.3137
鹰	-13.3138
诡	-13.3138
赫	-13.3138
掷	-13.314
蔚	-13.314
绰	-13.3141
俏	-13.3142
娱	-13.3143
灸	-13.3144
遐	-13.3145
梭	-13.3146
潭	-13.3146
靶	-13.3149
關	-13.3161
親	-13.3162
拂	-13.3529
翘	-13.3529
崎	-13.353
瞅	-13.3534
铸	-13.3535
躬	-13.3536
踮	-13.3537
炫	-13.3539
囧	-13.354
纬	-13.3542
🥰	-13.3543
颓	-13.3543
撮	-13.3544
悍	-13.3544
龟	-13.3545
霆	-13.3545
鸽	-13.3545
宕	-13.3545
鳞	-13.3545
哔	-13.3546
勺	-13.3547
仲	-13.3547
Ш	-13.3942
距	-13.3946
矫	-13.3951
喳	-13.3951
押	-13.3954
慑	-13.3954
拣	-13.3961
哆	-13.3962
憩	-13.3962
嗡	-13.3965
∀	-13.3968
耿	-13.4394
藉	-13.4397
旺	-13.4844
粹	-13.4851
讽	-13.5329
睦	-13.5756
⇨	-13.6889
菇	-13.6897
卦	-13.6902
琢	-13.6904
蛛	-13.7482
霾	-13.7497
泳	-13.7498
锻	-13.8117
脆	-13.8779
括	-13.878
泣	-13.878
戚	-13.8799
缚	-13.9493
惮	-13.9497
玫	-13.9508
杏	-14.0268
荐	-14.0272
侮	-14.1095
肽	-14.1106
谐	-14.1929
煎	-14.1993
俄	-14.2014
渠	-14.4111
啡	-14.4132
̀	-14.4137
泌	-14.5366
檐	-14.5367
御	-14.5378
苛	-14.6786
睛	-14.6801
蒜	-14.6809
潇	-14.6809
侣	-14.8434
瑶	-14.8444
瑰	-14.8452
笃	-14.8456
尴	-14.8477
贡	-15.0418
肃	-15.0483
牲	-15.294
狄	-15.2959
恢	-15.2966
掘	-15.2966
侃	-15.2969
扉	-15.6149
惫	-15.6267
绍	-15.6281
藕	-15.6304
伽	-15.6309
馨	-15.632
舆	-16.1255
谴	-16.1269
逻	-16.1295
疙	-16.1296
讪	-16.13
懊	-16.1303
浦	-16.1314
怖	-16.1316
宙	-17.1129
秩	-17.1152
髅	-17.1182
骷	-17.1183
酝	-17.1184
蛔	-17.1185
缜	-17.1186
筝	-17.1187
瘠	-17.1188
膳	-17.1189
澎	-17.119
湃	-17.1191
慷	-17.1192
辕	-17.1193
蹉	-17.1194
踵	-17.1195
跎	-17.1196
绛	-17.1197
瘁	-17.1198
痿	-17.1199
崛	-17.12
◾	-17.1201
讼	-17.1202
瞌	-17.1203
拇	-17.1204
幌	-17.1205
‿	-17.1206
憔	-17.1207
悴	-17.1208
彬	-17.1209
呱	-17.121
◕	-17.1211
鸵	-17.1212
蔼	-17.1213
滕	-17.1214
邂	-17.1215
逅	-17.1216
惋	-17.1216
抨	-17.1217
黯	-17.1218
躇	-17.1219
踌	-17.122
葡	-17.1221
萄	-17.1222
缥	-17.1223
氓	-17.1224
馒	-17.1225
阉	-17.1226
砝	-17.1227
岌	-17.1228
兀	-17.1229
镳	-17.123
辄	-17.1231
狈	-17.1232
漪	-17.1233
゙	-17.1234
饪	-17.1235
暄	-17.1236
畸	-17.1237
惺	-17.1238
辗	-17.1239
绚	-17.124
熠	-17.1241
咙	-17.1242
呻	-17.1243
̆	-17.1244
婪	-17.1245
忏	-17.1246
铠	-17.1247
扪	-17.1248
丐	-17.1249
髓	-17.125
肪	-17.1251
懑	-17.1252
┈	-17.1253
圳	-17.1254
侬	-17.1255
惬	-17.1256
喋	-17.1257
耘	-17.1258
鼹	-17.1259
蜚	-17.126
啬	-17.1261
佼	-17.1262
梏	-17.1263
缤	-17.1264
阂	-17.1264
猬	-17.1265
咀	-17.1266
狸	-17.1267
乓	-17.1268
衅	-17.1269
斟	-17.127
胳	-17.1271
惴	-17.1272
骛	-17.1273
嗽	-17.1274
咄	-17.1275
▪	-17.1276
嘈	-17.1277
胧	-17.1278
辍	-17.1279
蹶	-17.128
◍	-17.1281
谩	-17.1282
痹	-17.1283
诠	-17.1284
腼	-17.1285
愫	-17.1286
侥	-17.1287
疵	-17.1288
淆	-17.1289
钥	-17.1289
锢	-17.129
赡	-17.1291
徨	-17.1292
譬	-17.1293
阱	-17.1294
┅	-17.1295
侈	-17.1296
兢	-17.1297
匙	-17.1297
漩	-17.1298
惦	-17.1299
̅	-17.13
蝴	-17.1301
捍	-17.1302
痊	-17.1303
傅	-17.1304
巩	-17.1305
诋	-17.1305
瘩	-17.1305
蘑	-17.1306
猥	-17.1307
肮	-17.1308
紊	-17.1309
聆	-17.131
漓	-17.131
窒	-17.131
畴	-17.1311
徘	-17.1312
徊	-17.1313
袱	-17.1314
忑	-17.1315
忐	-17.1316
璃	-17.1317
玻	-17.1318
蹴	-17.1319
苹	-17.132
坷	-17.1321
胞	-17.1322
憬	-17.1323
憧	-17.1324
枷	-17.1325
匆	-17.1326
澄	-17.1327
̄	-17.1328
拯	-17.1329
ᨐ	-17.133
惕	-17.1331
寞	-17.1332
抉	-17.1333
垃	-17.1334
圾	-17.1335
辜	-17.1336
匮	-17.1337
沮	-17.1338
⃣	-17.1339
牺	-17.134
暧	-17.1341
氛	-17.1342
馈	-17.1343
刍	-17.1344
础	-17.1344
