<unk>	0
<s>	0
</s>	0
,	-2.16087
。	-3.2856
的	-3.95737
你	-4.71975
了	-5.07805
?	-5.0989
和	-5.14012
是	-5.15791
自己	-5.24151
在	-5.29067
我	-5.42443
、	-5.53812
有	-5.61948
我们	-5.72924
“	-5.75652
不	-5.77136
他	-5.77571
!	-5.81545
也	-5.84875
就	-5.98157
去	-5.99414
”	-6.04321
可以	-6.04994
而	-6.06355
所以	-6.1191
会	-6.12849
呢	-6.16684
的时候	-6.20578
她	-6.22366
没有	-6.23919
但是	-6.2552
因为	-6.27306
如果	-6.27733
:	-6.28838
但	-6.29359
对	-6.31177
要	-6.3478
人	-6.36587
的人	-6.36801
来	-6.37856
都	-6.39883
可能	-6.40262
就是	-6.41873
楼主	-6.42391
一个	-6.42993
或者	-6.43174
需要	-6.48045
他们	-6.48065
这	-6.49428
孩子	-6.51341
题主	-6.51519
一些	-6.52667
从	-6.53335
还是	-6.54983
中	-6.55117
时	-6.55971
好	-6.56383
这个	-6.57356
其实	-6.58861
想	-6.59094
这样	-6.59113
说	-6.59222
那么	-6.60282
父母	-6.61661
别人	-6.62673
上	-6.64051
与	-6.65592
被	-6.67314
很	-6.69339
对方	-6.70158
能	-6.76049
你的	-6.76256
吗	-6.76651
学习	-6.76994
多	-6.8045
问题	-6.82432
现在	-6.82978
到	-6.83511
】	-6.84763
情绪	-6.85191
那	-6.85588
做	-6.86627
工作	-6.87059
用	-6.874
地	-6.90118
自己的	-6.90711
一	-6.91422
把	-6.9211
对于	-6.92981
这种	-6.93576
生活	-6.93765
吧	-6.94409
这些	-6.94439
选择	-6.95264
更	-6.95352
不是	-6.95913
比如	-6.96506
的事情	-6.97894
只是	-6.97996
您	-7.00704
;	-7.0097
过	-7.01284
能够	-7.01631
都是	-7.02275
又	-7.02341
爱	-7.03129
你好	-7.05788
让自己	-7.06737
【	-7.07522
觉得	-7.08406
也是	-7.08537
还	-7.08657
什么	-7.08952
的话	-7.09043
再	-7.09577
性	-7.10267
看	-7.11837
感觉	-7.14613
关系	-7.15009
后	-7.1648
比较	-7.1731
为	-7.17785
改变	-7.17964
祝好	-7.18206
很多	-7.19092
大	-7.19279
然后	-7.19648
不要	-7.20629
朋友	-7.20687
(	-7.20752
先	-7.21372
你们	-7.22246
让你	-7.22708
里	-7.22871
下	-7.22923
着	-7.23073
它	-7.23288
喜欢	-7.25274
想要	-7.27701
开始	-7.27894
当	-7.29252
已经	-7.29525
等	-7.29611
就会	-7.30162
沟通	-7.30197
内心	-7.30636
首先	-7.30907
自我	-7.31714
或	-7.32248
的问题	-7.32381
也许	-7.34396
也会	-7.34494
不能	-7.3452
一下	-7.3493
最后	-7.35409
焦虑	-7.3554
之后	-7.35899
妈妈	-7.36858
面对	-7.37554
让	-7.38087
努力	-7.39831
得	-7.4052
而且	-7.4113
一个人	-7.4127
通过	-7.41282
或许	-7.41553
甚至	-7.41668
当然	-7.41799
希望	-7.42295
看到	-7.426
真的	-7.42982
无法	-7.44346
小	-7.45168
害怕	-7.46735
进行	-7.46786
没	-7.48071
心	-7.48292
心理	-7.48929
非常	-7.49278
不好	-7.49688
影响	-7.50571
并且	-7.50629
并	-7.50806
应该	-7.50954
以	-7.51031
如何	-7.51348
时间	-7.51441
最	-7.51936
～	-7.52515
”,	-7.52517
却	-7.53299
是否	-7.53748
一样	-7.54162
这是	-7.54165
你可以	-7.5459
一直	-7.5459
一点	-7.54946
出	-7.55341
点	-7.55861
有些	-7.56356
当你	-7.60111
虽然	-7.60618
以后	-7.6074
我想	-7.60857
跟	-7.61006
)	-7.61192
还有	-7.61889
担心	-7.62398
痛苦	-7.62401
不会	-7.62773
压力	-7.64449
接受	-7.64913
等等	-7.65096
表达	-7.65248
如果你	-7.65534
老师	-7.65746
对你	-7.66306
理解	-7.66838
总是	-7.67172
给	-7.67644
事情	-7.68854
对自己	-7.69083
的方式	-7.69318
能力	-7.69407
只有	-7.69655
也可以	-7.70176
他人	-7.705
那些	-7.71228
因此	-7.71443
成长	-7.71525
以及	-7.71809
是不是	-7.71848
感情	-7.71874
帮助	-7.71922
找到	-7.72076
家庭	-7.72168
之前	-7.72238
一种	-7.72575
啊	-7.73063
建议	-7.74505
知道	-7.75279
产生	-7.75362
才	-7.75621
人生	-7.75934
同时	-7.76453
为什么	-7.76847
的事	-7.77037
的感觉	-7.7801
太	-7.78034
所	-7.78432
事	-7.78457
思考	-7.78732
可	-7.7931
感受	-7.79536
母亲	-7.80476
不同	-7.80689
特别	-7.81743
了解	-7.81767
这样的	-7.82048
行为	-7.8239
将	-7.82806
解决	-7.82856
给你	-7.83036
的情绪	-7.83221
来说	-7.83418
而是	-7.83763
一起	-7.83819
个	-7.83865
并不是	-7.84081
更加	-7.84115
出现	-7.84389
相处	-7.84506
感	-7.84549
而不是	-7.84586
状态	-7.84825
才能	-7.84856
原因	-7.85201
学会	-7.85706
都会	-7.86016
比	-7.86232
题主你好	-7.86747
心里	-7.87022
高	-7.8736
不想	-7.87462
得到	-7.87625
那个	-7.87674
的原因	-7.87845
我觉得	-7.87966
感到	-7.88083
慢慢	-7.88249
~	-7.88397
找	-7.89926
像	-7.90006
认为	-7.90059
家	-7.90096
方式	-7.90807
发现	-7.90969
于	-7.91078
的关系	-7.91494
给自己	-7.91579
子	-7.91905
交流	-7.9193
打	-7.92785
学	-7.92978
获得	-7.93405
无	-7.93651
目标	-7.93681
关注	-7.93931
似乎	-7.94009
是一个	-7.9407
的想法	-7.94798
确实	-7.94802
不知道	-7.95143
听	-7.95373
继续	-7.95678
有时候	-7.95682
怎么	-7.95823
结果	-7.95905
相信	-7.96116
关于	-7.96271
为了	-7.96554
身体	-7.96554
的状态	-7.96754
楼主你好	-7.96788
过去	-7.96809
只	-7.97269
情况	-7.97345
坚持	-7.97365
......	-7.9849
经历	-7.99011
社会	-7.99304
是什么	-7.99358
尝试	-7.99493
毕竟	-7.99538
世界和我爱着你	-7.99573
每天	-7.9982
家人	-8.01088
未来	-8.01326
一定	-8.01521
方法	-8.01815
的地方	-8.02272
的行为	-8.02381
呀	-8.02591
存在	-8.0263
肯定	-8.03098
真正	-8.03419
可是	-8.03664
发展	-8.03801
咨询师	-8.03929
走	-8.04621
主动	-8.05072
接纳	-8.05087
起来	-8.05626
去做	-8.05794
遇到	-8.06098
抱抱你	-8.06478
彼此	-8.06791
情感	-8.06941
者	-8.06976
看看	-8.07896
可能会	-8.08439
越	-8.09027
其他	-8.0922
要求	-8.09342
保持	-8.09447
经常	-8.0949
的生活	-8.09657
生	-8.09754
自卑	-8.09951
这件事	-8.10129
谁	-8.10232
在一起	-8.10713
分	-8.1083
向	-8.10919
好好	-8.1097
他的	-8.10988
伤害	-8.11075
作为	-8.11089
前	-8.1124
哦	-8.11515
方面	-8.11588
拒绝	-8.11723
的感受	-8.1184
发生	-8.12372
想法	-8.12556
控制	-8.12621
很难	-8.12632
不过	-8.12678
快乐	-8.13394
只要	-8.14025
恐惧	-8.14083
处理	-8.14132
积极	-8.14464
自信	-8.14471
也有	-8.14684
家长	-8.15008
的是	-8.15184
发	-8.15223
父亲	-8.153
”。	-8.15443
这个问题	-8.15873
爱情	-8.16026
的东西	-8.16297
钱	-8.16323
加油	-8.16391
付出	-8.1656
觉得自己	-8.17064
恋爱	-8.17066
岁	-8.17313
有点	-8.17418
可能是	-8.1748
考虑	-8.17628
的情况	-8.17772
结婚	-8.18307
期待	-8.1881
性格	-8.18852
吃	-8.19014
成为	-8.19057
就像	-8.19057
紧张	-8.1933
是因为	-8.19399
这么	-8.19817
即使	-8.19857
我们可以	-8.20139
各种	-8.20443
那就	-8.20579
不喜欢	-8.20667
世界	-8.20823
是一种	-8.20924
分析	-8.21035
咨询	-8.21198
目前	-8.21215
完全	-8.21311
容易	-8.21353
个人	-8.21395
一定要	-8.21685
同学	-8.21971
的时间	-8.22082
之	-8.22199
你会	-8.2231
你现在	-8.22759
一次	-8.2278
你自己	-8.22836
导致	-8.2299
长	-8.23386
并没有	-8.237
出来	-8.23905
完成	-8.24088
婚姻	-8.24496
决定	-8.25059
调整	-8.25357
幸福	-8.25691
专业	-8.25986
——	-8.26413
愿意	-8.26496
曾经	-8.26789
男友	-8.26972
。【	-8.27007
困扰	-8.27036
分手	-8.2711
好像	-8.27374
矛盾	-8.2783
本身	-8.28161
有没有	-8.2855
环境	-8.29245
直接	-8.29343
和你	-8.29424
才会	-8.2949
老公	-8.29522
把自己	-8.2956
开	-8.29673
学校	-8.29762
压抑	-8.29831
更多	-8.30097
两个人	-8.30442
做出	-8.30516
需求	-8.30605
以上	-8.30669
如此	-8.30752
问	-8.31227
怕	-8.32373
建立	-8.32396
失败	-8.32531
当我们	-8.3257
离开	-8.32741
回	-8.33093
说话	-8.33103
有很多	-8.33123
会有	-8.33221
话	-8.3328
其次	-8.33313
别	-8.33422
如	-8.33621
纠结	-8.33866
现实	-8.33869
的态度	-8.33872
抑郁	-8.33989
另外	-8.34361
新	-8.34607
并不	-8.34707
我也	-8.34911
无论	-8.3504
放松	-8.35194
年	-8.35514
支持	-8.3571
既然	-8.35769
每个人	-8.35821
运动	-8.35953
《	-8.36288
成功	-8.36559
满足	-8.36569
请	-8.36622
独立	-8.36932
除了	-8.36974
大家	-8.37062
自	-8.3714
更多的	-8.37408
成	-8.37414
你要	-8.37609
有一个	-8.37629
天	-8.37723
三	-8.38069
不管	-8.38154
尊重	-8.38613
变得	-8.38692
习惯	-8.38785
让他	-8.3894
明白	-8.39081
气	-8.39216
具体	-8.39351
逃避	-8.39391
考试	-8.3942
一切	-8.3972
手	-8.39831
试着	-8.40027
讲	-8.40114
女生	-8.40341
你也	-8.40526
男朋友	-8.40556
放下	-8.40626
照顾	-8.40836
有了	-8.40888
平时	-8.41126
》	-8.41259
不断	-8.42185
。2.	-8.42266
起	-8.42583
之间	-8.42803
困难	-8.43222
一般	-8.43549
有什么	-8.43694
受	-8.44023
接触	-8.44084
的能力	-8.44188
不敢	-8.44481
在意	-8.44505
认知	-8.44657
体验	-8.44691
头	-8.44756
联系	-8.44853
的方法	-8.44975
该	-8.45239
身上	-8.45306
认识	-8.45332
以前	-8.45357
力	-8.45455
反应	-8.4559
写	-8.4563
最近	-8.46141
寻找	-8.46295
难	-8.46397
面	-8.46409
怎样	-8.46435
有人	-8.46481
对待	-8.46492
当下	-8.46743
拥有	-8.46834
也不	-8.46882
你需要	-8.47107
带	-8.47274
愤怒	-8.4731
或者是	-8.47414
花	-8.4742
重	-8.47441
难受	-8.47535
只能	-8.47625
你说	-8.47638
的心理	-8.47905
到了	-8.48144
说明	-8.48226
由于	-8.4832
社交	-8.48329
的工作	-8.48388
才是	-8.48422
如果是	-8.48439
她们	-8.4859
:“	-8.48664
的过程	-8.48678
心理学	-8.48836
感受到	-8.49166
放弃	-8.49424
的孩子	-8.49435
渴望	-8.4946
开心	-8.4951
外	-8.49585
从而	-8.4981
大学	-8.49991
。️	-8.50033
自然	-8.5008
事件	-8.5012
不如	-8.50268
不愿意	-8.50338
少	-8.50547
生活中	-8.50763
我们的	-8.50897
这里	-8.51174
更好的	-8.5129
陪伴	-8.51453
感觉到	-8.51516
都有	-8.51744
冲突	-8.51969
经验	-8.52077
心理咨询	-8.52106
重新	-8.52401
难过	-8.52465
度	-8.53008
治疗	-8.5308
让人	-8.53088
做好	-8.53095
关心	-8.53304
~。	-8.5336
追求	-8.53549
来看	-8.53633
第一	-8.53652
而已	-8.53774
生气	-8.5428
病	-8.54438
任何	-8.54593
让我们	-8.54725
很好	-8.54777
依赖	-8.54789
的影响	-8.55265
也没有	-8.55273
也就	-8.55295
她的	-8.5533
自身	-8.55372
总	-8.55427
心情	-8.55532
你是	-8.55537
互相	-8.55697
的压力	-8.5586
当时	-8.55861
对自己的	-8.55865
减少	-8.55886
爸爸	-8.55899
提升	-8.55964
因为你	-8.55999
敏感	-8.5602
领导	-8.56158
不一样	-8.56257
往往	-8.56257
见	-8.5637
当中	-8.56557
双方	-8.56673
变	-8.56807
你在	-8.56815
不太	-8.57202
期	-8.5738
水	-8.57435
交往	-8.57478
是你	-8.57556
后来	-8.57567
正常	-8.57808
有关	-8.57884
做到	-8.57936
原生家庭	-8.57981
化	-8.58135
学生	-8.58429
根据	-8.58514
二	-8.58578
真	-8.58757
死	-8.5932
信任	-8.59476
别人的	-8.59525
阶段	-8.59641
成绩	-8.59708
的朋友	-8.59727
分享	-8.59869
适应	-8.59959
相	-8.59961
强	-8.60273
计划	-8.60296
住	-8.60576
很多人	-8.60586
情	-8.60806
孤独	-8.60984
我的	-8.61131
玩	-8.61782
改善	-8.61838
东西	-8.61942
新的	-8.61954
聊天	-8.62148
离婚	-8.62278
倾诉	-8.62444
重要	-8.62449
不用	-8.62619
不够	-8.62687
包括	-8.62714
安全感	-8.63043
解决问题	-8.63589
父母的	-8.63645
身边	-8.63712
低	-8.6372
避免	-8.63992
描述	-8.64016
这件事情	-8.6414
你觉得	-8.64335
小时候	-8.64367
因素	-8.64368
的感情	-8.64391
就可以	-8.65068
造成	-8.65089
差	-8.65318
是个	-8.65353
那样	-8.65456
值得	-8.65459
及时	-8.65552
一段	-8.65634
什么样的	-8.65707
太多	-8.65952
受到	-8.65973
好的	-8.66036
思维	-8.66354
家里	-8.66415
最终	-8.6658
的经历	-8.66605
模式	-8.66634
注意	-8.66652
表现	-8.66668
在你	-8.66858
越来越	-8.67228
的需求	-8.67288
行动	-8.6753
方向	-8.67683
买	-8.67771
比如说	-8.68004
同样	-8.68017
两	-8.68044
也要	-8.68487
叫	-8.68509
人们	-8.68544
力量	-8.68618
拿	-8.69186
同	-8.69627
也不会	-8.69739
爱自己	-8.69901
行	-8.69918
书	-8.69998
美好	-8.70048
很多时候	-8.70102
反而	-8.70118
不了	-8.70127
男生	-8.70138
和他	-8.70242
第二	-8.70349
#	-8.70438
其	-8.70577
变化	-8.70692
亲密关系	-8.70693
信息	-8.70779
就要	-8.7079
自己的情绪	-8.7084
那种	-8.70885
形成	-8.70907
谈	-8.71196
抑郁症	-8.71228
有一些	-8.71437
定	-8.71561
共同	-8.71585
你好呀	-8.71665
就好	-8.71677
烦恼	-8.72007
人际关系	-8.72025
不舒服	-8.72397
应该是	-8.72413
于是	-8.72416
失去	-8.72563
所有	-8.72657
最好	-8.72693
内在	-8.72707
由	-8.72948
也不是	-8.73052
3	-8.73082
口	-8.73127
机会	-8.73275
会不会	-8.7334
丈夫	-8.73354
自责	-8.73613
老	-8.73675
知识	-8.7403
实现	-8.74045
生命	-8.74056
的表现	-8.74069
精神	-8.74138
教育	-8.74186
吵架	-8.742
让我	-8.74306
放	-8.7443
释放	-8.74447
享受	-8.74458
1	-8.74475
不需要	-8.74491
你就	-8.74571
一方面	-8.74643
来访者	-8.74747
给予	-8.74778
些	-8.74813
同事	-8.7502
美	-8.75099
读	-8.7518
高考	-8.7524
考	-8.75356
动	-8.75438
里面	-8.75469
回到	-8.75515
突然	-8.75557
必须	-8.7569
你想	-8.75737
负责	-8.75803
属于	-8.76063
难以	-8.76148
这种情况	-8.76157
暂时	-8.76237
回答	-8.76335
有所	-8.76535
不再	-8.76592
掉	-8.76602
心态	-8.76715
达到	-8.76792
多少	-8.76865
这一点	-8.77049
哭	-8.77147
怎么样	-8.77254
本	-8.77345
认同	-8.77556
缓解	-8.77595
️	-8.77694
长期	-8.77854
女性	-8.77868
至于	-8.77921
缺乏	-8.77951
至少	-8.78041
觉察	-8.78089
跟你	-8.78143
真实	-8.78482
他们的	-8.7859
包容	-8.7861
准备	-8.78612
健康	-8.78658
还要	-8.78683
医生	-8.7883
因	-8.78875
换	-8.78894
内心的	-8.78951
快	-8.79315
让她	-8.79374
慢慢的	-8.79461
这个时候	-8.79467
回应	-8.79571
两个	-8.79662
为自己	-8.79692
处于	-8.79798
讨厌	-8.79851
这个人	-8.79899
寻求	-8.79932
活动	-8.79952
。2、	-8.80037
每次	-8.80216
内	-8.8038
提高	-8.80733
的一种	-8.80739
态度	-8.80967
确定	-8.81031
有着	-8.81045
承担	-8.81426
尽量	-8.81429
"	-8.81634
所以你	-8.8164
进入	-8.81764
下去	-8.81994
出去	-8.82117
),	-8.82128
判断	-8.8215
培养	-8.82164
承受	-8.82229
是在	-8.82271
心理咨询师	-8.82476
答案	-8.82512
想想	-8.82644
2	-8.82663
孩子的	-8.82936
产生了	-8.82976
带着	-8.83318
简单	-8.8341
读书	-8.83441
安全	-8.83469
建议你	-8.83499
意识到	-8.83533
的机会	-8.83738
真正的	-8.83747
养	-8.83752
优秀	-8.83966
年龄	-8.83981
自由	-8.84138
很容易	-8.84188
干	-8.84461
到底	-8.84462
鼓励	-8.84463
带来	-8.84482
路	-8.84493
提出	-8.84595
认真	-8.84923
委屈	-8.85027
增加	-8.85243
错	-8.85307
也能	-8.85512
提	-8.85591
是有	-8.85707
看到你	-8.86053
女儿	-8.86077
手机	-8.86078
其实是	-8.86207
事实	-8.86401
一旦	-8.86621
作	-8.86833
或是	-8.8692
这就是	-8.87082
稳定	-8.87116
应对	-8.87153
您好	-8.87223
你对	-8.87237
想象	-8.87336
永远	-8.87439
负面情绪	-8.87545
动力	-8.8768
即	-8.8784
第三	-8.87995
进步	-8.88138
意义	-8.88168
逐渐	-8.88324
规划	-8.88331
公司	-8.88417
程度	-8.88521
或者说	-8.8855
评价	-8.88635
更好	-8.8869
下来	-8.88748
保护	-8.88847
做了	-8.89003
在乎	-8.8921
陷入	-8.89328
尤其是	-8.89333
标准	-8.89364
男人	-8.89409
的过程中	-8.89476
很重要	-8.89564
靠	-8.89802
的情况下	-8.899
有个	-8.90515
否定	-8.90525
迷茫	-8.9059
高中	-8.90837
练习	-8.90871
及	-8.90933
不安	-8.91031
收获	-8.91325
帮	-8.91448
出轨	-8.9168
也就是	-8.91755
一天	-8.9179
往	-8.91807
挺	-8.91832
这份	-8.91901
婆婆	-8.91931
接纳自己	-8.92065
和别人	-8.92176
-	-8.9228
其他人	-8.92328
兴趣	-8.92446
严重	-8.92507
休息	-8.9259
我们需要	-8.92682
条件	-8.92696
人的	-8.92776
对方的	-8.9292
光	-8.93019
另一方面	-8.93112
聊	-8.9327
哪些	-8.93337
们	-8.93348
我相信	-8.93401
做事	-8.93577
的确	-8.93773
今天	-8.93956
怀疑	-8.94119
从小	-8.94166
价值	-8.94205
亲密	-8.9421
就能	-8.94348
转	-8.94367
后悔	-8.94368
现在的	-8.94408
指责	-8.94631
重视	-8.94855
在这里	-8.94875
接下来	-8.94909
能量	-8.94935
一段时间	-8.95014
安慰	-8.95151
是为了	-8.95215
是否有	-8.95341
明确	-8.95371
且	-8.95481
和父母	-8.95491
深	-8.95493
意识	-8.95571
一份	-8.95735
还没有	-8.96198
主要	-8.96239
便	-8.96428
解释	-8.96663
效果	-8.96787
所有的	-8.97
理	-8.97186
入	-8.97397
都可以	-8.97461
连	-8.97593
的情感	-8.97644
你已经	-8.97768
过度	-8.97776
它们	-8.9781
伴侣	-8.9795
成熟	-8.98019
变成	-8.9805
的心情	-8.98052
相互	-8.98252
远	-8.98565
发泄	-8.9864
认可	-8.98655
外界	-8.98732
很大	-8.98872
失望	-8.98877
是需要	-8.98907
意	-8.99223
不开心	-8.99296
说的	-8.99425
有时	-8.99452
说出来	-8.9966
法	-8.99675
办法	-8.9973
的样子	-8.99733
。3.	-8.99872
管	-8.99903
的结果	-8.99998
依然	-9.00084
人格	-9.00099
的看法	-9.00156
面前	-9.00258
看起来	-9.00266
女朋友	-9.00292
女人	-9.00295
求	-9.00527
理性	-9.00673
症状	-9.00754
都没有	-9.01155
游戏	-9.01202
～。	-9.0122
。(	-9.01254
型	-9.01258
走出	-9.01467
对象	-9.0154
处	-9.01541
创伤	-9.01584
很好的	-9.0159
选	-9.01605
名	-9.01748
交	-9.01834
的部分	-9.01851
告诉自己	-9.01945
告诉	-9.01948
睡眠	-9.01969
相对	-9.01989
给他	-9.02031
门	-9.0206
进	-9.02062
考研	-9.0228
过于	-9.02302
加	-9.02308
对你的	-9.02332
清楚	-9.02429
没有办法	-9.02617
女	-9.02674
相信自己	-9.02674
按照	-9.02715
放在	-9.02756
攻击	-9.02805
有些人	-9.02903
时候	-9.02914
希望你	-9.02928
一点点	-9.03027
男性	-9.03127
还会	-9.03315
想到	-9.03339
幻想	-9.03379
:1、	-9.03407
的一个	-9.03417
身	-9.03485
活	-9.03531
。3、	-9.03899
吸引	-9.03905
您的	-9.03911
温暖	-9.04056
提供	-9.04112
苦	-9.0434
完美	-9.04418
探索	-9.04461
风	-9.04829
每个	-9.04857
担忧	-9.04996
理想	-9.05121
为你	-9.05132
观念	-9.05152
弟弟	-9.05154
性的	-9.05212
有的人	-9.05232
随着	-9.05253
错误	-9.05356
责任	-9.05451
告诉你	-9.05572
从你的描述中	-9.05574
的性格	-9.0559
的认知	-9.05769
来自	-9.05827
哪	-9.05869
儿	-9.05924
不容易	-9.05952
啦	-9.05968
也很	-9.06112
近	-9.06123
维持	-9.06224
与你	-9.06265
做一些	-9.06347
某些	-9.06453
你能	-9.06489
我就	-9.06564
不必	-9.06932
就算	-9.06944
看见	-9.06967
做的	-9.06975
流	-9.06993
允许	-9.07062
清	-9.07108
让他们	-9.07179
求助	-9.07215
早	-9.07238
和对方	-9.07498
悲伤	-9.07504
心中	-9.07566
轻松	-9.07674
空间	-9.07679
真心	-9.07756
客观	-9.07768
正确	-9.07795
对他	-9.07872
部分	-9.07896
教	-9.07947
谈恋爱	-9.08018
的一些	-9.0812
妻子	-9.08368
安排	-9.08398
累	-9.08709
站在	-9.08724
而你	-9.08795
经过	-9.08807
眼	-9.08943
对吗	-9.09111
精力	-9.09154
挑战	-9.09293
嫉妒	-9.09296
再次	-9.09375
这也是	-9.09629
不可	-9.09657
而言	-9.09689
你有	-9.09898
潜意识	-9.09979
背后	-9.09988
过程	-9.10046
活着	-9.10277
然而	-9.10312
说明你	-9.10396
抱怨	-9.10419
道德	-9.10482
一定是	-9.10595
姐姐	-9.10627
改变自己	-9.10633
的爱	-9.10664
持续	-9.10801
还是要	-9.10892
是我们	-9.1091
的人生	-9.10941
每个人都	-9.11006
楼主的	-9.11161
有可能	-9.11167
内容	-9.11177
痛	-9.11298
女孩	-9.11334
打击	-9.11401
不可能	-9.11402
回来	-9.11423
无论是	-9.11444
第一次	-9.11456
不足	-9.11476
不同的	-9.11624
我们要	-9.11762
自己的内心	-9.11774
困惑	-9.11872
的目标	-9.11974
思想	-9.11981
让孩子	-9.11987
过程中	-9.12123
批评	-9.12125
长大	-9.12246
吃饭	-9.12246
不仅	-9.12252
去面对	-9.1229
引起	-9.12305
次	-9.1233
是可以	-9.12475
分开	-9.12492
爱你	-9.12503
不妨	-9.1252
抱抱	-9.12585
哪怕	-9.12594
离	-9.12646
期望	-9.12846
帮助你	-9.12922
听到	-9.13028
十分	-9.131
不去	-9.13106
车	-9.13489
做自己	-9.13586
则	-9.13694
的心态	-9.13768
的角度	-9.13929
楼楼	-9.13955
关爱	-9.14053
可以通过	-9.1418
和自己	-9.14376
经济	-9.14511
儿子	-9.14527
结束	-9.14527
女友	-9.14557
言	-9.14658
勇敢	-9.14712
量	-9.14795
调节	-9.14801
笑	-9.14823
亲爱的	-9.14952
也就是说	-9.14953
的帮助	-9.15349
其中	-9.15407
还可以	-9.15432
这个世界	-9.15673
空	-9.15729
引导	-9.15761
晚上	-9.15859
仍然	-9.15884
道	-9.15897
.	-9.15904
生活的	-9.15968
忙	-9.15994
原谅	-9.16023
合理	-9.16027
正	-9.16085
一定的	-9.16092
)。	-9.16277
使	-9.16397
日	-9.16475
个体	-9.16504
的要求	-9.16504
耐心	-9.16521
充满	-9.1661
5	-9.16621
通	-9.16626
晚	-9.16702
感觉自己	-9.1681
倒	-9.16813
1.	-9.16838
以为	-9.16959
具有	-9.16984
记得	-9.17051
明	-9.17073
大脑	-9.17136
课	-9.17191
珍惜	-9.17198
相关	-9.17228
回家	-9.17335
的力量	-9.17384
事物	-9.17436
刚	-9.17564
无助	-9.1757
作用	-9.17709
不到	-9.17842
完	-9.17846
当初	-9.17849
没办法	-9.17854
都要	-9.17891
了很多	-9.17981
后面	-9.18052
看来	-9.18089
没有什么	-9.18298
是很	-9.18303
和她	-9.1831
睡	-9.18642
上的	-9.18721
被人	-9.18757
四	-9.18793
见字如面	-9.18923
的选择	-9.19036
接	-9.19068
不满	-9.191
/	-9.19112
想着	-9.19129
刺激	-9.1918
。#	-9.19226
哪里	-9.19421
做什么	-9.19503
既	-9.19567
已	-9.19668
不知道你	-9.19708
适当的	-9.19806
不自信	-9.19834
会觉得	-9.20094
上面	-9.20118
数	-9.20205
生理	-9.20268
观察	-9.20328
但是你	-9.20356
糟糕	-9.20492
做一个	-9.20524
改	-9.20996
身边的人	-9.21297
在于	-9.21302
:1.	-9.21334
回避	-9.21411
一定会	-9.21495
任务	-9.21625
争吵	-9.21779
远离	-9.21823
种	-9.21877
尽管	-9.21915
得不到	-9.21974
偶尔	-9.21992
你也可以	-9.22043
某种	-9.22112
很少	-9.22215
算	-9.22473
克服	-9.22547
反思	-9.22548
一边	-9.22647
就好了	-9.22654
我认为	-9.22688
祝福你	-9.22816
反复	-9.2288
如果我们	-9.22994
降低	-9.23125
帮你	-9.23186
讨论	-9.23206
足够	-9.23247
舒服	-9.23258
对我	-9.23328
针对	-9.23434
几个	-9.23455
带来的	-9.23459
职业	-9.23526
失眠	-9.23543
非	-9.23602
没有人	-9.23628
也需要	-9.23846
证明	-9.2385
的痛苦	-9.23888
只会	-9.23897
倾听	-9.23984
就不会	-9.24023
女孩子	-9.24368
遇见	-9.24441
常	-9.24444
跟他	-9.24453
如果没有	-9.24463
自己的生活	-9.24504
每	-9.2451
合	-9.24512
尽	-9.24635
在这个	-9.2468
不行	-9.24738
也许你	-9.24841
知道自己	-9.24942
体	-9.25098
通常	-9.25143
待	-9.25313
全	-9.25316
物	-9.25448
正确的	-9.25597
把你	-9.25632
你的感受	-9.25656
亲人	-9.25661
平衡	-9.25661
信心	-9.25737
本来	-9.2583
自己的感受	-9.2584
距离	-9.25854
留	-9.25915
好好的	-9.26087
目的	-9.26126
不然	-9.26136
多了	-9.26192
睡觉	-9.26205
内向	-9.26239
大家都	-9.26245
在家	-9.26289
真实的	-9.26311
积累	-9.26732
说出	-9.2688
缺点	-9.26926
障碍	-9.27101
你的问题	-9.2719
声	-9.27267
穿	-9.27284
亲	-9.27388
是自己	-9.27399
会让你	-9.27487
语言	-9.27527
一件事	-9.27543
生存	-9.27604
能不能	-9.27646
了解自己	-9.27658
状况	-9.2799
讨好	-9.2803
知	-9.28132
字	-9.28166
例如	-9.28172
消极	-9.28323
参加	-9.28376
找一个	-9.28399
评判	-9.28418
同时也	-9.28479
将来	-9.285
水平	-9.28517
否则	-9.28661
常常	-9.28685
这样做	-9.28708
角度	-9.28713
无力	-9.28787
了一个	-9.28812
适合	-9.29008
排斥	-9.29031
帮忙	-9.29044
拉	-9.29069
冥想	-9.29111
指	-9.29172
间	-9.29191
几	-9.29205
自己的想法	-9.29244
过去的	-9.29295
做不到	-9.29519
有能力	-9.29528
万	-9.29784
阅读	-9.29927
是非常	-9.29957
麻烦	-9.30083
懂得	-9.30239
这些问题	-9.3028
白	-9.30285
互动	-9.30286
记忆	-9.30332
为什么会	-9.3037
题	-9.30465
童年	-9.30486
么	-9.30563
聊聊	-9.30651
都在	-9.30718
关	-9.30785
拖延	-9.30865
实际	-9.30875
我们会	-9.30899
有一种	-9.30918
他人的	-9.31036
可以尝试	-9.31084
疾病	-9.31102
你会发现	-9.31321
许多	-9.31386
利用	-9.31501
都不	-9.31553
所谓的	-9.31588
中的	-9.31617
掌握	-9.31646
对你来说	-9.31705
摆脱	-9.31711
意味着	-9.31761
不管是	-9.31823
伤心	-9.31854
想一想	-9.32114
每一个	-9.32127
毕业	-9.3213
事业	-9.32451
管理	-9.32584
很大的	-9.32767
看到了	-9.32837
投入	-9.32917
的存在	-9.33
一直在	-9.33041
总之	-9.33046
使用	-9.33057
这次	-9.33163
找不到	-9.33195
推	-9.33302
梳理	-9.33534
看待	-9.33605
这段关系	-9.33716
挫折	-9.33803
若	-9.33917
缺少	-9.33923
懂	-9.33982
理智	-9.33986
别的	-9.34036
让对方	-9.34044
面临	-9.34047
时期	-9.34522
只要你	-9.34577
坏	-9.34835
ta	-9.34852
要学会	-9.35023
强大	-9.35037
不断的	-9.35074
边	-9.35141
大部分	-9.35259
相信你	-9.35288
大概	-9.35295
脆弱	-9.35316
技能	-9.35401
另一个	-9.35427
的环境	-9.35491
真诚	-9.35499
解	-9.35631
类	-9.35737
未	-9.36022
伤	-9.36075
结合	-9.36085
都会有	-9.36147
烦躁	-9.36154
祝你	-9.36202
锻炼	-9.36218
总结	-9.36291
的期待	-9.36296
一年	-9.36356
声音	-9.36365
职场	-9.36381
真的是	-9.36499
自杀	-9.36581
心理问题	-9.36584
之中	-9.36613
你应该	-9.36635
死亡	-9.36761
提问	-9.36774
很多事情	-9.36936
送	-9.36958
慢慢地	-9.36959
有的时候	-9.37059
分离	-9.37083
异性	-9.37106
因为我们	-9.37154
~~~	-9.3717
意见	-9.37175
一句话	-9.3718
药	-9.37195
你内心	-9.37221
在生活中	-9.3734
不应该	-9.37445
恢复	-9.37479
负面	-9.375
最好的	-9.37512
最大的	-9.37522
。2	-9.37523
夫妻	-9.37537
地方	-9.37564
物质	-9.37577
的内容	-9.37626
和朋友	-9.37654
表示	-9.37749
见面	-9.37933
心疼	-9.37957
理论	-9.37958
拥抱	-9.37961
资源	-9.3798
时刻	-9.38034
一生	-9.38107
对孩子	-9.38126
梦	-9.38261
是怎样的	-9.3827
好了	-9.3831
约	-9.38316
合适的	-9.38366
应	-9.38382
小孩	-9.38385
即便	-9.38388
也是一种	-9.38494
文	-9.38514
楼主可以	-9.38542
创造	-9.38551
按	-9.38584
某	-9.38602
外在	-9.3862
十	-9.38636
你的内心	-9.38642
发挥	-9.38766
欣赏	-9.38917
方	-9.3894
以下	-9.38964
你可能	-9.39135
现象	-9.39468
这时候	-9.39468
越是	-9.39499
特别是	-9.39543
依靠	-9.39704
这句话	-9.39713
冷静	-9.3979
乱	-9.39802
顺利	-9.39827
希望能	-9.40002
适当	-9.40034
装	-9.40478
看法	-9.40493
跑	-9.40499
20	-9.40526
出现了	-9.40536
当成	-9.40572
追	-9.40619
抗拒	-9.40623
去改变	-9.40749
理由	-9.40752
喝	-9.40759
这段感情	-9.4076
来讲	-9.40851
边界	-9.40906
火	-9.40912
实际上	-9.40916
不被	-9.4094
辛苦	-9.40965
优点	-9.40984
选择了	-9.41049
道理	-9.41094
妹妹	-9.41108
网络	-9.41166
发生了	-9.41219
爱人	-9.41233
和他们	-9.41251
上学	-9.41265
表达自己	-9.41286
利	-9.41359
哪个	-9.4139
人生的	-9.41442
学业	-9.41467
不确定	-9.41478
这些事情	-9.41488
允许自己	-9.41603
初中	-9.41604
4	-9.41637
遗憾	-9.41706
角色	-9.41711
好朋友	-9.41738
反抗	-9.41741
但你	-9.41783
记	-9.41858
师	-9.41887
之间的	-9.41912
美好的	-9.41928
重要的	-9.42023
线	-9.42024
平静	-9.42034
过得	-9.42054
爱好	-9.42095
这一	-9.42095
总会	-9.42165
安	-9.42167
一句	-9.42168
表达出来	-9.42174
2.	-9.42199
更容易	-9.42221
也不要	-9.42243
你的父母	-9.42248
恨	-9.42374
什么时候	-9.42406
要么	-9.42458
正是	-9.42468
信	-9.42515
你所	-9.4255
强烈	-9.4255
感谢	-9.42557
和孩子	-9.42567
的学习	-9.42706
问问自己	-9.42734
失去了	-9.42787
说了	-9.43065
实	-9.43076
进一步	-9.43167
原来	-9.43183
山	-9.43276
简单的	-9.43378
强迫	-9.43479
检查	-9.43499
有一定的	-9.43501
每个人都有	-9.4361
如果他	-9.4362
一件	-9.43715
我会	-9.43756
依恋	-9.43763
下次	-9.43797
友情	-9.43804
青春期	-9.43813
落	-9.43836
代表	-9.43886
治愈	-9.43922
断	-9.43944
丰富	-9.44107
尴尬	-9.44194
正常的	-9.44297
的家庭	-9.4452
的信息	-9.44549
尝试着	-9.44573
一开始	-9.44623
希望你能	-9.44762
来自于	-9.44823
全部	-9.4487
是指	-9.44915
饭	-9.4494
愿	-9.44994
也许是	-9.45016
骂	-9.4506
此	-9.45226
你说的	-9.45242
回忆	-9.45247
给孩子	-9.45347
没什么	-9.45369
情绪的	-9.45374
上班	-9.45428
不一定	-9.45562
怪	-9.45588
A	-9.45598
很难受	-9.45606
发现自己	-9.45821
与他人	-9.4583
不对	-9.45843
根本	-9.45873
奶奶	-9.45971
的心	-9.46006
认为自己	-9.46022
了吗	-9.46121
基本	-9.46199
主	-9.46221
合适	-9.46314
温柔	-9.46479
一件事情	-9.46488
过分	-9.46492
掌控	-9.46549
忘记	-9.46551
成年人	-9.46615
参与	-9.46744
专业的	-9.46915
很累	-9.46982
忽视	-9.47003
疗愈	-9.47021
重复	-9.47025
确实是	-9.47025
很痛苦	-9.4703
看了	-9.47045
做的事情	-9.47232
有效	-9.47418
步	-9.4743
其他的	-9.47578
一辈子	-9.47598
始终	-9.47694
你们之间	-9.47702
退	-9.47772
犯错	-9.47934
我在	-9.48011
这些都是	-9.48024
深入	-9.48151
让别人	-9.48286
系统	-9.48298
两人	-9.48305
也会有	-9.48312
的反应	-9.48408
报	-9.48443
误会	-9.48499
看了你的描述	-9.48635
我们都	-9.48701
暴力	-9.48702
”“	-9.48706
竞争	-9.48774
基础	-9.48793
积极的	-9.48932
欲望	-9.48937
学历	-9.48989
明明	-9.49001
能否	-9.49125
了解到	-9.4925
不满意	-9.49262
你没有	-9.49285
我们自己	-9.4938
原则	-9.49387
想办法	-9.49635
这是一个	-9.49692
看着	-9.49751
也不能	-9.49753
那里	-9.49831
保护自己	-9.49901
没有得到	-9.4991
权	-9.50056
再去	-9.50064
久	-9.50208
为什么要	-9.50239
然	-9.50318
满意	-9.50335
室友	-9.5037
类似	-9.504
嘛	-9.5047
子女	-9.50474
文化	-9.50477
照	-9.50587
观点	-9.50642
造成的	-9.50665
观	-9.50785
受伤	-9.50841
的同时	-9.50939
就不	-9.50948
故事	-9.51025
经营	-9.51155
冷	-9.51168
有过	-9.51237
づ	-9.51253
还在	-9.51296
这种感觉	-9.51317
宝宝	-9.51342
经历过	-9.515
规则	-9.51512
独处	-9.5152
但我	-9.51594
借	-9.51607
回复	-9.51677
复杂	-9.51678
宣泄	-9.51709
反馈	-9.5186
人类	-9.51874
五	-9.52015
去找	-9.52021
一些事情	-9.52053
热	-9.52085
说说	-9.52106
老板	-9.52199
如果有	-9.52221
怎么做	-9.52235
仔细	-9.52235
爱的	-9.5234
血	-9.52368
自己内心	-9.52391
的责任	-9.52402
出来的	-9.52426
...	-9.52515
之外	-9.52552
着急	-9.52558
几乎	-9.52578
关系的	-9.52611
训练	-9.52649
层面	-9.52701
短	-9.5272
让你感到	-9.52736
还能	-9.52759
可以试着	-9.52762
承认	-9.52769
那就是	-9.52835
人际交往	-9.52852
脾气	-9.52878
随	-9.5295
那么就	-9.5308
怎么办	-9.53138
10	-9.53145
的做法	-9.53219
祝	-9.53236
甚至是	-9.5326
?”	-9.53297
语	-9.53325
之类的	-9.53394
什么都	-9.53424
被别人	-9.53427
也好	-9.53457
有自己的	-9.5353
你老公	-9.5355
走出来	-9.53564
男孩	-9.53797
忽略	-9.53826
给我	-9.53835
那么你	-9.53878
善良	-9.53939
满	-9.5396
体会	-9.53979
坚强	-9.54036
的小	-9.54058
很正常	-9.54096
身心	-9.54179
位	-9.54188
期间	-9.54319
亲戚	-9.54338
直到	-9.54375
关键	-9.54406
找个	-9.54466
*	-9.54536
反	-9.54587
有哪些	-9.54602
说你	-9.54657
擅长	-9.54679
对她	-9.54716
信念	-9.54733
爸爸妈妈	-9.54741
冲动	-9.54766
在你的	-9.54811
男	-9.54816
实在	-9.54893
采取	-9.5491
喜欢的	-9.54924
那是	-9.5493
平	-9.5509
太大	-9.55093
首先要	-9.55108
调	-9.55194
给她	-9.55247
单	-9.55253
你认为	-9.55275
的焦虑	-9.55341
之所以	-9.555
危险	-9.55506
的意见	-9.55536
熟悉	-9.55553
规律	-9.55592
聊一聊	-9.55616
的建议	-9.55688
提醒	-9.55723
你就会	-9.55756
取	-9.5576
因为我	-9.55785
品	-9.55805
都需要	-9.55924
脚	-9.55991
让楼主	-9.56067
都能	-9.56114
厌恶	-9.56193
看书	-9.562
不知	-9.56266
提升自己	-9.56389
认识到	-9.56422
这段	-9.56426
会让	-9.5652
半	-9.56528
提前	-9.56535
恋人	-9.56617
现状	-9.56661
一方	-9.56709
并非	-9.5673
但是我	-9.56761
并不能	-9.56772
视频	-9.56796
正在	-9.56823
各自	-9.56872
如果对方	-9.56895
一场	-9.56898
强烈的	-9.5693
老婆	-9.56972
专注	-9.56982
出生	-9.57056
在家里	-9.57131
脑	-9.572
班	-9.57203
闺蜜	-9.5721
和家人	-9.57244
自己喜欢的	-9.57435
你们的	-9.57454
陪	-9.57518
失	-9.57525
极	-9.57588
喜欢你	-9.5759
。*	-9.5764
闹	-9.57663
融入	-9.57812
不懂	-9.57852
评估	-9.58111
月	-9.58122
利益	-9.58138
把自己的	-9.58141
大多数	-9.58214
某个	-9.58361
急	-9.58384
大人	-9.58402
行业	-9.58424
了自己	-9.5843
阳光	-9.58447
是正常的	-9.58456
几次	-9.58469
的意义	-9.58499
机	-9.58527
在哪里	-9.58536
清晰	-9.58579
神	-9.58645
话题	-9.58672
处在	-9.58755
的习惯	-9.58802
激情	-9.58814
色	-9.58847
那么多	-9.58847
重点	-9.58928
他会	-9.58956
作业	-9.58958
依旧	-9.59034
还需要	-9.59058
的理由	-9.59119
弱	-9.59431
明显	-9.59441
好处	-9.59473
何	-9.59669
与其	-9.59698
的动力	-9.59709
道歉	-9.59868
有问题	-9.5989
度过	-9.59894
回报	-9.60196
就需要	-9.6022
你是否	-9.6024
的同学	-9.60386
世	-9.60553
发脾气	-9.60633
可以去	-9.60702
合理的	-9.60744
更多的是	-9.60761
长辈	-9.60774
保证	-9.60777
尽快	-9.60825
猜测	-9.60848
陌生人	-9.60862
有机会	-9.60884
提到	-9.60923
你们的关系	-9.61007
这样的情况	-9.6105
背	-9.6106
把它	-9.61086
刻意	-9.61101
减轻	-9.61107
的变化	-9.61145
生病	-9.61167
不那么	-9.61301
负	-9.61315
场	-9.61375
对我们	-9.6139
救	-9.61487
慢	-9.61527
告诉他	-9.6155
人家	-9.61557
假	-9.61634
研究	-9.61644
这位	-9.61728
平等	-9.61732
你还	-9.61778
的发展	-9.61801
婚	-9.61804
坐	-9.6186
打开	-9.61909
年轻	-9.61958
足够的	-9.62083
我自己	-9.6217
相应的	-9.62179
海	-9.62264
赚钱	-9.6228
这是一种	-9.62335
的目的	-9.62343
定义	-9.62427
平台	-9.62506
一位	-9.62513
自身的	-9.62572
可能你	-9.62573
日常	-9.626
配合	-9.62693
我们在	-9.6279
老人	-9.62849
关系中	-9.6287
眼里	-9.629
高三	-9.62902
优势	-9.6295
题主的	-9.62957
参考	-9.6298
用心	-9.62993
过来	-9.62999
坚定	-9.63041
金钱	-9.63108
负担	-9.63158
体会到	-9.63219
听听	-9.63331
破	-9.63439
命	-9.63487
:1	-9.63501
良好的	-9.63508
我知道	-9.63514
不得不	-9.63523
孤单	-9.63585
诊断	-9.63609
左右	-9.63658
和谐	-9.63748
表白	-9.63785
一部分	-9.63854
复习	-9.6388
会产生	-9.63972
遇到了	-9.63977
周	-9.64018
文字	-9.64089
很想	-9.64191
的好	-9.64191
你的想法	-9.64319
对此	-9.64373
和他人	-9.64453
。3	-9.64468
这个过程	-9.64556
探讨	-9.64691
收	-9.64742
这不是	-9.64842
。1.	-9.64853
患者	-9.6488
觉得你	-9.64902
不住	-9.64944
原	-9.64956
非常的	-9.65017
恶	-9.65073
画	-9.6509
可以看出	-9.6511
还没	-9.65294
友谊	-9.65347
的观点	-9.65406
题主您好	-9.65476
的婚姻	-9.655
确认	-9.65532
符合	-9.65589
疫情	-9.65591
那你	-9.65737
其实你	-9.65754
主观	-9.65776
作为一个	-9.65818
这也	-9.65835
思考一下	-9.65873
怀孕	-9.6595
的经验	-9.65982
的一面	-9.66268
的恐惧	-9.66327
技术	-9.66375
在学校	-9.66454
可以在	-9.66454
争取	-9.66511
不合适	-9.66573
的价值	-9.66589
在一个	-9.66636
缺乏安全感	-9.66743
30	-9.66754
是什么呢	-9.66985
遭遇	-9.67005
这种状态	-9.67006
之一	-9.6701
亲近	-9.67054
价值观	-9.67083
实践	-9.6715
留下	-9.67162
这就	-9.67179
找到自己	-9.6724
极端	-9.67256
题主可以	-9.67293
羡慕	-9.6733
绝对	-9.67384
舍友	-9.67502
的一部分	-9.6755
投射	-9.67736
失落	-9.67773
养成	-9.67801
一条	-9.67899
限制	-9.67931
为何	-9.67978
整个	-9.68001
价值感	-9.68003
去看	-9.68023
条	-9.68028
自律	-9.6803
消耗	-9.68041
前任	-9.68042
第四	-9.681
不良	-9.68222
有一天	-9.68339
你说你	-9.68443
或许是	-9.68462
在自己	-9.6847
视	-9.6851
压	-9.68534
不完美	-9.68552
在心里	-9.68573
过了	-9.6865
是如何	-9.6867
只不过	-9.68703
消失	-9.68725
6	-9.68747
推荐	-9.68854
好奇	-9.68902
你想要	-9.68942
排	-9.6896
想过	-9.68968
有多	-9.691
慢慢来	-9.6914
舒适	-9.69182
苦恼	-9.69245
相反	-9.69376
难道	-9.69441
不理解	-9.69469
这点	-9.69519
可以选择	-9.69523
假如	-9.69593
几年	-9.69637
与自己	-9.69652
自己的人生	-9.69653
所谓	-9.6966
可以先	-9.69687
假设	-9.6975
着你	-9.698
呼吸	-9.69845
医院	-9.69846
绝望	-9.6985
把握	-9.69911
所以我们	-9.69921
楼主你好呀	-9.69934
维护	-9.7003
小孩子	-9.7005
的评价	-9.70097
不好的	-9.70113
什么是	-9.70209
成长的	-9.7022
的父母	-9.70261
弥补	-9.70276
和妈妈	-9.70304
肯定是	-9.70457
结	-9.70509
言语	-9.70519
两年	-9.70595
热情	-9.70633
给出	-9.70636
人际	-9.70638
的方式来	-9.7066
要不要	-9.70704
的体验	-9.70713
对比	-9.70733
促进	-9.70777
转移注意力	-9.70811
当做	-9.7089
崩溃	-9.7089
转变	-9.70945
有助于	-9.70947
马上	-9.70964
的困扰	-9.71031
怀疑自己	-9.71066
题主说	-9.71101
给我们	-9.71119
太过	-9.71152
优秀的	-9.71175
今年	-9.71177
是什么样的	-9.7119
必须要	-9.71221
B	-9.71232
没有任何	-9.71437
真的很	-9.71454
自信心	-9.71504
第	-9.71513
任何人	-9.71529
记住	-9.71604
谈谈	-9.71669
与人	-9.71671
内心深处	-9.71796
我是	-9.71832
记录	-9.71865
所在	-9.71877
级	-9.71883
当下的	-9.71887
给对方	-9.71918
在我们	-9.71955
做好自己	-9.72016
乐观	-9.72135
会出现	-9.72268
。1、	-9.72331
商量	-9.72344
乐	-9.72394
在面对	-9.72406
询问	-9.72476
必然	-9.72512
每个人的	-9.72519
更好地	-9.72591
稍微	-9.72662
惩罚	-9.72798
精	-9.72807
包	-9.72903
群体	-9.72907
的世界	-9.73071
的权利	-9.7311
金	-9.73199
查	-9.73216
成就感	-9.73217
战	-9.73305
看不到	-9.73325
共情	-9.73339
寻求帮助	-9.73358
欲	-9.73437
这些都	-9.73478
下面	-9.73567
就像是	-9.73683
的方向	-9.7379
成人	-9.7382
自己也	-9.73841
这个事情	-9.73842
不错	-9.73908
不太好	-9.73913
:(1)	-9.73914
不爱	-9.73922
感恩	-9.73971
多一些	-9.73982
理解你	-9.74067
差异	-9.74098
比你	-9.74165
周围	-9.74217
就是你	-9.7422
念	-9.74224
未来的	-9.74259
的声音	-9.74349
吵	-9.74399
相亲	-9.74424
心灵	-9.74441
注意力	-9.74499
威胁	-9.74534
爸妈	-9.74547
有一点	-9.74579
也可能	-9.7464
是最	-9.74666
黑	-9.74759
脸	-9.74782
照顾好自己	-9.74803
的作用	-9.74856
走向	-9.74858
来源于	-9.74864
表现出	-9.74882
让你觉得	-9.74932
奖励	-9.74961
造成了	-9.74965
成了	-9.74974
词	-9.7503
去解决	-9.75058
如果说	-9.75138
诉说	-9.7522
交朋友	-9.75243
担心自己	-9.75264
这是你	-9.75389
对话	-9.75393
彻底	-9.75497
达成	-9.75529
原本	-9.75597
了呢	-9.75609
是真的	-9.75633
勇敢的	-9.75667
思	-9.7573
祝福	-9.75785
你的情绪	-9.7585
事实上	-9.7588
较	-9.75917
犯	-9.75929
同样的	-9.75932
正面	-9.75968
令人	-9.76037
处理好	-9.76072
领域	-9.76075
要是	-9.761
相似	-9.76215
如果真的	-9.76219
对抗	-9.76227
增强	-9.76248
的标准	-9.76309
长久	-9.76373
加上	-9.76386
曾	-9.7639
马	-9.76482
的呢	-9.76606
你提到	-9.76636
妈妈的	-9.76657
不代表	-9.76741
不愿	-9.76744
没有必要	-9.76769
细节	-9.76803
小事	-9.76918
成就	-9.76995
因为他	-9.77052
表明	-9.77199
但如果	-9.77216
害	-9.77222
过的	-9.77239
无奈	-9.77245
充分	-9.77248
啥	-9.77271
这样的人	-9.77274
去学习	-9.77322
面子	-9.77376
式	-9.77465
错了	-9.77484
可以说	-9.77542
打破	-9.77562
制定	-9.77607
不是很	-9.7765
失恋	-9.77688
热爱	-9.77696
显得	-9.77721
转移	-9.77824
改变的	-9.77851
对别人	-9.77911
是不	-9.77992
但是我们	-9.78052
可以从	-9.78174
停止	-9.78196
会让我们	-9.78199
是谁	-9.78204
以至于	-9.78208
被动	-9.78227
平常	-9.78258
家里人	-9.78259
本能	-9.78325
愧疚	-9.78386
轻易	-9.78393
电影	-9.78398
的沟通	-9.78411
你很	-9.7843
单位	-9.7843
导致的	-9.7844
是怎么	-9.78446
工	-9.78457
内在的	-9.78501
去寻找	-9.78508
三年	-9.78531
会更	-9.78581
当前	-9.78619
1、	-9.78637
打算	-9.7864
想起	-9.7868
承诺	-9.78703
现在的你	-9.78828
层	-9.7891
是对的	-9.78991
性别	-9.79008
早日	-9.79032
经历了	-9.79045
与父母	-9.7907
一致	-9.79078
不断地	-9.79109
逼	-9.79144
取得	-9.79188
哥哥	-9.79204
等待	-9.79258
或许你	-9.79266
刚刚	-9.79326
年纪	-9.7948
发生的	-9.79595
的背后	-9.79686
收入	-9.79706
就有	-9.79786
突破	-9.79795
的意思	-9.79871
百	-9.79904
此时	-9.79916
硬	-9.79932
称	-9.79942
修复	-9.79962
「	-9.79978
」	-9.79978
分析一下	-9.80009
当自己	-9.8003
挽回	-9.80069
样	-9.80151
『	-9.8021
说什么	-9.80229
安心	-9.80237
你是一个	-9.80262
内疚	-9.80283
的对象	-9.80286
这方面	-9.80357
看你	-9.80412
』	-9.80465
天天	-9.80727
需要你	-9.80737
公	-9.80803
影响到	-9.80811
阻碍	-9.80843
折磨	-9.80845
在这个过程中	-9.80926
前进	-9.81037
如果不	-9.81089
逻辑	-9.81165
也没	-9.81196
兴趣爱好	-9.81245
的决定	-9.81312
存在的	-9.81316
的话题	-9.81325
进去	-9.81348
特点	-9.81373
抱抱题主	-9.81445
双方都	-9.8147
又是	-9.81482
辞职	-9.8149
我现在	-9.81492
发生了什么	-9.81515
深呼吸	-9.81533
时代	-9.81622
同性恋	-9.8164
合作	-9.81681
一时	-9.81705
刚开始	-9.8173
感兴趣	-9.81789
尽力	-9.81994
不愉快	-9.82073
冷漠	-9.82131
单纯	-9.82145
磨合	-9.82491
那个时候	-9.82505
不值得	-9.82553
动机	-9.82554
曾经的	-9.82592
唯一	-9.82717
可以考虑	-9.82804
功能	-9.8291
愉悦	-9.82929
的优点	-9.82964
三个	-9.83004
保	-9.83059
消除	-9.83077
7	-9.83115
我可以	-9.83216
我们每个人	-9.83234
干扰	-9.83304
男女	-9.8333
差不多	-9.83336
的那种	-9.83349
占	-9.83364
课程	-9.83412
愉快	-9.83449
循环	-9.83545
思路	-9.8357
除	-9.83631
缺	-9.83654
多久	-9.83663
工资	-9.837
有些事情	-9.83745
不错的	-9.83882
没必要	-9.83893
婴儿	-9.84053
神经	-9.84084
房	-9.84103
一个问题	-9.84176
上课	-9.84185
搞	-9.84238
现	-9.84303
母亲的	-9.8431
会被	-9.84341
要知道	-9.84363
我要	-9.84375
和行为	-9.84388
试试	-9.84409
倾向	-9.84413
这段时间	-9.84452
分钟	-9.84532
的理解	-9.84574
去思考	-9.84586
科学	-9.84617
很喜欢	-9.84697
源于	-9.84699
的因素	-9.84734
归	-9.84735
智慧	-9.84756
主要是	-9.84774
~~	-9.84803
岗位	-9.84838
电话	-9.84874
自尊	-9.84876
奋斗	-9.84894
善于	-9.84935
自己的问题	-9.84939
长大了	-9.85038
意思	-9.85067
勇气	-9.85104
各	-9.85108
要有	-9.8513
翻	-9.85141
的答案	-9.85159
可能是因为	-9.85192
还是会	-9.85261
非常理解你的心情	-9.85314
愿你	-9.85327
药物	-9.85383
代	-9.85501
问问	-9.85504
给了	-9.85515
还有很多	-9.85547
忍受	-9.85549
这部分	-9.85596
我觉得你	-9.85632
。4、	-9.8565
每天都	-9.8566
最重要的是	-9.85752
那么我们	-9.85761
其它	-9.85774
症	-9.85791
很快	-9.85802
权威	-9.85815
让您	-9.85845
过多的	-9.85849
微信	-9.85898
激发	-9.86012
号	-9.86019
姑娘	-9.86071
是很正常的	-9.86111
嗯	-9.86212
影响了	-9.86282
切	-9.86304
群	-9.86356
误解	-9.86358
工作中	-9.86478
方面的	-9.86518
进而	-9.86522
不清楚	-9.86527
才有	-9.86624
的年龄	-9.86736
的知识	-9.86765
更重要	-9.86811
靠近	-9.86828
一段感情	-9.86845
疑惑	-9.86907
给你温暖的抱抱	-9.86922
值	-9.86963
风险	-9.86987
欺骗	-9.8701
这些情绪	-9.87029
妥协	-9.87035
活在	-9.87067
我很	-9.87102
暗示	-9.87144
养育	-9.87212
】1.	-9.87271
a	-9.87335
▁	-9.87418
为此	-9.87426
的角色	-9.87444
是要	-9.87444
所以我	-9.87486
一切都	-9.87497
所有人	-9.87504
表面	-9.87591
练	-9.87605
够	-9.87669
做过	-9.87697
试图	-9.87711
不在	-9.87713
宿舍	-9.8774
破坏	-9.87754
也在	-9.87758
特征	-9.87789
是因为你	-9.87824
想要改变	-9.87975
的成绩	-9.8801
跟她	-9.88017
谁都	-9.88034
更有	-9.88051
他说	-9.88113
法律	-9.88117
痛苦的	-9.8815
是一件	-9.88249
的故事	-9.88291
和解	-9.88321
。4.	-9.88391
段	-9.884
树立	-9.88407
自私	-9.88418
的空间	-9.88465
等到	-9.88479
散	-9.88483
。(2)	-9.88567
目前的	-9.88635
界限	-9.88729
前面	-9.88837
都不是	-9.88873
夜	-9.88902
共	-9.88951
劝	-9.88953
弄	-9.88963
都不会	-9.89005
然后再	-9.89038
心理医生	-9.8906
又会	-9.89071
很久	-9.89116
过多	-9.89117
去尝试	-9.89175
多么	-9.89178
随时	-9.89253
的美好	-9.89282
脱离	-9.89283
善	-9.89297
跳	-9.89356
招	-9.89366
的努力	-9.89544
不知道怎么	-9.89546
一步	-9.8955
叫做	-9.89562
是比较	-9.89614
男孩子	-9.8962
和想法	-9.89621
但也	-9.89628
修	-9.89635
不适应	-9.89678
之间的关系	-9.89701
充实	-9.89719
大的	-9.89726
缺失	-9.89747
回去	-9.8977
干涉	-9.89773
从中	-9.89783
这份工作	-9.89818
有这样的	-9.89823
什么呢	-9.89846
生活中的	-9.89956
否定自己	-9.89979
多次	-9.8998
这么做	-9.90009
房子	-9.90102
望	-9.90146
从小到大	-9.90197
喜欢的人	-9.90218
你希望	-9.90226
要去	-9.90251
技巧	-9.90269
看到自己	-9.90284
极度	-9.90339
要想	-9.90402
8	-9.90425
做决定	-9.90445
你的描述	-9.90514
周围的人	-9.90613
的思维	-9.90623
类型	-9.90639
不是吗	-9.90716
挑	-9.90753
考验	-9.90768
快速	-9.90786
自残	-9.90786
先给楼主一个抱抱	-9.90791
件	-9.90804
将自己	-9.90813
出门	-9.90814
尤其	-9.90814
试	-9.90832
直	-9.90862
普遍	-9.90869
我们就	-9.90882
帮助自己	-9.90885
并不会	-9.90918
偏	-9.90927
双	-9.90945
但又	-9.90981
图	-9.9099
两种	-9.91042
时光	-9.91095
就可以了	-9.9116
想改变	-9.91213
说的话	-9.91253
后果	-9.91283
身份	-9.913
家庭的	-9.91307
办	-9.91316
的矛盾	-9.91318
很棒	-9.91322
敢于	-9.91371
老师的	-9.91389
论	-9.9141
玩手机	-9.91419
犹豫	-9.91479
可以多	-9.91543
很高兴	-9.91571
本人	-9.9164
不幸	-9.91655
传	-9.91666
丧失	-9.91761
他是	-9.91808
和老公	-9.91959
向你	-9.92041
胡思乱想	-9.9205
如果自己	-9.9208
长时间	-9.92099
爆发	-9.921
那时候	-9.92149
仅仅是	-9.92156
的伤害	-9.92168
往往是	-9.92195
烦	-9.92215
试着去	-9.92221
的模式	-9.92288
仿佛	-9.92304
困境	-9.92425
己	-9.92461
伤害自己	-9.92463
放不下	-9.92489
压力大	-9.92568
他也	-9.92596
紧	-9.9262
困	-9.92623
初	-9.92653
在这	-9.92657
演	-9.92696
千	-9.9271
不说	-9.92714
敢	-9.92715
不是你	-9.92718
不仅仅是	-9.92754
能做到	-9.92781
隔	-9.92815
的可能性	-9.92828
没法	-9.92846
每一次	-9.92855
暧昧	-9.92902
任	-9.92914
句	-9.92922
一个人的	-9.9294
是他	-9.92979
也是一个	-9.92986
导致你	-9.93013
不论	-9.93032
防御	-9.93039
轻	-9.93042
好好地	-9.93057
使得	-9.93074
希望自己	-9.93086
果	-9.93113
特殊	-9.93149
世界上	-9.93182
形象	-9.93268
存	-9.93335
爱他	-9.93343
中间	-9.93369
变成了	-9.93371
找工作	-9.93403
知道你	-9.93404
解读	-9.93471
难度	-9.93583
可以理解	-9.9362
和感受	-9.93645
说不定	-9.93665
经	-9.93737
最大	-9.93738
暴露	-9.93742
花钱	-9.93742
从事	-9.93762
复合	-9.93785
去医院	-9.93831
没有安全感	-9.93833
自己的价值	-9.93838
小学	-9.93846
嫌弃	-9.93896
彼此的	-9.9391
不能接受	-9.93943
外向	-9.93949
看完	-9.93973
举	-9.93986
究竟	-9.94
是我	-9.94003
的困惑	-9.94005
一下自己	-9.94112
梦想	-9.94131
化解	-9.94291
相关的	-9.94302
疲惫	-9.94383
故意	-9.94428
动物	-9.94504
特质	-9.9453
属于自己的	-9.94633
这个世界上	-9.94661
今后	-9.94701
放心	-9.94733
你又	-9.94747
显然	-9.94931
刷	-9.95052
高兴	-9.95075
圈子	-9.95155
毫无	-9.95159
看似	-9.95207
校	-9.95341
最重要的	-9.95344
我想你	-9.95371
严格	-9.95387
哈	-9.95422
外界的	-9.9543
从你	-9.95515
圈	-9.95637
跟着	-9.9567
和母亲	-9.95672
坦诚	-9.95682
过往	-9.95821
你妈妈	-9.95852
心思	-9.95878
得到了	-9.95909
比较好	-9.95932
里的	-9.95967
找出	-9.9597
这种情绪	-9.96033
深深的	-9.96052
具备	-9.96084
没人	-9.9615
效率	-9.96295
中国	-9.96308
e	-9.96322
投	-9.96395
对未来	-9.96397
足	-9.9643
有限	-9.96434
上了	-9.96448
情况下	-9.96449
排解	-9.96451
的一切	-9.96454
给自己一个	-9.96618
害怕自己	-9.96633
学着	-9.96641
了你的	-9.9665
却是	-9.96651
强迫症	-9.96711
调整自己	-9.96744
请你	-9.96761
你目前	-9.96805
越来越好	-9.96837
明天	-9.96842
出于	-9.96853
隐藏	-9.96874
节	-9.96879
部	-9.96894
##	-9.96922
疗法	-9.96926
形式	-9.96989
抱抱你呀	-9.97027
超越	-9.97047
的程度	-9.97125
明确的	-9.97128
表	-9.97129
有用	-9.9713
跟别人	-9.97185
反感	-9.97204
说过	-9.97209
而不	-9.97214
重要的是	-9.97261
的支持	-9.97274
古	-9.97305
独自	-9.97311
单身	-9.97336
给别人	-9.97338
学到	-9.97411
底	-9.97419
感受到了	-9.97486
建议楼主	-9.97546
此刻	-9.97564
费	-9.97574
日子	-9.97576
良好	-9.97584
希望能够	-9.97584
相爱	-9.97612
忍不住	-9.97614
因为他们	-9.97618
学习的	-9.97705
可能需要	-9.97709
异地	-9.9784
去想	-9.97946
的内心	-9.9795
的路	-9.9796
有利于	-9.97967
健康的	-9.98024
的付出	-9.98032
就会有	-9.9806
的成长	-9.98117
列	-9.98159
的思想	-9.98185
之前的	-9.9821
一个月	-9.98219
这种行为	-9.98264
洗	-9.98329
程	-9.98335
味	-9.98337
沟通一下	-9.98341
会更加	-9.98343
强势	-9.98423
优秀的人	-9.98442
具体的	-9.98442
坚持下去	-9.98501
前男友	-9.98509
自恋	-9.98567
觉	-9.98644
不信任	-9.98689
跑步	-9.98703
根据你的描述	-9.98704
带孩子	-9.98717
国	-9.98734
之下	-9.9876
就开始	-9.98808
青春	-9.98842
成年	-9.98966
同意	-9.98978
到你	-9.98979
安静	-9.99021
你一定	-9.99022
不适合	-9.99047
细	-9.99062
你的朋友	-9.99143
不知道如何	-9.99143
s	-9.99148
引发	-9.99256
自己身上	-9.99334
遭受	-9.99339
没关系	-9.99341
有效的	-9.9946
欺负	-9.9952
产生的	-9.99561
和我	-9.99577
不要太	-9.99597
都很	-9.99669
。**	-9.99741
减肥	-9.99743
的日子	-9.99767
不一样的	-9.99816
剧	-9.99824
看重	-9.99834
争	-9.99844
出了	-9.99853
无聊	-9.99858
你都	-9.99866
碰到	-9.99903
的专业	-9.99904
自慰	-9.99904
仅仅	-9.99961
不适	-9.99975
我个人	-10
的相处	-10.0003
酒	-10.0005
就业	-10.0012
易	-10.0017
体验到	-10.0017
效应	-10.0018
冲	-10.0018
艰难	-10.002
支撑	-10.0021
安抚	-10.0022
抛弃	-10.0029
我不知道	-10.003
强化	-10.0032
母	-10.0033
你心里	-10.0034
无关	-10.0038
是对	-10.0041
片	-10.0042
至	-10.0044
笔	-10.0047
该如何	-10.0049
顶	-10.0052
意识到自己	-10.0053
答应	-10.0054
对于你	-10.0059
介意	-10.0064
正如	-10.0066
用来	-10.0073
再加上	-10.0081
谢谢	-10.0084
食	-10.0088
意外	-10.0092
哪怕是	-10.0092
是你的	-10.0093
熟	-10.0098
正视	-10.0098
去了解	-10.01
自然会	-10.0103
做事情	-10.0109
沉	-10.0113
和男友	-10.0118
情绪低落	-10.0122
关怀	-10.0123
狗	-10.0129
份	-10.0129
接近	-10.0132
很多的	-10.0133
补	-10.0137
真是	-10.0137
跟自己	-10.0142
红	-10.0145
年轻人	-10.0146
和情绪	-10.0157
抱	-10.0158
不公平	-10.0162
才能够	-10.0163
质疑	-10.0164
普通	-10.0168
多大	-10.0177
就越	-10.0178
城市	-10.0181
所有人都	-10.0182
到底是	-10.0187
周围人	-10.0188
因为自己	-10.019
国家	-10.0193
不要因为	-10.0197
o	-10.0203
如果你觉得	-10.0204
哪些是	-10.0204
由此	-10.0205
差距	-10.0205
顾虑	-10.0208
机制	-10.0209
的创伤	-10.0211
的期望	-10.0214
写下来	-10.0215
好好学习	-10.0215
超	-10.0218
的阶段	-10.0221
但是如果	-10.0225
改正	-10.0229
这里面	-10.0244
淡	-10.0252
连接	-10.0254
顺其自然	-10.0259
给你带来	-10.0259
自己想要的	-10.026
也可能是	-10.0262
三观	-10.0263
考虑到	-10.0265
同性	-10.0269
的办法	-10.027
这一切	-10.0276
了一些	-10.0285
抱着	-10.0287
预期	-10.0287
获取	-10.0288
看看自己	-10.0289
注意到	-10.0289
束缚	-10.0289
认识自己	-10.0294
变好	-10.0297
静	-10.0306
助	-10.031
很多人都	-10.0316
皮	-10.0319
菜	-10.0323
很开心	-10.0325
本身就	-10.0326
就没有	-10.0329
朋友圈	-10.0331
心中的	-10.0331
人生中	-10.0331
卡	-10.0332
就是一个	-10.0332
的改变	-10.0332
过后	-10.0338
一颗	-10.0338
父亲的	-10.0343
不做	-10.0343
白天	-10.0345
漂亮	-10.0354
静下心来	-10.0354
邀请	-10.0354
底线	-10.0355
哄	-10.0369
和理解	-10.0371
看到你的	-10.0371
随便	-10.0371
外面	-10.0377
网上	-10.0379
很有	-10.038
书籍	-10.0386
他们会	-10.0386
巨大的	-10.0387
几天	-10.0394
‘	-10.0396
那个人	-10.0405
证	-10.0417
形成了	-10.0424
使你	-10.0426
估计	-10.0434
但这	-10.0439
自己的能力	-10.044
不算	-10.0441
’	-10.0444
计	-10.0447
希望对你有所帮助	-10.0455
饮食	-10.0466
呈现	-10.0473
动作	-10.0478
娱乐	-10.048
体谅	-10.0482
有帮助	-10.0483
顺	-10.0492
你真的	-10.0495
另	-10.0497
黑暗	-10.0498
可见	-10.0501
科	-10.0511
熬夜	-10.0514
了解你	-10.0517
带给你	-10.0526
体现	-10.0528
店	-10.0531
阴影	-10.0533
经常会	-10.0534
我感觉	-10.054
超过	-10.0543
但其实	-10.0544
替代	-10.0546
在我看来	-10.0547
树	-10.0547
个月	-10.0556
千万不要	-10.0558
这么多	-10.0562
低落	-10.0563
抵触	-10.0563
不要再	-10.0565
形成的	-10.0566
不大	-10.0566
更大	-10.0568
整理	-10.0579
做朋友	-10.0584
不知道题主	-10.0591
的交流	-10.0593
这时	-10.0594
来了	-10.0597
制	-10.0599
我想说	-10.0602
疼	-10.0605
匹配	-10.0606
的爱情	-10.0608
之处	-10.0608
背叛	-10.0611
治	-10.0613
交友	-10.0615
楼主您好	-10.0616
的身体	-10.0628
的那个	-10.0629
很难过	-10.0631
带给	-10.0634
不够好	-10.0637
损失	-10.0637
不重要	-10.0639
局	-10.064
生命的	-10.0647
自主	-10.0651
电	-10.0654
恋	-10.066
的缺点	-10.0667
对对方	-10.0677
混	-10.0677
玩游戏	-10.0677
悲观	-10.0678
上进	-10.0679
六	-10.0686
的观念	-10.0696
途径	-10.0703
身边的	-10.0704
成为了	-10.0709
可以用	-10.0717
你想要的	-10.0721
很高	-10.0722
广	-10.0723
的自我	-10.0727
导致了	-10.0727
变得更好	-10.0734
这只是	-10.0737
只是一个	-10.0737
还是有	-10.0738
会对	-10.0742
背景	-10.0749
被爱	-10.0754
半年	-10.0756
渐渐	-10.0757
梳理一下	-10.0758
说我	-10.076
的女生	-10.0761
成为一个	-10.0762
!(^_-)	-10.0764
无法改变	-10.0778
什么事情	-10.0781
是否可以	-10.0782
了解一下	-10.0791
面试	-10.0792
自卑感	-10.0795
对他们	-10.0802
排除	-10.0803
正念	-10.0811
精彩	-10.0813
作出	-10.0813
你知道	-10.0815
存在着	-10.0816
找回	-10.082
贵	-10.0821
强迫自己	-10.0822
本来就	-10.0823
浪费	-10.0823
嘴	-10.0825
旧	-10.0827
整	-10.0832
亲情	-10.0835
衣服	-10.084
挣扎	-10.0844
冷静下来	-10.0848
而非	-10.0856
没有那么	-10.0857
头脑	-10.0859
胖	-10.086
·	-10.0861
也无法	-10.0863
喜欢他	-10.0874
但我们	-10.0875
跟父母	-10.0883
考上	-10.0883
抑郁情绪	-10.0886
可能性	-10.0889
反对	-10.0891
好吗	-10.0894
特	-10.0894
咱们	-10.0896
沉默	-10.0897
职	-10.0908
眼中	-10.0912
告知	-10.0914
的现象	-10.0916
张	-10.0917
好友	-10.092
站	-10.0921
建议题主	-10.0921
所以在	-10.0922
会让人	-10.0927
介绍	-10.0929
看得出来	-10.0929
你的情况	-10.093
理解和	-10.093
理解自己	-10.0932
暴躁	-10.0939
守	-10.0941
会影响	-10.0942
对你有	-10.0943
严重的	-10.0943
找到一个	-10.0945
牺牲	-10.0947
随意	-10.0952
潜意识里	-10.0952
看一下	-10.0953
更大的	-10.0956
基于	-10.096
和焦虑	-10.096
攻击性	-10.0965
告诉她	-10.0966
启发	-10.097
飞	-10.0978
你觉得自己	-10.098
对错	-10.0983
微笑	-10.0984
会很	-10.0986
命运	-10.0997
画画	-10.0999
也许会	-10.1005
真实的自己	-10.1005
好感	-10.1008
。——	-10.1016
总是会	-10.102
余	-10.1031
需要我们	-10.1039
你的生活	-10.1039
减	-10.1042
率	-10.1047
见到	-10.1049
集体	-10.1049
区别	-10.105
总有	-10.105
心动	-10.1053
说到	-10.1065
形	-10.1068
普通人	-10.1069
是一个很	-10.1074
是你自己	-10.1079
的位置	-10.1085
罪	-10.1086
准	-10.1096
综合	-10.1098
只有自己	-10.1099
自我成长	-10.1101
是吗	-10.1115
设置	-10.1117
。)	-10.1124
向往	-10.1126
是好的	-10.1129
感同身受	-10.1135
TA	-10.1136
从描述中可以了解到	-10.1139
的愿望	-10.1139
的注意力	-10.1139
否认	-10.1145
看过	-10.1145
如果楼主	-10.1151
不希望	-10.1152
人群	-10.1152
注重	-10.1153
开朗	-10.1154
会因为	-10.1158
受到了	-10.1163
放手	-10.1164
印象	-10.1164
非常重要	-10.1165
幸福的	-10.1165
我也是	-10.1178
引	-10.1181
一项	-10.1182
请求	-10.1195
大多数人	-10.1196
员工	-10.12
赚	-10.1202
王	-10.1203
对您	-10.1203
做个	-10.1203
套	-10.1204
这样的状态	-10.1208
加强	-10.1209
不了解	-10.121
喜	-10.1218
收到	-10.1224
一点点分析和建议	-10.1225
习惯了	-10.1226
的勇气	-10.1228
二是	-10.1231
没那么	-10.1233
不好意思	-10.1236
卖	-10.1236
偷	-10.124
多多	-10.1242
的是什么	-10.125
立	-10.1261
无需	-10.1263
就已经	-10.1265
绝	-10.1268
身边人	-10.1269
的眼光	-10.127
在关系中	-10.1282
的真实	-10.1283
一般来说	-10.1289
稳定的	-10.1293
做的事	-10.1296
0	-10.1297
更是	-10.1299
焦虑不安	-10.1304
毒	-10.1306
怎样的	-10.1315
忍	-10.1316
就是这样	-10.1321
到现在	-10.1325
儿童	-10.1327
工作上	-10.1327
的意愿	-10.1327
可以看出你	-10.1332
去看待	-10.1334
对于自己	-10.1335
换一个	-10.1339
衣	-10.1342
你男朋友	-10.1344
机构	-10.1346
开放	-10.1346
往往会	-10.135
另一种	-10.1355
的欲望	-10.1355
可能就是	-10.1356
和你一样	-10.1357
勇敢地	-10.1358
踏实	-10.1361
有力量	-10.1364
预	-10.137
也只是	-10.1376
所说的	-10.1383
2、	-10.1388
我们也	-10.1388
这样的话	-10.139
一系列	-10.1391
下降	-10.1401
我能	-10.1404
家暴	-10.1411
能感受到	-10.1414
是没有	-10.1414
很可能	-10.1414
人在	-10.1416
不要去	-10.1419
员	-10.1421
有价值	-10.1426
躲	-10.1431
自己的行为	-10.1434
的女孩	-10.1437
你内心的	-10.1445
说自己	-10.1446
德	-10.1451
心理上的	-10.1452
妈	-10.1454
相同	-10.1461
如果题主	-10.1461
劲	-10.1464
有些时候	-10.1468
给你一个温暖的抱抱	-10.1471
幸运	-10.1472
击	-10.1473
也不知道	-10.1478
替	-10.1478
一是	-10.1479
放大	-10.148
焦虑情绪	-10.1483
努力的	-10.1483
我都	-10.1484
尽可能	-10.1487
在工作中	-10.1493
却没有	-10.1495
感知	-10.15
仅	-10.1506
看到的	-10.1513
走进	-10.1524
相比	-10.1526
心理上	-10.1536
只是你	-10.1537
一些问题	-10.154
发生的事情	-10.154
完善	-10.1541
强调	-10.1542
这都是	-10.1544
对他的	-10.1547
运用	-10.1548
却又	-10.1548
想清楚	-10.1555
异	-10.1563
的状况	-10.1564
比较多	-10.1567
眼睛	-10.1574
小时	-10.1581
所以才会	-10.1586
让父母	-10.1587
拍	-10.159
是否是	-10.1596
的基础上	-10.1605
学习成绩	-10.1607
我不	-10.1611
反过来	-10.1615
找到了	-10.1616
八	-10.1616
还是需要	-10.1616
如今	-10.1617
会导致	-10.1625
基本上	-10.1628
源	-10.1635
纠缠	-10.165
关心你	-10.1651
不允许	-10.166
衡量	-10.1663
只是在	-10.1674
小的时候	-10.1676
不止	-10.1684
实验	-10.1685
只想	-10.1686
一些建议	-10.169
我相信你	-10.1694
聊聊天	-10.1695
这个阶段	-10.1697
小说	-10.1698
你的人生	-10.1699
指导	-10.1703
健身	-10.1703
一下子	-10.1706
划	-10.1709
骗	-10.1709
消息	-10.1711
纸	-10.1719
个人的	-10.1719
这样一个	-10.1725
早上	-10.1727
想要的	-10.1732
自己喜欢	-10.1735
我们应该	-10.1735
数学	-10.1736
旅游	-10.1737
充满了	-10.1738
和男朋友	-10.1741
交际	-10.1744
没有错	-10.1746
脱	-10.1747
你喜欢	-10.1751
身体的	-10.176
英语	-10.176
温暖的	-10.176
沉浸在	-10.1761
聚	-10.1763
把他	-10.1769
不如意	-10.1771
概念	-10.1775
居	-10.1776
执行	-10.1778
措施	-10.1779
那时	-10.1781
实力	-10.1784
入睡	-10.1786
问题的	-10.1788
对吧	-10.1789
自己内心的	-10.1789
幸	-10.1791
认真的	-10.1794
做出改变	-10.1794
的关注	-10.1795
完美的	-10.1796
好多	-10.1798
是不会	-10.1801
交给	-10.1801
般	-10.1804
希望对你有帮助	-10.1805
是由	-10.1809
而感到	-10.181
去看看	-10.1814
沮丧	-10.1815
平和	-10.1822
令	-10.1823
即使是	-10.1828
恋爱关系	-10.1834
其实也	-10.1842
可以找	-10.1842
干预	-10.1844
走了	-10.1847
丑	-10.1848
的教育	-10.1849
场景	-10.1852
类似的	-10.1852
的重要	-10.1853
反而会	-10.1857
做些什么	-10.186
抓住	-10.1861
和痛苦	-10.1862
嘲笑	-10.1864
第一个	-10.1866
的事件	-10.1866
恐慌	-10.1869
外部	-10.1874
的任务	-10.1883
自己在	-10.1886
宽容	-10.1889
是会	-10.1891
才可以	-10.1891
看一看	-10.1895
网	-10.1896
题主现在	-10.1899
使自己	-10.1899
的症状	-10.19
不配	-10.1905
吃药	-10.1909
逐步	-10.191
研究生	-10.191
我建议你	-10.1913
核心	-10.1914
等你	-10.1921
就好像	-10.1922
如果她	-10.1924
赶	-10.1924
受到伤害	-10.1925
补充	-10.1934
会感到	-10.1934
性行为	-10.1936
闲	-10.1936
十年	-10.1936
意愿	-10.1936
知道了	-10.1937
回头	-10.1937
你才	-10.1939
重大	-10.194
仍	-10.1944
约束	-10.1945
不知道自己	-10.1947
即可	-10.195
自己的目标	-10.195
做不好	-10.1951
会在	-10.1955
一个小	-10.1956
如果可以	-10.1959
当年	-10.196
当我	-10.1962
不安全感	-10.1962
拖	-10.1962
这类	-10.1963
服务	-10.1964
可以把	-10.1966
聪明	-10.1967
楼主现在	-10.1969
跟他们	-10.1973
的书	-10.1981
题主好	-10.1981
就应该	-10.1982
克	-10.1982
自己的需求	-10.1983
额	-10.1983
回归	-10.1986
你不	-10.1988
这可能	-10.1989
是这样吗	-10.199
好起来	-10.1996
念头	-10.2003
家庭中	-10.2006
一段关系	-10.2007
的相处模式	-10.2009
的学生	-10.2011
爱护	-10.2012
是想	-10.2019
以外	-10.2019
坎	-10.2021
起到	-10.2027
贴	-10.2031
就不要	-10.2036
有种	-10.2047
另一半	-10.2048
时常	-10.2049
未必	-10.2052
有趣	-10.2053
透	-10.2055
赞美	-10.2059
台	-10.2061
涉及到	-10.2065
赢	-10.2067
很小	-10.2068
很有可能	-10.2069
详细	-10.207
醒	-10.2071
各种各样的	-10.2077
自我否定	-10.2077
组织	-10.2078
i	-10.2079
描述中	-10.2082
未知	-10.2082
的咨询师	-10.2089
接受自己	-10.2089
越来越多	-10.2094
你对自己	-10.2096
傻	-10.2099
点赞	-10.21
确实会	-10.2104
所以楼主	-10.2111
不易	-10.2113
当事人	-10.2116
我看到	-10.2117
出错	-10.212
可能有	-10.212
亮	-10.2129
省	-10.2132
的信念	-10.2133
音乐	-10.2134
换个	-10.2134
与否	-10.2135
不甘心	-10.2138
天生	-10.214
也不想	-10.2145
过好	-10.2149
赋予	-10.2156
会遇到	-10.2156
楼主说	-10.2156
消化	-10.2158
比如你	-10.2163
当作	-10.2164
可能在	-10.2167
作息	-10.2173
出发	-10.2175
优	-10.2178
被抛弃	-10.2186
久了	-10.2186
区分	-10.219
停下来	-10.2192
自我的	-10.2193
场合	-10.2196
蛮	-10.2198
的事实	-10.2199
位置	-10.2201
质	-10.2201
的念头	-10.2206
独	-10.2208
地位	-10.2209
报复	-10.2214
自己的选择	-10.2215
专业人士	-10.2216
不少	-10.2217
睡不着	-10.2219
问自己	-10.2221
的描述	-10.2223
感情的	-10.2226
活得	-10.2227
楼	-10.2229
企业	-10.2231
觉察到	-10.2237
帮助我们	-10.2242
策略	-10.225
每当	-10.2252
自己的事情	-10.2253
爱的人	-10.2253
义	-10.2259
抓	-10.2259
人性	-10.2261
备	-10.2261
对他人	-10.2265
我们不能	-10.2266
在他	-10.2268
爱上	-10.2268
这种想法	-10.2269
给他们	-10.2274
控制欲	-10.2274
因为她	-10.228
发育	-10.2282
公平	-10.2282
感性	-10.2289
很优秀	-10.229
风格	-10.229
根	-10.2292
的基础	-10.2293
这本书	-10.2294
与别人	-10.2296
生孩子	-10.2297
的陪伴	-10.2299
抱抱楼主	-10.2302
自己的孩子	-10.2304
的点	-10.2305
情侣	-10.2305
深度	-10.2307
很简单	-10.2308
做得	-10.2313
下一次	-10.2321
的烦恼	-10.2326
疏远	-10.2328
空虚	-10.233
甜蜜	-10.233
你父母	-10.2332
。(3)	-10.2336
元	-10.2337
陌生	-10.2342
现在你	-10.2343
的时候就	-10.2347
猫	-10.2348
的男生	-10.2348
刀	-10.2349
礼物	-10.2361
与他	-10.2362
全面	-10.2363
自己的优点	-10.2367
封闭	-10.237
也能够	-10.2371
您可以	-10.2371
保护好自己	-10.2372
的时刻	-10.2377
罢了	-10.238
保留	-10.2384
失控	-10.2399
性生活	-10.2399
多年	-10.2403
会让自己	-10.2407
自我怀疑	-10.241
有可能是	-10.2412
很辛苦	-10.2415
走下去	-10.2418
逃	-10.2422
做法	-10.2425
事后	-10.2426
l	-10.2426
的需要	-10.2427
匮乏	-10.2427
在学习	-10.2428
哪种	-10.2433
这样子	-10.2434
依	-10.2437
心理学家	-10.2438
没事	-10.2441
艺术	-10.2445
哭泣	-10.2447
培训	-10.2447
发现了	-10.2448
想知道	-10.2449
当时的	-10.245
的后果	-10.2455
发出	-10.2456
解决的	-10.2461
在这样的	-10.2461
一面	-10.2463
成长过程中	-10.2469
的错	-10.2472
少了	-10.2477
交谈	-10.2491
3.	-10.2491
把这些	-10.2492
温和	-10.2496
要看	-10.2501
可以说是	-10.2501
和人	-10.2502
看的	-10.2505
会比较	-10.2507
有必要	-10.251
最初	-10.2513
宝贝	-10.2515
节奏	-10.2518
斯	-10.2521
当前的	-10.2525
久而久之	-10.2526
来的	-10.2526
情商	-10.2527
规定	-10.2527
分为	-10.253
以往	-10.2534
来到	-10.254
无力感	-10.2541
直面	-10.2545
煎熬	-10.2546
为什么不	-10.2553
嫁	-10.2556
缘分	-10.2557
友	-10.257
链接	-10.2571
方案	-10.2584
看到你的描述	-10.2586
自己的身体	-10.2593
暗	-10.26
不得	-10.2604
越多	-10.2604
疏导	-10.2611
希望你可以	-10.2611
定位	-10.2612
父	-10.2617
资料	-10.2625
品质	-10.2626
惹	-10.2626
象	-10.2627
相处的	-10.2627
能接受	-10.2636
谨慎	-10.2646
的人际关系	-10.2647
自己一个人	-10.2648
在一定程度上	-10.265
同情	-10.2651
友好	-10.2653
不出	-10.2655
察觉	-10.2656
关注自己	-10.2656
考虑一下	-10.266
也就会	-10.2663
证明自己	-10.2669
客观的	-10.267
想去	-10.267
打电话	-10.2673
身体健康	-10.2676
标签	-10.2683
夫	-10.2683
当他	-10.2686
混乱	-10.2688
是不一样的	-10.269
无法接受	-10.2692
达	-10.2696
适合自己的	-10.2697
肉	-10.27
给楼主	-10.2706
灯	-10.2707
需要去	-10.271
的本质	-10.2711
有更多的	-10.2711
楼主好	-10.2723
还有就是	-10.2724
呵护	-10.2726
心底	-10.2726
其实我们	-10.2728
如果不是	-10.2729
先生	-10.273
主义	-10.2731
焦虑和	-10.2734
陪你	-10.2739
不接受	-10.2743
出现的	-10.2744
但是在	-10.2746
写日记	-10.2753
伤害到	-10.2759
没能	-10.2759
男方	-10.2762
厉害	-10.2764
他对你	-10.2764
的妈妈	-10.2764
喜欢一个人	-10.2764
兴奋	-10.2766
消费	-10.2769
的回答	-10.277
根源	-10.2779
家里的	-10.2779
的钱	-10.2781
疑	-10.2784
支持你	-10.2791
的事物	-10.2791
就是在	-10.2791
给你一个	-10.2792
的认可	-10.2794
忽略了	-10.2796
真诚的	-10.2797
听起来	-10.28
被拒绝	-10.2804
愿望	-10.2806
的处境	-10.2811
肯定会	-10.2812
那我们	-10.2819
解决办法	-10.2825
总觉得	-10.2826
分歧	-10.2829
这样的事情	-10.2835
要注意	-10.2837
在我	-10.2841
容	-10.2841
些什么	-10.2845
各方面	-10.2848
一步步	-10.2853
服	-10.2855
不是说	-10.2855
的快乐	-10.2859
危机	-10.2865
从你的	-10.2875
有多少	-10.2875
阅历	-10.2876
微	-10.2878
常见的	-10.2879
端	-10.2881
对人	-10.2889
业	-10.2897
了自己的	-10.2898
的形象	-10.2898
深刻	-10.2898
会有一些	-10.29
在这种情况下	-10.2906
贬低	-10.291
特别的	-10.2911
快乐的	-10.2911
表现的	-10.2914
忙碌	-10.2914
压抑自己	-10.2918
每个人都会有	-10.2919
眼前	-10.2919
你看	-10.2922
成功的	-10.2922
。●	-10.2922
打游戏	-10.2922
的计划	-10.2925
他就	-10.2926
打扰	-10.2927
不要害怕	-10.2929
打压	-10.2929
亲子关系	-10.293
对自己有	-10.293
并不代表	-10.2931
想一下	-10.2932
会发现	-10.2934
给题主	-10.2935
非常好	-10.2939
家庭关系	-10.294
的错误	-10.294
展现	-10.2942
责怪	-10.2944
停	-10.2948
不受	-10.2948
自在	-10.2951
最重要	-10.2951
你还是	-10.2951
以前的	-10.2952
本身就是	-10.2953
创业	-10.2953
棒	-10.2954
题主你好呀	-10.2956
感动	-10.2956
上大学	-10.296
可以帮助你	-10.2963
抚养	-10.2972
干什么	-10.2974
紧急	-10.2974
不要把	-10.2974
设定	-10.2976
几点	-10.2977
你不是	-10.2977
代替	-10.2977
可以让自己	-10.298
也有可能	-10.2987
取决于	-10.2988
其实就是	-10.299
气质	-10.2993
挺好的	-10.2998
就去	-10.3001
工作的	-10.3004
刻	-10.3005
算是	-10.301
止	-10.3011
穷	-10.3013
不一定是	-10.3013
人是	-10.3016
集中	-10.3017
转移到	-10.302
传递	-10.3022
走到	-10.3024
的未来	-10.3028
欠	-10.303
频繁	-10.3036
缺陷	-10.3036
清醒	-10.3042
从前	-10.3045
的年纪	-10.305
此外	-10.3063
这才是	-10.3066
内部	-10.3067
才会有	-10.3068
不稳定	-10.3068
+	-10.3076
懂事	-10.3077
委屈自己	-10.3087
所以说	-10.3089
即将	-10.3098
遇到的	-10.31
初恋	-10.31
解决了	-10.3102
希望对楼主有所帮助	-10.3103
球	-10.3105
%	-10.3108
层次	-10.311
羞耻	-10.3111
其他方面	-10.3113
自我价值	-10.3116
怨恨	-10.312
认	-10.3126
存在感	-10.3135
睡前	-10.314
协调	-10.3142
对父母	-10.3144
▲	-10.3144
现实中	-10.3145
范围	-10.3149
起床	-10.3155
自己的事	-10.3155
了吧	-10.3156
再来	-10.3157
认真地	-10.3162
不多	-10.3164
他在	-10.3166
朝	-10.3169
只是因为	-10.317
你也会	-10.3171
学习和	-10.3176
已经是	-10.3181
表扬	-10.3182
零	-10.3183
表达自己的	-10.3183
做些	-10.3184
真相	-10.3185
好转	-10.3189
你能够	-10.3191
有勇气	-10.3193
同学们	-10.3195
理想的	-10.3196
挫败	-10.3202
家人的	-10.3204
战胜	-10.3206
谈一谈	-10.3207
变得更加	-10.3207
在此	-10.3207
令你	-10.3208
自我保护	-10.3214
什么样	-10.3217
跟我	-10.322
完整	-10.3224
你可以试着	-10.3227
可能就	-10.3227
对孩子的	-10.3231
希望能够帮助到你	-10.3231
外人	-10.3232
分数	-10.3234
不知道楼主	-10.324
的老师	-10.324
毛	-10.3245
本质上	-10.3249
但是却	-10.3253
无所谓	-10.3257
你可以选择	-10.3258
比起	-10.3258
多去	-10.3261
高度	-10.3264
的表达	-10.3265
每一个人	-10.3265
去理解	-10.3268
河	-10.3268
批判	-10.3268
滋养	-10.327
模仿	-10.327
夫妻关系	-10.3272
我妈	-10.3275
解答	-10.3277
你只是	-10.3282
凭	-10.3283
游	-10.3289
锁	-10.3289
的发生	-10.3294
说服	-10.3297
更何况	-10.3298
的效果	-10.3302
休	-10.3306
早期	-10.3306
产	-10.3308
的印象	-10.3312
可以看到	-10.3316
在网上	-10.3322
脏	-10.3322
换位思考	-10.3328
说不	-10.333
可能也	-10.333
叛逆	-10.333
忘了	-10.3331
这些想法	-10.3332
违背	-10.3336
有意义	-10.3336
新闻	-10.3337
就是要	-10.334
不在乎	-10.3341
的确是	-10.3343
就这样	-10.3345
也是有	-10.3348
怀	-10.3349
氛围	-10.3349
目	-10.3351
性取向	-10.3354
权利	-10.3357
”、“	-10.3364
所以题主	-10.3369
会把	-10.3372
一本书	-10.3373
这么多年	-10.3373
孝顺	-10.3376
很在意	-10.3376
一味的	-10.3377
开玩笑	-10.3381
长大后	-10.3388
质量	-10.3388
这种感受	-10.3393
长远	-10.3395
尔	-10.3396
刺	-10.3398
小朋友	-10.3403
需	-10.3404
强大的	-10.3406
改进	-10.3406
出现问题	-10.3407
大胆	-10.3408
自然而然	-10.3417
女方	-10.3418
和老师	-10.3419
去世	-10.3421
评论	-10.3421
让它	-10.3422
辈	-10.3422
测试	-10.3424
超我	-10.3425
留言	-10.3425
俩	-10.3426
很清楚	-10.3428
生活在	-10.3434
过去了	-10.3439
云	-10.3441
退缩	-10.3444
能够理解	-10.3444
七	-10.3447
感受不到	-10.3448
关键是	-10.3448
恶性循环	-10.3455
不来	-10.3455
抱有	-10.3455
的亲密关系	-10.3456
区	-10.3457
除非	-10.3467
只需要	-10.347
3、	-10.3471
靠自己	-10.3473
不起	-10.3473
坏事	-10.348
缺爱	-10.348
甚至会	-10.348
不可以	-10.3483
没用	-10.3489
背后的	-10.3491
的活动	-10.3499
对题主	-10.35
焦虑症	-10.35
你对他	-10.3507
身材	-10.3509
喝酒	-10.3509
不能够	-10.3511
有好感	-10.3518
入手	-10.3519
是出于	-10.352
大事	-10.3522
不上	-10.3525
明显的	-10.3531
采用	-10.3531
前行	-10.3533
看出	-10.3534
●	-10.3534
团体	-10.3534
对不起	-10.3535
不至于	-10.3535
的母亲	-10.3538
伤害你	-10.3539
楼主在	-10.3544
大多	-10.3546
比别人	-10.3547
长期的	-10.3547
冷暴力	-10.3555
流动	-10.3558
希望可以	-10.3563
相遇	-10.3566
的关心	-10.357
惊	-10.3572
物品	-10.3572
情感的	-10.3574
正是因为	-10.3575
是怎样	-10.3581
去做一些	-10.3584
小目标	-10.3584
的男人	-10.3584
种种	-10.3585
复杂的	-10.3592
是最好的	-10.3596
都说	-10.3598
我还	-10.3598
造	-10.3599
家务	-10.36
好好爱自己	-10.3601
做完	-10.3601
控制不住	-10.3609
提醒自己	-10.3614
迷	-10.3616
转换	-10.3618
文章	-10.3619
的担忧	-10.362
是他们	-10.362
而我们	-10.3621
效	-10.3626
其实也是	-10.363
激励	-10.363
能做的	-10.3631
和爱	-10.3632
肯定自己	-10.3638
如下	-10.3639
的场景	-10.364
个性	-10.3641
的能量	-10.3645
是很难	-10.3646
到最后	-10.3656
你似乎	-10.3659
停留在	-10.366
从你的描述来看	-10.3666
如果我	-10.3675
病情	-10.3677
是这样的	-10.3679
我们也可以	-10.3681
彼此之间	-10.3682
补偿	-10.3684
一起去	-10.3685
团	-10.3688
恶意	-10.3689
代价	-10.369
心理疾病	-10.3702
复读	-10.3703
心理压力	-10.3703
写作	-10.3705
我真的	-10.3705
评	-10.3706
但却	-10.3708
会越来越	-10.3711
仅供参考	-10.3711
我有	-10.3713
在他们	-10.3716
可怕	-10.3722
不存在	-10.3723
爱我	-10.3723
这两个	-10.3723
的路上	-10.3726
防	-10.3728
或许会	-10.3729
鱼	-10.373
一把	-10.3731
。4	-10.3731
他们也	-10.3733
让你感觉	-10.3734
那份	-10.3735
一定有	-10.3735
异地恋	-10.3735
看不起	-10.3738
有两个	-10.3741
缘	-10.3747
杂	-10.3748
怎么说	-10.375
两次	-10.3753
项	-10.3756
希望可以帮到你	-10.3757
发火	-10.376
一块	-10.3762
的愤怒	-10.3764
不管你	-10.3766
它的	-10.3772
阻止	-10.3775
还是很	-10.3775
希望得到	-10.3775
自己想要	-10.3776
负能量	-10.3777
有所帮助	-10.3778
自己是	-10.3781
固定	-10.3782
所说	-10.3785
更能	-10.3785
胜	-10.3786
早点	-10.379
标	-10.3791
有足够的	-10.3797
也有很多	-10.3799
更重要的是	-10.3801
有关系	-10.3802
我的建议是	-10.3803
有压力	-10.3806
可爱	-10.3808
恶心	-10.381
对生活	-10.381
的优势	-10.3816
骄傲	-10.3819
夸奖	-10.382
来源	-10.3822
催眠	-10.3822
的回应	-10.3826
会影响到	-10.383
中心	-10.3834
带有	-10.3835
放弃了	-10.3836
放到	-10.3837
加入	-10.3839
渠道	-10.3844
甜	-10.3844
想必	-10.3844
给到	-10.3847
外貌	-10.3848
好坏	-10.385
遇到问题	-10.385
摆	-10.3853
选择的	-10.3857
累了	-10.386
我发现	-10.3861
寝室	-10.3867
你所说的	-10.3868
整体	-10.3873
太过于	-10.388
归因	-10.3882
藏	-10.3885
施	-10.3886
的语言	-10.3886
独立的	-10.3888
不知所措	-10.3889
每一天	-10.389
持	-10.3894
所以才	-10.3895
加深	-10.3898
食物	-10.3899
不同的人	-10.3899
上来	-10.3908
牌	-10.3909
留意	-10.3916
心理治疗	-10.3919
着自己	-10.3921
反正	-10.3925
配	-10.3925
方便	-10.3925
板	-10.393
不该	-10.3932
9	-10.3932
再说	-10.3934
索取	-10.3935
欢迎	-10.3939
小小的	-10.3946
完美主义	-10.395
一周	-10.3954
浅	-10.3954
扮演	-10.3956
都没	-10.396
复	-10.396
能让你	-10.3963
多一点	-10.3973
你愿意	-10.3975
旅行	-10.3981
香	-10.3981
花费	-10.3984
的互动	-10.3985
(2)	-10.3985
她说	-10.3991
制造	-10.3994
难免	-10.3998
前提	-10.3998
专注于	-10.3999
有时间	-10.3999
没有关系	-10.3999
平淡	-10.4004
～～	-10.4004
环境中	-10.401
的准备	-10.4017
不懂得	-10.4026
舍不得	-10.4027
大声	-10.403
一直以来	-10.403
非要	-10.4033
你不想	-10.4035
都是在	-10.4037
给予你	-10.4037
告诉对方	-10.4039
比较大	-10.4039
正好	-10.404
就行	-10.4041
碰	-10.4042
单独	-10.4045
挂	-10.4046
在她	-10.4046
暴	-10.4048
平复	-10.4051
一个好的	-10.4052
分担	-10.4053
演讲	-10.4054
准确	-10.4057
结交	-10.4059
题主的描述	-10.4061
也知道	-10.4064
牛	-10.4069
你母亲	-10.4073
寄托	-10.4073
无能为力	-10.4073
礼貌	-10.4074
可不可以	-10.4075
成本	-10.4076
的身份	-10.4079
接着	-10.4081
第一步	-10.4086
强求	-10.4088
监督	-10.4096
势	-10.4101
但是他	-10.4113
本科	-10.4115
c	-10.4118
开口	-10.412
见过	-10.4124
感受到你	-10.4126
你们之间的	-10.4129
控制自己	-10.4129
碎	-10.4131
朋友的	-10.4134
这样想	-10.4138
的负面情绪	-10.4139
必	-10.414
喊	-10.4143
异常	-10.4144
这样的行为	-10.4144
想哭	-10.4146
第二个	-10.4148
借钱	-10.415
无条件	-10.4152
顾	-10.4157
你是不是	-10.416
餐	-10.4163
腿	-10.4165
很明显	-10.4167
无论如何	-10.4167
默默	-10.4168
有情绪	-10.417
还有一个	-10.4172
消极情绪	-10.4177
第二天	-10.4178
外表	-10.4179
追求完美	-10.4181
!”	-10.4184
刚好	-10.419
告诉他们	-10.4195
魅力	-10.4196
就会产生	-10.4196
也不用	-10.4198
回想	-10.4204
去完成	-10.4204
表述	-10.4207
是由于	-10.4209
立刻	-10.4212
非暴力沟通	-10.4212
毛病	-10.4215
显	-10.4215
朋友们	-10.4216
没有了	-10.422
压力很大	-10.4221
听从	-10.4222
稳	-10.4222
专	-10.423
可以做	-10.4233
善意	-10.4234
礼	-10.4236
宽	-10.4236
埋怨	-10.4237
偏差	-10.4237
的不满	-10.4238
写作业	-10.424
干嘛	-10.424
从来没有	-10.4243
就觉得	-10.4247
或者其他	-10.4251
离不开	-10.4252
受不了	-10.4253
抗	-10.4254
完全可以	-10.4255
置	-10.4257
一本	-10.4257
的不同	-10.4257
幼稚	-10.4259
牙	-10.4259
医	-10.4259
在自己的	-10.4261
的记忆	-10.4262
校园	-10.4264
换个角度	-10.4264
′	-10.4264
不接纳	-10.4265
的精力	-10.4267
一遍	-10.4268
她会	-10.428
了什么	-10.428
收拾	-10.4281
陷入了	-10.4283
早年	-10.4287
解决方法	-10.4287
被父母	-10.4288
情结	-10.429
电视剧	-10.4291
每个人都是	-10.4291
的特点	-10.4297
喜欢自己	-10.4297
可能就会	-10.4298
不利于	-10.4301
分手了	-10.4303
我们每个人都	-10.4303
—	-10.4304
才知道	-10.4312
我说	-10.4313
另一个人	-10.4314
你们的感情	-10.4318
你就可以	-10.4321
房间	-10.4321
可能只是	-10.4325
中考	-10.4326
但是又	-10.4331
说法	-10.4333
学校的	-10.4333
为人	-10.4337
很长	-10.4339
喜爱	-10.434
不只是	-10.4341
的心理状态	-10.4351
如果只是	-10.4352
讲话	-10.4356
前女友	-10.4361
顾及	-10.4361
如何去	-10.4362
对楼主	-10.4363
释怀	-10.4366
已经有了	-10.4367
答	-10.4368
分别	-10.4369
亲爱的题主	-10.4371
希望他	-10.4372
t	-10.4375
自己没有	-10.4376
想说	-10.4376
世间	-10.4379
说一下	-10.438
觉得很	-10.4381
反映	-10.4381
改变不了	-10.4384
不清	-10.4391
解决这个问题	-10.4396
婚后	-10.4397
病人	-10.4398
催	-10.4401
财富	-10.4402
室	-10.4403
保障	-10.4403
你的母亲	-10.4407
操作	-10.4407
的判断	-10.4409
你可以尝试	-10.4412
向外	-10.4418
志	-10.4422
影	-10.4422
告诉我们	-10.4423
的冲突	-10.4424
床	-10.4424
留在	-10.4425
一个是	-10.4427
终于	-10.4429
卫生	-10.4429
帮助他	-10.443
去努力	-10.443
沟通交流	-10.4431
自己去	-10.4437
和丈夫	-10.4441
如果您	-10.4445
就想	-10.4445
很爱	-10.4448
的形式	-10.4449
奔	-10.445
活在当下	-10.4455
在外面	-10.4458
私	-10.4459
许	-10.446
请教	-10.4463
不怕	-10.4463
的职业	-10.4464
准备好	-10.4465
如果觉得	-10.4465
做了什么	-10.4465
天赋	-10.4475
一会儿	-10.4477
是一个非常	-10.4478
去探索	-10.4481
不合理	-10.4493
涉及	-10.4493
这样说	-10.4495
小心翼翼	-10.4499
关心和	-10.4501
对不对	-10.4505
的根源	-10.4505
你的男朋友	-10.4522
劳	-10.4523
爱你的人	-10.4524
患	-10.4525
告诉我	-10.4526
可以让	-10.4531
属	-10.4532
看到你的问题	-10.4535
像是	-10.454
还是说	-10.454
18	-10.4547
离开了	-10.4547
哪一种	-10.4547
b	-10.4547
的各种	-10.455
公婆	-10.4552
打骂	-10.4561
的恋爱	-10.4561
差别	-10.4563
岁的	-10.4563
不过是	-10.4572
销售	-10.4574
后续	-10.4576
偏见	-10.4576
和其他	-10.4577
更高	-10.4578
的安全感	-10.4578
的渴望	-10.4579
有很大的	-10.458
去处理	-10.4582
同龄人	-10.4588
我猜	-10.4589
当一个人	-10.4591
给您	-10.4593
C	-10.4595
姥姥	-10.4596
受害者	-10.4597
克制	-10.4598
还是因为	-10.4606
不是你的错	-10.4606
爱着	-10.4608
你好题主	-10.461
努力学习	-10.4612
问题是	-10.4614
导师	-10.4616
遍	-10.4617
你要知道	-10.4621
打招呼	-10.4621
忧虑	-10.4621
瞬间	-10.4627
和支持	-10.4631
乐趣	-10.4636
一些小	-10.4637
这种方式	-10.4637
精神分析	-10.4643
那你就	-10.4643
一个孩子	-10.4644
表现出来	-10.4645
希望我的	-10.4648
责备	-10.4648
落差	-10.4648
的人格	-10.4655
的咨询	-10.4655
两者	-10.4656
可以是	-10.4661
视角	-10.4663
本质	-10.4666
于此	-10.4666
审视	-10.4669
佛	-10.467
功	-10.467
耽误	-10.4671
息	-10.4675
?(	-10.4677
表达出	-10.4678
勉强	-10.4687
或多或少	-10.469
错过	-10.4698
内化	-10.47
心理学上	-10.4706
爱她	-10.471
无法控制	-10.4712
不成熟	-10.4714
明白了	-10.4714
拼	-10.4715
p	-10.4719
计较	-10.4719
给到你	-10.4722
这样的想法	-10.4723
盲目	-10.4725
可以感受到你	-10.4726
对你有帮助	-10.473
灵魂	-10.4731
需要的是	-10.4731
地去	-10.4732
波动	-10.4735
彼此都	-10.4736
很焦虑	-10.4739
在这种	-10.474
太多的	-10.474
每个人都会	-10.4741
是从	-10.4746
孤立	-10.4747
▽`)	-10.4748
展示	-10.4749
这个想法	-10.4755
对你好	-10.4757
题目	-10.4759
生物	-10.4759
也是如此	-10.4759
万一	-10.476
的那些	-10.4761
更需要	-10.4762
能理解	-10.4763
东	-10.4765
出口	-10.4771
教师	-10.4773
看得	-10.4776
接受不了	-10.4779
去了	-10.4779
一门	-10.4781
没错	-10.4781
看清	-10.4781
例子	-10.4782
手段	-10.4786
很不舒服	-10.4788
是什么原因	-10.4788
很理解你	-10.4791
岁了	-10.4792
不好的事情	-10.4793
的距离	-10.4793
如果能	-10.4796
得出	-10.4798
行动起来	-10.48
都不能	-10.48
有很大	-10.48
题主提到	-10.4803
传统	-10.4807
坦然	-10.4813
要做	-10.4819
自我价值感	-10.4823
4、	-10.4823
终	-10.4825
过度的	-10.4825
心理健康	-10.4826
两个人在一起	-10.4826
奇怪	-10.4829
也应该	-10.4831
做为	-10.4837
进行沟通	-10.4838
您的描述	-10.484
如果不能	-10.4841
可以尝试着	-10.4843
中走出来	-10.485
满足自己	-10.4853
你有没有	-10.4855
块	-10.486
的生命	-10.486
引起的	-10.4861
你会觉得	-10.4861
的困难	-10.4862
九	-10.4867
营养	-10.4872
不要让	-10.4874
到底是什么	-10.4878
让题主	-10.488
你的焦虑	-10.4882
不相信	-10.4883
它是	-10.4885
什么的	-10.4886
乎	-10.4886
有意	-10.4886
提升自己的	-10.4887
发展的	-10.4887
每个人都有自己的	-10.4889
清晰的	-10.489
诱惑	-10.4893
总会有	-10.4893
的幸福	-10.4894
设	-10.4896
顺从	-10.4904
不像	-10.4907
后的	-10.4909
才有可能	-10.4911
该怎么	-10.4916
杀	-10.4916
阳	-10.4919
自己是否	-10.4921
努力去	-10.4921
不理	-10.4922
人员	-10.4923
温	-10.4925
商	-10.4926
不确定性	-10.4932
来解决	-10.4938
不舍	-10.4938
弱小	-10.4942
会有很多	-10.4943
唠叨	-10.4945
的信任	-10.4947
虽然你	-10.4947
负面的	-10.4956
的前提下	-10.4959
要考虑	-10.4962
不会因为	-10.4963
的现状	-10.4965
相当	-10.4968
耳	-10.497
从题主的描述中	-10.4973
想想自己	-10.4976
”,“	-10.4977
?#	-10.4981
负责任	-10.4983
比自己	-10.4997
团队	-10.4997
和父亲	-10.4997
改变了	-10.4999
巨大	-10.5003
建立起	-10.5011
吐	-10.5019
编	-10.502
撑	-10.5022
盯着	-10.5025
所以会	-10.503
的兴趣	-10.5032
弄清楚	-10.5034
爱和	-10.5034
付出了	-10.5037
走过	-10.5038
我们是	-10.5039
一方面是	-10.5043
家族	-10.5045
惊喜	-10.5048
一套	-10.5049
为主	-10.505
说清楚	-10.5052
你不能	-10.5053
遇	-10.5069
有信心	-10.5069
米	-10.5071
怎么办呢	-10.5074
自尊心	-10.5085
她也	-10.5087
拿出	-10.5089
遇到困难	-10.5092
的定义	-10.5097
第五	-10.5098
得了	-10.5099
注定	-10.51
抉择	-10.51
羞耻感	-10.5102
可惜	-10.5104
他自己	-10.5108
的举动	-10.511
告别	-10.5111
去接受	-10.5111
对自我	-10.5112
心情不好	-10.5112
你可能会	-10.5116
如果你真的	-10.512
换了	-10.5122
一份工作	-10.5125
自己可以	-10.5126
归属感	-10.5126
这些人	-10.5127
一步一步	-10.5127
就是说	-10.5131
你的心情	-10.5134
陪伴你	-10.5134
确诊	-10.5135
是被	-10.5135
这边	-10.5135
去发现	-10.5138
有一定	-10.5139
不必要的	-10.514
只会让	-10.5144
什么都不	-10.5145
太阳	-10.5148
亦	-10.5149
堵	-10.515
西	-10.515
寒	-10.515
可私信	-10.5154
的友谊	-10.5155
免	-10.5155
这么说	-10.5156
不喜欢你	-10.5159
不明白	-10.516
的话语	-10.5163
还好	-10.5165
如果想	-10.5166
伤痛	-10.5167
在外	-10.5167
现实生活中	-10.5171
现实的	-10.5174
不要轻易	-10.5174
和异性	-10.5177
实习	-10.5177
舒缓	-10.5177
你是个	-10.5181
也很难	-10.5182
不出来	-10.5184
有时候我们	-10.5185
把注意力	-10.5186
事情的	-10.5189
的出现	-10.519
先从	-10.519
。1	-10.5197
和自己的	-10.5197
一些人	-10.5199
维系	-10.5202
很不容易	-10.5202
有许多	-10.5202
你和他	-10.5202
很害怕	-10.5203
自己的父母	-10.5203
的伴侣	-10.5205
的说法	-10.5206
自己想	-10.5206
说实话	-10.5208
他可能	-10.5217
情景	-10.5218
没有能力	-10.5219
领	-10.5221
去感受	-10.5221
还有其他	-10.5223
班级	-10.5225
怨	-10.5225
起码	-10.5225
依据	-10.5228
客户	-10.5231
定期	-10.5231
谈论	-10.5232
希望我的回答能	-10.5233
还不	-10.5233
前提是	-10.5236
是她	-10.5241
有钱	-10.5242
又能	-10.5242
是否真的	-10.5248
不符合	-10.5251
格	-10.5252
不堪	-10.5252
听话	-10.5252
联结	-10.5253
班主任	-10.5254
比赛	-10.5255
感到焦虑	-10.5255
是一件很	-10.5265
把事情	-10.5265
以后的	-10.5269
疑问	-10.5271
组成	-10.5271
指出	-10.5272
这样的方式	-10.5273
是无法	-10.5275
笨	-10.5278
得知	-10.5278
无论你	-10.5279
的意识	-10.5281
拼命	-10.5282
冷淡	-10.5284
决定的	-10.5284
在工作	-10.5284
药物治疗	-10.5287
动手	-10.5287
坦白	-10.5288
隐私	-10.5289
给人	-10.5289
看上去	-10.5291
搞清楚	-10.5292
是人	-10.5292
会一直	-10.5294
学习上	-10.5294
星	-10.5299
帮助别人	-10.5299
首	-10.53
还想	-10.5301
的那个人	-10.5301
供	-10.5303
害怕别人	-10.5304
故	-10.5304
夸	-10.5308
人与人之间	-10.5311
与孩子	-10.5311
诸多	-10.5312
结束语	-10.5314
把我	-10.532
闭	-10.5329
从来不	-10.5329
又有	-10.533
糖	-10.5332
体贴	-10.5335
约定	-10.534
的原生家庭	-10.535
也希望	-10.535
!️	-10.5352
就很	-10.5355
猜	-10.5359
你不喜欢	-10.5363
问一下	-10.5364
挫败感	-10.5364
亲近的人	-10.5366
陷	-10.5366
觉得他	-10.5367
不利	-10.5368
篇	-10.5368
根本不	-10.5371
和同学	-10.5372
对于你来说	-10.5373
孩子们	-10.5377
妹	-10.538
自己要	-10.5383
来做	-10.5384
爷爷	-10.5387
挣钱	-10.5388
恐怕	-10.5388
疼痛	-10.5389
表现得	-10.5391
可以试试	-10.5391
的某些	-10.5392
和成长	-10.5396
会发生	-10.5397
或许可以	-10.5397
周末	-10.5397
满足感	-10.5401
的重要性	-10.5408
雨	-10.5408
辞	-10.541
也想	-10.5416
升	-10.5419
工具	-10.5421
不合	-10.5421
书写	-10.5431
和我们	-10.5431
只是想	-10.5433
时机	-10.5434
的时光	-10.5435
有不同的	-10.5435
物理	-10.5436
倾向于	-10.5436
保持距离	-10.5439
青少年	-10.5439
他没有	-10.5439
想做	-10.5441
日记	-10.5442
一半	-10.5442
一片	-10.5443
15	-10.5444
就容易	-10.5447
不平衡	-10.5449
做饭	-10.5453
迎合	-10.5453
经历的	-10.5456
会慢慢	-10.5459
新鲜	-10.5459
可能是你	-10.5461
大学生	-10.5462
患得患失	-10.5466
俗话说	-10.5468
而这些	-10.5474
打工	-10.5475
歌	-10.5477
项目	-10.548
短期	-10.5488
也是这样	-10.549
得到的	-10.5491
接纳自己的	-10.5493
隐瞒	-10.5494
你害怕	-10.5494
有人说	-10.5495
什么问题	-10.5495
忘	-10.5495
委婉	-10.5495
爷爷奶奶	-10.5496
比较容易	-10.5497
示	-10.5498
是属于	-10.5503
如果你想	-10.5505
自我觉察	-10.5505
输	-10.5511
情绪波动	-10.5511
秘密	-10.5512
好一点	-10.5512
这个社会	-10.5513
是否能	-10.5514
什么样的人	-10.5514
比较好的	-10.5516
就算是	-10.5517
戏	-10.5517
◆	-10.5518
希望你能够	-10.5519
的方式去	-10.553
心理状态	-10.5539
音	-10.5541
的认识	-10.5543
听了	-10.5543
松	-10.5544
服药	-10.5545
贪	-10.5545
尚	-10.5551
盘	-10.5555
整个人	-10.5556
把这个	-10.5557
给自己一些	-10.5558
给了你	-10.5561
如果实在	-10.5562
结婚了	-10.5562
也都	-10.5563
单纯的	-10.5567
阴	-10.5573
试探	-10.5574
也是需要	-10.5577
在那里	-10.5579
都无法	-10.5581
最好是	-10.5582
提醒你	-10.559
习得	-10.5591
时间久了	-10.5593
让自己变得	-10.5593
搭	-10.5597
的动机	-10.5598
跟对方	-10.5599
浪漫	-10.5602
被看见	-10.5603
厚	-10.5605
也不一定	-10.5606
你父亲	-10.561
压力太大	-10.5611
内向的人	-10.5612
的女孩子	-10.5613
我不知道你	-10.5613
识别	-10.5615
找一些	-10.5617
生命中	-10.5622
该怎么办	-10.5625
有些事	-10.5626
严厉	-10.5628
挑剔	-10.5628
感冒	-10.563
噢	-10.563
性欲	-10.5634
正念冥想	-10.5634
你喜欢的	-10.5638
对自我的	-10.5642
被他人	-10.5644
你的家人	-10.5645
误	-10.5648
渣男	-10.5652
没有被	-10.5654
过高	-10.5654
模糊	-10.5654
的身上	-10.5658
强度	-10.5661
凡事	-10.5663
情境	-10.5667
很多时候我们	-10.5668
孤独感	-10.5672
很多问题	-10.5673
简	-10.5675
范围内	-10.5676
想要去	-10.5678
草	-10.568
历史	-10.568
正常生活	-10.5681
烧	-10.5681
干净	-10.5683
做出选择	-10.5689
付	-10.5693
希望我的回答	-10.57
朝着	-10.5701
关联	-10.5703
解开	-10.5704
民	-10.5706
料	-10.5708
脑子	-10.5711
塑造	-10.5712
就像你	-10.5713
平凡	-10.5716
很强	-10.5719
去表达	-10.5727
在做	-10.573
的好处	-10.5731
找到自己的	-10.5731
面具	-10.5733
兼职	-10.5736
抽	-10.5736
融洽	-10.5737
另外一个	-10.5737
的本能	-10.5745
夫妻之间	-10.5751
喜欢上	-10.5753
自己的优势	-10.5755
是不好的	-10.5756
理性的	-10.5757
不高	-10.5761
要先	-10.5762
对我们的	-10.5763
耗	-10.5763
加班	-10.5763
更加的	-10.5763
不快乐	-10.5764
案例	-10.5764
达不到	-10.5765
信号	-10.5766
这样的问题	-10.5767
相同的	-10.5767
感到很	-10.5769
每一个人都	-10.5771
大致	-10.5771
包含	-10.5776
很好地	-10.5777
官	-10.5783
听过	-10.5787
的生活中	-10.5787
吸引力	-10.5789
拒绝了	-10.579
但他	-10.5793
离职	-10.5795
一丝	-10.5796
逃离	-10.5799
正式	-10.5801
的关键	-10.5813
具	-10.5818
打扮	-10.5818
讲述	-10.5826
理念	-10.5831
心结	-10.5832
也不需要	-10.5833
是否会	-10.5835
面对自己	-10.5835
不尊重	-10.5837
才不会	-10.5838
得多	-10.5838
一直都	-10.5839
的一句话	-10.5842
这一次	-10.5843
的人和事	-10.5843
要求自己	-10.5848
消	-10.5853
现在的自己	-10.5854
脑子里	-10.5857
承认自己	-10.5862
担当	-10.5867
必要的	-10.5872
亏	-10.5872
为他	-10.5874
变的	-10.5878
朋友之间	-10.5878
感激	-10.5882
多数	-10.5884
限	-10.5885
的价值观	-10.5885
心疼你	-10.5885
被忽视	-10.5886
12	-10.5888
实施	-10.5903
思绪	-10.5904
弹	-10.5916
但在	-10.5916
本来就是	-10.5919
变得更	-10.592
也一样	-10.5921
难题	-10.5921
学习方法	-10.5924
特别好	-10.5925
布	-10.5927
脑海里	-10.5928
掌控感	-10.593
咬	-10.593
试试看	-10.5932
假装	-10.5934
答主	-10.5935
感染	-10.5935
同一	-10.5935
的困境	-10.5937
要明白	-10.5938
我们无法	-10.5946
能找到	-10.5947
要相信	-10.595
出去玩	-10.595
如果一个人	-10.5951
从小就	-10.5952
联	-10.5955
解脱	-10.5963
这其中	-10.5964
情绪和	-10.5964
这些事	-10.5965
会更好	-10.5967
怎么去	-10.5967
的一种方式	-10.5975
是很重要的	-10.598
有多大	-10.5981
的核心	-10.5981
就会觉得	-10.5981
让你感觉到	-10.5983
内心里	-10.5983
感受到的	-10.5986
瘦	-10.5986
反驳	-10.5989
这些行为	-10.5989
你好啊	-10.5994
的精神	-10.5995
活力	-10.5997
更为	-10.6005
的家人	-10.6013
能够感受到	-10.6014
理清	-10.6015
是自己的	-10.6015
会造成	-10.6015
的目光	-10.6017
面对面	-10.6018
几点建议	-10.6024
细心	-10.6025
记录下来	-10.6025
后天	-10.6026
懒	-10.6028
给你的	-10.6036
的行动	-10.604
略	-10.6041
也有可能是	-10.6042
希望题主	-10.6042
不同意	-10.6043
可以做到	-10.6044
心理暗示	-10.6046
?2.	-10.6046
一家	-10.6048
尊重你	-10.6054
良	-10.6057
生活方式	-10.6057
自我接纳	-10.6058
不开	-10.6061
自己的心	-10.6061
了解对方	-10.6063
的好朋友	-10.6068
另一	-10.6072
希望可以帮到楼主	-10.6074
人物	-10.6078
组	-10.6089
也不必	-10.6092
什么事	-10.6092
偷偷	-10.6095
价	-10.6099
抵抗	-10.6099
友善	-10.6099
快感	-10.6101
满意的	-10.6102
侵犯	-10.6103
太多了	-10.6104
借助	-10.6105
如果你们	-10.6105
是不同的	-10.6112
所以他	-10.6113
一家人	-10.6113
则是	-10.6117
其实我	-10.6119
福	-10.6125
爬	-10.6127
泡	-10.6129
的边界	-10.613
多做	-10.613
在孩子	-10.613
增进	-10.6131
体系	-10.6133
不一致	-10.6136
表达自己的感受	-10.6136
希望对方	-10.6137
的社会	-10.6137
就是我们	-10.6139
不停的	-10.6145
照顾孩子	-10.6148
没有意识到	-10.6151
想要什么	-10.6152
开学	-10.6153
举个例子	-10.6155
别人说	-10.6159
为自己的	-10.6159
这并不是	-10.6159
是怎么样的	-10.6162
防御机制	-10.6163
放松一下	-10.6163
楼主提到	-10.6173
尽可能的	-10.6175
这个词	-10.6176
感觉很	-10.6177
露	-10.6179
黄	-10.6182
自己所	-10.6184
害羞	-10.6185
去关注	-10.6185
茶	-10.6185
影响着	-10.6186
是非常正常的	-10.6186
的来源	-10.6186
懦弱	-10.6187
就在	-10.6188
迈	-10.6188
帮到	-10.6189
分配	-10.6189
互	-10.6191
自我认知	-10.6191
慎重	-10.6193
请问	-10.6197
才是最重要的	-10.6198
发作	-10.6199
现在的状态	-10.6205
题主在	-10.6206
自己对	-10.6208
我们就会	-10.621
摔	-10.621
城	-10.6212
及时的	-10.6215
遵守	-10.6215
磨	-10.6215
敞开心扉	-10.6216
一些东西	-10.6223
俗	-10.6227
心理老师	-10.6228
借口	-10.6229
虚	-10.623
忘记了	-10.6232
积	-10.6232
测	-10.6234
不爱你	-10.6239
变了	-10.624
尝试去	-10.6241
的身心	-10.6242
延续	-10.6242
打交道	-10.6243
冷战	-10.6245
本我	-10.625
呆	-10.6252
信赖	-10.6254
有其他	-10.6255
走路	-10.6257
是这样	-10.6259
油	-10.626
操心	-10.626
很能理解你	-10.6262
四年	-10.6262
可以接受	-10.6265
受挫	-10.6266
写下	-10.6268
隔离	-10.6268
医学	-10.6268
躯体	-10.6269
轮	-10.6271
为难	-10.6271
插	-10.6272
比较敏感	-10.6273
照顾自己	-10.6273
与人交往	-10.6276
负面影响	-10.6276
一开始就	-10.6285
心境	-10.6286
决定了	-10.6291
伤人	-10.6296
含	-10.6299
昨天	-10.6299
是因为我们	-10.6299
更多地	-10.6307
很生气	-10.6311
几种	-10.6313
会认为	-10.6313
原因是	-10.6316
照顾好	-10.6316
寻求专业	-10.6319
是我的分析和建议	-10.6326
我想说的是	-10.6327
认为是	-10.6328
很心疼	-10.6328
堂	-10.633
觉察自己	-10.633
蓝	-10.6332
前途	-10.6332
脑海中	-10.6333
上司	-10.6333
部门	-10.6333
一味	-10.6334
被理解	-10.6337
成熟的	-10.6338
的父亲	-10.6343
说是	-10.6344
咨询师的	-10.6345
因而	-10.6346
伴随着	-10.6346
被伤害	-10.6346
是非常重要的	-10.6346
无意识	-10.6348
陪着	-10.635
步骤	-10.635
做起	-10.6351
就是一种	-10.6352
独一无二的	-10.6352
激烈	-10.6355
。5、	-10.6355
禁	-10.6357
把她	-10.6359
骨	-10.6359
胜任	-10.636
移情	-10.6361
积压	-10.6362
坏的	-10.6365
25	-10.6365
果断	-10.6368
众	-10.6368
角	-10.637
不听	-10.6374
不仅仅	-10.6376
进来	-10.6376
损	-10.6378
留恋	-10.6379
时间去	-10.6384
的例子	-10.6387
来进行	-10.6387
缓和	-10.6389
楼主的描述	-10.639
的书籍	-10.6391
素质	-10.6392
。■	-10.6395
手里	-10.6395
00	-10.6396
又或者	-10.6397
理解你的	-10.6397
我一直	-10.6399
只是为了	-10.6399
看得出	-10.64
两天	-10.6402
对你们	-10.6403
之路	-10.6405
很多东西	-10.6407
看到自己的	-10.6408
读了	-10.641
以此	-10.641
那样的	-10.6415
d	-10.6416
应付	-10.6418
珍贵	-10.6419
一会	-10.642
等于	-10.6431
主动去	-10.6432
需要考虑	-10.6433
有权利	-10.6433
未知的	-10.6433
讲道理	-10.6437
着想	-10.644
出了问题	-10.6441
你的身体	-10.6442
而在	-10.6442
做好准备	-10.6443
早就	-10.6444
遗传	-10.6446
短暂的	-10.6449
很差	-10.6458
也是很	-10.6459
指的是	-10.646
生活上	-10.6464
也是可以	-10.6466
爱情的	-10.6467
和压力	-10.647
当别人	-10.647
凡	-10.6471
害怕失去	-10.6472
大部分人	-10.6478
最多	-10.6479
照片	-10.6479
按时	-10.6482
安全的	-10.6482
?)	-10.6484
的原因是什么	-10.6485
队	-10.6485
专心	-10.6486
确	-10.6491
分泌	-10.6492
死了	-10.6496
到一个	-10.65
有很多人	-10.6501
常态	-10.6502
勤	-10.6506
话说	-10.6506
拔	-10.6507
体重	-10.6508
都是有	-10.651
有爱	-10.6514
熟悉的	-10.6515
好事	-10.6518
会受到	-10.6523
搬	-10.6529
胎	-10.6533
土	-10.6533
派	-10.6535
投资	-10.6537
完了	-10.6538
摸	-10.6539
迷失	-10.6539
要做的	-10.6541
的文字	-10.6544
只有你	-10.6547
决	-10.6547
感受到你的	-10.6548
不下去	-10.6548
怎么想	-10.6549
的亲人	-10.655
传达	-10.6553
能看到	-10.6553
说明他	-10.6555
证据	-10.6556
鼓励自己	-10.6558
看一些	-10.6564
越大	-10.6564
不怎么	-10.6566
设想	-10.6566
伪装	-10.6567
的成长经历	-10.6568
→	-10.6569
爱别人	-10.6571
遗忘	-10.6573
后来我	-10.6574
不是一个	-10.6575
的氛围	-10.6578
和能力	-10.658
软	-10.658
的遭遇	-10.6583
解决方案	-10.6587
下班	-10.6587
帮助她	-10.6589
铁	-10.6592
闷	-10.6592
时间长了	-10.6592
去追求	-10.6593
迈出	-10.6593
更快	-10.6594
不在意	-10.6597
也比较	-10.6597
远远	-10.6602
不是很好	-10.6603
避	-10.6605
告	-10.6606
灵	-10.6609
执着	-10.6611
因此而	-10.6613
发生过	-10.6613
与他们	-10.6614
五年	-10.6616
悲	-10.6621
能力和	-10.6621
牵	-10.6624
开启	-10.6627
从现在开始	-10.6627
ω	-10.6628
备考	-10.6629
这个男生	-10.6636
转化	-10.664
小心	-10.6641
统一	-10.6647
似乎是	-10.6648
你最	-10.6649
信任的人	-10.6651
戒	-10.6651
独特的	-10.6655
分析了解问题	-10.6655
不认同	-10.6656
决心	-10.6657
100	-10.6658
沉重	-10.6659
休息一下	-10.6662
只是我们	-10.6664
人都是	-10.6667
但是也	-10.6667
无意	-10.6667
交换	-10.6669
会变得	-10.6671
解决不了	-10.6674
是不对的	-10.6675
你可以去	-10.6676
u	-10.6681
是可以理解的	-10.6683
设计	-10.6685
鼓	-10.6686
几个问题	-10.6687
自己的心情	-10.6687
不安全	-10.6688
就能够	-10.669
一样的	-10.6694
不认可	-10.6695
富	-10.6698
的自由	-10.6702
一点一点	-10.6706
无能	-10.6707
如何处理	-10.6715
了解他	-10.6716
瑜伽	-10.6716
得到满足	-10.6721
唯有	-10.6724
这份感情	-10.6725
想做的事情	-10.6726
对自己说	-10.6729
与对方	-10.6733
两个人之间	-10.6734
年级	-10.6734
这让你	-10.6734
回想一下	-10.6736
改变现状	-10.6737
给自己带来	-10.6737
糟	-10.6739
不擅长	-10.6739
通过你的描述	-10.674
说的是	-10.6741
我们对	-10.6743
消极的	-10.6744
哪一个	-10.6745
你的描述我了解到	-10.6747
小可爱	-10.6747
不良情绪	-10.6748
此时此刻	-10.6749
自己的缺点	-10.6749
那段	-10.6751
成为你	-10.6754
周围的	-10.6762
会成为	-10.6765
毁	-10.6766
愈	-10.6766
】【	-10.6768
成长中	-10.6769
的小孩	-10.6771
融	-10.6775
比较少	-10.6781
大自然	-10.6782
有困惑	-10.6783
科目	-10.6784
想通过	-10.6785
建立关系	-10.6788
你感觉	-10.679
再多	-10.679
一次次	-10.679
吸	-10.6791
会带来	-10.6793
没有达到	-10.6793
错误的	-10.6795
境	-10.6796
职位	-10.6796
可能会有	-10.6798
难免会	-10.6798
木	-10.6803
滴	-10.6806
坚决	-10.6807
专门	-10.6809
对你有所帮助	-10.6815
为之	-10.6819
华	-10.682
这种事情	-10.6821
戴	-10.6824
较为	-10.6828
新环境	-10.6831
家庭里	-10.6833
寻	-10.6837
循序渐进	-10.6837
感兴趣的	-10.684
一只	-10.6843
埋	-10.6843
希望能帮到你	-10.6844
老是	-10.6844
提高自己的	-10.6847
几个月	-10.6848
那么重要	-10.6851
恋情	-10.6851
既然你	-10.6851
终究	-10.6853
器	-10.6855
才发现	-10.6857
也一定	-10.6859
的大	-10.6859
据	-10.686
玩笑	-10.686
焦虑感	-10.6863
理解的	-10.6865
原始	-10.6867
墙	-10.6868
很在乎	-10.6868
撞	-10.6868
锅	-10.687
后者	-10.6871
责任感	-10.6874
大于	-10.6877
更像是	-10.6878
的同事	-10.6879
做错	-10.6885
你的需求	-10.6885
功课	-10.6887
真爱	-10.6888
拿到	-10.6891
完成了	-10.6891
眼光	-10.6892
桌	-10.6893
沙	-10.6895
影响你	-10.69
我们可以先	-10.6904
的资源	-10.6906
倾	-10.691
如果在	-10.6911
建立在	-10.6916
样子	-10.6917
家庭成员	-10.6918
支	-10.6919
每次都	-10.6923
各自的	-10.6924
的倾向	-10.6926
也许你可以	-10.6927
托	-10.6927
不小心	-10.6927
还不够	-10.6927
压制	-10.6928
下一步	-10.6929
不要着急	-10.6929
警惕	-10.693
窗	-10.6931
厌烦	-10.6933
生育	-10.6933
看到别人	-10.6935
时间段	-10.6936
等着你	-10.6937
触碰	-10.694
跳出	-10.6944
到自己	-10.6945
乖	-10.6947
与母亲	-10.6947
还不如	-10.6953
想象的	-10.6959
社团	-10.6962
识	-10.6962
不想做	-10.6963
这个行为	-10.6964
认定	-10.6964
头疼	-10.6965
的标签	-10.6966
结构	-10.6966
发生关系	-10.6967
心里的	-10.6967
也是正常的	-10.6969
社会上	-10.6969
需要时间	-10.6971
投射到	-10.6987
一番	-10.6991
正向	-10.6991
[	-10.6991
(1)	-10.6992
鬼	-10.6992
容忍	-10.6993
电脑	-10.6993
你的父亲	-10.6996
不会有	-10.6996
若是	-10.6997
付出的	-10.6998
频率	-10.7001
感觉你	-10.7002
怒	-10.7003
需要帮助	-10.7006
信任的	-10.7009
你们两个	-10.7011
爽	-10.7016
多关注	-10.702
好好沟通	-10.7021
]	-10.7023
以上是我	-10.7023
调整心态	-10.7023
旁边	-10.7024
激素	-10.7025
和生活	-10.7027
情绪化	-10.7033
感谢你的问题	-10.7034
是非	-10.7034
占有欲	-10.7037
只是一种	-10.7041
因为在	-10.7045
可以让你	-10.7045
自我意识	-10.7045
最佳	-10.7046
对她的	-10.7047
谈话	-10.7047
避开	-10.7047
状态下	-10.7048
诚	-10.705
幸福感	-10.7052
又觉得	-10.7052
协商	-10.7055
找找	-10.7057
的条件	-10.7057
觉知	-10.7058
不高兴	-10.7058
的心灵	-10.7061
面临着	-10.7061
。2)	-10.7061
你现在的	-10.7062
你怎么	-10.7067
心事	-10.7068
酸	-10.7068
画面	-10.7069
性质	-10.7073
但是现在	-10.7075
19	-10.7078
如果想要	-10.7078
婚姻关系	-10.708
忧	-10.7084
这需要	-10.7085
因为这	-10.7086
可怜	-10.7089
学会了	-10.709
孩子在	-10.7099
让你们	-10.7103
多种	-10.7109
坑	-10.7112
现阶段	-10.7116
遭到	-10.7117
提出来	-10.7119
那位	-10.712
性教育	-10.7121
院	-10.7121
如果父母	-10.7122
向上	-10.7123
什么原因	-10.7126
那边	-10.7127
的言语	-10.7138
解决问题的	-10.714
不顾	-10.714
别人的事	-10.714
学习一些	-10.7141
关注和	-10.7142
永	-10.7143
️。	-10.7146
有一次	-10.7147
正因为	-10.7148
重男轻女	-10.7149
操	-10.715
人无完人	-10.715
议论	-10.7152
失败了	-10.7152
的所有	-10.7154
这可能是	-10.7156
主导	-10.7161
活的	-10.7163
呼	-10.717
世上	-10.7172
自己的不足	-10.7172
教学	-10.7174
哥	-10.7175
本能的	-10.7178
迎接	-10.7179
先把	-10.718
伤口	-10.7182
还不错	-10.7182
在自己身上	-10.7185
说明了	-10.7188
走的	-10.7189
伙伴	-10.7191
的第一步	-10.7192
h	-10.7193
爱一个人	-10.7193
长的	-10.7197
两点	-10.7201
架	-10.7201
跟你说	-10.7206
增	-10.7209
联想	-10.7211
胆小	-10.7214
的种种	-10.7215
累积	-10.7215
理解接纳认可	-10.7216
你的困惑	-10.7216
很大程度上	-10.7217
对未来的	-10.7218
大了	-10.7219
榜样	-10.7221
忍耐	-10.7222
的反馈	-10.7224
我们来	-10.7224
促使	-10.7226
的思考	-10.7235
的冲动	-10.7237
致	-10.7238
给楼主一个拥抱	-10.7239
帮他	-10.7241
闪	-10.7242
北	-10.7242
的分析	-10.7243
事儿	-10.7243
有一句话	-10.7244
就意味着	-10.7245
不是为了	-10.7247
@	-10.7248
抢	-10.7248
祝你幸福快乐	-10.7249
这是很正常的	-10.7249
可以改变	-10.725
小建议	-10.7253
向他	-10.7254
这个家	-10.7256
我们要学会	-10.7257
处理问题	-10.7258
做错了	-10.7259
只要我们	-10.726
唯一的	-10.7262
在别人	-10.7262
并没有什么	-10.7262
还是比较	-10.7263
一时的	-10.7264
很严重	-10.7266
对自己的评价	-10.7268
青	-10.7273
证书	-10.7274
=	-10.7274
麻	-10.7275
遵循	-10.7276
按照自己	-10.7276
流泪	-10.7276
存在的问题	-10.7277
协助	-10.7277
ノ	-10.7279
哲学	-10.728
护	-10.729
速度	-10.729
有很多的	-10.7292
不知道该怎么	-10.7293
也是在	-10.7293
畅	-10.7296
社会的	-10.7296
只有你自己	-10.7302
恩	-10.7303
不见	-10.7305
渣	-10.7305
换句话说	-10.7308
触发	-10.7309
周边	-10.7311
怎么会	-10.7313
笑话	-10.733
但同时	-10.7331
我也会	-10.7332
丧	-10.7335
做家务	-10.7338
显示	-10.7339
如果你是	-10.7344
到达	-10.7344
放松自己	-10.7344
督导	-10.7346
其他事情	-10.7352
越好	-10.7357
这两种	-10.7357
给你带来了	-10.7358
一定可以	-10.7361
会感觉到	-10.7361
这个情况	-10.7364
没有意义	-10.7366
帮助孩子	-10.7368
满足了	-10.7371
唱歌	-10.7372
辅助	-10.7372
和他在一起	-10.7382
这其实	-10.7388
上述	-10.739
手术	-10.7391
没有问题	-10.7392
款	-10.7396
这是我们	-10.7397
博	-10.7403
指向	-10.7403
得好	-10.7403
活下去	-10.7407
而是你	-10.7408
ε	-10.7408
我们的情绪	-10.7411
你的叙述	-10.7413
适度	-10.7413
你也要	-10.7422
基	-10.7423
了解了	-10.7423
时间和精力	-10.7424
代表着	-10.7426
何况	-10.7427
暖	-10.7431
莫	-10.7431
下一个	-10.7432
软件	-10.7434
便是	-10.7437
试一试	-10.7439
终身	-10.7441
继续下去	-10.7443
是一样的	-10.7445
对待你	-10.7449
一大	-10.7453
自己的工作	-10.7453
将会	-10.7454
完整的	-10.7454
如果可以的话	-10.7455
长时间的	-10.7458
**	-10.7461
行为上	-10.7461
你的妈妈	-10.7461
你和你	-10.7462
的界限	-10.7464
意志	-10.7465
我没有	-10.7465
亲密的	-10.7468
卑微	-10.7471
现任	-10.7472
灵活	-10.7475
住了	-10.7475
自己觉得	-10.7477
时间的	-10.7478
投入到	-10.748
心智	-10.7483
重要的事情	-10.7483
你们彼此	-10.7483
某一个	-10.7484
难得	-10.7486
你为什么	-10.7487
扩大	-10.749
自然就	-10.7491
成果	-10.7494
你描述的	-10.7498
如果你愿意	-10.7498
留给	-10.7501
理所当然	-10.7502
表现为	-10.7502
迅速	-10.7503
诗	-10.7503
你男友	-10.7504
资本	-10.7505
极其	-10.7505
待遇	-10.751
意识到了	-10.7513
你并没有	-10.7519
很心疼你	-10.752
丢	-10.7522
常常会	-10.7523
给你一些	-10.7523
活出	-10.7523
表面上	-10.7524
对立	-10.7527
我们所	-10.7536
尝试一下	-10.7537
_	-10.7538
谢谢你	-10.7538
拉黑	-10.7539
初三	-10.7541
也同样	-10.7542
自己会	-10.7542
边界感	-10.7547
因此我们	-10.7549
不要让自己	-10.755
独特	-10.7552
肯	-10.7553
带给你的	-10.7553
一味地	-10.7553
你对他的	-10.7554
每一	-10.7556
陪着你	-10.7557
基因	-10.7558
这个年纪	-10.7562
是一个人	-10.7566
是错的	-10.7566
这说明	-10.7567
兄弟	-10.7568
如果他们	-10.7568
太高	-10.757
邻居	-10.7571
的女人	-10.7575
不正常	-10.7576
自己到底	-10.7578
都是你	-10.7579
放轻松	-10.758
这样才能	-10.758
导致自己	-10.7582
所以当	-10.7585
察觉到	-10.7586
会想	-10.7586
你们可以	-10.7589
暂时的	-10.7589
别人的评价	-10.759
而产生	-10.759
信任感	-10.7593
充分的	-10.7595
争执	-10.7602
软弱	-10.7602
纠正	-10.7603
我们一起	-10.7605
对彼此	-10.761
你不需要	-10.7611
最开始	-10.7612
建议您	-10.7613
的途径	-10.7614
你把	-10.7616
我们现在	-10.7616
美丽	-10.7616
向前	-10.7617
当地	-10.7619
日常生活	-10.7621
双方的	-10.7623
你们之间的关系	-10.7629
有几个	-10.763
你还可以	-10.7631
如果你能	-10.7631
也没什么	-10.7633
督促	-10.7634
郁闷	-10.7634
林	-10.7635
就说	-10.7636
喜悦	-10.7636
隔阂	-10.7637
悔	-10.7637
的区别	-10.7639
长相	-10.764
乐意	-10.764
她是	-10.7644
的主要	-10.7645
和改变	-10.7646
四个	-10.7647
一个新的	-10.7648
途	-10.765
聚会	-10.765
建议你可以	-10.7651
】!	-10.7652
控制的	-10.7654
值得被	-10.7655
经济上	-10.7658
在日常生活中	-10.7659
好看	-10.766
婚姻的	-10.766
再者	-10.766
的开始	-10.7663
封	-10.7663
艺	-10.7665
承担责任	-10.7666
y	-10.7666
m	-10.7667
资格	-10.7668
挖掘	-10.7668
的差异	-10.7672
将自己的	-10.7673
个人成长	-10.7678
现在的生活	-10.7678
这方面的	-10.7684
就更	-10.7688
静下来	-10.7688
被压抑	-10.769
生活里	-10.7691
的交往	-10.7691
不会再	-10.7692
的人来说	-10.7693
辛苦了	-10.7696
琐事	-10.77
尖	-10.7701
同伴	-10.7702
鸟	-10.7702
增长	-10.7703
优越感	-10.7703
流派	-10.7704
胸	-10.7706
旁观者	-10.7707
另一方	-10.7718
自己心里	-10.7723
得罪	-10.7724
严	-10.7726
是多么	-10.7727
扛	-10.7727
少年	-10.7729
足以	-10.7729
内耗	-10.7736
分散	-10.7741
你的男友	-10.7745
当面	-10.7749
教会	-10.7749
经历了什么	-10.775
被骗	-10.7751
表情	-10.7751
也没有什么	-10.7754
婚姻中	-10.7755
是不是也	-10.7756
就是因为	-10.7758
自己的认知	-10.7764
逆	-10.7766
吹	-10.7767
干脆	-10.7767
汗	-10.7767
换来	-10.7767
破裂	-10.7768
给你一个大大的拥抱	-10.7769
是因为什么	-10.777
睡着	-10.7771
恋爱中	-10.7771
在亲密关系中	-10.7773
可靠	-10.7779
明星	-10.7779
在现实生活中	-10.778
最主要的	-10.7784
眼中的	-10.7786
吃东西	-10.7788
用自己的	-10.7791
做做	-10.7791
我们都知道	-10.7792
情感上	-10.7796
欢	-10.7798
可能也会	-10.7798
销	-10.7798
奶	-10.7799
危害	-10.78
心目中	-10.7803
幼儿园	-10.7806
做的不好	-10.7814
都不一样	-10.7816
!!!	-10.7817
被关注	-10.7818
担	-10.782
希望我	-10.7822
也不可能	-10.7823
的一方	-10.7824
趁	-10.7826
肚子	-10.7827
伴随	-10.7828
羞愧	-10.7834
认清	-10.7835
作者	-10.7839
16	-10.7841
对性	-10.7843
就把	-10.7847
的言行	-10.7848
工作和生活	-10.7848
替你	-10.785
你最近	-10.7853
日后	-10.7854
从此	-10.7855
饿	-10.7855
父母之间	-10.7858
换一种	-10.7861
彩	-10.7861
看他	-10.7862
是否能够	-10.7863
沉迷	-10.7864
这位朋友	-10.7864
一个人在	-10.7864
理解你的心情	-10.7864
你一直	-10.7867
支配	-10.7869
竟然	-10.787
心理学的	-10.787
是很好的	-10.7871
他不	-10.7875
事情发生	-10.7876
来表达	-10.7877
和态度	-10.7879
这种心理	-10.7884
带来了	-10.7886
因为没有	-10.7888
的生活方式	-10.7889
目前的状态	-10.7891
整天	-10.7891
焦虑的	-10.7893
问你	-10.7893
做一下	-10.7893
只不过是	-10.7895
尽量不要	-10.7896
这个年龄	-10.7897
能够感受到你	-10.79
亚	-10.7901
撒	-10.7904
吐槽	-10.7904
内心深处的	-10.7905
勇于	-10.7905
怎么看待	-10.7911
巴	-10.7912
在未来	-10.7914
自己的状态	-10.7917
激动	-10.7919
大城市	-10.7921
局限	-10.7923
大一	-10.7923
满足你	-10.7924
解决的问题	-10.7926
人品	-10.7926
爱着你	-10.793
杯	-10.7932
你对自己的	-10.7932
拖延症	-10.7935
唱	-10.7936
证明你	-10.7936
即使你	-10.7938
当孩子	-10.7939
我当时	-10.794
的道理	-10.7942
密	-10.7945
没有人会	-10.7945
很糟糕	-10.7946
养育者	-10.7946
伤害了	-10.7947
我们都是	-10.7948
你身上	-10.7949
充实自己	-10.795
极大的	-10.7951
关系里	-10.7956
运气	-10.7957
在内心	-10.796
大概率	-10.796
潜	-10.7961
顿	-10.7962
不用担心	-10.7964
太久	-10.7966
40	-10.7967
这种状况	-10.7969
枯燥	-10.797
撕	-10.797
讨好型人格	-10.7971
文字中	-10.7972
大众	-10.7973
伴	-10.7975
我们内心	-10.7976
社交恐惧	-10.7976
今	-10.7977
不能改变	-10.7978
会给	-10.798
以下几点	-10.7981
完成任务	-10.7983
认为你	-10.7985
并不意味着	-10.7988
的底线	-10.7988
又不	-10.7989
透过	-10.799
无处	-10.799
迁就	-10.7993
即便是	-10.7993
您的问题	-10.7995
选择权	-10.7995
镜	-10.8001
那么你就	-10.8003
来缓解	-10.8007
躲避	-10.8012
平静下来	-10.8013
的差距	-10.8013
集中注意力	-10.8017
感觉到了	-10.8017
的成功	-10.8019
找到适合自己的	-10.8019
但是她	-10.8023
分手后	-10.8024
常见	-10.8026
心理的	-10.8028
到时候	-10.8028
大方	-10.8028
都觉得	-10.8031
镜子	-10.8034
完成的	-10.8034
反省	-10.8034
会对你	-10.8036
听音乐	-10.8036
你要相信	-10.8036
放弃自己	-10.8038
针对你	-10.8039
验证	-10.804
加以	-10.8042
的品质	-10.8042
典型的	-10.8043
散步	-10.8043
这些东西	-10.8045
参加一些	-10.8046
吃亏	-10.8046
24	-10.8047
的视角	-10.8049
到这里	-10.805
具体情况	-10.8051
近期	-10.8052
自动	-10.8055
奇	-10.8055
喜欢什么	-10.8056
创	-10.806
也非常	-10.8062
长久的	-10.8065
特定	-10.8066
深层	-10.8068
会给你	-10.8071
有很多种	-10.8071
不再是	-10.8071
李	-10.8073
但实际上	-10.8074
冰	-10.8074
D	-10.8074
ง	-10.8078
根据自己的	-10.808
非常理解	-10.8081
不是因为	-10.8082
要多	-10.8083
它会	-10.8084
才能更好的	-10.8086
不爽	-10.8086
一个好	-10.8088
通过自己的努力	-10.809
我们也要	-10.8092
?2、	-10.8092
的课程	-10.8093
在哪	-10.8093
所以要	-10.8097
应激	-10.8097
帮助到	-10.8101
饱	-10.8104
重新开始	-10.8106
并不是说	-10.8106
我看到你	-10.8106
你却	-10.8106
时不时	-10.8106
胃	-10.8107
离世	-10.8108
泪	-10.8109
与她	-10.8111
要相信自己	-10.8112
内心的想法	-10.8114
三种	-10.812
自我调节	-10.8121
而且你	-10.8122
遇到过	-10.8123
感和	-10.8124
只要自己	-10.8129
孩子身上	-10.813
亲密关系中	-10.8131
你才能	-10.8135
几十年	-10.8135
给彼此	-10.8135
能感受到你	-10.8137
情绪状态	-10.8137
你们俩	-10.8138
对学习	-10.8138
事事	-10.8139
自己的努力	-10.8139
还有一种	-10.814
倍	-10.8141
催促	-10.8141
也许他	-10.8141
?【	-10.8141
浪	-10.8142
僵	-10.8143
同一个	-10.8144
————	-10.8146
看问题	-10.8154
相处模式	-10.8155
就会出现	-10.8157
努力了	-10.8163
婚前	-10.8164
向他们	-10.8167
少数	-10.8168
没有谁	-10.8173
眼神	-10.8174
稍	-10.8175
只要不	-10.8175
楼主内心	-10.8176
而导致	-10.8176
向对方	-10.8177
作为家长	-10.8179
掩盖	-10.818
被迫	-10.818
不喜欢自己	-10.8181
撒谎	-10.8182
想念	-10.8183
在里面	-10.8187
大概是	-10.8191
你们是	-10.8191
的风险	-10.8191
课题	-10.8192
与人交流	-10.8193
秒	-10.8195
责怪自己	-10.8196
跟人	-10.8199
用了	-10.8202
的想法和感受	-10.8203
时间来	-10.8203
给我们带来	-10.8205
的特质	-10.8205
和你在一起	-10.8211
烟	-10.8212
摩擦	-10.8215
玩具	-10.8215
猜想	-10.8215
排挤	-10.8215
已经有	-10.8216
冲击	-10.8217
责骂	-10.8217
遵从	-10.8218
不要给自己	-10.8219
也可以选择	-10.822
不要怕	-10.8222
换成	-10.8223
结论	-10.8226
你的老公	-10.8227
的治疗	-10.8228
亲密关系的	-10.8228
思考和	-10.8229
心意	-10.8229
的联系	-10.8231
与人相处	-10.8238
慌	-10.824
放松下来	-10.8242
不能理解	-10.8246
S	-10.8247
抛	-10.8247
便会	-10.8247
开心的	-10.8248
绕	-10.8248
出现在	-10.825
态	-10.825
要面对	-10.825
背负	-10.8251
一般人	-10.8253
开了	-10.8254
使我们	-10.8266
勉强自己	-10.8266
做出了	-10.8269
我们先	-10.8269
更好的自己	-10.8272
清楚自己	-10.8273
可以感受到	-10.8273
在你身上	-10.8273
。2,	-10.8273
是一位	-10.8275
坐下来	-10.8276
那么大	-10.8277
悟	-10.828
任性	-10.8281
他还	-10.8282
明白自己	-10.8282
孝	-10.8285
祝你早日	-10.8285
响	-10.8286
持续的	-10.8288
谋	-10.8289
想象中的	-10.8291
大量	-10.8292
我之前	-10.8297
耐	-10.8298
跟孩子	-10.8299
时间和	-10.8299
就得	-10.8299
无人	-10.8299
等着	-10.83
比我	-10.8301
底气	-10.8301
实际情况	-10.8303
是为了什么	-10.8307
构成	-10.8308
降	-10.8309
值得被爱	-10.831
那么他	-10.8311
的女性	-10.8311
自己有	-10.8311
和咨询师	-10.8312
却不	-10.8316
建立亲密关系	-10.8317
然后就	-10.8317
这是正常的	-10.8317
武	-10.8319
嫌	-10.832
爆	-10.832
页	-10.8321
我曾经	-10.8321
寂寞	-10.8322
择偶	-10.8322
我们的生活	-10.8322
暖暖	-10.8322
还有一些	-10.8327
的缺失	-10.8329
敞开	-10.8329
长得	-10.833
感觉到你	-10.833
就像一个	-10.8332
缩	-10.8333
道路	-10.8333
恐惧感	-10.8335
没有动力	-10.8336
需要一个	-10.8339
私人	-10.8339
在平时	-10.8341
可以让我们	-10.8345
看不见	-10.8347
三个月	-10.8348
发生在	-10.8348
。※	-10.835
潜意识中	-10.8352
比方说	-10.8353
家庭环境	-10.8353
市	-10.8353
的环境中	-10.8354
很大的压力	-10.8355
的爱好	-10.8355
甲	-10.8355
赶紧	-10.8355
潜移默化	-10.8356
接受了	-10.8356
推测	-10.8357
从你的描述	-10.8359
过渡	-10.836
背后的原因	-10.8362
做到了	-10.8362
永远是	-10.8363
这种情况下	-10.8366
来获得	-10.8372
看得出来你	-10.8374
成长经历	-10.8374
外在的	-10.8375
谁也	-10.8381
整合	-10.8381
天下	-10.8384
对待自己	-10.8386
自己最	-10.8387
雷	-10.8388
对于孩子	-10.8396
遇到的问题	-10.8397
如果要	-10.8397
低谷	-10.8398
分清	-10.8402
性爱	-10.8403
和家庭	-10.8404
还得	-10.8405
不知道该如何	-10.8405
会选择	-10.8406
处处	-10.8406
宝	-10.8408
的诊断	-10.8409
得以	-10.8409
学习中	-10.841
恭喜你	-10.841
绝对的	-10.8414
好不好	-10.8415
想要的东西	-10.8419
丢人	-10.842
我们能	-10.842
的时期	-10.8421
更喜欢	-10.8421
得很	-10.8424
像个	-10.8424
又要	-10.8425
狂	-10.8426
写出来	-10.8426
决策	-10.8426
占据	-10.8428
一直没有	-10.8428
题主的问题	-10.843
可能还	-10.8435
■	-10.8438
是因为自己	-10.8438
更应该	-10.8439
可以继续	-10.8442
型的	-10.8443
这种现象	-10.8445
出路	-10.8446
很多事	-10.8446
辅导	-10.8446
不幸福	-10.8446
你的提问	-10.8449
其中的	-10.845
让彼此	-10.8451
受伤害	-10.8451
复盘	-10.8451
做出一些	-10.8454
她自己	-10.8454
劳动	-10.8455
很不错	-10.8458
安稳	-10.846
国内	-10.8461
成瘾	-10.8462
了之后	-10.8462
春	-10.8463
被你	-10.8464
抹	-10.8465
为什么会这样	-10.8465
在意别人	-10.8467
专家	-10.8469
一层	-10.8469
和恐惧	-10.8471
锻炼自己	-10.8473
自爱	-10.8474
深层次	-10.8477
惯	-10.8478
的城市	-10.8478
喜欢和	-10.8479
方式来	-10.8481
抑郁症的	-10.8483
你的困扰	-10.8485
的了解	-10.8485
很努力	-10.8486
在大学	-10.8486
写的	-10.8488
说他	-10.8489
多想	-10.849
很重要的	-10.849
我就是	-10.8491
而且还	-10.8491
有意思	-10.8492
美国	-10.8492
发泄出来	-10.8493
帮到你	-10.8495
扔	-10.8496
自我评价	-10.8497
结局	-10.8498
魔	-10.8499
营造	-10.8499
向内	-10.8501
老公的	-10.8501
午	-10.8503
之上	-10.8504
我们可能	-10.8506
和睦	-10.8507
50	-10.8513
是最重要的	-10.8513
有更好的	-10.8515
我已经	-10.8517
一些时间	-10.852
抑郁症患者	-10.8522
注	-10.8526
建	-10.8532
牢	-10.8535
史	-10.8535
市场	-10.8536
细腻	-10.8536
活泼	-10.8537
的个性	-10.8537
心理负担	-10.8538
的女儿	-10.8538
剩	-10.8541
探	-10.8541
影响到了	-10.8541
话语	-10.8544
和同事	-10.8545
只能说	-10.8546
导	-10.8546
诉求	-10.8549
过不去	-10.855
里面的	-10.855
爱是	-10.8551
矛盾的	-10.8554
都应该	-10.8557
容易被	-10.8557
也不愿意	-10.8562
特长	-10.8563
卷	-10.8566
畏惧	-10.8571
法则	-10.8571
跟随	-10.8573
爱意	-10.8573
学科	-10.8574
疏离	-10.8575
案	-10.8578
对你的影响	-10.8578
相似的	-10.8579
自由的	-10.8581
害怕被	-10.8583
调整好	-10.8584
集	-10.8586
我们知道	-10.8591
更优秀	-10.8592
第二次	-10.8592
记忆力	-10.8594
觉得对方	-10.8594
尤其是在	-10.8595
会感觉	-10.8598
的课题	-10.8601
你可以先	-10.8602
和父母沟通	-10.8602
都是正常的	-10.8603
纳	-10.8605
感情中	-10.8607
漫	-10.8608
某一	-10.8609
两个方面	-10.8609
取舍	-10.8609
边缘	-10.8609
同桌	-10.8611
书中	-10.8611
怕自己	-10.8611
这样会	-10.8612
环境下	-10.8619
善良的	-10.8622
掉了	-10.8624
做着	-10.8625
这样的情绪	-10.8626
自信的	-10.8631
问他	-10.8632
努力地	-10.8632
不仅是	-10.8634
之间的感情	-10.8634
不甘	-10.8634
在我们的	-10.8635
从来都	-10.8636
说得	-10.8637
那我	-10.8638
好人	-10.8638
不要被	-10.8638
许多人	-10.8639
偶	-10.8641
恐怖	-10.8644
会使	-10.8645
扬	-10.8645
分辨	-10.8648
是不是真的	-10.8649
拒绝别人	-10.865
强制	-10.8652
好的一面	-10.8657
处境	-10.8658
二十	-10.8658
负面评价	-10.8661
专业的心理咨询师	-10.8662
祝您	-10.8663
普通的	-10.8663
但还是	-10.8664
在这个世界上	-10.8666
康复	-10.8666
如果你不	-10.8667
学会爱自己	-10.867
两个人都	-10.867
上去	-10.8671
不顺	-10.8671
很强的	-10.8673
其实都是	-10.8673
始	-10.8676
总是在	-10.8676
从未	-10.8677
发表	-10.8678
理解你的感受	-10.868
你感到	-10.868
发掘	-10.8682
拓展	-10.8683
甘	-10.8689
因此我们可以	-10.869
都已经	-10.869
暗恋	-10.8691
也许在	-10.8697
恰恰	-10.8698
抽离	-10.8699
?*	-10.87
给予自己	-10.87
而来	-10.8701
一道	-10.8702
因为你的	-10.8704
你们都	-10.8707
有什么样的	-10.8717
加重	-10.8718
账	-10.872
介入	-10.8721
眼泪	-10.8722
你发现	-10.8725
士	-10.8728
自己给自己	-10.8728
一下自己的	-10.8729
要好	-10.8729
一切都是	-10.873
藏在	-10.8731
现实生活	-10.8732
坚定的	-10.8735
不如别人	-10.8737
对这个	-10.8737
结束了	-10.8738
平台上	-10.8739
在努力	-10.874
也不好	-10.8742
自然的	-10.8743
一定会有	-10.8744
出来了	-10.8749
会比	-10.8749
的真实想法	-10.8749
坐在	-10.875
外婆	-10.8754
柔	-10.8755
不耐烦	-10.8756
的生活状态	-10.8756
赞同	-10.8759
抛开	-10.8759
清单	-10.8761
和鼓励	-10.8763
疫情期间	-10.8764
新鲜感	-10.877
回顾	-10.877
发言	-10.8773
你说自己	-10.8775
的优秀	-10.8779
身体上的	-10.8781
公公	-10.8784
缓解焦虑	-10.8786
阻	-10.8787
生日	-10.8787
和需求	-10.8787
与家人	-10.8789
知识点	-10.8791
一无是处	-10.8792
虽然我	-10.8792
薄	-10.8793
负罪感	-10.8794
手淫	-10.8794
什么东西	-10.8796
及时止损	-10.8798
认识到自己	-10.8798
成员	-10.8801
的情景	-10.8805
为别人	-10.8806
无条件的	-10.8808
是怎么想的	-10.8811
发泄情绪	-10.8811
急着	-10.8815
生病了	-10.8818
后期	-10.8819
就一定	-10.8822
某些事情	-10.8824
就会被	-10.8824
一定能	-10.8825
来看待	-10.8826
是不是可以	-10.8826
吼	-10.8829
惨	-10.883
怼	-10.883
不自在	-10.883
如期而至	-10.8834
希望我的回答能够帮助到你	-10.8834
的地步	-10.8836
自己感兴趣的	-10.8837
接触到	-10.8838
罗	-10.8839
受到影响	-10.8839
是否愿意	-10.884
心里有	-10.8843
会引起	-10.8846
获得了	-10.8853
的情绪状态	-10.8854
我记得	-10.8854
的阴影	-10.8854
?......	-10.8856
思考问题	-10.8857
和现实	-10.8859
吃了	-10.8861
要做的是	-10.8861
不想要	-10.8861
宠	-10.8863
觉得我	-10.8863
阿	-10.8864
被尊重	-10.8865
内在小孩	-10.8865
这会	-10.8866
军	-10.8866
这些话	-10.8866
愤	-10.8866
你的心	-10.8866
年的	-10.8867
属于你的	-10.8868
是父母	-10.8868
剂	-10.8869
提示	-10.887
左	-10.887
情绪问题	-10.887
以此来	-10.8871
在恋爱	-10.8871
身边的朋友	-10.8874
着手	-10.8877
还是在	-10.8881
放开	-10.8883
为对方	-10.8884
座	-10.8884
得起	-10.8884
看电影	-10.8885
败	-10.8885
你们两个人	-10.8886
惯性	-10.8889
到来	-10.8892
握	-10.8894
释放压力	-10.8894
不但	-10.8894
有安全感	-10.8898
移	-10.8899
我不想	-10.89
放松心情	-10.8902
野	-10.8902
很担心	-10.8902
挤	-10.8904
共鸣	-10.8905
。○	-10.8906
似	-10.8907
纯粹	-10.8907
纯	-10.8911
在现实中	-10.8912
可能因为	-10.8913
异性朋友	-10.8916
你自己的	-10.8919
这么想	-10.8925
某个人	-10.8927
立场	-10.8929
详细的	-10.8932
不想去	-10.8933
受过	-10.8933
这个时期	-10.8934
的语气	-10.8934
石	-10.8939
想成为	-10.894
朋友倾诉	-10.8942
看成	-10.8942
就不能	-10.8942
不带	-10.8943
这个家庭	-10.8947
对婚姻	-10.8951
剩下的	-10.8952
好像是	-10.8953
我看到了	-10.8954
岁月	-10.8955
假期	-10.8957
今天的	-10.8958
反思自己	-10.896
玩耍	-10.896
去适应	-10.8963
教育孩子	-10.8964
难以接受	-10.8965
可以直接	-10.8968
还是想	-10.8969
自觉	-10.8973
多看	-10.8974
他们都	-10.8975
。)2、	-10.8977
判	-10.8977
肌肉	-10.8978
应当	-10.8979
线上	-10.8979
受伤的	-10.8979
寄	-10.898
规范	-10.8981
大量的	-10.8981
懒惰	-10.8981
闯	-10.8982
楼主也	-10.8983
业务	-10.8983
借鉴	-10.8984
或者说是	-10.8984
去考虑	-10.8984
一个过程	-10.8989
吓	-10.899
买了	-10.899
面对生活	-10.8992
没有人可以	-10.8992
光明	-10.8993
相当于	-10.8997
可爱的	-10.8997
两个月	-10.9
能得到	-10.9002
赢得	-10.9002
公开	-10.9004
面对问题	-10.9005
是一个比较	-10.9007
一路	-10.901
甚	-10.9011
和接纳	-10.9012
正处于	-10.9012
单一	-10.9013
正能量	-10.9016
有所改变	-10.9017
射	-10.9017
和情感	-10.9018
大多数人都	-10.9019
升级	-10.9019
他就会	-10.9019
表演	-10.9019
之分	-10.902
狠	-10.902
你曾经	-10.9021
哟	-10.9021
等方面	-10.9022
手中	-10.9024
正常人	-10.9028
你的行为	-10.9029
无用	-10.903
欠缺	-10.9031
更适合	-10.9033
既然是	-10.9033
过错	-10.9035
自己的兴趣爱好	-10.9039
使人	-10.904
把所有的	-10.9041
见解	-10.9043
举动	-10.9044
对父母的	-10.9049
庆幸	-10.905
客体	-10.905
其他的事情	-10.9051
反映出	-10.9051
在其中	-10.9054
没有一个	-10.9054
还小	-10.9055
做咨询	-10.9056
其实这	-10.9056
•	-10.9057
可以适当	-10.9057
在这个时候	-10.9057
心里面	-10.9057
敷衍	-10.9058
叶	-10.9058
现在已经	-10.906
做好了	-10.906
怀念	-10.906
就医	-10.9061
调整自己的心态	-10.9066
在心理学上	-10.9068
怎么能	-10.9069
的概念	-10.907
看到题主	-10.907
交流一下	-10.907
资	-10.9071
与之	-10.9072
感受一下	-10.9075
能理解你	-10.9076
如果孩子	-10.9078
去爱	-10.9079
职业规划	-10.9079
比较强	-10.9079
首先是	-10.9079
大学生活	-10.908
学习心理学	-10.9082
但是他们	-10.9088
系	-10.9089
浮	-10.9089
花时间	-10.909
挣	-10.9092
闻	-10.9093
你无法	-10.9093
某件事	-10.9094
凶	-10.9095
弟	-10.9096
防止	-10.9096
展	-10.9097
皮肤	-10.9097
失误	-10.9098
删除	-10.9098
不成	-10.9098
起伏	-10.9099
愿世间美好与你	-10.9099
的衣服	-10.9105
很敏感	-10.9107
孤	-10.9109
一起玩	-10.9111
思维模式	-10.9113
深深	-10.9115
遇事	-10.9115
经济独立	-10.9116
处事	-10.9118
这个状态	-10.9119
把你的	-10.912
在身边	-10.9121
相处时	-10.9121
能够接受	-10.9126
是完全	-10.9127
某种程度上	-10.9127
这种人	-10.9128
并不知道	-10.9129
无比	-10.913
卫	-10.9131
幽默	-10.9132
这是我	-10.9133
薪	-10.9134
忠诚	-10.9135
是件	-10.9137
报警	-10.9137
不久	-10.9138
的正常	-10.9138
你才会	-10.9139
就像我们	-10.9142
这个话题	-10.9142
看到你说	-10.9142
孤独的	-10.9143
幸福快乐	-10.9145
顺畅	-10.9148
交往中	-10.915
作品	-10.9151
在你们	-10.9151
找心理咨询师	-10.9155
恰恰是	-10.9156
看得出你	-10.9157
假如你	-10.9158
有这样的想法	-10.916
来访者的	-10.9161
情绪不稳定	-10.9162
波	-10.9162
。5.	-10.9163
要怎么	-10.9168
型人格	-10.9168
割	-10.917
罚	-10.9171
毕业后	-10.9172
无可厚非	-10.9173
不顺心	-10.9173
立马	-10.9174
呗	-10.9174
是否要	-10.9176
提出的	-10.9179
14	-10.9179
做一件事	-10.918
的委屈	-10.9182
新的生活	-10.9184
他们自己	-10.9185
在意别人的看法	-10.9186
讨好别人	-10.9187
的概率	-10.9187
觉得别人	-10.9189
就行了	-10.9193
但现在	-10.9193
你一个人	-10.9195
祝福题主	-10.9196
反而是	-10.9197
他有	-10.9198
说一说	-10.92
人情	-10.9201
无趣	-10.9202
以下几个	-10.9203
早起	-10.9203
裂	-10.9205
粗	-10.9207
填	-10.9207
攻	-10.921
你只需要	-10.9211
凉	-10.9212
利弊	-10.9213
同理心	-10.9219
联想到	-10.922
很低	-10.9224
必要	-10.9226
的内心世界	-10.9226
一名	-10.9228
把孩子	-10.923
跨	-10.923
可能存在	-10.9232
表达了	-10.9234
有意识的	-10.9235
的不是	-10.9236
生活习惯	-10.9236
不够自信	-10.9238
完全不	-10.9242
过激	-10.9244
要做的就是	-10.9245
这是因为	-10.9245
心灵的	-10.9248
恒	-10.925
找你	-10.9252
右	-10.9252
感受和	-10.9252
你爸爸	-10.9253
紧绷	-10.9255
股	-10.9258
楼主的内心	-10.9261
。————————————————	-10.9261
前者	-10.9262
自己又	-10.9263
积极地	-10.9265
焦虑恐惧	-10.9266
是爱你的	-10.9268
真诚地	-10.927
认识的	-10.9274
教训	-10.9278
圆	-10.928
浪费时间	-10.928
钟	-10.9281
而对于	-10.9285
坏人	-10.9285
你可以把	-10.9288
路上	-10.929
他的行为	-10.9293
回答你的问题	-10.9301
要改变	-10.9303
调整一下	-10.9303
保守	-10.9305
这样可以	-10.9307
有两种	-10.9308
而是要	-10.931
哪些事情	-10.9313
坦	-10.9314
不论是	-10.9315
我的想法	-10.9318
很多次	-10.9319
减压	-10.932
少一些	-10.9323
中学	-10.9325
吃的	-10.9326
的信心	-10.9327
动态	-10.933
视野	-10.933
就有了	-10.933
严肃	-10.933
压力过大	-10.9331
失业	-10.9332
健	-10.9335
忽视了	-10.9337
他们是	-10.9337
无视	-10.9339
心理学中	-10.9341
如何看待	-10.9342
接收	-10.9346
一种是	-10.9349
并不一定	-10.9351
全面的	-10.9353
疼爱	-10.9353
反倒	-10.9355
感觉到自己	-10.9357
知道他	-10.9358
原来的	-10.9358
手上	-10.936
强行	-10.936
肩	-10.9366
塞	-10.9366
弗洛伊德	-10.9366
T	-10.9366
鸡	-10.9367
称之为	-10.9367
渴求	-10.9367
偶然	-10.937
优先	-10.937
以上是我的一点建议	-10.9371
的决心	-10.9374
怎么样呢	-10.9374
你的丈夫	-10.9377
有时候会	-10.9381
这个目标	-10.9385
需要有	-10.9386
起点	-10.9388
曲	-10.939
能给你	-10.9392
在成长过程中	-10.9394
买房	-10.9396
不让	-10.9402
从容	-10.9405
疲劳	-10.9406
千万	-10.9406
会有什么	-10.9407
对一个人	-10.9407
成长起来	-10.9407
荡	-10.9407
申请	-10.9407
多方面	-10.9408
残酷	-10.9408
搜索	-10.9408
就够了	-10.9409
况且	-10.9409
劳逸结合	-10.9409
养活自己	-10.941
善良的人	-10.941
力气	-10.9411
积极向上	-10.9413
我们不妨	-10.9414
上天	-10.9415
推动	-10.9416
太在意	-10.9417
看到您	-10.9419
有什么问题	-10.9421
间接	-10.9422
但他们	-10.9422
喜欢她	-10.9423
一类	-10.9426
的圈子	-10.9427
才是最	-10.9431
让自己在	-10.9431
伤害别人	-10.9432
在感情中	-10.9432
想象中	-10.9435
实质	-10.9435
面临的	-10.944
而产生的	-10.9442
斗	-10.9442
登	-10.9444
舞	-10.9444
汉	-10.9444
的时候会	-10.9447
不知不觉	-10.9448
眼前的	-10.9451
有更多	-10.9453
就是为了	-10.9454
看待问题	-10.9454
一顿	-10.9457
和你一起	-10.9458
成年后	-10.9458
会说	-10.9459
叙述	-10.9461
无意识的	-10.9464
育	-10.9464
这么大	-10.9465
哪些方面	-10.9465
已经开始	-10.9467
;2、	-10.9467
旁人	-10.947
一张	-10.947
出问题	-10.9472
你妈	-10.9476
权力	-10.9477
有太多	-10.9478
的感受和想法	-10.9479
我们总是	-10.9481
也可以通过	-10.9486
激活	-10.9486
赞赏	-10.9487
宁愿	-10.9488
你对于	-10.9488
鼓起勇气	-10.9489
对症下药	-10.9489
也就不会	-10.9491
?1.	-10.9491
那一刻	-10.9491
去体验	-10.9492
的功课	-10.9492
一切安好	-10.9493
值得你	-10.9495
儿女	-10.9495
精神科	-10.9496
该不该	-10.9497
的是你	-10.9498
这一步	-10.9502
虽	-10.9503
迟到	-10.9504
毕竟是	-10.9507
17	-10.9509
为孩子	-10.9509
每周	-10.951
你必须	-10.9513
不动	-10.9513
既然已经	-10.9514
但是这	-10.9515
婚姻是	-10.9517
所以就	-10.9517
合适的人	-10.9518
走出去	-10.9519
全新的	-10.952
目前的情况	-10.9526
意识自我	-10.9527
转化为	-10.9528
社恐	-10.9528
烂	-10.9528
检验	-10.9529
化妆	-10.953
你越	-10.953
适合你	-10.9531
无效	-10.9531
约会	-10.9532
有多么	-10.9533
打人	-10.9533
已婚	-10.9533
缓解压力	-10.9534
你仍然	-10.9536
对事情	-10.9539
这是个	-10.9539
深入的	-10.954
巧	-10.9544
清理	-10.9545
变得越来越	-10.9545
无数	-10.9547
所做的	-10.9552
想得到	-10.9553
可以帮助我们	-10.9553
看到了你的	-10.9555
姐	-10.9556
责	-10.9556
超出	-10.9557
帮她	-10.956
的内在	-10.9562
的前提	-10.9563
凭什么	-10.9565
去接纳	-10.9565
赌	-10.9567
奋	-10.9568
高级	-10.9568
伟大	-10.9569
青年	-10.9569
网友	-10.9571
的事情上	-10.9571
情节	-10.9572
比较高	-10.9572
?️	-10.9573
?3.	-10.9573
之所以会	-10.9574
式的	-10.9574
应该有	-10.9574
恰好	-10.9574
这个孩子	-10.9578
就说明	-10.9578
感到非常	-10.9578
不给	-10.9579
人士	-10.958
是个很	-10.9582
我猜想	-10.9582
一些方法	-10.9584
之后再	-10.9586
你并不	-10.9586
就没	-10.9588
考虑的	-10.9588
管教	-10.9591
在这方面	-10.9593
愿意去	-10.9595
会得到	-10.9596
外出	-10.9596
过上	-10.9597
你得	-10.9597
又如何	-10.9598
的刺激	-10.9598
而现在	-10.9605
营	-10.9605
想让	-10.9606
也是你	-10.9606
袭	-10.9606
夸大	-10.9607
色彩	-10.9608
纷	-10.9608
永远都	-10.9608
苛刻	-10.9608
焦躁	-10.9608
咋	-10.9608
醉	-10.9608
很抱歉	-10.961
现在的情况	-10.961
之心	-10.961
脑袋	-10.9612
再有	-10.9615
但我想	-10.9617
尊重自己	-10.9617
关照	-10.962
的立场	-10.9622
舒服的	-10.9627
工作了	-10.9627
上瘾	-10.9628
行为模式	-10.963
的体现	-10.9633
泛化	-10.9639
一分	-10.9642
把注意力放在	-10.9644
身心健康	-10.9645
现在是	-10.9646
收益	-10.9647
无形中	-10.9648
粘	-10.9648
换工作	-10.9648
踏	-10.9648
陈	-10.965
一个目标	-10.9651
维度	-10.9652
不知道该怎么办	-10.9652
自己认为	-10.9653
情感上的	-10.9654
太少	-10.9655
对方身上	-10.9655
的基本	-10.9656
小女孩	-10.9656
平常心	-10.966
感觉不到	-10.9665
和无助	-10.9665
离家	-10.9667
所带来的	-10.9668
有一部分	-10.967
把这种	-10.9671
例	-10.9673
称为	-10.9673
成为自己	-10.9678
进行心理咨询	-10.9679
他对你的	-10.968
身处	-10.968
尝试过	-10.9682
直觉	-10.9683
被孤立	-10.9684
苦难	-10.9685
:1)	-10.9685
固有	-10.9685
家庭氛围	-10.9686
迹	-10.9687
独立自主	-10.9687
扎	-10.9689
很爱你	-10.9689
除此之外	-10.9689
也只能	-10.9691
不要过于	-10.9694
重心	-10.9696
的社交	-10.9697
的眼睛	-10.9697
还是可以	-10.9697
两方面	-10.97
对感情	-10.9701
是以	-10.9702
工作能力	-10.9702
一点点的	-10.9703
不感兴趣	-10.9705
21	-10.9706
是一个很好的	-10.9707
不影响	-10.9708
对着	-10.9708
过去的事情	-10.9709
自己的未来	-10.9711
习惯性	-10.9711
苛责	-10.9715
这个是	-10.9717
对对方的	-10.9721
需要通过	-10.9721
这对	-10.9722
P	-10.9724
都是为了	-10.9727
的道路	-10.9729
皆	-10.973
活跃	-10.9731
行事	-10.9732
提到了	-10.9732
睡眠质量	-10.9732
是不能	-10.9732
有事	-10.9733
重建	-10.9734
让自己更	-10.9735
不负责任	-10.9736
从这个角度	-10.9737
的相处方式	-10.974
词语	-10.9742
男女朋友	-10.9745
不回	-10.9745
做自己喜欢的事情	-10.9748
这很正常	-10.9753
那段时间	-10.9755
跟朋友	-10.9758
潜意识自我	-10.976
这段婚姻	-10.9762
控制不了	-10.9764
抑制	-10.9767
不定	-10.9769
祝您生活愉快	-10.9774
问题所在	-10.9776
希望能帮助到你	-10.9778
在一起的	-10.9778
看到他	-10.9782
同时又	-10.9782
的男朋友	-10.9784
前期	-10.9788
都有可能	-10.9791
主见	-10.9791
中有	-10.9792
你自己也	-10.9793
️️	-10.9793
鼓励和	-10.9795
以免	-10.9801
如果是这样	-10.9801
心理准备	-10.9806
的全部	-10.9806
心里话	-10.9806
就知道	-10.9808
这事	-10.9809
作为父母	-10.981
环	-10.9811
的形成	-10.9811
是值得	-10.9813
连续	-10.9814
自己的看法	-10.9818
朋友关系	-10.9819
也是可以的	-10.982
漫长	-10.9821
临床	-10.9822
只要是	-10.9827
相信你会	-10.9828
发生变化	-10.9829
的伤痛	-10.9831
往后	-10.9831
的利益	-10.9834
喜欢的事情	-10.9834
和未来	-10.984
看电视	-10.9843
都是需要	-10.9846
能够感觉到	-10.985
一起来	-10.985
换一个角度	-10.985
章	-10.9853
忠	-10.9853
希望别人	-10.9853
齐	-10.9853
一个朋友	-10.9855
表达方式	-10.9859
沟通方式	-10.986
为什么呢	-10.9861
遇到事情	-10.9861
如何面对	-10.9863
成为更好的自己	-10.9864
深深地	-10.9865
出现了问题	-10.9867
应有的	-10.9875
希望我的回答能够	-10.9875
纠结于	-10.9878
人间	-10.9878
意味着什么	-10.9878
你的痛苦	-10.9882
行为背后	-10.9882
深刻的	-10.9885
一刻	-10.9886
和谐的	-10.9886
家中	-10.9887
言行	-10.989
风雨	-10.9891
范	-10.9893
走得	-10.9896
影响的	-10.9896
本就	-10.9896
进展	-10.9897
楼主需要	-10.9897
历	-10.9898
这条路	-10.9901
也可以是	-10.9902
充	-10.9902
交集	-10.9903
表达自己的想法	-10.9904
突出	-10.9904
考量	-10.9905
是人类	-10.9906
这个朋友	-10.9908
苛责自己	-10.9912
是正确的	-10.9912
能够做到	-10.9912
语气	-10.9913
愧疚感	-10.9913
。3,	-10.9913
父母是	-10.9916
觉察一下	-10.9918
有这么	-10.9918
往前走	-10.992
也觉得	-10.9926
码	-10.9931
熟悉的人	-10.9932
阿德勒	-10.9935
逛街	-10.9937
冥想星球	-10.9937
至今	-10.9938
类型的	-10.9939
那么在	-10.9939
这样的关系	-10.994
情绪管理	-10.9941
先给你一个温暖的抱抱	-10.9941
素	-10.9945
谈到	-10.9946
也罢	-10.9949
的回忆	-10.995
行动力	-10.9951
两个孩子	-10.9953
你就要	-10.9953
给你一个抱抱	-10.9954
人心	-10.9954
不是那么	-10.9965
您说	-10.9971
完全没有	-10.9971
而这种	-10.9972
因为这个	-10.9974
自己的力量	-10.9976
经典	-10.9977
紧密	-10.9977
也没关系	-10.9978
细致	-10.9978
特性	-10.9981
的关系中	-10.9981
局限性	-10.9981
融合	-10.9982
好奇心	-10.9982
首要	-10.9983
释放出来	-10.9983
意义上	-10.9984
大胆的	-10.9986
过来的	-10.9989
宝贵的	-10.9993
不肯	-10.9994
又或者是	-10.9995
经济条件	-10.9999
和看法	-11
哈哈	-11
一个个	-11.0001
而去	-11.0003
在乎你	-11.0004
费用	-11.0004
但不是	-11.0005
去行动	-11.0006
无意义	-11.0009
的原则	-11.001
。)3、	-11.0014
先去	-11.0016
电视	-11.0016
临	-11.0017
提到的	-11.002
贡献	-11.0021
可以帮助	-11.0022
给题主一个温暖的抱抱	-11.0023
平稳	-11.0023
那么好	-11.0025
最需要	-11.0028
上面的	-11.0031
但她	-11.0033
的人都	-11.0038
对朋友	-11.0041
客	-11.0044
你就不会	-11.0047
一个阶段	-11.0047
提出了	-11.0048
我也有	-11.0048
就很容易	-11.0048
因为对方	-11.0049
独立的个体	-11.0053
体力	-11.0055
经历中	-11.0058
很像	-11.0061
播	-11.0062
填补	-11.0063
南	-11.0063
挺好	-11.0063
厌倦	-11.0063
权衡	-11.0064
尊严	-11.0064
损害	-11.0064
家人朋友	-11.0064
诚实	-11.0064
熟人	-11.0066
忍让	-11.0069
你再	-11.007
。️️️	-11.0071
对工作	-11.0071
聚焦	-11.0078
这些情况	-11.0079
爱与	-11.0079
只看到	-11.0082
敌	-11.0086
不停	-11.0086
理想中的	-11.0087
发生了什么事情	-11.0087
为你好	-11.0088
为了自己	-11.0088
人人都	-11.009
了许多	-11.0091
首先需要	-11.0094
疏	-11.0094
不太会	-11.0097
对外界	-11.0097
展开	-11.0098
你可以通过	-11.0101
是通过	-11.0103
几句	-11.0105
敌意	-11.0106
大可不必	-11.0107
11	-11.0111
不想再	-11.0112
自已	-11.0114
做心理咨询	-11.0116
你问	-11.0121
能够理解你	-11.0122
做一些事情	-11.0123
还是你	-11.0128
很多很多	-11.0129
不好受	-11.013
也并不是	-11.0131
要把	-11.0133
准确的	-11.0133
都会遇到	-11.0133
就被	-11.0138
厌	-11.0139
免费	-11.0146
警	-11.0147
随着时间	-11.0147
你不知道	-11.0147
麻木	-11.0147
毅力	-11.0147
扭曲	-11.0147
又没有	-11.0148
在你心里	-11.0149
反击	-11.015
这个东西	-11.015
留下了	-11.015
和您	-11.0151
没关系的	-11.0151
***	-11.0155
希望楼主	-11.0158
非常大的	-11.0158
有用的	-11.0159
发自内心的	-11.0161
别人的看法	-11.0162
在不断	-11.0169
哪方面	-11.017
也都是	-11.0171
的模样	-11.0171
你担心	-11.0173
如何解决	-11.0173
为自己负责	-11.0175
一起生活	-11.0176
公司的	-11.0177
做选择	-11.0177
比较难	-11.0177
很长时间	-11.0178
还有什么	-11.018
为我们	-11.0182
和学习	-11.0184
调动	-11.0186
你之前	-11.0186
真实的感受	-11.0188
的潜意识	-11.0188
盖	-11.0189
嗨	-11.0189
屏蔽	-11.0191
攀比	-11.0191
版	-11.0191
多多少少	-11.0192
谎言	-11.0194
伦理	-11.0195
希望可以帮助到你	-11.0196
照顾你	-11.0197
不难	-11.0198
拉近	-11.0198
向别人	-11.0198
有那么多	-11.0199
安静的	-11.0199
无法理解	-11.0201
访	-11.0202
做什么事情	-11.0202
和其他人	-11.0203
我的建议	-11.0204
了很久	-11.0205
他身上	-11.0205
和爸爸	-11.0205
在学习上	-11.0206
情绪失控	-11.0208
文中	-11.0208
二胎	-11.0209
自己的性格	-11.0214
意志力	-11.0214
并不想	-11.0214
去沟通	-11.0214
网络上	-11.0219
对于一个	-11.022
负面的情绪	-11.0221
憋	-11.0225
与朋友	-11.0225
购物	-11.023
回忆一下	-11.023
萌	-11.0232
我对	-11.0233
甚至还	-11.0235
追寻	-11.0235
我还是	-11.0235
不用太	-11.0238
失利	-11.0238
上升	-11.0238
而没有	-11.0243
为了避免	-11.0243
激起	-11.0244
对父亲	-11.0244
也很重要	-11.0247
考的	-11.0247
病症	-11.0247
都比较	-11.0247
的沟通方式	-11.0248
莫名的	-11.0248
还会有	-11.0248
会有不同的	-11.0248
渴望得到	-11.0251
多沟通	-11.0252
可以寻求	-11.0253
好一些	-11.0255
一直都在	-11.0258
的拥抱	-11.0258
那么我们可以	-11.0259
缓	-11.0263
以下是我的分析	-11.0264
就像你说的	-11.0265
觉得自己很	-11.0266
就如	-11.0267
最难	-11.0269
和帮助	-11.027
泄	-11.0271
步入	-11.0273
何必	-11.028
有限的	-11.028
制度	-11.0282
劝说	-11.0283
是好事	-11.0284
错过了	-11.0286
想要得到	-11.0289
可以看看	-11.0289
老实	-11.0291
人的一生	-11.0296
而又	-11.0296
就不会那么	-11.0296
深处	-11.0296
和楼主	-11.0297
锻炼身体	-11.0298
精神状态	-11.0298
才可能	-11.0301
任何时候	-11.0301
速	-11.0302
焦点	-11.0303
多长时间	-11.0306
家庭条件	-11.0306
也有一些	-11.031
自己的内在	-11.0311
扰	-11.0314
论文	-11.0317
食欲	-11.032
忽然	-11.0321
认可自己	-11.0321
是不是有	-11.0323
怪圈	-11.0324
这个专业	-11.0326
清楚的	-11.0327
在你面前	-11.0331
不停地	-11.0335
机器	-11.0335
帮我	-11.0339
系统的	-11.0339
有趣的	-11.034
比我们	-11.0346
身为	-11.0348
楼主要	-11.0348
生长	-11.0349
核	-11.0349
都是一种	-11.035
索	-11.0351
你的选择	-11.0351
可以慢慢	-11.0352
关键在于	-11.0353
内心是	-11.0354
以便	-11.0354
折	-11.0355
相处的过程中	-11.0356
到自己身上	-11.0357
征	-11.0359
孩子的成长	-11.036
安好	-11.0362
设立	-11.0364
心甘情愿	-11.0366
思念	-11.0368
产生一些	-11.0369
沟通的	-11.037
诉	-11.0373
你将	-11.0375
引发的	-11.0382
给父母	-11.0382
楼主的问题	-11.0384
能在	-11.0389
各个	-11.0392
有意义的	-11.0393
很委屈	-11.0394
遗	-11.0394
什么事情都	-11.0395
服从	-11.0395
让妈妈	-11.0398
会觉得自己	-11.0399
漏	-11.0403
仇	-11.0405
振	-11.0406
敏锐	-11.0407
祖	-11.0407
扯	-11.0407
踩	-11.0408
和自我	-11.0408
就不是	-11.0408
因为这样	-11.041
我个人觉得	-11.041
祝安好	-11.0411
读研	-11.0411
都被	-11.0414
的童年	-11.0414
在对方	-11.0415
该怎么做	-11.0416
相信他	-11.0417
都知道	-11.0418
滑	-11.0421
一切都会	-11.0422
性格内向	-11.0424
提高自己	-11.0424
他觉得	-11.0425
自如	-11.0426
很能理解	-11.0428
这个样子	-11.0428
就会发现	-11.0432
你的家庭	-11.0432
无限	-11.0433
看待自己	-11.0433
被认可	-11.0435
不起来	-11.0436
和时间	-11.0436
赞	-11.0437
多个	-11.0439
把问题	-11.0441
了一下	-11.0443
?3、	-11.0444
赛	-11.0445
亲子	-11.0445
去年	-11.0446
能让自己	-11.0448
傲	-11.0448
接受自己的	-11.0449
进入了	-11.0449
讲究	-11.0452
放在心上	-11.0452
职责	-11.0452
触动	-11.0452
相识	-11.0453
集中在	-11.0454
一起努力	-11.0454
主角	-11.0455
美食	-11.0456
满满	-11.0456
看了你的问题	-11.0462
并未	-11.0462
被接纳	-11.0463
类似于	-11.0464
要做的事情	-11.0467
再一次	-11.0469
旁	-11.047
更多的人	-11.0475
觉得自己是	-11.0477
结婚后	-11.0479
自己的家庭	-11.0479
我才	-11.048
4.	-11.0481
。-	-11.0485
那可能	-11.0489
学的	-11.0491
乡	-11.0491
当然是	-11.0493
飘	-11.0494
货	-11.0495
---	-11.0497
我个人认为	-11.0499
的唯一	-11.0499
冷落	-11.05
天使	-11.05
很苦恼	-11.05
就很难	-11.0503
大宝	-11.0506
总有一天	-11.0507
目光	-11.0508
让步	-11.0511
也可以尝试	-11.0513
有动力	-11.0514
学习效率	-11.0514
针	-11.0515
自己的生命	-11.0519
能够在	-11.0521
急于	-11.0527
迫	-11.0527
的另一半	-11.0528
口中	-11.0532
在遇到	-11.0534
过去的经历	-11.0534
自然就会	-11.0535
这个事实	-11.0537
推荐你	-11.0537
&	-11.0537
的初衷	-11.0538
把对方	-11.0538
壮	-11.0538
人生的意义	-11.0539
执念	-11.0539
有以下	-11.0539
概率	-11.0539
教导	-11.0539
才能让	-11.054
自己喜欢的人	-11.0542
做点什么	-11.0546
不习惯	-11.0547
对爱情	-11.0548
进度	-11.055
要好好	-11.0552
特别想	-11.0554
的乐趣	-11.0555
等方式	-11.0556
只要有	-11.0558
这个男人	-11.0559
告诉父母	-11.0561
育儿	-11.0561
生活和工作	-11.0562
最坏	-11.0565
在你的描述中	-11.0566
技	-11.0566
被否定	-11.0566
没有足够的	-11.0567
1)	-11.0569
的那样	-11.0569
有任何	-11.0572
较大	-11.0577
年代	-11.0578
的频率	-11.0578
不熟悉	-11.0578
这其实是	-11.0579
有这种	-11.0582
对应	-11.0584
迫切	-11.0584
预测	-11.0584
早已	-11.0585
找了	-11.0585
他人的评价	-11.0585
公益	-11.0585
脚步	-11.0587
我身边	-11.059
怎么看	-11.0592
她在	-11.0594
坏话	-11.0594
能感觉到	-11.0595
提及	-11.0596
当你在	-11.0596
精神病	-11.06
的主人	-11.0601
自己已经	-11.0603
体内	-11.0605
倾听者	-11.0605
有所不同	-11.0606
探讨一下	-11.0608
的心理咨询师	-11.0608
和建议	-11.0609
断了	-11.061
那种感觉	-11.061
很难做到	-11.0611
不知道你有没有	-11.0612
负性	-11.0612
控制不住自己	-11.0619
相对来说	-11.0619
新人	-11.0621
更愿意	-11.0623
网课	-11.0623
这样的感觉	-11.0625
跟妈妈	-11.0626
勤奋	-11.0626
大二	-11.0627
契合	-11.0628
搜	-11.0628
阿姨	-11.0629
放纵	-11.0629
突发	-11.0629
适当地	-11.063
哈喽	-11.063
必要的时候	-11.0631
这件事情上	-11.0634
拥有的	-11.0634
感悟	-11.0635
最好的方式	-11.064
才好	-11.064
的状态下	-11.0641
打架	-11.0645
发生什么	-11.0645
三次	-11.0645
焦虑的情绪	-11.0645
的角度去	-11.0647
很美好	-11.0647
你的文字	-11.065
改掉	-11.0652
的关爱	-11.0652
遇到一个	-11.0653
你们在一起	-11.0653
没有时间	-11.0658
不能说	-11.0661
实际上是	-11.0664
反思一下	-11.0664
丰富的	-11.0669
自己的时间	-11.067
隐	-11.067
做主	-11.067
颓废	-11.0672
真的很难	-11.0673
虎	-11.0673
斗争	-11.0673
生理上	-11.0675
不关心	-11.0677
对方是否	-11.0677
顺着	-11.0677
被满足	-11.0679
能够得到	-11.0679
新的朋友	-11.068
就在于	-11.0681
也许可以	-11.0681
很大的影响	-11.0684
加油哦	-11.0685
面对现实	-11.0686
的成长环境	-11.0686
的世界里	-11.0686
的次数	-11.0687
着我们	-11.0688
恰当的	-11.0689
并没有那么	-11.0691
着他	-11.0691
的信号	-11.0692
得失	-11.0692
真的有	-11.0693
觉醒	-11.0694
讲的	-11.0695
会有不一样的	-11.07
考了	-11.0701
低自尊	-11.0702
不可避免的	-11.0709
是希望	-11.071
更好的生活	-11.0712
楼主说自己	-11.0714
个人建议	-11.0714
财产	-11.0716
秋	-11.0716
相应	-11.0717
单词	-11.0717
涌	-11.0718
交到	-11.0719
在这段关系中	-11.072
转移自己的注意力	-11.072
了解的	-11.072
爱你的	-11.0721
活成	-11.0723
一般情况下	-11.0724
成为朋友	-11.0724
你就能	-11.0725
专注力	-11.0728
最起码	-11.0733
坏处	-11.0733
给自己定	-11.0733
虐待	-11.0736
找寻	-11.0736
会好很多	-11.0741
我们先来	-11.0745
骂你	-11.0746
问我	-11.0749
最真实的	-11.0749
先抱抱你	-11.0749
兴	-11.075
个案	-11.0756
提起	-11.0757
对家庭	-11.076
下定决心	-11.0762
列出	-11.0763
炎	-11.0763
滋味	-11.0763
构	-11.0763
胜利	-11.0765
开诚布公	-11.0765
会怎样	-11.0766
喜欢我	-11.0768
双重	-11.0768
的追求	-11.077
安排好	-11.0771
这不是你的错	-11.0771
。##	-11.0774
和心理	-11.0775
有时会	-11.0777
博士	-11.0778
愤怒和	-11.0781
恰当	-11.0781
控	-11.0781
尽量避免	-11.0782
不可控	-11.0783
你所描述的	-11.0784
习惯于	-11.0785
忘掉	-11.0785
总要	-11.0785
题主应该	-11.0789
规	-11.0791
得到别人的	-11.0793
没问题	-11.0799
过往的	-11.0801
精神上	-11.0801
必定	-11.0802
尝	-11.0802
分解	-11.0802
。@	-11.0804
当她	-11.0804
敲	-11.0807
正常现象	-11.0807
多巴胺	-11.0807
耗费	-11.0807
确保	-11.0807
幅	-11.0809
频	-11.081
我们的内心	-11.0811
^	-11.0811
希望她	-11.0811
别扭	-11.0811
心理学知识	-11.0812
专科	-11.0813
不顺利	-11.0813
的进步	-11.0815
的人呢	-11.0816
尽情	-11.0822
感受到了你的	-11.0823
看到了你	-11.0826
讨	-11.0826
有可能会	-11.0827
是一件好事	-11.083
想表达	-11.0833
就会慢慢	-11.0835
不排除	-11.0835
带你	-11.0836
成绩好	-11.0837
告诉孩子	-11.084
的安排	-11.0841
的兴趣爱好	-11.0841
景	-11.0845
是人之常情	-11.0846
你真正	-11.0847
正面的	-11.0847
印	-11.0848
的大脑	-11.0849
我们的大脑	-11.0851
加油吧	-11.0854
盛	-11.0854
办公室	-11.0854
表达你的	-11.0855
剥夺	-11.0856
喜怒哀乐	-11.0856
倒是	-11.0857
必然会	-11.0857
太好	-11.0858
就只能	-11.0859
尽早	-11.0863
休学	-11.0865
变化的	-11.0867
或许你可以	-11.087
为她	-11.0871
以来	-11.0872
中年	-11.0874
毫不	-11.0876
。3)	-11.0878
醒来	-11.0879
也愿意	-11.088
你可以尝试着	-11.088
是否也	-11.0883
我就会	-11.0883
的预期	-11.0884
间的	-11.0885
这样的感受	-11.0885
录	-11.0885
来访	-11.0886
划分	-11.0887
和努力	-11.0888
舒适区	-11.0889
还是觉得	-11.0891
的解释	-11.0895
你可以在	-11.0897
生活在一起	-11.0897
应用	-11.0898
这并不	-11.09
挨	-11.09
而对方	-11.0903
每个人都有自己	-11.0905
我们的人生	-11.0906
如同	-11.0907
义务	-11.0907
收回	-11.0908
觉得她	-11.091
反之	-11.0911
婆媳关系	-11.0913
学好	-11.0919
学习任务	-11.092
不要放弃	-11.0921
很不好	-11.0922
高二	-11.0923
和好	-11.0927
我知道你	-11.0928
这种关系	-11.0928
一个人的时候	-11.0928
我们也需要	-11.093
做一件事情	-11.0931
熟练	-11.0931
一条路	-11.0933
固定的	-11.0933
自己喜欢的事情	-11.0936
习	-11.094
对你的态度	-11.094
都希望	-11.0941
家庭教育	-11.0941
持久	-11.0942
内心的感受	-11.0942
和难过	-11.0942
短暂	-11.0943
绿	-11.0945
待在	-11.0945
固然	-11.0946
我们只能	-11.0947
这个方法	-11.0948
列举	-11.0949
隐忍	-11.0949
可以给自己	-11.095
呆在	-11.095
的一点是	-11.0951
没想到	-11.0951
体验过	-11.0951
的无奈	-11.0952
真的会	-11.0953
将就	-11.0954
我理解	-11.0955
心慌	-11.0956
喜好	-11.0957
心痛	-11.0958
基本的	-11.0959
一定程度上	-11.096
一般是	-11.0961
去选择	-11.0961
的人在一起	-11.0962
我希望	-11.0963
凭借	-11.0965
妻	-11.0965
自己的兴趣	-11.0968
无法解决	-11.0971
发展出	-11.0972
一个男人	-11.0976
进入社会	-11.0977
不知道您	-11.0981
不当	-11.0981
不是特别	-11.0983
已经很	-11.0987
蛋	-11.099
撒娇	-11.0992
流程	-11.0993
天气	-11.0993
界	-11.0993
咱	-11.0993
对你而言	-11.0994
疏解	-11.0994
很深的	-11.0997
在某个	-11.0998
为止	-11.0999
工作环境	-11.1
能看出	-11.1001
应该也	-11.1001
的思路	-11.1003
确立	-11.1004
新的环境	-11.1006
也别	-11.1006
和愤怒	-11.1007
来临	-11.1008
开心的事情	-11.1009
这件事上	-11.1009
在你身边	-11.101
供参考	-11.1013
虽然我们	-11.1013
会担心	-11.1013
你还有	-11.1018
看出来	-11.102
做人	-11.1022
一定很	-11.1022
值得拥有	-11.1023
零食	-11.1023
想象一下	-11.1024
部位	-11.1026
对自身	-11.1029
形容	-11.103
不等于	-11.1031
染	-11.1031
冒	-11.1032
和思考	-11.1033
一点时间	-11.1034
也并不	-11.1036
彩礼	-11.1038
便宜	-11.1038
绘画	-11.104
耿耿于怀	-11.104
智商	-11.104
必经	-11.104
都想	-11.104
构建	-11.104
只有这样	-11.1041
施加	-11.1041
见识	-11.1042
被爱的	-11.1043
在咨询	-11.1044
对异性	-11.1047
送给你	-11.1047
统	-11.1051
进一步的	-11.1053
也是非常	-11.1054
然后在	-11.1055
不努力	-11.1058
现代	-11.1058
互相理解	-11.1059
的不足	-11.106
你的孩子	-11.1064
再继续	-11.1066
与异性	-11.1068
n	-11.1068
你不会	-11.1068
可能也是	-11.1068
的温暖	-11.1069
受欢迎	-11.107
对外	-11.1073
觉察到自己	-11.1075
你就会发现	-11.1075
本书	-11.1078
一一	-11.108
配不上	-11.1083
一帆风顺	-11.1086
因人而异	-11.1087
主意	-11.1087
虽然说	-11.1087
有意识地	-11.1087
对于自己的	-11.1088
他认为	-11.1088
全然	-11.109
吃醋	-11.109
气愤	-11.109
自己的心态	-11.109
宠爱	-11.1091
是建立在	-11.1092
影响到你	-11.1094
总想	-11.1096
理解她	-11.1097
确定自己	-11.1097
需要什么	-11.1105
逝	-11.1106
坦诚的	-11.1107
看作	-11.1108
又害怕	-11.1109
自学	-11.1112
一人	-11.1112
找个时间	-11.1113
走入	-11.1114
自己真正	-11.1119
对他人的	-11.1122
我的看法	-11.1124
和女朋友	-11.1125
可以根据	-11.1125
的态度和	-11.1128
不主动	-11.1128
信仰	-11.1132
。5	-11.1132
沉浸	-11.1132
是那种	-11.1135
潜力	-11.1135
也很正常	-11.1136
不理想	-11.1136
很显然	-11.1137
和婆婆	-11.1138
在心理上	-11.1139
自己不够好	-11.1139
大学毕业	-11.1139
份工作	-11.114
是平等的	-11.114
偏执	-11.1142
保护你	-11.1142
很忙	-11.1143
第二种	-11.1144
的天性	-11.1145
我爸	-11.1146
过来人	-11.1149
了这么多	-11.1149
选择一个	-11.1153
逼迫	-11.1156
自己内心的想法	-11.1157
也是因为	-11.1157
想到了	-11.1157
因为父母	-11.116
多半	-11.1161
有一个人	-11.1163
的诉求	-11.1164
很纠结	-11.1164
性冲动	-11.1165
不通	-11.117
很烦	-11.1172
鲜	-11.1173
表露	-11.1174
丽	-11.1175
所处的	-11.1178
灌输	-11.1178
离去	-11.1179
会变成	-11.118
错觉	-11.118
复发	-11.118
标题	-11.118
嘲讽	-11.118
坚信	-11.1181
可以解决	-11.1181
这就是你	-11.1182
初期	-11.1184
哭闹	-11.1186
讲到	-11.1194
也挺	-11.1194
都是自己	-11.1195
发生冲突	-11.1197
送你	-11.1197
很幸福	-11.1197
很压抑	-11.1198
你开始	-11.1198
就会变得	-11.1199
可以适当的	-11.1199
要素	-11.1199
这种焦虑	-11.1199
为什么我	-11.1201
是基于	-11.1203
请不要	-11.1203
一个比较	-11.1205
不合理的	-11.1206
成功了	-11.1208
第一时间	-11.1214
通常是	-11.1217
横	-11.1223
压抑了	-11.1223
夺	-11.1224
的时候可以	-11.1225
讨厌自己	-11.1225
坏情绪	-11.1226
器官	-11.1227
从描述中	-11.1227
严苛	-11.1227
炫耀	-11.1228
心生	-11.123
预约	-11.123
仪式感	-11.123
有兴趣	-11.1232
打卡	-11.1232
分成	-11.1234
终点	-11.1235
对自己的要求	-11.1235
和她们	-11.1236
相信题主	-11.1238
自我实现	-11.1238
是如此	-11.124
自愿	-11.124
释	-11.1241
前后	-11.1245
自己的观点	-11.1246
可以再	-11.1246
抱抱您	-11.1248
学习计划	-11.1249
未婚	-11.1249
那么可以	-11.125
没有太大	-11.1252
还未	-11.1252
自行	-11.1253
不知如何	-11.1255
趣	-11.1257
想做什么	-11.1257
有自己的想法	-11.1258
生活当中	-11.126
敏感的人	-11.126
没有朋友	-11.1261
让你感受到	-11.1263
》。	-11.1263
容易产生	-11.1264
想像	-11.1266
可怕的	-11.1269
可以参考	-11.1269
的风景	-11.1269
◎	-11.1271
自我认同	-11.1272
承担起	-11.1275
怎么做呢	-11.1275
聆听	-11.1276
进了	-11.1281
一根	-11.1281
在人际交往中	-11.1281
姐妹	-11.1286
我不是	-11.1286
的苦恼	-11.1288
看自己	-11.1288
大专	-11.1289
术	-11.129
关注到	-11.1293
考前	-11.1296
的代价	-11.1297
保证自己	-11.1303
有条件	-11.1304
并不需要	-11.1305
与我们	-11.1307
不能因为	-11.1308
难受的	-11.1311
所以她	-11.1312
影响你的	-11.1313
你说到	-11.1313
的原因是	-11.1316
到处	-11.1317
所以你会	-11.1317
读完	-11.1318
奖	-11.132
会有些	-11.132
也不敢	-11.1321
和矛盾	-11.1321
尘	-11.1322
心仪的	-11.1325
出国	-11.1326
最关键的	-11.1326
一个很好的	-11.1327
头发	-11.1328
用一些	-11.1328
不见得	-11.1329
可以看出楼主	-11.1329
希望以上	-11.133
生气了	-11.1331
很紧张	-11.1331
吸收	-11.1333
成长环境	-11.1333
处于一种	-11.1335
也可以去	-11.1336
熬	-11.1336
新朋友	-11.1339
年龄段	-11.1341
看手机	-11.1342
高效	-11.1344
的闪光点	-11.1344
去实现	-11.1345
议	-11.1346
无意中	-11.1346
想太多	-11.1346
相处中	-11.1347
既不	-11.1348
的行为模式	-11.1348
为啥	-11.135
不知道为什么	-11.1352
是因为他	-11.1353
的教育方式	-11.1353
新生	-11.1354
貌	-11.1355
把所有	-11.1356
最简单的	-11.1358
先不要	-11.1359
是否需要	-11.1359
怎么了	-11.1362
总比	-11.1365
学期	-11.1365
回到家	-11.1366
适合自己	-11.1366
了不少	-11.1369
序	-11.1369
精神上的	-11.1369
延	-11.1369
崇拜	-11.1371
我们想要	-11.1372
社交恐惧症	-11.1372
才能真正	-11.1373
没有做好	-11.1376
越界	-11.1377
真实的想法	-11.138
认错	-11.1385
向父母	-11.139
希望通过	-11.1391
还是其他	-11.1393
我们常说	-11.1393
修正	-11.1394
不下	-11.1397
自我探索	-11.1398
不完	-11.1399
成长和	-11.1399
你的心里	-11.14
观察到	-11.1401
需要做的是	-11.1401
的个体	-11.1411
主题	-11.1411
深厚	-11.1415
鞋	-11.1416
菲尔	-11.1416
在恋爱中	-11.1416
人与人	-11.1417
屡	-11.1417
农村	-11.1418
掩饰	-11.1419
放过自己	-11.1419
受益	-11.1421
操控	-11.1421
桶	-11.1421
的命运	-11.1422
我建议	-11.1424
开车	-11.1424
的脾气	-11.1426
会发生什么	-11.1427
打拼	-11.1428
我们都会	-11.1428
就此	-11.1428
遇到一些	-11.1428
想明白	-11.1428
出一个	-11.1429
要求你	-11.1433
缺乏自信	-11.1434
以后的生活	-11.1439
在路上	-11.1445
爸	-11.1445
智	-11.1445
徒	-11.1445
户	-11.1446
不去想	-11.1447
线下	-11.1447
一定程度的	-11.1447
不妥	-11.1449
有益	-11.1449
和社会	-11.1449
一股	-11.1451
满满的	-11.1455
还是自己	-11.1457
轨迹	-11.1461
实在是	-11.1464
兵	-11.1468
与此同时	-11.1468
貌似	-11.1469
玩的	-11.1469
疯狂	-11.1469
针对性	-11.1471
我们的身体	-11.1473
这个原因	-11.1474
:*	-11.1476
浮现	-11.1478
是我们自己	-11.1479
强硬	-11.148
你身边	-11.148
能帮助你	-11.1482
处于一个	-11.1483
的人会	-11.1483
已经长大了	-11.1485
的一些行为	-11.1486
想好	-11.1486
没有及时	-11.1486
这样的一个	-11.1486
对身体	-11.1488
丢了	-11.1489
力所能及的	-11.149
一代	-11.1491
想起来	-11.1492
行为表现	-11.1493
根本就	-11.1494
和担忧	-11.1495
来这里	-11.1496
不足以	-11.1498
特殊的	-11.1499
给你提供	-11.15
很迷茫	-11.1502
坚持下来	-11.1503
生了	-11.1507
不被理解	-11.1508
所以他们	-11.1509
感情上	-11.1509
趋	-11.151
个人认为	-11.151
身体上	-11.151
有一点点	-11.1511
抽烟	-11.1513
是什么样子	-11.1514
脱敏	-11.1515
如果能够	-11.1516
咨访关系	-11.1516
取悦	-11.1516
所想	-11.1517
扣	-11.1518
自我暗示	-11.1518
预防	-11.1518
给不了	-11.1518
因为它	-11.1519
网恋	-11.152
没有那么多	-11.152
希望我的回答能对你有所帮助	-11.152
说一些	-11.1524
如你所说	-11.1526
还有一点	-11.1526
的地位	-11.1527
哭了	-11.1528
精神疾病	-11.1529
动摇	-11.153
有太多的	-11.1531
因为害怕	-11.1533
可以不用	-11.1534
是可以的	-11.1536
的小事	-11.1537
曾经有过	-11.1538
之道	-11.1538
女主	-11.1538
有没有什么	-11.1542
个小	-11.1545
晚上好	-11.1546
过日子	-11.1548
被对方	-11.1549
过你	-11.1553
爱情是	-11.1554
其实并不是	-11.1555
岁的孩子	-11.1556
又想	-11.1557
相伴	-11.1559
他现在	-11.1561
是否还	-11.1564
蒙	-11.1565
拿出来	-11.1565
也是个	-11.1565
象征	-11.1565
颜值	-11.1566
分寸	-11.1569
审美	-11.1569
压迫	-11.1569
开导	-11.157
的角度来看	-11.157
数据	-11.1571
短短	-11.1572
确实很	-11.1572
指望	-11.1574
退让	-11.1574
如果你有	-11.1575
别人的感受	-11.1576
在你看来	-11.1576
非常非常	-11.1578
考虑问题	-11.1578
或其他	-11.1578
任何一个	-11.1581
甚至可以	-11.1582
很常见	-11.1584
信任和	-11.1586
就成了	-11.1586
都可能	-11.1586
当对方	-11.1587
状	-11.1589
思维方式	-11.1593
可能都	-11.1594
后再	-11.1594
这也是一种	-11.1595
转向	-11.1597
下属	-11.1599
对家人	-11.16
美满	-11.16
面临的问题	-11.1603
都不知道	-11.1607
第一种	-11.1608
遇上	-11.161
炸	-11.161
一个机会	-11.161
附	-11.1611
燃	-11.1612
字里行间	-11.1613
自己的情感	-11.1613
结婚生子	-11.1614
碗	-11.1614
眼界	-11.1616
你女朋友	-11.1616
尿	-11.1616
警察	-11.1616
有力	-11.1616
能够帮助你	-11.1617
看不惯	-11.1618
需要做的	-11.1619
~※	-11.162
只能是	-11.162
在一起的时候	-11.1622
我的回答	-11.1622
可控	-11.1623
自然而然的	-11.1624
的异性	-11.1628
原有的	-11.1628
不要总是	-11.1631
做出决定	-11.1634
国外	-11.1634
不曾	-11.1638
对楼主的	-11.1639
占有	-11.1639
做梦	-11.164
越来越大	-11.1642
都是可以	-11.1642
私下	-11.1642
的梦想	-11.1645
他们可能	-11.1645
进化	-11.1647
但是我们可以	-11.1649
评价自己	-11.1656
脆弱的	-11.1656
的辛苦	-11.1657
维	-11.1657
老大	-11.1657
父母对你的	-11.1659
发生改变	-11.166
兼	-11.1661
是不是因为	-11.1662
急躁	-11.1663
--	-11.1664
无法自拔	-11.1664
债	-11.1665
修炼	-11.1667
对你说	-11.1667
温暖和	-11.1668
所以你要	-11.167
购买	-11.167
想得	-11.1678
被他	-11.1681
的苦	-11.1684
有些问题	-11.1686
成因	-11.1687
透露	-11.1691
而这个	-11.1693
执	-11.1694
做点	-11.1695
坦诚地	-11.1696
引导孩子	-11.1696
与男友	-11.1698
充电	-11.17
要解决	-11.17
和目标	-11.1701
一直是	-11.1701
多看看	-11.1704
我觉得我	-11.1706
不管怎样	-11.1706
可行	-11.1706
想和你	-11.1706
学习压力	-11.1709
如何应对	-11.171
去争取	-11.1711
想让你	-11.1712
穿着	-11.1713
把握好	-11.1714
骚	-11.1714
供你参考	-11.1715
摸索	-11.1715
喔	-11.1716
他是否	-11.1717
;2.	-11.1717
不一定要	-11.1718
无可	-11.1719
偶像	-11.172
看了你的	-11.1722
的节奏	-11.1723
我们可以从	-11.1723
和安全感	-11.1724
普通朋友	-11.1724
三善	-11.1725
静静	-11.1725
控制情绪	-11.1728
的表达方式	-11.1728
先要	-11.173
也算是	-11.1732
是有限的	-11.1733
因为人	-11.1735
解除	-11.1738
影响到你的	-11.174
待人	-11.174
贴标签	-11.1742
所能	-11.1747
你依然	-11.1751
很快就	-11.1752
惜	-11.1753
和女友	-11.1758
离开你	-11.176
住在一起	-11.1762
理解和支持	-11.1764
拼搏	-11.1764
族	-11.1765
我想要	-11.1766
实际行动	-11.1767
时时刻刻	-11.1768
长大的	-11.1774
去学校	-11.1778
块钱	-11.1778
走神	-11.1778
不要觉得	-11.178
怕别人	-11.178
那么楼主	-11.1782
高一	-11.1782
胆	-11.1782
那么你可以	-11.1784
学习和生活	-11.179
这个女生	-11.179
能给你带来	-11.179
有想法	-11.1791
※	-11.1794
可是我	-11.1795
要做到	-11.1795
把他们	-11.1797
的画面	-11.1797
舍	-11.1803
控制自己的情绪	-11.1804
阿凉	-11.1808
的成就	-11.1808
就不再	-11.1808
佳	-11.181
瓜	-11.1811
北京	-11.1811
娶	-11.1812
都放在	-11.1812
交心	-11.1812
帅	-11.1813
规矩	-11.1813
给您一个温暖的抱抱	-11.1814
丢脸	-11.1817
祝你好运	-11.1817
我和世界爱着你	-11.1818
厌学	-11.1818
的技巧	-11.1819
男的	-11.1819
找到合适的	-11.1819
描述来看	-11.1819
身边有	-11.182
风景	-11.1823
的处理方式	-11.1824
有不少	-11.1825
学生时代	-11.1826
做起来	-11.1827
你的潜意识	-11.1827
理解他	-11.1827
拿着	-11.1828
单方面	-11.1833
就不会再	-11.1833
尝试着去	-11.1836
我能理解	-11.1837
严重影响	-11.184
很深	-11.1842
作为孩子	-11.1845
正向的	-11.1846
本身是	-11.185
的技能	-11.1853
一生中	-11.1853
一瞬间	-11.1855
还不能	-11.1856
道德感	-11.1856
订	-11.1857
应该如何	-11.186
我了解到	-11.1861
娃	-11.1862
究竟是	-11.1862
灭	-11.1863
局面	-11.1864
疯	-11.1865
密切	-11.1865
劣势	-11.1865
这条	-11.1865
羞辱	-11.1866
教练	-11.1866
缓冲	-11.1866
开开心心	-11.1867
通过一些	-11.1868
个人感觉	-11.1869
去调整	-11.1872
的打算	-11.1874
增加了	-11.1875
鉴于	-11.1876
让自己感到	-11.1877
无论怎样	-11.1877
的不安全感	-11.188
触	-11.1882
空气	-11.1882
最基本的	-11.1883
精力去	-11.1884
同居	-11.1885
笔记	-11.1888
你对她的	-11.1888
任何事情	-11.1888
坚守	-11.1889
都有自己的	-11.189
为了孩子	-11.1892
你觉得呢	-11.1892
心力	-11.1898
在当下	-11.1898
更进一步	-11.1899
选项	-11.1904
现在还	-11.1905
不要担心	-11.1906
的礼物	-11.191
延伸	-11.1913
弱势	-11.1914
媳妇	-11.1914
自己的意愿	-11.1914
签	-11.1915
迟早	-11.1916
砸	-11.1916
O	-11.1917
无数次	-11.1917
陈述	-11.1917
她对你	-11.1919
是对自己的	-11.1919
找人	-11.192
感受呢	-11.1922
但楼主	-11.1929
打败	-11.1929
送给	-11.1931
扇	-11.1932
无常	-11.1934
特定的	-11.1935
公务员	-11.1935
亲生	-11.1938
有助于你	-11.1941
世俗	-11.1942
更要	-11.1945
尊重和	-11.1949
其实都	-11.1951
心理障碍	-11.1953
暗示自己	-11.1955
小小	-11.1956
患有	-11.1957
头上	-11.1958
一些事	-11.1961
脸上	-11.1962
重度抑郁	-11.1963
非常能理解	-11.1965
谴责	-11.1965
不和谐	-11.1965
叔叔	-11.1965
污	-11.1966
游泳	-11.1967
没有其他	-11.1967
谅解	-11.1967
珍	-11.1968
那是因为	-11.1968
分裂	-11.1969
不是我们	-11.197
上来说	-11.1971
家境	-11.1972
或许是因为	-11.1973
的那一刻	-11.1975
你和她	-11.1978
的心思	-11.1978
琐碎	-11.1986
内疚感	-11.1989
也很好	-11.199
的理论	-11.1993
多余的	-11.1993
来满足	-11.1999
分享一下	-11.2
专业的心理咨询	-11.2
早晚	-11.2002
最高	-11.2004
在工作上	-11.2004
比较严重	-11.2005
很伤心	-11.2007
r	-11.2008
那些人	-11.201
有空	-11.201
需要注意	-11.2012
把时间	-11.2013
也是很正常的	-11.2013
是有原因的	-11.2014
升华	-11.2014
狼	-11.2015
完全是	-11.2015
何不	-11.2016
敬	-11.2016
摊	-11.2016
就是最好的	-11.2016
稀	-11.2018
甩	-11.202
短板	-11.202
指引	-11.2022
更难	-11.2023
像一个	-11.2023
如意	-11.2024
周期	-11.2025
的负面	-11.2026
会有一种	-11.2026
的一些想法	-11.2028
的到来	-11.2029
之人	-11.203
越容易	-11.2033
感到痛苦	-11.2034
也正是	-11.2034
理想化	-11.2038
也确实	-11.204
更高的	-11.204
又不是	-11.204
学习状态	-11.204
离异	-11.2041
输出	-11.2041
学了	-11.2042
多数人	-11.2043
看清楚	-11.2043
也不太	-11.2046
那就要	-11.2046
往前	-11.2048
理会	-11.2048
我们可以通过	-11.2052
自我攻击	-11.2054
渴望被	-11.206
我希望你	-11.2061
邀请你	-11.2062
那么我们就	-11.2064
适度的	-11.2066
有没有想过	-11.2066
高低	-11.2067
行动上	-11.2067
g	-11.2067
尼	-11.2068
拒	-11.2069
柔软	-11.2069
旅程	-11.2069
处理事情	-11.2071
倾述	-11.2071
调整好自己	-11.2071
节目	-11.2073
开阔	-11.2074
可以找到	-11.2074
人类的	-11.2074
前景	-11.2075
缓慢	-11.2077
大脑的	-11.2078
情绪反应	-11.2078
头脑中	-11.2081
角落	-11.2087
年前	-11.2087
有成就感	-11.2089
工作生活	-11.2089
要不然	-11.2091
让大家	-11.2091
我只能	-11.2092
婚姻里	-11.2092
多运动	-11.2092
这背后	-11.2093
敌人	-11.2095
不在于	-11.2096
和无奈	-11.2096
自己独立	-11.2097
默默的	-11.2097
让自己的生活	-11.2098
来往	-11.2099
付出了很多	-11.21
和方法	-11.2102
自体	-11.2102
我爱你	-11.2103
对你产生	-11.2103
相处的时候	-11.2104
把你当	-11.2104
我以前	-11.2105
你只要	-11.2109
人都有	-11.211
引发了	-11.2111
让自己开心	-11.2114
说服自己	-11.2114
躺	-11.2115
伯	-11.2117
压抑的情绪	-11.2118
说教	-11.2118
模	-11.2119
只有一个	-11.2119
暑假	-11.2121
愁	-11.2121
呐	-11.2121
懊悔	-11.2121
发达	-11.2122
壳	-11.2123
提升自我	-11.2125
体现在	-11.213
现有的	-11.2131
很舒服	-11.2131
看看他	-11.2134
出去走走	-11.2136
大小	-11.2139
考证	-11.214
人与人之间的	-11.2141
可以问问	-11.2145
在一起了	-11.2145
时间内	-11.2146
你对她	-11.2147
做错事	-11.2149
的积累	-11.215
必有	-11.215
而是在	-11.215
的方案	-11.2152
善待	-11.2153
对亲密关系	-11.2153
就算你	-11.2154
解决的办法	-11.2158
更强	-11.2161
以后再	-11.2165
床上	-11.2166
消失了	-11.2168
泛	-11.2172
不小的	-11.2172
心理疏导	-11.2172
随着时间的推移	-11.2172
已经发生了	-11.2172
抄	-11.2172
乏	-11.2173
艰辛	-11.2173
互补	-11.2174
简历	-11.2174
碰撞	-11.2175
婚恋	-11.2176
真的想	-11.2177
社会支持	-11.2178
原理	-11.2178
心理层面	-11.2178
”——	-11.2179
的局面	-11.218
很厉害	-11.2181
心理创伤	-11.2184
去对待	-11.2185
状态不好	-11.2186
分离焦虑	-11.2187
自己的边界	-11.2188
你要明白	-11.2188
中午	-11.219
意思是	-11.2191
围	-11.2193
这个工作	-11.2193
亲人的	-11.2206
共情能力	-11.2208
心理能量	-11.2209
很困难	-11.221
绝大多数	-11.2211
为什么会有	-11.2212
一眼	-11.2213
洋	-11.2213
成绩不好	-11.2214
每日	-11.2214
毕竟我们	-11.2215
第六	-11.2219
别说	-11.2221
伸	-11.2222
没有对错	-11.2222
季	-11.2223
有好处	-11.2224
哪儿	-11.2224
领悟	-11.2225
竭	-11.2225
挂科	-11.2225
您说的	-11.2226
的时代	-11.2226
防备	-11.2226
笃定	-11.2227
喜欢对方	-11.2228
半夜	-11.2229
对别人的	-11.2232
独立性	-11.2233
心理方面	-11.2235
那句话	-11.2235
对自己的看法	-11.2237
60	-11.2241
一对	-11.2242
没有人能	-11.2243
视为	-11.2243
工作内容	-11.2244
种子	-11.2248
考虑清楚	-11.2251
做成	-11.2251
被动的	-11.2252
都喜欢	-11.2255
开心快乐	-11.2255
检	-11.2255
谈谈心	-11.2256
早日摆脱	-11.2256
在于你	-11.2257
他们之间	-11.2259
和信任	-11.226
改变一下	-11.226
可以一起	-11.2261
最亲近的人	-11.2261
舒适圈	-11.2265
同时也要	-11.2266
你知道吗	-11.227
和期待	-11.2272
一个成年人	-11.2274
瓶	-11.2274
没有找到	-11.2276
境界	-11.2278
场所	-11.2278
幼年	-11.2279
几个小建议	-11.2281
幻	-11.2281
谈了	-11.2281
立即	-11.2282
你的女朋友	-11.2282
但是对于	-11.2284
莫名其妙	-11.2285
修养	-11.2285
会怎么样	-11.2287
自己的错误	-11.2288
此事	-11.2288
说了算	-11.229
相处过程中	-11.2291
是不可能的	-11.2292
现在的工作	-11.2294
如果一直	-11.2296
的情感需求	-11.23
攻击自己	-11.2301
看看书	-11.2301
最好的选择	-11.2301
片面	-11.2302
依恋关系	-11.2304
打乱	-11.2305
让他知道	-11.2309
希望你们	-11.2309
一些比较	-11.231
父母的爱	-11.2311
自己的成长	-11.2315
认真思考	-11.2315
建立自己的	-11.2318
你觉得你	-11.2319
完美的人	-11.232
没有信心	-11.232
可能不是	-11.2321
上级	-11.2321
的相处中	-11.2322
奥	-11.2323
这么久	-11.2324
要不	-11.2324
超出了	-11.2326
你的这种	-11.2328
的真相	-11.233
惧怕	-11.2332
拳	-11.2332
侧面	-11.2332
理解了	-11.2333
自暴自弃	-11.2333
做什么都	-11.2335
已经过去了	-11.2336
亲密的人	-11.2337
做这件事	-11.2337
共处	-11.2338
愿意为	-11.2338
和他一起	-11.2341
你当时	-11.2342
考不上	-11.2342
自己的焦虑	-11.2343
这一生	-11.2345
和身体	-11.2346
不能完全	-11.2348
都是我们	-11.235
情感需求	-11.2351
有很好的	-11.2356
弱点	-11.2356
发光	-11.2357
瘾	-11.2357
但从	-11.236
你的工作	-11.2361
你有什么	-11.2362
小家庭	-11.2363
他是不是	-11.2367
我们才能	-11.2369
优缺点	-11.2372
和价值	-11.2372
离开他	-11.2373
能感觉到你	-11.2374
祝题主	-11.2379
纵	-11.238
情绪上的	-11.238
的音乐	-11.2381
铺	-11.2382
窒息	-11.2382
虚伪	-11.2383
原生家庭中	-11.2383
迷恋	-11.2384
守护	-11.2384
别的事情	-11.2384
挡	-11.2385
悄悄	-11.2385
可想而知	-11.2385
答复	-11.2386
找朋友	-11.2388
找咨询师	-11.2388
我觉得这	-11.2389
用一种	-11.2389
不可否认	-11.2389
你还没有	-11.239
顺应	-11.239
可以理解的	-11.2391
看到的是	-11.2393
听听音乐	-11.2394
母爱	-11.2394
真的喜欢	-11.2396
没有价值	-11.2396
别人对你的	-11.2398
给他人	-11.2401
中获得	-11.2401
都是因为	-11.2401
而活	-11.2403
下意识的	-11.2403
买东西	-11.2404
大三	-11.2405
参	-11.2405
期望值	-11.2408
取向	-11.241
很矛盾	-11.2411
境遇	-11.2412
的热情	-11.2413
学会拒绝	-11.2414
把别人	-11.2416
早日走出	-11.2416
妇	-11.2417
......”	-11.2417
以后会	-11.2419
对你的爱	-11.242
可以避免	-11.242
情形	-11.242
心平气和的	-11.2421
去参加	-11.2421
不爱我	-11.2422
对应的	-11.2424
更严重	-11.2426
29	-11.2426
探究	-11.2428
先让自己	-11.2431
一直处于	-11.2431
律	-11.2431
的对话	-11.2431
书本	-11.2433
在意他人	-11.2435
夸赞	-11.2437
饰	-11.2437
牢固	-11.2438
逢	-11.2438
批	-11.2438
点个赞	-11.2439
职业生涯	-11.2439
粉	-11.244
变故	-11.244
那天	-11.244
要比	-11.2441
繁	-11.2443
表明你	-11.2443
每一步	-11.2444
地说	-11.2445
亲亲	-11.2446
逼自己	-11.2446
重新认识	-11.2447
愿不愿意	-11.2447
可以尝试一下	-11.2448
潜在	-11.245
文学	-11.245
把精力	-11.2451
各有	-11.2452
任何事情都	-11.2452
觉得自己不够好	-11.2454
平时多	-11.2456
表达情绪	-11.2457
对自己好	-11.2457
怎么处理	-11.2459
独立生活	-11.2459
有利的	-11.246
这就需要	-11.246
个小时	-11.2464
我感到	-11.2464
不愿意去	-11.2464
你一定要	-11.2464
两难	-11.2465
楼主可以尝试	-11.2466
妨碍	-11.2466
耍	-11.2467
好看的	-11.2467
说出自己	-11.2468
原生家庭的影响	-11.2471
每一种	-11.2472
也是为了	-11.2474
的负担	-11.2474
我们一起来	-11.2475
因为这些	-11.2475
大家都是	-11.2482
去应对	-11.2482
走上	-11.2483
捡	-11.2489
服用	-11.249
产品	-11.249
矫情	-11.2493
把情绪	-11.2493
户外	-11.2493
是否存在	-11.2493
功夫	-11.2494
争论	-11.2495
期盼	-11.2496
不太清楚	-11.2497
好的结果	-11.2497
热闹	-11.2498
自己的身上	-11.2498
相亲对象	-11.2498
自己想要什么	-11.2503
图书馆	-11.2503
问答	-11.2504
去体会	-11.2506
爱孩子	-11.2507
下午	-11.2507
自己的学习	-11.2508
机遇	-11.2508
任何一个人	-11.2511
没有用	-11.2513
这个事	-11.2516
日常生活中	-11.2517
专业的咨询师	-11.2519
应该会	-11.252
适时	-11.252
自卑心理	-11.2522
生活费	-11.2523
保持着	-11.2526
一个小小的	-11.2526
多多地	-11.2528
你的故事	-11.2528
身高	-11.253
的自尊	-11.2532
小事情	-11.2533
能解决	-11.2535
宜	-11.2536
跟我说	-11.2539
非常能够理解	-11.2539
一体	-11.254
冠	-11.2541
掌	-11.2541
多了解	-11.2542
饮	-11.2543
郁	-11.2544
姑	-11.2545
犯罪	-11.2547
做自己喜欢的事	-11.2547
环节	-11.2547
如你	-11.2548
保密	-11.2548
症结	-11.2548
是不是自己	-11.2549
无心	-11.2551
去解决问题	-11.2552
我心里	-11.2553
在成长的过程中	-11.2553
最好的办法	-11.2554
做的很好	-11.2554
这对于	-11.2557
根本原因	-11.2557
已经过去	-11.2558
探索自己	-11.2559
这种模式	-11.256
到医院	-11.2563
不善	-11.2565
关心自己	-11.2569
接受他	-11.257
我们自身	-11.2575
控制感	-11.2575
花了	-11.2576
其他同学	-11.2576
的心意	-11.2582
我在这里	-11.2583
自己的底线	-11.2584
这一部分	-11.2585
你好像	-11.2585
我们必须	-11.2585
已经发生	-11.2587
正常的现象	-11.2587
你一定会	-11.2587
习惯性的	-11.2589
给自己一点	-11.259
在家庭	-11.259
你也不会	-11.2593
就不用	-11.2594
找到原因	-11.2595
一回	-11.2596
峰	-11.2597
泥	-11.2598
顺序	-11.2599
屈	-11.26
孤僻	-11.26
居然	-11.26
任何人都	-11.2601
权益	-11.2601
选择性	-11.2601
可以理解为	-11.2602
兼顾	-11.2602
的场合	-11.2603
我们可以试着	-11.2604
务	-11.2607
万物	-11.2607
真实感受	-11.2611
有耐心	-11.2612
这几年	-11.2613
很多事情都	-11.2613
等情绪	-11.2614
带给我们	-11.2614
这件	-11.2615
对母亲	-11.2617
适应环境	-11.2619
也会觉得	-11.262
看见你	-11.262
好好想想	-11.2621
我说的	-11.2622
沟通和交流	-11.2625
有能力去	-11.2627
与外界	-11.2628
第一反应	-11.263
不佳	-11.263
疗愈自己	-11.2631
的转变	-11.2631
时间和空间	-11.2633
存在于	-11.2634
把它们	-11.2634
一点都不	-11.2637
你完全可以	-11.2638
与其说	-11.264
如果是因为	-11.264
你不用	-11.2642
方式方法	-11.2646
去接触	-11.2646
去寻求	-11.2647
孕	-11.2647
的思维模式	-11.2647
腰	-11.265
颗	-11.265
本事	-11.2652
映	-11.2652
侮辱	-11.2652
对过去	-11.2652
看你的描述	-11.2653
英雄	-11.2653
炼	-11.2654
鸡汤	-11.2654
筛选	-11.2654
想死	-11.2655
欣慰	-11.2656
断绝	-11.2657
这样下去	-11.2658
的魅力	-11.2658
社交圈	-11.2659
数字	-11.266
不太喜欢	-11.2664
是有价值的	-11.2666
落后	-11.2669
老家	-11.2673
丰	-11.2673
的境地	-11.2676
嫁给	-11.2677
活出自己	-11.2679
强迫行为	-11.268
说到底	-11.2681
和认可	-11.2681
的灵魂	-11.2683
分心	-11.2686
什么事都	-11.2687
在同一个	-11.2687
既有	-11.269
自己的朋友	-11.2694
可以思考一下	-11.2698
问题分析	-11.2699
妄想	-11.2699
你俩	-11.27
在描述中	-11.2701
有观察到楼主	-11.2708
可以做一些	-11.2708
失衡	-11.2709
所以现在	-11.271
单单	-11.271
以一种	-11.271
港	-11.2711
猛	-11.2711
跳舞	-11.2711
从您的描述中	-11.2712
赌博	-11.2712
发生性关系	-11.2713
观察一下	-11.2714
得很好	-11.2714
的结局	-11.2714
夜晚	-11.2715
格外	-11.2715
淡化	-11.2717
过程当中	-11.272
我的感受	-11.272
的顾虑	-11.2721
懂你	-11.2721
你的原生家庭	-11.2722
非常棒	-11.2723
头痛	-11.2724
想问	-11.2725
生理上的	-11.2725
更多是	-11.2727
主动权	-11.2729
起了	-11.2729
并不是一个	-11.2731
去问	-11.2732
也可以找	-11.2732
不相信自己	-11.2737
的手段	-11.2739
不匹配	-11.274
很难改变	-11.274
会给你带来	-11.2742
应该怎么做	-11.2742
原谅自己	-11.2742
的隐私	-11.2743
想想看	-11.2744
生出	-11.2745
待着	-11.2745
都只是	-11.2745
获	-11.2749
影响我们	-11.275
所需要的	-11.2753
一个女生	-11.2753
要及时	-11.2754
总感觉	-11.2756
对视	-11.2756
心累	-11.2757
生命力	-11.2757
冒犯	-11.2757
你可以试试	-11.2758
没有勇气	-11.276
对方的感受	-11.2761
腾	-11.2762
也容易	-11.2763
擦	-11.2764
是一名	-11.2765
偏激	-11.2766
副作用	-11.2767
憋在心里	-11.2767
希望我的回答可以帮助到你	-11.2767
丢失	-11.2768
Karen	-11.2768
就不会有	-11.2768
感受到自己	-11.2772
这样一种	-11.2774
有很强的	-11.2775
进行调整	-11.2776
拆	-11.278
治疗师	-11.2781
楼主想要	-11.2781
首先你要	-11.2782
偏向	-11.2782
生涯	-11.2782
造成伤害	-11.2785
您现在	-11.2786
能够让你	-11.2787
把这件事	-11.2787
帮助他们	-11.2788
陌生的	-11.2791
惩罚自己	-11.2791
到位	-11.2791
说明楼主	-11.2793
对你的评价	-11.2794
良性	-11.2794
但不能	-11.2795
赖	-11.2796
试过	-11.2797
比他	-11.2797
的回复	-11.2798
做真实的自己	-11.2799
自己的爱好	-11.2799
明智	-11.28
一直都是	-11.28
还是建议	-11.2801
不会轻易	-11.2802
也未必	-11.2804
不理解你	-11.2807
你是怎么	-11.2811
意味	-11.2812
不要用	-11.2814
全是	-11.2816
不得不说	-11.2817
温馨	-11.282
减弱	-11.2821
而是因为	-11.2822
什么样子	-11.2823
不知道该	-11.2824
挑选	-11.2824
依然会	-11.2825
诚意	-11.2825
好过	-11.2829
正当	-11.2829
简直	-11.283
不敢表达	-11.283
打球	-11.2831
去觉察	-11.2833
培养自己的	-11.2833
正规的	-11.2833
的时间里	-11.2834
在这段	-11.2839
我们往往	-11.284
和关心	-11.2841
想到的	-11.2844
:【	-11.2845
好好生活	-11.2848
亲密的关系	-11.2849
多参加	-11.2853
内心的声音	-11.2853
潜能	-11.2854
有句话说	-11.2855
不敢去	-11.2855
题主说的	-11.2855
好吃的	-11.2856
去承担	-11.2858
这一个	-11.2859
常说	-11.286
你还会	-11.2863
偏偏	-11.2865
给与	-11.2868
大哭	-11.287
刘	-11.2872
拜	-11.2875
老了	-11.2875
从楼主的描述中	-11.2875
方方面面	-11.2877
概括	-11.2877
撩	-11.2877
无形的	-11.2878
苦闷	-11.2878
我觉得题主	-11.2878
根本没有	-11.288
你的担心	-11.288
上帝	-11.2881
刚才	-11.2881
刚毕业	-11.2882
准则	-11.2883
返	-11.2886
很遗憾	-11.2887
安慰自己	-11.2888
这个平台	-11.2891
人体	-11.2894
有目标	-11.2897
我也有过	-11.2897
你渴望	-11.2897
坚	-11.2897
想要的是什么	-11.2901
您觉得	-11.2901
专业知识	-11.2902
条路	-11.2903
就诊	-11.2903
方面的问题	-11.2904
不放弃	-11.2904
分享给你	-11.2907
麻烦别人	-11.2909
未完成	-11.2909
亲密感	-11.291
很多人都会有	-11.2911
可以感受到你的	-11.2915
又是什么	-11.2915
希望他们	-11.2917
现实中的	-11.2918
父爱	-11.2919
我不会	-11.2923
在家庭中	-11.2923
的投射	-11.2924
知己	-11.2927
乏味	-11.2928
你要学会	-11.293
倦怠	-11.293
和力量	-11.293
欢乐	-11.293
我想告诉你	-11.2932
网站	-11.2933
兰	-11.2933
这段经历	-11.2934
耳朵	-11.2934
亏欠	-11.2935
试想一下	-11.2936
给你一个拥抱	-11.2936
还记得	-11.2939
这说明你	-11.294
进入到	-11.2941
吸引你	-11.2942
住校	-11.2943
进行一些	-11.2944
就会越来越	-11.2944
有类似	-11.2945
另外一方面	-11.2949
相信我	-11.2949
有人在	-11.2949
打开自己	-11.2949
就好比	-11.295
同样也	-11.2953
别人的想法	-11.2954
你们关系	-11.2956
联系方式	-11.2962
继续努力	-11.2963
娘家	-11.2964
并不可怕	-11.2965
自己的长处	-11.2966
他也会	-11.2969
足够的安全感	-11.2969
采	-11.297
紧张焦虑	-11.2972
三件事	-11.2972
的儿子	-11.2973
受影响	-11.2974
这样的经历	-11.2974
你们现在	-11.2977
面上	-11.2977
予	-11.2978
可能会觉得	-11.2978
这是非常	-11.298
漂	-11.2983
择	-11.2985
让你产生	-11.2986
暴饮暴食	-11.2987
活着的意义	-11.2988
抱歉	-11.2988
龙	-11.2989
太重	-11.2989
结识	-11.299
迈出第一步	-11.2992
推荐一本书	-11.2992
历程	-11.2992
因为你们	-11.2992
开展	-11.2993
你的性格	-11.2994
明确自己	-11.2996
分清楚	-11.2997
可能还会	-11.2998
一定不要	-11.2998
和评价	-11.2999
晋升	-11.2999
和室友	-11.3
圆满	-11.3005
问过	-11.3005
情绪稳定	-11.3006
我们常常	-11.3006
因为这是	-11.3008
可贵	-11.3009
增添	-11.3012
也没有办法	-11.3012
这样的生活	-11.3013
完善自己	-11.3013
已经成为	-11.3013
不想让	-11.3014
有利	-11.3015
的情绪反应	-11.3016
多交流	-11.3017
辩	-11.3018
的消息	-11.3019
类似的情况	-11.3019
加之	-11.302
而是我们	-11.3025
又有什么	-11.3026
找他	-11.3027
一想到	-11.3028
受损	-11.3031
无情	-11.3035
似的	-11.3039
做不了	-11.3042
不说话	-11.3043
又怎么	-11.3043
来面对	-11.3043
捏	-11.3044
战斗	-11.3044
超级	-11.3045
专升本	-11.3046
姨	-11.3046
委	-11.3046
报告	-11.3046
功利	-11.3046
梦境	-11.3047
懊恼	-11.3047
回答问题	-11.3047
真正地	-11.3047
解压	-11.3048
退一步	-11.3049
的事儿	-11.305
性需求	-11.3052
的结论	-11.3055
建议可以	-11.3055
七年	-11.3056
想做的	-11.3057
在表达	-11.3059
关系模式	-11.3063
开心的事	-11.3064
学会去	-11.3066
的情形	-11.3067
很多年	-11.3068
需要改变	-11.307
足够好	-11.3073
倾诉一下	-11.3075
不管怎么样	-11.3077
喜欢吃	-11.3077
渐渐的	-11.3078
在学校里	-11.3079
责任心	-11.3079
生产	-11.308
是怎样的呢	-11.3082
这一段	-11.3084
太难	-11.3085
考上了	-11.3086
导致我们	-11.3088
存在的意义	-11.3091
候	-11.3092
老师说	-11.3092
调和	-11.3092
越发	-11.3092
你觉得他	-11.3094
助人	-11.3094
不放	-11.3094
特别喜欢	-11.3095
过得好	-11.3096
无疑	-11.3096
公共	-11.3096
固	-11.3096
一笑	-11.3096
唤起	-11.3097
自助	-11.3099
恐	-11.3099
自制力	-11.31
箱	-11.31
虫	-11.3102
跳槽	-11.3102
叨	-11.3103
街	-11.3103
至关重要	-11.3103
收集	-11.3104
也许你会	-11.3104
舍弃	-11.3105
罪恶感	-11.3105
最好的方法	-11.3105
成长的过程	-11.3106
瓶颈	-11.3106
自己的思维	-11.3106
任由	-11.311
你提到的	-11.311
这样的自己	-11.3111
过分的	-11.3116
坏了	-11.3116
看见自己	-11.3121
说谎	-11.3122
学习好	-11.3125
和平	-11.3125
保持一个	-11.3126
祝愿你	-11.3129
对这件事	-11.313
他们的想法	-11.3131
心中有	-11.3132
际	-11.3135
初心	-11.3137
”(	-11.3138
这些感受	-11.3138
第三者	-11.3139
又不想	-11.3139
想象的那么	-11.314
的性格特点	-11.3145
的痛苦和	-11.3145
契机	-11.3145
也不错	-11.3149
财	-11.3149
来帮助你	-11.3152
的局限	-11.3152
确实需要	-11.3155
豆	-11.3155
最容易	-11.3155
相对于	-11.3159
传播	-11.3159
雪	-11.3159
熊	-11.316
从题主的	-11.316
制止	-11.3161
也有自己的	-11.3161
不是问题	-11.3161
胆怯	-11.3161
积攒	-11.3162
产生一种	-11.3162
接受它	-11.3162
比例	-11.3163
认真看完你的倾诉	-11.3163
志同道合的朋友	-11.3163
深入了解	-11.3164
试错	-11.3166
调解	-11.3166
出发点	-11.3167
被欺负	-11.3169
会失去	-11.3172
意识不到	-11.3173
升学	-11.3173
不知道怎么办	-11.3175
研	-11.3175
写信	-11.3175
被打	-11.3182
你的目标	-11.3182
对他来说	-11.3183
对自己负责	-11.3183
熬过	-11.3185
满足自己的	-11.3185
当天	-11.3186
你是一个很	-11.3186
是没有办法	-11.3186
脾气暴躁	-11.3187
交流沟通	-11.3187
居住	-11.3188
身体里	-11.319
看待对待	-11.3191
非常理解你	-11.3193
与父亲	-11.3193
三天	-11.3193
多些	-11.3195
底层	-11.3195
是吧	-11.3196
性子	-11.3197
问题的根源	-11.3197
题主目前	-11.32
积极主动	-11.3202
之类	-11.3202
启	-11.3203
很重	-11.3205
很讨厌	-11.3205
会引发	-11.3205
是相互的	-11.3205
应该做的	-11.3206
不会被	-11.3206
二者	-11.3207
眠	-11.3211
无条件的爱	-11.3211
弃	-11.3212
越想	-11.3212
监	-11.3213
虚拟	-11.3217
强加	-11.3217
挣脱	-11.3218
无限的	-11.3218
谦虚	-11.3219
组建	-11.3219
是很正常的事情	-11.3219
沉淀	-11.3219
在那个	-11.322
较少	-11.3221
诱发	-11.3222
回来了	-11.3222
一次次的	-11.3222
教养	-11.3225
数量	-11.3228
的眼神	-11.3229
全都	-11.323
内心中	-11.3231
祝楼主	-11.3232
跟不上	-11.3236
最初的	-11.3236
我们之所以	-11.3237
安慰你	-11.3238
欣赏你	-11.324
百度	-11.3241
再怎么	-11.3242
这个行业	-11.3245
为什么不能	-11.3248
帮助他人	-11.3251
热心	-11.3252
这种痛苦	-11.3252
在日常	-11.3253
看看是否	-11.3254
做的好	-11.3258
每天都在	-11.3262
非常痛苦	-11.3262
也是我们	-11.3263
欣赏自己	-11.3266
就有可能	-11.3266
潮	-11.3269
仔细想想	-11.327
和领导	-11.327
因为每个人	-11.3272
船	-11.3273
仰	-11.3274
的必要	-11.3276
席	-11.3276
赏	-11.3277
E	-11.3277
参照	-11.3278
不听话	-11.3278
在婚姻中	-11.3278
他的想法	-11.3281
归属	-11.3284
楼主目前	-11.3286
强迫思维	-11.3287
不好的情绪	-11.3287
要做好	-11.3289
流行	-11.3291
有错	-11.3292
一个家庭	-11.3295
三个人	-11.3296
带入	-11.3297
一堆	-11.3297
一部	-11.3297
考不好	-11.3299
非常大	-11.3305
考好	-11.3306
承受着	-11.3306
心理因素	-11.3307
自己的需要	-11.3307
听取	-11.3312
这也是你	-11.3313
驱	-11.3314
就必须	-11.3317
在不同的	-11.3317
青春期的孩子	-11.3318
好意	-11.3322
有好的	-11.3325
考虑过	-11.3325
回想起	-11.3326
开头	-11.3326
班里	-11.3327
是值得被爱的	-11.3329
来决定	-11.3331
颜	-11.3331
媒体	-11.3333
的几率	-11.3334
财务	-11.3334
荷尔蒙	-11.3334
不知道你们	-11.3335
是什么样子的	-11.3335
隔着屏幕	-11.3335
奶茶	-11.3335
拨	-11.3336
调查	-11.3337
多点	-11.3338
和别人交流	-11.3339
那你可以	-11.3339
拥有了	-11.3339
遭	-11.3341
其实并不	-11.3341
也只有	-11.3341
双向	-11.3342
别人的眼光	-11.3343
都能够	-11.3344
以致	-11.3346
竞争力	-11.3348
你很想	-11.335
没有太多	-11.335
也可能会	-11.3354
楼主内心的	-11.3356
咨询关系	-11.3358
留下来	-11.336
能改变的	-11.3361
需要你去	-11.3362
美好的事情	-11.3362
乃至	-11.3362
和认知	-11.3362
跟他说	-11.3363
用语言	-11.3365
把手	-11.3366
讨厌的人	-11.3366
承	-11.3369
推开	-11.337
被老师	-11.337
可能会让你	-11.3373
喜不喜欢	-11.3376
离婚了	-11.3377
不方便	-11.3378
述	-11.3378
并非是	-11.3379
所学	-11.3381
这一切都	-11.3382
很复杂	-11.3384
普	-11.3385
理解他们	-11.3385
都是一个	-11.3387
他们也会	-11.3388
绳	-11.3388
快要	-11.3389
源头	-11.339
我的理解	-11.339
这些年	-11.339
危	-11.339
窝	-11.3391
洞	-11.3391
表象	-11.3392
很受伤	-11.3394
I	-11.3394
研究表明	-11.3394
一下子就	-11.3395
剖析	-11.3395
看完了你的叙述	-11.3395
纯洁	-11.3395
共勉	-11.3396
希望孩子	-11.3397
某件事情	-11.3397
互相尊重	-11.3397
早恋	-11.3397
进取	-11.3398
命令	-11.34
自救	-11.3402
又不能	-11.3406
比较低	-11.3406
不公	-11.3407
的恋情	-11.3415
我想题主	-11.3417
了解她	-11.3417
为中心	-11.3424
存在一些	-11.3427
万事	-11.3427
别人身上	-11.3427
天地	-11.3427
———	-11.3429
好玩	-11.3429
处女	-11.3429
什么地方	-11.343
不分	-11.3431
和弟弟	-11.3434
依然是	-11.3434
只知道	-11.3436
变成一个	-11.3437
只要你愿意	-11.3439
从业	-11.344
正确认识	-11.344
烦心事	-11.3441
仅仅只是	-11.3441
所影响	-11.3443
比较大的	-11.3443
浓	-11.3444
享	-11.3445
22	-11.3445
肢体	-11.3448
用力	-11.3449
夹	-11.3449
没啥	-11.345
腔	-11.345
癌症	-11.345
很多人都会	-11.3451
一见钟情	-11.3452
扶	-11.3453
从根本上	-11.3453
摘	-11.3454
迎刃而解	-11.3455
悬	-11.3456
智力	-11.3456
祝你生活愉快	-11.3456
噪音	-11.346
就这么	-11.3461
眼下	-11.3463
认真对待	-11.3464
给你带来的	-11.3464
和一个	-11.3465
但它	-11.3465
和前任	-11.3466
的成分	-11.3467
某一天	-11.3467
不健康的	-11.3469
请相信	-11.347
当他们	-11.347
来判断	-11.3472
养育孩子	-11.3473
不要把自己	-11.3476
是一件非常	-11.3477
26	-11.3477
姿态	-11.3477
很大一部分	-11.3477
岁的时候	-11.348
。️️	-11.3483
安定	-11.3484
两面	-11.3484
让他人	-11.3487
越来越少	-11.3488
来说都是	-11.3489
离开家	-11.349
是有一定	-11.3492
可以缓解	-11.3493
多接触	-11.3494
说一句	-11.3495
过去的自己	-11.3498
再好	-11.3499
不太一样	-11.35
感受到了你	-11.3502
细细	-11.3505
不必要	-11.3508
?1、	-11.3509
想找	-11.3509
兄弟姐妹	-11.3511
🤩	-11.3511
孔	-11.3511
迷惑	-11.3512
固执	-11.3512
馆	-11.3513
臭	-11.3513
得到什么	-11.3514
性关系	-11.3519
上心	-11.3519
以上是我的分析和建议	-11.3521
天然	-11.3524
温度	-11.3525
祝愿	-11.3528
内心的需求	-11.3529
很可能是	-11.3536
回避型依恋	-11.3537
天性	-11.3539
会有所	-11.354
人和事	-11.354
适	-11.3544
也可以多	-11.3544
可以试着去	-11.3545
对这段感情	-11.3547
要强	-11.3549
多想想	-11.3554
或许能	-11.3555
尚未	-11.3558
你做的	-11.3561
不要太过	-11.3561
事务	-11.3562
制定一个	-11.3565
授	-11.3567
爱对方	-11.3569
更换	-11.357
润	-11.3571
辱骂	-11.3571
不满足	-11.3571
欺凌	-11.3572
是完美的	-11.3572
骑	-11.3573
堆积	-11.3573
太累了	-11.3573
对于父母	-11.3575
提出分手	-11.3577
向她	-11.3578
的前提是	-11.3579
这个结果	-11.3579
应该怎么	-11.3581
入职	-11.3582
想的那么	-11.3582
来改变	-11.3583
基础上	-11.3584
耻	-11.3584
需要更多的	-11.3585
好孩子	-11.3588
隐藏着	-11.3589
闹矛盾	-11.3589
主动地	-11.3589
一点小	-11.359
生怕	-11.3591
无所	-11.3591
优点和缺点	-11.3592
把控	-11.3592
何时	-11.3597
了解孩子	-11.3597
你不必	-11.3597
那我们就	-11.3598
动起来	-11.36
空白	-11.3601
吸引到	-11.3601
有病	-11.3604
分开了	-11.3605
来分析	-11.3605
唯	-11.3606
高中的时候	-11.3607
自己对自己的	-11.3607
小组	-11.3607
出色	-11.3608
调理	-11.3611
自己想要的生活	-11.3614
莫名	-11.3614
》《	-11.3618
有了孩子	-11.3619
伤心难过	-11.3619
持续了	-11.3622
迟	-11.3627
不着急	-11.3627
接收到	-11.363
N	-11.363
屋	-11.363
困在	-11.3632
歇	-11.3633
过着	-11.3633
有个人	-11.3633
鸭	-11.3633
在人际关系中	-11.3634
冥想练习	-11.3634
称赞	-11.3634
这个时间	-11.3635
揭	-11.3635
M	-11.3635
我愿意	-11.3636
希望我的回答对你有帮助	-11.3636
路人	-11.3637
・)	-11.3639
如何做	-11.3639
轻度	-11.3639
儿时	-11.364
继而	-11.3644
与现实	-11.3644
本心	-11.3647
学习如何	-11.3647
才是最好的	-11.3648
被控制	-11.365
表现出来的	-11.3652
干活	-11.3653
生死	-11.3653
心理科	-11.3656
当你觉得	-11.3656
这两者	-11.3656
藏着	-11.3658
不恰当	-11.3659
的源头	-11.3659
婆家	-11.3659
的借口	-11.3662
几分钟	-11.3666
很多父母	-11.3668
跟我们	-11.3671
痛快	-11.3672
小伙伴	-11.3675
每个月	-11.3676
被忽略	-11.368
名字	-11.3681
不能再	-11.3682
神奇	-11.3688
举例	-11.3689
可以做的	-11.3689
恶劣	-11.3689
影响了你的	-11.3689
胡	-11.3692
揣测	-11.3692
社区	-11.3693
湾	-11.3693
平安	-11.3693
宣	-11.3693
传染	-11.3693
票	-11.3693
瞎	-11.3693
携手	-11.3694
一件小事	-11.3695
挽留	-11.3695
个问题	-11.3697
大问题	-11.3699
那个男生	-11.37
信任的朋友	-11.3702
你可以多	-11.3703
太太	-11.3703
去认识	-11.3704
会想到	-11.3704
面对这样的	-11.3704
的出发点	-11.3705
丝毫	-11.3706
感到孤独	-11.3707
自己曾经	-11.3708
感到自己	-11.3708
异性恋	-11.3709
没有看到	-11.3709
既可以	-11.3709
恐惧症	-11.3711
一切顺利	-11.3712
最好不要	-11.3715
地点	-11.3716
更不要	-11.3716
跳出来	-11.3717
经济能力	-11.3718
以为自己	-11.372
更有利于	-11.372
小三	-11.3721
行为习惯	-11.3721
不考虑	-11.3723
是真实的	-11.3726
社交活动	-11.3729
的姿态	-11.373
在咨询中	-11.3733
宝贵	-11.3734
不能解决	-11.3737
我有一个	-11.3741
你提到了	-11.3742
不由自主	-11.3742
值得我们	-11.3742
不离婚	-11.3742
输了	-11.3742
学习到	-11.3744
继	-11.3745
三十	-11.3746
漂亮的	-11.3748
其中一个	-11.3748
不解	-11.3749
仪式	-11.375
冒险	-11.3752
孙	-11.3752
那也是	-11.3753
被讨厌的勇气	-11.3753
娇	-11.3753
一起探讨	-11.3753
一两个	-11.3753
阐述	-11.3754
预料	-11.3754
不建议	-11.3755
语音	-11.3756
减退	-11.3756
疑虑	-11.3756
全世界	-11.3756
希望我的回答对你有所帮助	-11.3757
标志	-11.3758
最坏的结果	-11.3758
人际关系中	-11.3759
这种时候	-11.3761
无法承受	-11.3761
自己的立场	-11.3762
长处	-11.3762
都有一个	-11.3763
你的未来	-11.3765
运	-11.3766
楼主也可以	-11.3769
留学	-11.3773
也是一样	-11.3773
还是挺	-11.3773
节点	-11.3775
陪伴着	-11.3778
自己的小	-11.3779
不自觉地	-11.3781
益处	-11.3782
社会功能	-11.3782
有一段时间	-11.3784
闪光点	-11.3785
姐夫	-11.379
勇敢面对	-11.3791
拖着	-11.3797
让自己陷入	-11.3797
从你的描述里	-11.3801
寻找到	-11.3801
有害	-11.3804
13	-11.3804
伦	-11.3806
抗争	-11.3807
多说	-11.3807
都是一样的	-11.381
幻觉	-11.3813
仍旧	-11.3814
兽	-11.3814
昏	-11.3814
⇨⇨	-11.3816
憋屈	-11.3816
达到了	-11.3817
来看看	-11.3818
害怕失败	-11.3819
石头	-11.382
重新审视	-11.3822
感情基础	-11.3822
被批评	-11.3823
生意	-11.3823
不要过度	-11.3825
自然是	-11.3826
自己的思想	-11.3828
也有过	-11.3828
诊	-11.3828
不清楚你	-11.383
的意志	-11.383
广泛	-11.3831
最为	-11.3832
感谢你	-11.3833
被看到	-11.3834
暴力倾向	-11.3835
得住	-11.3836
不必太	-11.3836
有人喜欢	-11.3836
常人	-11.3838
你和你的	-11.3839
生理需求	-11.3839
讨厌你	-11.3839
请假	-11.384
可以利用	-11.3841
既能	-11.3841
探索一下	-11.3842
仍然是	-11.3843
按照你	-11.3849
跟老师	-11.3851
我们能做的	-11.3853
会影响我们	-11.3854
自己做主	-11.3855
无知	-11.3855
工作压力	-11.3857
压抑着	-11.3857
增加自己的	-11.3858
两个问题	-11.3858
他却	-11.3859
这个道理	-11.3862
(3)	-11.3863
有没有可能	-11.3863
尊重对方	-11.3866
的喜好	-11.387
。)4、	-11.3871
建立自信	-11.3872
量表	-11.3875
闹钟	-11.3875
一个男生	-11.3875
规避	-11.3876
唤醒	-11.3876
折腾	-11.3877
易怒	-11.3877
捆绑	-11.3877
更合适	-11.3877
荒	-11.3877
伤了	-11.3878
废物	-11.3878
轻微	-11.3878
收费	-11.3879
轻轻	-11.388
生下来	-11.3882
问一问	-11.3883
交代	-11.3883
几句话	-11.3885
犯错误	-11.3889
发生的事	-11.3891
辅导员	-11.3891
摆正	-11.3893
不断学习	-11.3893
职业发展	-11.3893
一个小时	-11.3899
身体状况	-11.3899
有些东西	-11.39
的心声	-11.39
可能会出现	-11.3908
这是他	-11.391
成立	-11.3911
坦然面对	-11.3912
除非你	-11.3912
给予我们	-11.3913
美丽的	-11.3914
所经历的	-11.3914
回忆起	-11.3917
副	-11.3918
这个部分	-11.3919
值得肯定	-11.3921
能感受到题主	-11.3921
在寻找	-11.3922
年少	-11.3922
贬	-11.3924
可能不会	-11.3928
年轻的时候	-11.3929
就如同	-11.3929
你爸妈	-11.3931
更倾向于	-11.3933
就是这样的	-11.3934
一同	-11.3934
乳	-11.3935
虐	-11.3935
旋	-11.3936
刚刚开始	-11.3936
夫妻双方	-11.3937
鲁	-11.3937
追逐	-11.3937
悠	-11.3939
歧视	-11.3939
嘴巴	-11.3939
让你产生了	-11.394
秀	-11.394
运转	-11.394
吸烟	-11.3941
缠	-11.3941
楼主不妨	-11.3942
一群	-11.3942
的方向发展	-11.3944
为自己而活	-11.3944
要承担	-11.3945
阵	-11.3945
成为你的	-11.3945
多年的	-11.3946
终生	-11.3946
激烈的	-11.3947
学霸	-11.3947
生活节奏	-11.3948
心理阴影	-11.3948
同理	-11.3949
绝对化	-11.3949
这种事	-11.395
如果是这样的话	-11.3959
可以想象	-11.396
通过学习	-11.3962
可以感觉到	-11.3963
取决于你	-11.3964
也曾	-11.3966
我看到了你	-11.3966
心理活动	-11.3967
需要做的就是	-11.398
过一段时间	-11.398
可能觉得	-11.3986
建议题主可以	-11.3987
充足	-11.3988
小姐姐	-11.399
其实是一种	-11.3991
几个人	-11.3991
十几年	-11.3993
否	-11.3993
表达自己的情绪	-11.3994
中立	-11.3995
看见了	-11.3995
英	-11.3995
材料	-11.3995
这个环境	-11.3997
你的努力	-11.3997
哀	-11.3998
做更好的自己	-11.3998
L	-11.3998
递	-11.3999
阶	-11.4
不舍得	-11.4
洗澡	-11.4001
程序	-11.4001
认真看完了你的提问	-11.4002
提倡	-11.4002
谦	-11.4002
哪些地方	-11.4002
说错话	-11.4003
阻抗	-11.4004
变态	-11.4005
的收入	-11.4006
全身	-11.4006
溺爱	-11.4007
叛逆期	-11.4008
已然	-11.4008
落下	-11.4008
戒掉	-11.4009
(・	-11.4009
好的关系	-11.401
热线	-11.4011
加剧	-11.4011
较高	-11.4012
为了满足	-11.4016
轻生	-11.4016
积极乐观	-11.4017
的细节	-11.4019
上看	-11.4025
做任何	-11.4025
全能	-11.4029
你之所以	-11.4029
差劲	-11.4031
得上	-11.4035
听歌	-11.4036
给自己一些时间	-11.4036
是美好的	-11.4039
不吃	-11.404
很远	-11.404
成长的过程中	-11.4041
大环境	-11.4041
会逐渐	-11.4041
需要调整	-11.4041
商量一下	-11.4043
想吃	-11.4044
突	-11.4045
多疑	-11.4047
侵	-11.4048
把自己的想法	-11.4051
提升自己的能力	-11.4052
跟家人	-11.4054
题主不妨	-11.4054
偿	-11.4055
还说	-11.4055
本性	-11.406
吞	-11.4062
对生活的	-11.4064
想做的事	-11.4064
揪	-11.4065
琢磨	-11.4065
一次又一次	-11.4065
光芒	-11.4066
主体	-11.4066
剧烈	-11.4066
客气	-11.4069
放任	-11.407
所致	-11.4073
时间管理	-11.4073
共同话题	-11.4075
心跳	-11.4075
三点	-11.4075
跨越	-11.4075
发展到	-11.4077
一面镜子	-11.4078
合格	-11.4079
看到她	-11.408
合理化	-11.408
真正的自己	-11.4083
自然也就	-11.4083
从自身	-11.4084
要做什么	-11.4085
一笔	-11.4088
社会关系	-11.4089
班上	-11.4091
这类人	-11.4095
中医	-11.4098
不爱自己	-11.4099
谈一下	-11.4099
在这个阶段	-11.41
人格障碍	-11.41
一旦你	-11.4101
会感受到	-11.4101
谈心	-11.4105
去学	-11.4111
很值得	-11.4112
。(4)	-11.4115
真的需要	-11.4117
同行	-11.4117
从楼主的	-11.4118
自己做的	-11.4119
灰	-11.4119
要么是	-11.4119
的一生	-11.412
课堂	-11.4121
威	-11.4122
嘴上	-11.4122
抵	-11.4123
怎么解决	-11.4123
的态度方式	-11.4124
材	-11.4125
的自信心	-11.4125
均	-11.4125
好的方面	-11.4125
比较喜欢	-11.4126
牵扯	-11.4127
例外	-11.4127
颜色	-11.4127
消磨	-11.4127
问心无愧	-11.4128
随着年龄的增长	-11.4129
用这种方式	-11.4129
铃	-11.413
给你一个大大的抱抱	-11.413
文字描述	-11.413
同时你也	-11.413
夸夸	-11.4131
阻力	-11.4131
去满足	-11.4132
在社会上	-11.4134
之内	-11.4134
什么都没有	-11.4135
距离感	-11.4137
买单	-11.4139
美好的回忆	-11.4142
走出困境	-11.4144
工作岗位	-11.4144
推进	-11.4145
有困难	-11.4148
等级	-11.4152
接纳它	-11.4154
多关心	-11.4155
可以看出来	-11.4158
觉得不舒服	-11.4158
和妻子	-11.416
我猜测	-11.416
控制住	-11.4161
会有这样的	-11.4161
所有事情	-11.4162
已经不是	-11.4164
的角度来	-11.4165
也要学会	-11.4166
句话	-11.4166
er	-11.417
你的付出	-11.417
轻松自然	-11.418
写出	-11.418
要清楚	-11.4182
去分析	-11.4183
添	-11.4185
鼠	-11.4185
被重视	-11.4188
在他的	-11.4189
著	-11.4189
的思维方式	-11.419
反刍	-11.419
你们已经	-11.419
奉献	-11.4191
疲倦	-11.4191
长此以往	-11.4192
罩	-11.4192
尽可能地	-11.4192
元素	-11.4193
视觉	-11.4193
牵挂	-11.4193
的范围	-11.4193
f	-11.4194
哭出来	-11.4194
进食	-11.4194
何种	-11.4196
六年	-11.4196
因为疫情	-11.4198
母女	-11.4198
沉迷于	-11.42
往事	-11.42
住院	-11.4201
。“”	-11.4202
的心境	-11.4206
的角度来说	-11.4206
我也曾	-11.4208
不优秀	-11.4209
知觉	-11.4212
是什么样	-11.4213
也不同	-11.4216
多读书	-11.4217
其他原因	-11.4219
在中国	-11.4221
自己的节奏	-11.4225
先天	-11.4225
逼迫自己	-11.4226
开来	-11.4226
祝你幸福	-11.4227
和委屈	-11.4229
这个情绪	-11.423
对自己进行	-11.4233
从这里	-11.4234
已经成年	-11.4236
拿起	-11.4236
听课	-11.4237
你认为自己	-11.4239
大家一起	-11.4241
这个过程中	-11.4243
一般都	-11.4243
简单来说	-11.4244
你是在	-11.4247
每一段	-11.4248
把更多的	-11.4248
希望题主可以	-11.4249
楼主说的	-11.4251
这个年龄段	-11.4251
的一种表现	-11.4252
荣	-11.4253
险	-11.4253
闭上眼睛	-11.4253
克制自己	-11.4253
喘不过气	-11.4254
从以下几个方面	-11.4254
违	-11.4254
所以我们要	-11.4255
医疗	-11.4256
自控力	-11.4256
空洞	-11.4256
丰富多彩	-11.4256
薄弱	-11.4257
散散心	-11.4258
天空	-11.4258
外面的世界	-11.4258
临近	-11.4258
名词	-11.426
重要他人	-11.4261
大部分人都	-11.4261
是安全的	-11.4262
反弹	-11.4263
陷在	-11.4263
的根本	-11.4263
周围环境	-11.4265
让我想起了	-11.4265
放假	-11.4267
问候	-11.4268
喝水	-11.4269
让自己变得更好	-11.4272
较好的	-11.4274
相差	-11.4275
听一些	-11.4275
做得更好	-11.4279
指责你	-11.428
很强烈	-11.4281
明知道	-11.4283
我们每个人都有	-11.4284
感兴趣的事情	-11.4285
三四	-11.4287
你需要去	-11.4289
对咨询师	-11.4289
该做的	-11.4293
陪她	-11.4294
更多的时间	-11.4295
不平等	-11.4296
不好的影响	-11.4302
社	-11.4303
自己和他人	-11.4303
题主说自己	-11.4303
发生了什么事	-11.4304
的动作	-11.4305
对这件事情	-11.4311
任何问题	-11.4312
另外一种	-11.4314
苗	-11.4317
较多	-11.4317
一百	-11.4318
班长	-11.4318
习得性无助	-11.4318
稳固	-11.4319
沿	-11.4319
思虑	-11.432
割舍	-11.432
臂	-11.4321
你可能需要	-11.4321
考得	-11.4322
猜疑	-11.4322
通俗	-11.4322
崩	-11.4322
自己的责任	-11.4322
保持良好的	-11.4323
可以回想一下	-11.4324
切记	-11.4325
浑身	-11.4326
你不妨	-11.4328
完全不同	-11.433
更强大	-11.4331
不具备	-11.4332
能力不足	-11.4336
意图	-11.4336
难关	-11.4338
每个阶段	-11.434
下午好	-11.434
但似乎	-11.4343
靠谱	-11.4344
找个咨询师	-11.4344
让家人	-11.4346
所以我们可以	-11.4346
本该	-11.4347
回国	-11.4349
的疑问	-11.435
集中精力	-11.4351
路径	-11.4356
照顾到	-11.4356
引起了	-11.4357
是很难的	-11.4357
各方面都	-11.4357
经历有关	-11.436
还不是	-11.4362
存在问题	-11.4362
的食物	-11.4364
著名的	-11.4365
强迫性	-11.4365
更好的人	-11.4366
学校里	-11.4367
生活环境	-11.4368
这几个	-11.4368
多做一些	-11.4371
通常会	-11.4373
出现这种情况	-11.4373
续	-11.4375
口头	-11.4377
苏	-11.4379
农	-11.438
很有意思	-11.4382
有效的沟通	-11.4383
白白	-11.4383
滚	-11.4383
弯路	-11.4384
痒	-11.4384
迟钝	-11.4384
都会经历	-11.4385
浑浑噩噩	-11.4386
亲朋好友	-11.4388
我能感受到你	-11.4389
茫然	-11.4389
该怎样	-11.4391
童年时期	-11.4391
意识层面	-11.4392
冬天	-11.4393
的好坏	-11.4393
问问他	-11.4394
释放情绪	-11.4394
世界里	-11.4396
不好看	-11.4397
像你一样	-11.4399
的难处	-11.44
发现问题	-11.44
受委屈	-11.44
贬低自己	-11.4402
你选择了	-11.4405
一定不会	-11.4406
次数	-11.4407
;3、	-11.4414
我想问	-11.4414
5、	-11.4419
产后	-11.4421
初步	-11.4422
属性	-11.4422
同时也是	-11.4423
并不一定是	-11.4426
难堪	-11.4428
时间长	-11.4429
在某些	-11.443
发展成	-11.4431
策	-11.4431
带上	-11.4431
二宝	-11.4432
获得满足	-11.4432
之间的矛盾	-11.4434
明明知道	-11.4437
知心	-11.4438
的目的是	-11.4438
学费	-11.4444
说出自己的想法	-11.4445
的喜悦	-11.4446
等同于	-11.4447
睡不好	-11.4447
猎	-11.4448
我们的父母	-11.4449
°	-11.4449
硕士	-11.445
成长过程	-11.4451
积极的心理暗示	-11.4452
说白了	-11.4452
一口	-11.4453
半小时	-11.4453
的关系模式	-11.4453
吸取	-11.4455
光环	-11.4455
年后	-11.4455
培养孩子	-11.4456
会遇到很多	-11.4456
不自觉	-11.4457
好累	-11.446
再考虑	-11.446
你一直在	-11.446
喜欢的东西	-11.446
单亲家庭	-11.4461
这一年	-11.4461
个人觉得	-11.4462
体育	-11.447
前妻	-11.4472
不一定会	-11.4476
是什么样的人	-11.4477
得不到满足	-11.448
自己的想法和	-11.4481
太难了	-11.4483
做的更好	-11.4486
感到害怕	-11.4488
也许她	-11.4489
需要一个过程	-11.4489
上来看	-11.449
渐渐地	-11.4491
理解对方	-11.4491
工作经验	-11.4496
能更好的	-11.4496
精神分裂症	-11.45
你也需要	-11.45
暂停	-11.45
疗	-11.4502
90	-11.4503
不信	-11.4504
感到难受	-11.4505
写完	-11.451
养成了	-11.4512
走走	-11.4513
他的父母	-11.4513
有这种想法	-11.4513
舞蹈	-11.4513
劝你	-11.4514
对你很好	-11.4515
羊	-11.4515
w	-11.4515
桥	-11.4516
残忍	-11.4516
净	-11.4517
两个家庭	-11.4517
扶持	-11.4517
跟他在一起	-11.4518
辣	-11.4518
带到	-11.4518
糊	-11.4518
想逃避	-11.4518
太强	-11.4519
从您的描述看	-11.4519
从心理学的角度	-11.4522
向他人	-11.4523
遭遇了	-11.4524
洗手	-11.4525
事情本身	-11.4527
随之	-11.4527
社会中	-11.4527
丢掉	-11.4528
我们不需要	-11.4529
用行动	-11.4529
从你的文字中	-11.4529
放松训练	-11.453
看的出来	-11.4531
搞得	-11.4535
的日子里	-11.4538
多少钱	-11.4541
某些人	-11.4543
但是由于	-11.4547
化学	-11.4551
想告诉你	-11.4551
你的烦恼	-11.4551
跟楼主	-11.4553
做了很多	-11.4554
让情绪	-11.4554
做得很好	-11.4554
腹	-11.4557
的确会	-11.456
发信息	-11.4561
短时间	-11.4563
但事实上	-11.4563
表现自己	-11.4564
和发展	-11.4566
人缘	-11.4567
不妨先	-11.4569
莫名其妙的	-11.4576
验	-11.4576
怎么才能	-11.4576
符	-11.4577
吵闹	-11.4579
宇宙	-11.458
触及	-11.4581
懈怠	-11.4581
的表情	-11.4582
对老公	-11.4582
来处理	-11.4582
来得及	-11.4582
搭讪	-11.4582
慌张	-11.4583
真正的朋友	-11.4583
诚恳	-11.4583
填满	-11.4583
积蓄	-11.4583
双性恋	-11.4583
OK	-11.4584
与你分享	-11.4584
归宿	-11.4585
新工作	-11.4585
给你的建议	-11.4585
取代	-11.4585
相信你可以	-11.4585
一些小事	-11.4586
深深地理解你的痛苦	-11.4586
人生观	-11.4586
知晓	-11.4587
最好的朋友	-11.4588
亦或是	-11.4588
有同感	-11.4588
带动	-11.4588
这三个	-11.4589
你爸	-11.459
不被爱	-11.459
都是不一样的	-11.4591
其他方式	-11.4592
很多方面	-11.4592
有道理	-11.4593
也没必要	-11.4595
好好珍惜	-11.4604
谈过	-11.4605
期限	-11.4605
也不代表	-11.4606
帮我们	-11.4607
源自于	-11.4609
就会越	-11.461
也没有关系	-11.461
陷入到	-11.4612
又怕	-11.4613
失落感	-11.4614
最终还是	-11.4614
这段话	-11.4619
不开心的事情	-11.4619
上网	-11.462
自动化	-11.4623
可行的	-11.4627
伤害过	-11.4628
被照顾	-11.463
来帮助自己	-11.463
的工具	-11.4634
一切都好	-11.4635
好不容易	-11.4635
走过来	-11.4635
上台	-11.4637
去观察	-11.464
自我疗愈	-11.464
你小时候	-11.4641
感知到	-11.4643
适合你的	-11.4643
无法满足	-11.4646
肝	-11.4647
证实	-11.4648
比较内向	-11.4648
肠	-11.4648
广阔	-11.4648
宠物	-11.4649
影响力	-11.4649
晒	-11.4649
虽然现在	-11.465
几个方面	-11.465
产生矛盾	-11.465
十全十美	-11.4651
告白	-11.4652
水果	-11.4653
定时	-11.4654
姑姑	-11.4655
异样	-11.4655
有责任	-11.4656
的过往	-11.4657
超过了	-11.4659
一杯	-11.4659
自从	-11.466
的环境下	-11.4661
突破自己	-11.4663
他人身上	-11.4666
才开始	-11.4666
欢迎关注我	-11.4667
一副	-11.4669
现实问题	-11.4669
也会影响	-11.4671
也就意味着	-11.4673
感兴趣的事	-11.4673
占用	-11.4674
成为什么样的人	-11.4675
决定权	-11.4678
在想什么	-11.4678
一个女人	-11.4684
年龄阶段	-11.4686
舒	-11.4686
幼	-11.4688
要么就是	-11.4689
感到自卑	-11.4694
确实很难	-11.4697
也不一样	-11.4698
大不了	-11.4702
坦然接受	-11.4705
亲戚朋友	-11.4707
走的路	-11.4707
调节自己	-11.4708
辛	-11.4712
我并不	-11.4713
岗	-11.4714
依附	-11.4714
玉	-11.4714
告诉他你	-11.4714
屏	-11.4715
腻	-11.4715
测评	-11.4715
深渊	-11.4716
充足的	-11.4717
无时无刻	-11.4717
解析	-11.4717
释然	-11.4717
正常的生活	-11.4718
毁灭	-11.4718
性侵	-11.4719
希望我的回答可以帮到您	-11.4719
Ta	-11.4719
骚扰	-11.472
感触	-11.472
校园暴力	-11.472
那些事情	-11.472
为你点赞	-11.4721
很多人都有	-11.4721
不舒服的感觉	-11.4721
的伙伴	-11.4722
遇到什么	-11.4722
我们才会	-11.4724
启动	-11.4724
处在一个	-11.4727
善意的	-11.4729
劳累	-11.473
当你们	-11.4734
总体	-11.4735
明确的目标	-11.4738
认同感	-11.4738
刻意去	-11.474
说起	-11.4741
限度	-11.4747
直面问题	-11.4747
偏爱	-11.4751
有很大的关系	-11.4753
遇到挫折	-11.4753
报名	-11.4758
受虐	-11.476
未来的生活	-11.4762
病态	-11.4765
有人会	-11.4771
去图书馆	-11.4771
弄得	-11.4772
出现的问题	-11.4772
心情好	-11.4778
制定计划	-11.478
发生矛盾	-11.4782
不经意	-11.4782
老好人	-11.4782
违法	-11.4783
非黑即白	-11.4784
这辈子	-11.4784
幼儿	-11.4784
英国	-11.4784
羞	-11.4784
家乡	-11.4784
塌	-11.4785
判定	-11.4786
的情绪体验	-11.4786
采纳	-11.4786
当着	-11.4786
寄宿	-11.4786
深思熟虑	-11.4786
重新建立	-11.4788
充满着	-11.4788
你也知道	-11.4789
小气	-11.4789
文明	-11.479
情人	-11.479
找原因	-11.4791
就直接	-11.4791
修行	-11.4793
一再	-11.4794
小小的建议	-11.4799
暂时没有	-11.48
认清自己	-11.48
驱使	-11.4802
伤感	-11.4804
地对待	-11.4805
单方面的	-11.4806
你现在的状态	-11.4806
建设	-11.4807
改造	-11.4808
拥有一个	-11.4809
的情境	-11.4811
不属于	-11.4815
得到缓解	-11.4816
关注点	-11.4816
你可以找	-11.4816
表达自己的需求	-11.4817
总结一下	-11.482
不可怕	-11.482
必要时	-11.4826
找到一些	-11.4826
提出这个问题	-11.4827
情绪控制	-11.4828
吓到	-11.4829
不知道你是否	-11.4829
让她知道	-11.4829
多大了	-11.483
人生经历	-11.483
体质	-11.4836
有的人会	-11.4837
自我肯定	-11.4839
详	-11.4841
衷	-11.4842
公正	-11.4844
未能	-11.4846
加快	-11.4847
不适感	-11.4848
微博	-11.4849
你的诉求	-11.485
价格	-11.485
互联网	-11.485
昂	-11.4851
逗	-11.4851
不情愿	-11.4851
预设	-11.4851
处女情结	-11.4852
按部就班	-11.4853
招聘	-11.4853
得不偿失	-11.4853
一般都是	-11.4853
堕落	-11.4853
道德绑架	-11.4854
狗狗	-11.4854
你有没有想过	-11.4854
律师	-11.4854
出身	-11.4856
如果是后者	-11.4858
靠谱的	-11.4858
一段亲密关系	-11.4858
觉得委屈	-11.486
步入社会	-11.4862
没钱	-11.4863
就拿	-11.4863
我感觉你	-11.4863
无私	-11.4863
及其	-11.4865
给自己一点时间	-11.4868
你的咨询师	-11.487
负向	-11.487
找到属于自己的	-11.4873
更深	-11.4873
潜在的	-11.4877
亲密接触	-11.4878
好久	-11.4879
做得好	-11.488
我们没有办法	-11.488
也是一样的	-11.4881
和温暖	-11.4881
地球	-11.4881
会影响你	-11.4882
传统的	-11.4884
迫于	-11.4886
考到	-11.4887
做题	-11.4887
对妈妈的	-11.4896
巨	-11.4897
其实我觉得	-11.4898
做什么事	-11.4899
性幻想	-11.4902
业余	-11.4906
很希望	-11.4906
高要求	-11.491
更远	-11.491
几分	-11.491
怎样才能	-11.4912
还挺	-11.4912
的小伙伴	-11.4913
冷静一下	-11.4916
绑	-11.4917
凑	-11.4917
晴	-11.4918
审	-11.4919
比喻	-11.4919
村	-11.492
可以先从	-11.4921
驱动	-11.4921
不在身边	-11.4922
误区	-11.4922
》、《	-11.4923
代沟	-11.4923
聚餐	-11.4924
鼻子	-11.4924
教室	-11.4924
顾忌	-11.4924
感谢邀请	-11.4926
感到不舒服	-11.4927
家庭生活	-11.4927
放在自己身上	-11.4928
立足	-11.4929
可以感受到你对	-11.4929
自省	-11.493
没做好	-11.493
想办法解决	-11.493
如何对待	-11.4931
这么大的	-11.4932
你的遭遇	-11.4935
偷懒	-11.4935
就变成了	-11.4937
默	-11.4937
假想	-11.4938
肉体	-11.494
年华	-11.4947
各种各样	-11.4949
学会如何	-11.4953
自己的梦想	-11.4958
同等	-11.4958
未成年	-11.496
保存	-11.496
建立起来	-11.4963
难过的时候	-11.4963
能体会	-11.4964
共同进步	-11.4967
有魅力	-11.4968
传递给	-11.4972
遇到这种情况	-11.4973
和父母的关系	-11.4975
合理安排	-11.4976
和困惑	-11.4976
寻找一些	-11.4976
经济压力	-11.4979
辅	-11.498
是个好	-11.498
爱过	-11.4981
父母对孩子	-11.4981
令自己	-11.4981
绝不	-11.4982
喂	-11.4984
谢	-11.4985
矫正	-11.4985
出现过	-11.4985
悔恨	-11.4988
应激反应	-11.4989
默契	-11.4989
薪资	-11.4989
探寻	-11.4991
模拟	-11.4991
界定	-11.4992
我的经验	-11.4992
打扫	-11.4993
抒发	-11.4993
女士	-11.4993
接纳自己的不完美	-11.4994
退休	-11.4994
的状态中	-11.4994
2)	-11.4995
失调	-11.4996
主人公	-11.4997
能力强	-11.4997
就变得	-11.4998
失意	-11.4999
外卖	-11.4999
理科	-11.5
将注意力	-11.5001
不完美的自己	-11.5001
才华	-11.5002
比较小	-11.5006
就一定会	-11.5007
你的表述	-11.5009
找机会	-11.501
弹性	-11.5012
怎样做	-11.5013
会好起来的	-11.5015
最有效的	-11.5018
每年	-11.502
都会出现	-11.5022
给了我们	-11.5025
高中生	-11.5026
浪费了	-11.5026
你们双方	-11.5026
放大了	-11.5027
来找你	-11.5028
人际边界	-11.503
这是很	-11.503
我们可以选择	-11.5031
善待自己	-11.5032
下意识	-11.5034
不能满足	-11.5035
用于	-11.5036
矛盾冲突	-11.5036
打动	-11.504
下手	-11.5041
最后的结果	-11.5042
不掉	-11.5043
摇	-11.5044
这个女孩	-11.5044
自信起来	-11.5045
觉察力	-11.5047
的初心	-11.5047
展示自己	-11.5051
自信的人	-11.5052
静心	-11.5053
辨	-11.5053
了解下	-11.5054
!#	-11.5055
涉	-11.5055
家教	-11.5055
无理取闹	-11.5057
以自我为中心	-11.5058
狱	-11.5059
善解人意	-11.5059
不明	-11.506
很容易被	-11.506
夕	-11.506
格局	-11.5061
瞧不起	-11.5061
有点像	-11.5061
不合理信念	-11.5061
听见	-11.5061
热爱生活	-11.5062
精神科医生	-11.5063
理财	-11.5063
陪伴孩子	-11.5067
亲爱的朋友	-11.507
远方	-11.507
没有自信	-11.5071
十几岁	-11.5072
很困惑	-11.5072
能做什么	-11.5073
很善良	-11.5075
自认为	-11.5075
成家	-11.5076
无望	-11.5076
走到一起	-11.5076
渡过	-11.5079
去看医生	-11.5079
这一方面	-11.508
会更容易	-11.508
上了大学	-11.5082
心存	-11.5084
有益的	-11.5091
向着	-11.5092
大概就是	-11.5094
迎	-11.5096
调整自己的状态	-11.5097
的长处	-11.5099
题主描述	-11.5102
问题的关键	-11.5103
发生过什么	-11.5106
最低	-11.5108
认为自己是	-11.5109
是同性恋	-11.511
帮助到你	-11.5111
累的时候	-11.5112
岁左右	-11.5117
允许自己有	-11.5118
经常说	-11.5119
分享一下我	-11.5119
现有	-11.5123
内心的冲突	-11.5123
群里	-11.5123
激	-11.5124
夸张	-11.5126
对女性	-11.5127
灾难	-11.5127
人设	-11.5128
─	-11.5128
极致	-11.5128
提不起兴趣	-11.5129
形成一种	-11.513
躁狂	-11.513
逛	-11.513
涡	-11.513
说出口	-11.5131
放平心态	-11.5131
筋	-11.5131
我感受到了	-11.5132
言行举止	-11.5133
我们就可以	-11.5136
建议楼主可以	-11.5138
同时也可以	-11.5138
表示理解	-11.5138
办事	-11.5138
只能通过	-11.5139
犯了	-11.5139
相信你一定	-11.514
两周	-11.514
来保护自己	-11.5141
特意	-11.5141
不懂事	-11.5142
心理建设	-11.5142
就很好	-11.5144
不太了解	-11.5144
类似的事情	-11.5144
的目的是什么	-11.5147
没什么大不了	-11.5148
各个方面	-11.515
自己内在的	-11.5154
排名	-11.5154
从你描述	-11.5156
问题在于	-11.5157
要面对的	-11.5157
来对待	-11.5158
压在	-11.5158
来证明	-11.5159
奖励自己	-11.5166
的依恋关系	-11.5168
给自己找	-11.517
列出来	-11.5174
解决问题的方法	-11.5177
99	-11.5179
园	-11.5182
不值得被爱	-11.5183
放过	-11.5183
的影子	-11.5184
带来的影响	-11.5185
我曾经也	-11.5186
一些小建议	-11.5187
直视	-11.5187
也许是因为	-11.5191
下次再	-11.5191
分析下	-11.5192
鼻	-11.5192
档	-11.5196
很好奇	-11.5196
力不从心	-11.5197
晕	-11.5197
奖学金	-11.5199
优异	-11.5199
赞扬	-11.52
长大成人	-11.52
椅子	-11.52
实实在在	-11.5201
导向	-11.5201
附近	-11.5202
月份	-11.5202
带给我们的	-11.5203
的心结	-11.5203
很长一段时间	-11.5207
则会	-11.5216
憋着	-11.5217
前辈	-11.5217
一日	-11.5218
还算	-11.5219
建立良好的	-11.5221
根本就不	-11.5225
人格特质	-11.5226
定义为	-11.5228
经常被	-11.5228
你们之间的感情	-11.5228
互相帮助	-11.5228
心烦	-11.523
两个人的关系	-11.5231
是什么让你	-11.5234
能感受到你的	-11.5234
但事实	-11.5236
不好的地方	-11.5237
以上建议	-11.5238
写到	-11.524
对待别人	-11.524
短时间内	-11.5241
有提到	-11.5244
都是可以的	-11.5244
人脉	-11.5245
说说我	-11.5245
成分	-11.5248
事件中	-11.5251
内心感受	-11.5253
很不错的	-11.5253
可以找一个	-11.5254
:)	-11.5255
转化成	-11.5256
没有机会	-11.5262
更深的	-11.5262
前方	-11.5263
看看他们	-11.5263
我不清楚	-11.5264
处理不好	-11.5264
念念不忘	-11.5265
世界观	-11.5265
贱	-11.5267
亡	-11.5267
所有的事情都	-11.5267
1⃣️	-11.5267
犹如	-11.5268
贫	-11.5269
池	-11.5269
关闭	-11.5269
辱	-11.5269
拦	-11.527
诺	-11.5271
酷	-11.5271
70	-11.5272
是最棒的	-11.5273
从另一个角度	-11.5273
只是暂时的	-11.5275
不允许自己	-11.5276
患病	-11.5277
余光	-11.5279
会伤害到	-11.528
的时间和精力	-11.5282
的道路上	-11.5283
很关心	-11.5284
遇见了	-11.5285
只看	-11.5285
●)	-11.5288
欺负你	-11.5292
坏习惯	-11.5293
天生就	-11.5293
80	-11.5294
面目	-11.5294
删	-11.5294
学习的动力	-11.5294
这种方法	-11.5294
待在一起	-11.5296
本就是	-11.5296
和迷茫	-11.5299
之余	-11.5301
去看看心理医生	-11.5301
有效的方法	-11.5302
问她	-11.5302
付出努力	-11.5306
丝	-11.531
这样那样的	-11.531
会帮助你	-11.5312
宣泄情绪	-11.5314
我觉得你可以	-11.5314
如果你想要	-11.5315
如果是的话	-11.5316
让他们知道	-11.5316
为重	-11.5317
调节情绪	-11.5319
一度	-11.532
了解彼此	-11.532
成年了	-11.5321
老师们	-11.5323
些许	-11.5323
没意思	-11.5323
对于未来	-11.5324
的榜样	-11.5324
外向的人	-11.5324
要面临	-11.5326
提出的问题	-11.5326
语言表达	-11.5328
学习环境	-11.5329
和勇气	-11.533
情绪背后	-11.5332
大师	-11.5333
只有当	-11.5335
不好的一面	-11.5336
自立	-11.5337
拙	-11.5337
框架	-11.5339
缝	-11.534
贷	-11.534
钥匙	-11.534
表妹	-11.534
人民	-11.5341
顽	-11.5341
接受现实	-11.5341
有意义的事情	-11.5341
日积月累	-11.5341
运行	-11.5342
卷入	-11.5342
渐	-11.5342
•̀	-11.5344
跌倒	-11.5345
磨练	-11.5345
确定关系	-11.5346
不要放弃自己	-11.5347
调整好心态	-11.5348
稳重	-11.5348
每个人都需要	-11.5349
听着	-11.535
那个女生	-11.535
磨难	-11.5351
如果有机会	-11.5351
缘由	-11.5352
无力无助	-11.5353
骗子	-11.5354
预想	-11.5355
前夫	-11.5355
无法忍受	-11.5356
比不上	-11.536
的证据	-11.5363
这个决定	-11.5365
羡慕别人	-11.5366
的秘密	-11.5367
是值得的	-11.5367
跟你一样	-11.5367
的互动模式	-11.537
剧情	-11.537
代入	-11.5373
让人感到	-11.5374
的常态	-11.5375
给你个	-11.538
有些话	-11.5382
让我觉得	-11.5383
思考下	-11.5383
很好的朋友	-11.5386
几个建议	-11.5389
很渴望	-11.5391
产生影响	-11.5394
即时	-11.5394
有缘	-11.5395
可以做到的	-11.5396
这些症状	-11.5398
对我来说	-11.5401
适用	-11.5401
并不容易	-11.5403
原先	-11.5403
注意力放在	-11.5404
陪他	-11.5405
调整过来	-11.5407
对世界	-11.5407
打个	-11.5407
亵	-11.5408
不断成长	-11.541
讯	-11.5412
宅	-11.5413
吻	-11.5413
牛奶	-11.5413
讽刺	-11.5413
希望这些文字	-11.5414
言辞	-11.5415
事半功倍	-11.5415
教授	-11.5415
在这段感情中	-11.5416
自控	-11.5417
有了自己的	-11.5417
。6、	-11.5421
怨气	-11.5421
经历的事情	-11.5421
落实	-11.5424
换取	-11.5425
告诉他们你	-11.5427
吃过	-11.5428
极力	-11.5428
妄	-11.5428
是非常好的	-11.543
勇敢一点	-11.543
一张纸	-11.5433
乐于	-11.5437
看到你的提问	-11.5438
是从什么时候开始	-11.5438
世界上没有	-11.5438
少女	-11.5439
换位思考一下	-11.5439
不过来	-11.544
坚定地	-11.5441
爱的能力	-11.5443
更近	-11.5443
懂得如何	-11.5444
做一次	-11.5444
肯定会有	-11.5445
的是自己	-11.5447
事先	-11.5447
很孤独	-11.5449
也包括	-11.545
️️️	-11.5452
大象	-11.5455
梦到	-11.5458
已经到了	-11.5458
在背后	-11.5459
并不重要	-11.5461
被发现	-11.5461
看看有没有	-11.5464
你和男友	-11.5465
盲	-11.5471
让自己放松	-11.5473
会给自己带来	-11.5474
跟老公	-11.5474
离婚后	-11.5479
太快	-11.5483
讲出来	-11.5484
毕	-11.5484
捧	-11.5486
诱因	-11.5486
忧郁	-11.5486
你们的婚姻	-11.5487
别人家的孩子	-11.5487
导火索	-11.5488
一无所有	-11.5488
托付	-11.5489
不得已	-11.549
无缘无故的	-11.549
6.	-11.5491
顺便	-11.5491
一个良好的	-11.5492
很无助	-11.5494
老人家	-11.5496
逼着	-11.5497
好心	-11.5498
听一听	-11.5499
的含义	-11.5499
自己的心意	-11.5499
给自己留	-11.5499
or	-11.5503
非常理解你的感受	-11.5504
遇到了什么	-11.5507
所有的问题	-11.5508
如果你现在	-11.5509
造成影响	-11.5512
无法做到	-11.5512
处理方式	-11.5512
比以前	-11.5513
精神出轨	-11.5516
在当时	-11.5517
非得	-11.5518
不同于	-11.5519
说完	-11.552
精力放在	-11.5523
认识的人	-11.5525
过多地	-11.5527
愤怒的情绪	-11.5528
自我提升	-11.5529
遇到这样的	-11.5529
很清晰	-11.5531
不自觉的	-11.5534
示好	-11.5535
把精力放在	-11.5538
五个	-11.5541
他的内心	-11.5541
在某些方面	-11.5541
自己想要的是什么	-11.5542
三岁	-11.5545
社交能力	-11.5546
很尴尬	-11.5547
继续保持	-11.5547
现在的状况	-11.5551
责备自己	-11.5551
畏	-11.5553
有怎样的	-11.5554
选择逃避	-11.5554
分享一些	-11.5554
不后悔	-11.5556
绑架	-11.5558
此类	-11.556
遮	-11.556
哒	-11.556
照料	-11.556
显著	-11.5561
霸凌	-11.5561
备胎	-11.5561
嫌弃你	-11.5561
相互理解	-11.5562
脸色	-11.5562
更有效	-11.5563
学业上	-11.5564
工作效率	-11.5565
进程	-11.5565
越高	-11.5567
那件事	-11.5567
大海	-11.5567
贴上	-11.5567
而放弃	-11.5568
做作业	-11.5568
话语权	-11.5569
的环境里	-11.557
贷款	-11.557
心怀	-11.557
外力	-11.5572
现代社会	-11.5573
自我认同感	-11.5573
亲爱的楼主	-11.5573
这是一件	-11.5575
凡事都	-11.5577
了那么多	-11.5578
弱者	-11.558
接纳认可	-11.5582
如何才能	-11.5583
客观事实	-11.5585
只做	-11.5588
这些经历	-11.5588
想象力	-11.5589
感到困惑	-11.559
娘	-11.5592
想起了	-11.5593
就相当于	-11.5595
就显得	-11.5596
低头	-11.5601
考完	-11.5603
了不起	-11.5604
幻听	-11.5604
现实世界	-11.5604
才导致	-11.5606
想要通过	-11.5606
吃苦	-11.5611
让老公	-11.5612
有效沟通	-11.5614
本子	-11.5616
思想上	-11.5619
不够优秀	-11.562
也会慢慢	-11.562
这场	-11.5624
会加重	-11.5625
合法	-11.5626
废	-11.5626
的权力	-11.5629
彼	-11.5629
镇	-11.563
让身体	-11.5631
挖	-11.5631
脚踏实地	-11.5631
盈	-11.5632
踢	-11.5632
为人处世	-11.5633
纯粹的	-11.5633
好好休息	-11.5634
读到	-11.5634
一成不变	-11.5634
帖子	-11.5634
慌乱	-11.5635
得到父母的	-11.5635
•́)	-11.5636
有资格	-11.5636
医嘱	-11.5636
精准	-11.5637
谈不上	-11.5638
五分钟	-11.5638
给你一个温暖的拥抱	-11.5639
转学	-11.5639
只会让自己	-11.5639
拿来	-11.5639
烦闷	-11.564
科普	-11.564
散发	-11.5641
无法面对	-11.5643
能满足	-11.5645
很快乐	-11.5645
未必是	-11.5646
慢下来	-11.5646
改变轨迹	-11.5648
重重	-11.5649
一起成长	-11.565
他们认为	-11.565
一个故事	-11.565
第三个	-11.5651
终将	-11.5652
益	-11.5654
停下	-11.5655
做准备	-11.5656
装修	-11.5657
听说过	-11.5658
家里面	-11.566
重来	-11.5663
吃完	-11.5663
所产生的	-11.5663
说明她	-11.5665
一群人	-11.5669
较真	-11.5669
接受心理咨询	-11.5669
我今天	-11.5669
说说话	-11.5674
最好还是	-11.5674
拉开	-11.5675
圈子里	-11.5676
永远不会	-11.5676
类型的人	-11.5677
也会出现	-11.5678
很奇怪	-11.568
为难自己	-11.5681
找一份	-11.5683
让母亲	-11.5683
老天爷的事	-11.5685
平衡点	-11.5686
婚礼	-11.5686
会不自觉地	-11.5687
都会被	-11.5689
去运动	-11.5695
持续时间	-11.5695
知道自己想要什么	-11.5696
扫	-11.57
暴力行为	-11.57
:️	-11.5703
丁	-11.5703
加重了	-11.5704
血液	-11.5705
格格不入	-11.5705
伐	-11.5705
宽恕	-11.5705
早睡早起	-11.5706
涩	-11.5706
痕迹	-11.5706
条件反射	-11.5707
检测	-11.5707
森田疗法	-11.5707
众多	-11.5707
,++	-11.5707
得来的	-11.5708
走一走	-11.5708
词汇	-11.5708
站在对方的角度	-11.5708
两个人一起	-11.571
该怎么办呢	-11.571
不顺眼	-11.571
辨别	-11.5711
好成绩	-11.5712
听说	-11.5714
很让人	-11.5715
轻松一点	-11.5715
恨意	-11.5716
全职	-11.5716
容易出现	-11.5717
自己感兴趣的事情	-11.5718
下雨	-11.5718
体面	-11.5719
恶化	-11.5719
看清自己	-11.572
便利	-11.5722
想逃离	-11.5726
你现在已经	-11.5731
也很容易	-11.5732
大多数时候	-11.5733
来满足自己	-11.5737
没有被满足	-11.5743
自然地	-11.5745
有责任心	-11.5747
在关系里	-11.5747
朵	-11.5748
不敢面对	-11.575
自我调整	-11.5751
堆	-11.5753
促	-11.5753
不再那么	-11.5754
很幸运	-11.5754
表面上看	-11.5758
他们对你的	-11.576
感到高兴	-11.5761
才算	-11.5769
第一印象	-11.5769
正规	-11.577
色情	-11.5771
正视自己的	-11.5772
我们不可能	-11.5773
注意力不集中	-11.5777
强大起来	-11.5778
与丈夫	-11.5778
业绩	-11.5779
虑	-11.5779
下一代	-11.5779
打麻将	-11.5779
极限	-11.578
老一辈	-11.578
奇迹	-11.578
反反复复	-11.578
全心全意	-11.5781
发抖	-11.5782
急切	-11.5782
自豪	-11.5783
黏	-11.5783
很无奈	-11.5784
社会环境	-11.5785
给妈妈	-11.5786
跑跑步	-11.5787
调整好自己的心态	-11.5787
实质性的	-11.5787
的题目	-11.5789
虚弱	-11.5789
在人群中	-11.5791
总觉得自己	-11.5791
初二	-11.5794
总结经验	-11.5795
一年多	-11.5797
进入婚姻	-11.5798
发觉	-11.5799
观看	-11.58
大大的拥抱	-11.5801
值不值得	-11.5803
在潜意识里	-11.5804
有句	-11.5805
我该怎么办	-11.5806
是没有问题的	-11.5806
不必太过	-11.5811
给你们	-11.5813
时间精力	-11.5816
心软	-11.5819
分析问题	-11.5821
与老公	-11.5821
希望自己能够	-11.5826
另外一个人	-11.5828
理解到	-11.5831
一起面对	-11.5831
在别人身上	-11.5832
是错误的	-11.5835
可耻	-11.5836
其实很多时候	-11.5836
父母亲	-11.5838
不合群	-11.584
为什么这么	-11.5841
鉴	-11.5842
条件允许	-11.5843
会觉得很	-11.5843
都是很正常的	-11.5843
在做什么	-11.5844
现场	-11.5846
挥	-11.5852
小姑娘	-11.5852
自以为是	-11.5853
典型	-11.5853
PUA	-11.5854
盐	-11.5855
溢	-11.5855
男士	-11.5855
配偶	-11.5855
往下	-11.5855
裂痕	-11.5855
苛求	-11.5855
踏出	-11.5856
内敛	-11.5856
所爱	-11.5857
棵	-11.5858
志愿	-11.5859
不喜欢的人	-11.5861
都不敢	-11.5861
都是不同的	-11.5863
Dear	-11.5864
无助感	-11.5864
借此	-11.5865
气场	-11.5872
解决问题的办法	-11.5873
在不断的	-11.5874
摆在	-11.5877
切断	-11.5878
一口气	-11.5878
她对你的	-11.588
被称为	-11.588
向前看	-11.5882
通过努力	-11.5882
分类	-11.5882
想要获得	-11.5892
激励自己	-11.5893
上高中	-11.5893
美女	-11.5894
不变的	-11.5896
感到迷茫	-11.5896
有缺点	-11.5897
好好相处	-11.5899
同频	-11.5901
来帮你	-11.5903
不太可能	-11.5909
租房	-11.591
困住	-11.5911
对这个世界	-11.5912
某人	-11.5913
有暴力倾向	-11.5914
总能	-11.5921
这让我	-11.5922
骂人	-11.5922
两种情况	-11.5923
绪	-11.5924
的身心健康	-11.5925
过早	-11.5926
希望自己可以	-11.5927
勇	-11.5927
怎	-11.5931
百分百	-11.5931
示弱	-11.5932
裤	-11.5932
暴食	-11.5933
我国	-11.5933
偏离	-11.5934
艳	-11.5934
产生怀疑	-11.5935
半个月	-11.5935
转折点	-11.5937
踏入	-11.5938
不知你	-11.5938
完之后	-11.5939
生活质量	-11.594
非常难受	-11.5944
自己的利益	-11.5944
到一定程度	-11.5947
你的内在	-11.5947
所描述的	-11.595
无疑是	-11.595
相关知识	-11.595
未来的规划	-11.5955
脉	-11.5955
多尝试	-11.5957
如果有人	-11.5958
资金	-11.5959
饿了	-11.5961
逃避现实	-11.5962
将它	-11.5963
算命	-11.5966
关心她	-11.5968
看看能不能	-11.5969
不可避免	-11.5972
表达一下	-11.5972
和孩子一起	-11.5972
解决方式	-11.5976
为他人	-11.5976
伤害他人	-11.5979
满足自己的需求	-11.598
让自己更加	-11.5983
不快	-11.5983
一个地方	-11.5983
看小说	-11.5985
就连	-11.5988
放空	-11.5991
考上大学	-11.5993
伤害了你	-11.5994
回顾一下	-11.5997
现实的问题	-11.5998
一段时间后	-11.6001
童	-11.6001
这种性格	-11.6004
我也不知道	-11.6005
亲友	-11.6006
趋势	-11.6007
经受	-11.6007
荣格	-11.6007
杆	-11.6007
尾	-11.6007
好心情	-11.6007
剪	-11.6008
攒	-11.6008
蜕变	-11.6008
传承	-11.6008
终止	-11.6008
武器	-11.6009
达成共识	-11.6009
桥梁	-11.6009
放宽心	-11.6009
躁	-11.6009
app	-11.6009
ABC	-11.6009
对来访者	-11.601
穿衣	-11.601
|	-11.6011
小蘑菇	-11.6012
轻松一些	-11.6013
达成一致	-11.6013
质问	-11.6015
持有	-11.6016
躯体化	-11.6017
倒不如	-11.602
很艰难	-11.6021
听完	-11.6023
打气	-11.6023
电子	-11.6025
一些其他的	-11.6027
冒出来	-11.6027
充实起来	-11.6028
心理辅导	-11.6032
既要	-11.6034
却总是	-11.6037
的名字	-11.6037
新生活	-11.6038
对其	-11.604
走到最后	-11.6044
也是可以理解的	-11.6046
的难题	-11.6048
给你一些帮助	-11.6051
相信他们	-11.6054
这块	-11.6055
虽说	-11.6056
关乎	-11.6057
并不喜欢	-11.6058
岂不是	-11.6059
你是想	-11.6059
老二	-11.6062
您提到	-11.6062
周围的环境	-11.6065
在职场	-11.6065
同学之间	-11.6067
共同努力	-11.6068
追问	-11.607
吃点	-11.6071
能明白	-11.6072
说不出	-11.6073
直白	-11.6076
想要的结果	-11.6076
客观地	-11.6077
这种心态	-11.6077
口气	-11.608
在青春期	-11.6083
都会觉得	-11.6083
塔	-11.6083
模型	-11.6084
欺	-11.6084
奉	-11.6084
沉溺	-11.6084
想法和感受	-11.6084
你能接受	-11.6085
扑	-11.6085
○	-11.6085
矮	-11.6085
抖音	-11.6085
踏踏实实	-11.6085
巩固	-11.6086
企图	-11.6086
哀伤	-11.6086
惰性	-11.6086
全力以赴	-11.6086
辩证	-11.6086
疏通	-11.6087
给自己设定	-11.6087
一辈子都	-11.6089
感到难过	-11.6089
一个词	-11.6092
如实	-11.6092
使然	-11.6093
自闭	-11.6099
?##	-11.61
如果真的是	-11.61
找到那个	-11.6101
哇	-11.6101
就足够了	-11.6102
对策	-11.6105
也没办法	-11.6106
临时	-11.6106
懒得	-11.6108
不重视	-11.6108
让对方知道	-11.6112
受苦	-11.6113
温柔世界	-11.6114
打断	-11.6115
爱慕	-11.6116
要懂得	-11.6117
慢慢改变	-11.6117
不放心	-11.6117
的味道	-11.6117
有什么事情	-11.6123
起作用	-11.6124
梦中	-11.6125
中提到	-11.6126
维护自己的	-11.6128
提要求	-11.6133
所有的事情	-11.6133
积极的心态	-11.6134
有些人会	-11.6135
围绕	-11.6137
心理反应	-11.6137
漫长的过程	-11.6139
看医生	-11.6142
我们会发现	-11.6143
深受	-11.6143
这种恐惧	-11.6143
离开父母	-11.6145
很愤怒	-11.6145
试想	-11.6146
之力	-11.6147
找到适合	-11.615
继父	-11.6153
小家	-11.6154
嫂	-11.6157
角度看	-11.6157
尊	-11.6159
k	-11.6159
平庸	-11.616
微妙	-11.6161
挠	-11.6162
慰藉	-11.6162
说了什么	-11.6163
复制	-11.6163
吉	-11.6164
周遭	-11.6165
离家出走	-11.6165
学术	-11.6166
―	-11.6166
轻视	-11.6167
我的理解是	-11.6168
成全	-11.6169
没有绝对的	-11.617
只需	-11.617
期许	-11.6171
正所谓	-11.6171
作息时间	-11.6172
心平气和	-11.6172
得到解决	-11.6174
与同学	-11.6177
几乎没有	-11.6178
站起来	-11.6179
自负	-11.6179
半天	-11.618
就会更加	-11.6181
需要勇气	-11.6181
区域	-11.6183
一段话	-11.6184
可以采用	-11.6185
就好啦	-11.6186
精神分裂	-11.6187
最适合	-11.6187
做这件事情	-11.6191
影响到自己	-11.6191
范围之内	-11.6197
都有着	-11.6198
生命的意义	-11.6198
去享受	-11.6199
享受生活	-11.6201
更舒服	-11.6202
心安	-11.6204
富有	-11.6206
心酸	-11.6207
第一位	-11.6208
才行	-11.6212
这些方面	-11.6214
确实让人	-11.6215
婆媳	-11.6217
用心去	-11.6218
未曾	-11.622
的义务	-11.622
>>>	-11.6221
在你心中	-11.6221
楼楼可以	-11.6222
怀着	-11.6222
讨论一下	-11.6224
演员	-11.6226
私密	-11.6228
聊一下	-11.6228
名人	-11.6229
体制	-11.6235
目前的状况	-11.6236
自己的自信心	-11.6236
稿	-11.6236
恼	-11.6236
跌	-11.6239
赔	-11.624
的行为方式	-11.624
给予孩子	-11.624
纵容	-11.6241
潇洒	-11.6241
脸红	-11.6241
溜	-11.6241
布置	-11.6242
伙	-11.6242
重拾	-11.6242
所拥有的	-11.6242
悲痛	-11.6243
欧	-11.6243
本职工作	-11.6244
援助	-11.6244
肢体接触	-11.6245
短期内	-11.6245
对您有所帮助	-11.6245
对你有所启发	-11.625
男女之间	-11.6252
对照	-11.6253
向前走	-11.6256
发朋友圈	-11.6257
分化	-11.6257
并不是因为	-11.6258
它的存在	-11.6259
寻求心理咨询师的帮助	-11.6259
之爱	-11.6266
心理咨询师的帮助	-11.6267
来衡量	-11.6267
最好的办法就是	-11.6268
心情低落	-11.627
越想越	-11.6271
加油呀	-11.6271
同龄	-11.6272
我和我	-11.6273
迎来	-11.6273
志同道合	-11.6273
一部分人	-11.6278
;3.	-11.6279
漫长的	-11.628
展现自己	-11.6283
所处的环境	-11.6284
我们还可以	-11.6293
我很好奇	-11.6294
太小	-11.6297
层面上	-11.6298
的生活习惯	-11.6298
因此我们需要	-11.6299
不知道怎样	-11.6302
过度关注	-11.6303
能帮助到你	-11.6311
而忽略了	-11.6315
呈现出来	-11.6315
找到答案	-11.6316
截	-11.6316
是成年人了	-11.6316
束	-11.6317
宫	-11.6318
录取	-11.6318
进行交流	-11.6319
吊	-11.6319
散散步	-11.6319
岸	-11.6319
存款	-11.6319
无所适从	-11.6321
从您的陈述中	-11.6321
舒畅	-11.6321
你就会觉得	-11.6321
遵医嘱	-11.6322
要记得	-11.6322
隙	-11.6322
消沉	-11.6322
谢邀	-11.6326
才是真正的	-11.6327
院校	-11.6328
通知	-11.6329
自己的判断	-11.633
在原地	-11.6331
早早	-11.6337
走不出来	-11.6339
三十岁	-11.6341
自己的负面情绪	-11.6346
体检	-11.6348
星期	-11.6352
这样的结果	-11.6352
你的生命	-11.6353
跟您	-11.6358
永远都是	-11.636
的家庭环境	-11.6361
解决不了问题	-11.6363
才能更好地	-11.6365
非常喜欢	-11.6367
结束后	-11.637
岁的你	-11.6371
之情	-11.6371
我们无法改变	-11.6375
某些方面	-11.6377
扩	-11.6378
从而导致	-11.639
有这么多	-11.6394
直接表达	-11.6394
租	-11.6395
一对一	-11.6396
那么这个时候	-11.6396
叹	-11.6396
舆论	-11.6397
争辩	-11.6397
马斯洛	-11.6397
残	-11.6397
弯	-11.6398
抑郁状态	-11.6398
指标	-11.6398
祸	-11.6398
称呼	-11.6398
母子	-11.6398
加工	-11.6399
调侃	-11.6399
沾	-11.6399
躺在床上	-11.64
意想不到的	-11.64
必不可少	-11.64
给题主一个抱抱	-11.6401
给你个大大的拥抱	-11.6401
非常理解楼主的感受	-11.6401
屁	-11.6401
很少有人	-11.6405
恩爱	-11.6405
灰心	-11.6407
回归到	-11.6407
比较困难	-11.6411
的角度看	-11.6411
抚养者	-11.6412
这样对待	-11.6413
足够强大	-11.6416
两性关系	-11.6418
在某种程度上	-11.6419
去改善	-11.642
条件下	-11.6421
反向	-11.6421
外公	-11.6423
生理和心理	-11.6423
难熬	-11.6425
可以帮到你	-11.6427
对事物	-11.6436
和你分享	-11.6436
每天晚上	-11.6437
不一定能	-11.6439
的努力和	-11.6439
乖巧	-11.6443
这个习惯	-11.6443
抽出	-11.6444
27	-11.6449
养老	-11.6453
感觉不舒服	-11.6456
至亲	-11.6464
设限	-11.6464
袋	-11.6467
富足	-11.6469
十岁	-11.6469
第一点	-11.6472
唐	-11.6474
摄	-11.6475
也可以说是	-11.6475
弊	-11.6476
囊	-11.6476
的意思是	-11.6476
天真	-11.6476
举止	-11.6477
惶恐	-11.6477
on	-11.6477
中国人	-11.6478
慈	-11.6478
姓	-11.648
窥	-11.648
追溯	-11.648
运作	-11.648
欢喜	-11.6481
旺盛	-11.6482
Audrey	-11.6482
讲讲	-11.6482
如果是前者	-11.6485
三角	-11.6486
况	-11.6486
两句	-11.6486
综上	-11.6486
桌子	-11.6487
全家	-11.6487
能帮你	-11.6488
聊得来	-11.6489
就会减少	-11.649
行走	-11.6491
地看待	-11.6492
发消息	-11.6493
去克服	-11.6493
自己擅长的	-11.6494
分工	-11.6498
愿意和你	-11.6499
势必	-11.6501
让她们	-11.6503
的原因之一	-11.6507
程度上	-11.6511
咨询一下	-11.6513
卸下	-11.6517
非常在意	-11.6518
好运	-11.6523
心脏	-11.6523
而你却	-11.6526
两性	-11.6527
接触过	-11.6527
那么就要	-11.6528
这些信息	-11.6529
的关注点	-11.6529
执着于	-11.653
目的性	-11.6531
独立思考	-11.6538
而在于	-11.6538
很有可能是	-11.6538
的委屈和	-11.6539
得体	-11.6541
把目光	-11.6541
贯	-11.6545
35	-11.6545
所需	-11.6546
佩服	-11.6546
她的内心	-11.6549
应该怎样	-11.6553
在宿舍	-11.6553
极大	-11.6553
册	-11.6554
只管	-11.6554
爹	-11.6555
崇	-11.6556
在什么情况下	-11.6557
共同成长	-11.6558
妆	-11.6558
同事们	-11.6559
排序	-11.6559
仗	-11.6559
乌	-11.656
姨妈	-11.656
伤疤	-11.656
不切实际	-11.656
公众	-11.656
付诸行动	-11.6561
犹豫不决	-11.6561
给你一点	-11.6562
无所事事	-11.6562
公主	-11.6562
不自知	-11.6562
后盾	-11.6562
看完你的描述	-11.6563
催婚	-11.6565
团结	-11.6565
能做的就是	-11.6566
friend	-11.6567
我的父母	-11.657
高压	-11.657
听上去	-11.6571
第二步	-11.6571
淡定	-11.6571
转机	-11.6572
三分	-11.6577
心情不好的时候	-11.6577
休息时间	-11.6578
弟弟妹妹	-11.6579
相待	-11.658
和对方沟通	-11.658
既定	-11.6581
跟谁	-11.6581
慢慢长大	-11.6584
做的不对	-11.6587
实在不行	-11.6588
或者心理咨询师	-11.6588
更加优秀	-11.6589
不意味着	-11.6594
删了	-11.6597
去创造	-11.6598
来证明自己	-11.6602
总想着	-11.6604
很差劲	-11.6606
也是很重要的	-11.661
影响很大	-11.6614
分明	-11.6617
这世上	-11.6622
很着急	-11.6622
不对等	-11.6624
祝楼主可以	-11.6625
界限感	-11.6627
心理素质	-11.663
简短	-11.6633
君	-11.6633
的方式来表达	-11.6634
内心冲突	-11.6634
促成	-11.6636
天上	-11.6636
社会性	-11.6637
跃	-11.6637
家人和朋友	-11.6638
亲自	-11.6638
疲	-11.6639
八卦	-11.664
留住	-11.664
与众不同	-11.664
艾	-11.664
咽	-11.664
蓄	-11.6641
躁郁症	-11.6641
直播	-11.6642
黄金	-11.6642
半个小时	-11.6643
无关紧要	-11.6643
真挚	-11.6643
违反	-11.6644
咨询室	-11.6645
普及	-11.6645
承载	-11.6645
稳定性	-11.6646
毫无意义	-11.6646
可以帮助到你	-11.6647
提分手	-11.6649
短信	-11.665
明知	-11.665
说出自己的	-11.6651
真实的自我	-11.6653
利于	-11.6654
相比于	-11.6655
找借口	-11.6656
一二	-11.6656
件事	-11.6659
苦苦	-11.6659
互不	-11.666
注意力集中	-11.6662
理解和包容	-11.6663
的契机	-11.6665
的生活环境	-11.6671
个人隐私	-11.6671
不知道是不是	-11.6672
告诉她你	-11.6674
主要还是	-11.6674
对你造成了	-11.6677
想清楚自己	-11.6678
终究是	-11.6684
这种做法	-11.6684
却发现	-11.6685
孩子的教育	-11.6686
各种问题	-11.6688
经常吵架	-11.6695
说些什么	-11.6696
是你的错	-11.6701
亲人朋友	-11.6705
大家都会	-11.6707
帮助您	-11.6708
吃力	-11.6709
来到这个世界	-11.6711
好好活着	-11.6711
初中的时候	-11.6711
更新	-11.6712
很失望	-11.6714
协	-11.6718
晨	-11.6718
仙	-11.6719
几点小建议	-11.6719
衰	-11.672
观众	-11.672
能达到	-11.672
猜忌	-11.6721
裁	-11.6722
揽	-11.6722
抑	-11.6722
抚慰	-11.6723
尊敬	-11.6724
淋	-11.6725
康	-11.6725
希望以下回答能帮助到你	-11.6725
解决的方法	-11.6725
悲剧	-11.6726
200	-11.6726
需要双方	-11.6726
上次	-11.6726
柜	-11.6727
笑容	-11.6727
良药	-11.6727
在国外	-11.6728
迷信	-11.6728
教养方式	-11.6728
5.	-11.6728
刷手机	-11.6729
相信你一定可以	-11.6729
在大学里	-11.6729
使命	-11.6729
大龄	-11.673
作家	-11.673
学会接受	-11.6733
擅长的事情	-11.6734
圣	-11.6735
很多家长	-11.6735
绝大部分	-11.6736
进入大学	-11.6736
口水	-11.6739
的帮助下	-11.6741
为何会	-11.6743
慢性	-11.6745
拖累	-11.675
实用	-11.675
合群	-11.6752
你的爸爸	-11.6756
有上进心	-11.6758
孕期	-11.6759
给自己贴标签	-11.676
爱不爱	-11.6764
当回事	-11.6765
心理发展	-11.6765
所提到的	-11.6765
理智上	-11.6765
末	-11.6766
真正想要的	-11.6768
努力提升自己	-11.6769
用处	-11.677
有好多	-11.6773
有条件的话	-11.6773
隐隐	-11.6778
环境里	-11.6779
会给我们带来	-11.678
对母亲的	-11.6787
经理	-11.6788
杀人	-11.6791
那样做	-11.6794
娃娃	-11.6798
是一个不错的	-11.6798
显现	-11.68
身体不好	-11.6802
亿	-11.6804
须	-11.6804
琴	-11.6804
盼	-11.6805
幕	-11.6805
革	-11.6806
垮	-11.6806
暂且	-11.6806
捋	-11.6806
酱	-11.6807
诚然	-11.6807
宣传	-11.6808
仇恨	-11.6809
对题主有帮助	-11.681
前进的动力	-11.681
是有问题的	-11.681
不想面对	-11.6813
内心的焦虑	-11.6813
让你不舒服	-11.6813
自信一点	-11.6813
大度	-11.6813
套路	-11.6815
集体活动	-11.6816
我们要知道	-11.6816
的勇气和	-11.6817
要好的朋友	-11.6818
总归	-11.6818
装作	-11.6819
你的成长	-11.6819
上床	-11.682
是一个独立的个体	-11.6821
粗心	-11.6822
条理	-11.6825
的情绪感受	-11.6828
时间点	-11.6828
错失	-11.6829
想要的生活	-11.683
新事物	-11.6835
教育方式	-11.6835
那说明	-11.6837
楼主可以尝试着	-11.6837
人或事	-11.6837
多岁	-11.6841
非常正常	-11.6842
并不是真的	-11.6843
他人的感受	-11.6843
题主所说的	-11.6843
手头	-11.6846
但凡	-11.6846
梦里	-11.6847
忙于	-11.6847
微小	-11.6847
有多少人	-11.6848
扩大自己的	-11.6849
的位置上	-11.685
给自己时间	-11.685
求助者	-11.6851
缓解情绪	-11.6856
现实情况	-11.6863
找对象	-11.6863
理论上	-11.6864
>	-11.6865
默认	-11.6866
究竟是什么	-11.6866
深交	-11.6869
一身	-11.687
正在经历	-11.687
这也就是	-11.6872
找一位	-11.6873
停留	-11.6875
这个职业	-11.6876
勾	-11.6876
更轻松	-11.6876
23	-11.6878
。******	-11.6879
升起	-11.688
付出很多	-11.6883
大胆地	-11.6883
伏	-11.6885
阴暗	-11.6885
.........	-11.6886
乘	-11.6887
根深蒂固	-11.6887
APP	-11.6888
焦急	-11.6888
捷	-11.6889
消退	-11.689
渴	-11.689
邀答	-11.689
计算	-11.6891
洒脱	-11.6891
带来的压力	-11.6891
好与坏	-11.6891
放一放	-11.6891
真的很棒	-11.6894
认知行为疗法	-11.6894
执行力	-11.6895
越来越严重	-11.6895
虚无	-11.6896
发呆	-11.6896
社交场合	-11.6897
感慨	-11.6898
忙着	-11.6899
情感支持	-11.69
在校	-11.6901
以下建议	-11.6901
选择离开	-11.6903
很同情你	-11.6903
出差	-11.6903
长期处于	-11.6906
有一些人	-11.6907
第二点	-11.6909
转专业	-11.691
写字	-11.6913
生理反应	-11.6915
心里不舒服	-11.6916
看到这个问题	-11.6917
自己的理想	-11.6917
什么都不做	-11.6919
迁	-11.692
看到自己的优点	-11.6922
实则	-11.6923
?4.	-11.6923
把关注点	-11.6926
性情	-11.6926
的意志力	-11.6927
千里	-11.693
最喜欢的	-11.693
晚安	-11.6931
的人品	-11.6933
体会一下	-11.6934
这样的状况	-11.6935
从你的文字	-11.6937
中断	-11.6939
前几天	-11.6939
足够优秀	-11.6941
过往经历	-11.6943
自己的呼吸	-11.6945
能承受	-11.6947
为什么你会	-11.695
怎么知道	-11.6953
在网络上	-11.6955
一类人	-11.6955
情绪价值	-11.6957
开心起来	-11.6958
离别	-11.696
:▲	-11.6962
会让你觉得	-11.6964
去医院检查	-11.6968
征服	-11.6969
----	-11.6969
斤	-11.6971
是两个人的事	-11.6972
科技	-11.6972
退行	-11.6972
绵	-11.6973
点点滴滴	-11.6973
读大学	-11.6973
谱	-11.6973
紧紧	-11.6974
哎	-11.6974
掐	-11.6974
咨询师的帮助	-11.6974
绽放	-11.6974
考察	-11.6975
28	-11.6976
紧迫	-11.6976
鞋子	-11.6979
好好沟通一下	-11.698
搞定	-11.6981
简短的	-11.6983
一个女孩子	-11.6983
如果他真的	-11.6988
可以做些什么	-11.6989
两位	-11.699
给予对方	-11.6991
喜欢独处	-11.6992
陌生的环境	-11.6993
依赖性	-11.7004
抖	-11.7005
自伤	-11.7006
希望题主能够	-11.7007
几条	-11.7009
明确地	-11.701
又何必	-11.7012
与其他人	-11.7013
询	-11.7014
并没有错	-11.7015
很烦躁	-11.7018
的应对方式	-11.7018
的言论	-11.7021
局限于	-11.7023
彼此的关系	-11.7023
这样的环境	-11.7025
个人能力	-11.7025
阅	-11.7026
不是一朝一夕	-11.7032
余生	-11.7035
神经症	-11.7041
社交关系	-11.7042
得到改善	-11.7043
检查一下	-11.7044
小礼物	-11.7044
在你这里	-11.7044
幸福的生活	-11.7049
了太多的	-11.705
慎重考虑	-11.705
无缘无故	-11.7053
环境的影响	-11.7053
你的大脑	-11.7054
别人的认可	-11.7054
去了解一下	-11.7054
欣喜	-11.7055
猪	-11.7055
植	-11.7055
耕	-11.7056
嚼	-11.7057
森	-11.7058
记忆中	-11.7058
加倍	-11.7059
休闲	-11.7059
有所收获	-11.7059
虚假的	-11.706
更年期	-11.706
淹没	-11.706
屋子	-11.7062
社团活动	-11.7063
两句话	-11.7066
主动找	-11.7067
没考好	-11.7069
治好	-11.7069
帮助来访者	-11.7071
少一点	-11.7071
多大年龄	-11.7075
每天都会	-11.7077
所认为的	-11.7078
偏好	-11.708
压力比较大	-11.7086
情侣之间	-11.7087
变得优秀	-11.7089
辩论	-11.7095
变差	-11.7096
众人	-11.7097
受到过	-11.71
一千	-11.7104
的意义是什么	-11.7104
多元	-11.7105
很认真	-11.7105
不够成熟	-11.7107
和别人比较	-11.7107
也就无法	-11.7107
而不是为了	-11.7112
办法就是	-11.7113
夏	-11.7117
这样一句话	-11.7123
不容	-11.7127
厕所	-11.7129
对关系的	-11.7131
更加了解	-11.7132
大多是	-11.7133
只能说明	-11.7134
宿	-11.7137
豪	-11.7137
可怕的是	-11.7138
瑶瑶	-11.7139
让我们感到	-11.714
清晰地	-11.714
抬	-11.714
斗志	-11.7141
曼	-11.7141
十几	-11.7141
统计	-11.7142
瑕	-11.7142
迟迟	-11.7143
对你想要问的问题有了一定的了解	-11.7143
容纳	-11.7143
会越来越好的	-11.7144
切实	-11.7144
理所应当	-11.7144
谈婚论嫁	-11.7144
汲取	-11.7144
奔跑	-11.7145
出现了一些	-11.7146
心路历程	-11.7146
Yourfriend	-11.7147
人生规划	-11.7148
对你的伤害	-11.7151
报道	-11.7153
学识	-11.7154
自己喜欢的东西	-11.7159
终极	-11.7159
不能很好的	-11.7164
所有的人都	-11.7166
每一天都	-11.7167
应该怎么办	-11.7168
告诉妈妈	-11.7169
不受控制	-11.7173
和他沟通	-11.7176
不单单是	-11.7176
往往都是	-11.7178
想问问	-11.7178
给你造成了	-11.7179
来弥补	-11.718
有经验的	-11.718
完成作业	-11.7181
一起吃饭	-11.7182
最重要的还是	-11.7183
是因为什么原因	-11.7184
从而产生	-11.7185
不要太在意	-11.7185
很重视	-11.7186
变成这样	-11.7188
会好一些	-11.7188
是否值得	-11.7188
退出	-11.719
自发	-11.7193
不要过分	-11.7196
文科	-11.7199
讲课	-11.7201
父母离异	-11.7202
一点儿	-11.7204
产后抑郁	-11.7208
增多	-11.7208
面对困难	-11.7209
这确实是	-11.721
不太容易	-11.7211
噩梦	-11.7211
找专业的心理咨询师	-11.7213
我们来看看	-11.7213
去哪里	-11.7217
・	-11.7217
性格特点	-11.722
克服困难	-11.7221
和对方在一起	-11.7221
汇报	-11.7225
上进心	-11.7226
憎恨	-11.7227
想挽回	-11.7228
梯	-11.7228
一秒	-11.7229
趋利避害	-11.7229
F	-11.7229
精神层面	-11.723
来不及	-11.723
空闲	-11.7231
破碎	-11.7231
总的来说	-11.7231
闲暇	-11.7231
赠	-11.7231
钻牛角尖	-11.7231
正经	-11.7232
语文	-11.7232
门槛	-11.7232
意识到自己的问题	-11.7233
权衡利弊	-11.7233
自己内心的感受	-11.7233
驱动力	-11.7233
某方面	-11.7234
工厂	-11.7235
心扉	-11.7235
血缘关系	-11.7236
体制内	-11.7237
把自己内心的	-11.7238
变为	-11.7238
感官	-11.7241
多观察	-11.7243
需要自己去	-11.7244
境况	-11.7245
通往	-11.7245
要记住	-11.7245
十分钟	-11.7247
相处的时间	-11.7249
没有太多的	-11.7256
学着去	-11.7257
真理	-11.7258
围绕着	-11.7258
一年级	-11.7261
不要去想	-11.7261
手工	-11.7262
偏心	-11.7262
影子	-11.7263
获得更多的	-11.7263
有所启发	-11.7264
换一种方式	-11.7265
能做的事情	-11.7265
忍着	-11.7268
失去自我	-11.727
对你的看法	-11.7273
记着	-11.7275
高敏感	-11.7276
太远	-11.7279
烈	-11.7279
童年经历	-11.7281
自强	-11.7281
也可以试着	-11.7281
该有的	-11.7282
其一	-11.7282
有了一定的	-11.7286
做到最好	-11.7288
难免会有	-11.729
工作和学习	-11.7291
这一类	-11.7294
怀抱	-11.7297
脾气不好	-11.7297
学长	-11.7298
的情绪变化	-11.7298
购	-11.7299
有过类似	-11.7307
分享给	-11.7309
患上	-11.7309
妙	-11.7311
归于	-11.7311
勿	-11.7312
特别容易	-11.7313
勒	-11.7313
田	-11.7313
R	-11.7314
盟	-11.7314
悦	-11.7315
个多月	-11.7315
前段时间	-11.7315
每件事	-11.7316
捕捉	-11.7316
的产物	-11.7316
丈	-11.7316
奢	-11.7316
很容易产生	-11.7316
确实有点	-11.7317
钻	-11.7317
彷	-11.7317
政策	-11.7317
肩膀	-11.7317
保持联系	-11.7317
遥远	-11.7318
逃跑	-11.7318
报酬	-11.7318
消极的情绪	-11.7318
舞台	-11.7319
偏向于	-11.7322
需要注意的是	-11.7324
我想告诉你的是	-11.7324
逼着自己	-11.7325
突破口	-11.7327
把你当成	-11.7328
地区	-11.7328
认真学习	-11.7329
胜过	-11.7334
优越	-11.7335
先照顾好自己	-11.7337
希望有所帮助	-11.7343
别着急	-11.7346
物体	-11.7346
一次机会	-11.7346
白费	-11.7348
是一个特别	-11.7348
快点	-11.7349
意味着什么呢	-11.7351
学姐	-11.7351
角度来说	-11.7351
答题	-11.7358
?**	-11.7358
将其	-11.736
较大的	-11.7365
已经长大	-11.7366
提醒我们	-11.7368
伴有	-11.737
在意别人的眼光	-11.7371
不知道你现在	-11.7374
有句话	-11.7374
自我满足	-11.7377
无非是	-11.7379
有主见	-11.738
打造	-11.7381
跟男友	-11.7385
小区	-11.7386
处事方式	-11.739
逐	-11.739
增强自己的	-11.7392
震	-11.7398
内外	-11.74
因果	-11.74
暴怒	-11.74
咖啡	-11.7401
枝	-11.7401
仪	-11.7402
旗	-11.7402
透彻	-11.7402
安逸	-11.7402
的枷锁	-11.7403
舌	-11.7404
主观能动性	-11.7404
变本加厉	-11.7404
大大方方	-11.7405
戳	-11.7405
奇妙	-11.7405
拓宽	-11.7406
摇摆	-11.7406
吃饱	-11.7406
钢琴	-11.7406
整洁	-11.7407
奖赏	-11.7407
先给你一个大的抱抱	-11.7407
议题	-11.7407
是有意义的	-11.7407
可以留言或者私信	-11.7407
很关键	-11.7408
拖拉	-11.7409
自己的闪光点	-11.7411
。️**	-11.7411
经营好	-11.7411
可以私信	-11.7412
这并不代表	-11.7413
所言	-11.7414
持久的	-11.7416
繁衍	-11.7417
想要逃避	-11.7418
求学	-11.7418
在职场上	-11.7419
才有机会	-11.742
不同程度的	-11.7422
不友好	-11.7422
把自己放在	-11.7423
没有人理解	-11.7424
创造力	-11.7427
或多或少都会	-11.7432
请允许我	-11.7434
释放自己的情绪	-11.744
一段恋情	-11.7441
不爱说话	-11.7443
围着	-11.7451
之事	-11.7454
不要紧	-11.7456
相互之间	-11.7457
两个字	-11.7458
自我暴露	-11.7458
渡	-11.7459
添麻烦	-11.746
很能理解你的感受	-11.7462
为人父母	-11.7462
坐着	-11.7464
真正的爱情	-11.7465
同样的事情	-11.7469
压抑自己的情绪	-11.747
主观上	-11.7472
强者	-11.7473
采取一些	-11.7474
学车	-11.7475
当你发现	-11.7476
大部分时间	-11.7477
相处起来	-11.7481
这是很好的	-11.7487
惧	-11.7489
课外	-11.749
民族	-11.7491
叙	-11.7492
神秘	-11.7492
秉	-11.7492
唯独	-11.7492
最重要的就是	-11.7492
的实际情况	-11.7492
坚韧	-11.7493
体育锻炼	-11.7493
也看到了	-11.7493
肺	-11.7494
独自一人	-11.7494
老虎	-11.7494
包裹	-11.7494
喷	-11.7494
老师和同学	-11.7495
不忍心	-11.7495
指挥	-11.7496
只剩下	-11.7497
玩儿	-11.7498
我们都希望	-11.7498
慢热	-11.7499
知心朋友	-11.7502
更有力量	-11.7502
然后再去	-11.7502
见证	-11.7503
更深层次的	-11.7505
楼主所说的	-11.7505
因果关系	-11.7506
相通	-11.7508
场面	-11.7508
归因于	-11.7509
吖	-11.751
的原因是什么呢	-11.751
只关注	-11.7511
生活的意义	-11.7519
全世界都	-11.7521
类似的经历	-11.7523
病痛	-11.7526
经济来源	-11.7529
建设性	-11.7531
能力很强	-11.7532
学会放下	-11.7532
做得不好	-11.7533
没有义务	-11.7534
会自动	-11.7535
走近	-11.7537
自考	-11.7546
剩下	-11.7547
怀有	-11.7555
指点	-11.7555
这项	-11.7559
当下的状态	-11.756
有吸引力	-11.7564
饭菜	-11.7565
沟通模式	-11.7567
整个家庭	-11.7567
被指责	-11.7568
内心的恐惧	-11.7573
对待感情	-11.7574
忽	-11.7577
两者之间	-11.7579
稍稍	-11.758
阴霾	-11.758
被骂	-11.758
遥	-11.758
尊重信任理解接纳认可	-11.758
盆	-11.758
政治	-11.7581
求同存异	-11.7581
尽力而为	-11.7581
自卑与超越	-11.7581
趟	-11.7582
抚平	-11.7582
一点一滴	-11.7582
寥	-11.7582
姿势	-11.7583
很短	-11.7583
希望对你有启发	-11.7583
很有帮助	-11.7583
路线	-11.7584
渐行渐远	-11.7584
爷	-11.7584
健全	-11.7586
愈合	-11.7586
祝融心理	-11.7586
直观	-11.7586
反移情	-11.7587
开支	-11.7588
全程	-11.7588
工程	-11.7589
是必然的	-11.759
当你真正	-11.759
忘不了	-11.759
爱不爱你	-11.7591
删掉	-11.7594
嘴里	-11.7598
去迎接	-11.7599
感到紧张	-11.7599
共同点	-11.76
心平气和地	-11.7601
继续走下去	-11.7603
出丑	-11.7606
其他地方	-11.7606
路过的	-11.7607
关系很好	-11.7607
空闲时间	-11.7609
告诉别人	-11.761
所述	-11.7614
希望你不要	-11.7616
放低	-11.7618
是故意的	-11.7624
对你有用	-11.7624
放空自己	-11.7626
在职场中	-11.7627
主流	-11.7627
共同面对	-11.7627
改变认知	-11.763
进行咨询	-11.7633
认知行为	-11.7636
希望我的建议	-11.7636
情绪激动	-11.7638
整个过程	-11.7641
自己的真实想法	-11.7641
刚开始的时候	-11.7643
分不清	-11.7644
同事关系	-11.7646
道路上	-11.7647
发生了变化	-11.7648
楚	-11.7659
改成	-11.766
家庭矛盾	-11.766
是如何看待	-11.7661
一声	-11.7664
第一个问题	-11.7665
是可以改变的	-11.7665
正确看待	-11.7668
几件	-11.7668
贫穷	-11.7668
洁癖	-11.7668
胸闷	-11.7669
充沛	-11.767
快递	-11.767
停不下来	-11.767
早晨	-11.7671
施虐	-11.7671
串	-11.7671
秩序	-11.7671
当我在看完了你的描述	-11.7671
救赎	-11.7671
倘若	-11.7672
应聘	-11.7672
总而言之	-11.7672
鸡蛋	-11.7673
戒备	-11.7673
对与错	-11.7673
阻挡	-11.7673
耀	-11.7673
抵御	-11.7673
液	-11.7674
公园	-11.7674
平均	-11.7674
<<	-11.7677
更多的关注	-11.7679
停药	-11.768
扔掉	-11.768
助理	-11.7682
自由自在	-11.7682
债务	-11.7684
浓度	-11.7685
背着	-11.7685
的一些看法	-11.7686
进行分析	-11.7686
知情	-11.7688
虚心	-11.769
绝对不是	-11.7691
深爱	-11.7692
老年人	-11.7693
那么就需要	-11.7694
人际交往中	-11.7696
大脑中	-11.7697
希望自己能	-11.7698
内心真实的想法	-11.7698
从众	-11.77
擅长的领域	-11.77
身后	-11.7701
不愿意面对	-11.7705
通过这种方式	-11.7706
有针对性的	-11.7706
到什么程度	-11.7706
独自面对	-11.7708
放下手机	-11.7709
在爱情中	-11.7709
舍得	-11.7712
到底发生了什么	-11.7715
ti	-11.7716
整个世界	-11.7717
真心喜欢	-11.772
恭喜	-11.7721
这会让你	-11.7722
幸福美满	-11.7722
未被满足	-11.7723
差点	-11.7725
反面	-11.7734
心胸	-11.7735
遇到了一些	-11.7739
肯定不会	-11.7739
想自杀	-11.7742
龄	-11.7749
想摆脱	-11.7749
谓	-11.775
所以你才会	-11.7751
载	-11.7754
嫉妒心	-11.7754
你看看对不对	-11.7755
泥潭	-11.776
旅	-11.7761
妥善	-11.7762
魄	-11.7762
尺	-11.7762
杠	-11.7762
对着镜子	-11.7762
获益	-11.7762
从哪里来	-11.7763
与生俱来的	-11.7763
思索	-11.7763
分分合合	-11.7763
的需求是什么	-11.7763
学不进去	-11.7764
心理现象	-11.7764
投注	-11.7765
冤枉	-11.7765
三甲医院	-11.7765
美妙	-11.7765
和她在一起	-11.7765
历练	-11.7766
福利	-11.7766
高于	-11.7767
谈过恋爱	-11.7767
深造	-11.7769
阴暗面	-11.777
恨不得	-11.777
希望对你有用	-11.7772
变淡	-11.7774
幼小	-11.7782
做的不够好	-11.7786
以下是我的	-11.7786
那么可怕	-11.7789
展现出来	-11.7794
找准	-11.7795
一件坏事	-11.7797
不能控制	-11.7797
～##	-11.7799
双手	-11.7801
良心	-11.7804
方法建议	-11.7804
一定程度	-11.7813
还是要看	-11.7813
不靠谱	-11.7814
该做什么	-11.7814
工作量	-11.782
给自己贴上	-11.7823
新手	-11.7824
祝你们	-11.7827
能够帮助到你	-11.7829
涨	-11.7832
那一步	-11.7833
～️	-11.7833
语言暴力	-11.7835
精神世界	-11.7836
需要一定的	-11.7839
渴望被爱	-11.7839
能力范围内	-11.7839
就过去了	-11.7839
作为一种	-11.7842
这份爱	-11.7843
梳理清楚	-11.7843
了解清楚	-11.7844
努力奋斗	-11.7845
攀	-11.7848
谷	-11.7848
对爱的	-11.785
训	-11.7851
爆炸	-11.7851
红包	-11.7851
造就了	-11.7851
让自己舒服	-11.7852
是怎么回事	-11.7852
俱	-11.7853
坡	-11.7854
体察	-11.7854
井	-11.7854
没有好坏之分	-11.7855
掩	-11.7855
惋惜	-11.7855
注视	-11.7855
仁	-11.7856
给你一个四维空间的抱抱	-11.7857
重蹈覆辙	-11.7857
没有经历过	-11.7857
内涵	-11.7858
好受一些	-11.7858
较劲	-11.7858
关键点	-11.7858
在咨询过程中	-11.7858
可否	-11.7859
相对比较	-11.786
搭理	-11.786
充斥着	-11.7861
作为一名	-11.7863
随之而来	-11.7865
诸	-11.7866
缓解一下	-11.7866
看到你的文字	-11.7867
适用于	-11.7868
扩展	-11.7869
智能	-11.7871
。4)	-11.7879
我们每个人都是	-11.7879
危机感	-11.7879
合适的方式	-11.7882
是自己的错	-11.7882
宁静	-11.7886
想的那样	-11.789
信息量	-11.7891
试一下	-11.7895
一座	-11.7898
内心强大	-11.79
最早	-11.7903
尊重自己的感受	-11.7903
深陷	-11.7903
包含着	-11.7906
也要注意	-11.7907
那次	-11.791
很反感	-11.7913
这些负面情绪	-11.7914
身体和心理	-11.7915
如果有条件	-11.7917
全身心	-11.7919
很轻松	-11.7919
让来访者	-11.7921
孤独无助	-11.7929
太大的压力	-11.7931
解释一下	-11.7934
你和你老公	-11.7936
党	-11.7941
做任何事情	-11.7942
动心	-11.7942
抽象	-11.7942
调整一下自己	-11.7943
应酬	-11.7943
寸	-11.7944
擅	-11.7945
战争	-11.7945
的缘故	-11.7946
袒露	-11.7946
孩童	-11.7946
杨	-11.7946
象限	-11.7947
疏忽	-11.7947
宗教	-11.7947
州	-11.7947
倒霉	-11.7947
抓狂	-11.7948
抗压能力	-11.7948
懵懂	-11.7948
僵硬	-11.7948
无限可能	-11.7949
睡不着觉	-11.7949
全国	-11.795
抬头	-11.7951
大道理	-11.7951
睡得	-11.7951
直男	-11.7952
会不自觉的	-11.7952
内向者	-11.7952
及格	-11.7953
培养自己的兴趣爱好	-11.7953
高估	-11.7954
带领	-11.7954
付费	-11.7954
过好自己的生活	-11.7955
私聊	-11.7955
退步	-11.7956
孙子	-11.7957
你们夫妻	-11.7957
精神支柱	-11.7959
大四	-11.7959
分居	-11.796
最重要的事情	-11.796
面对和解决	-11.796
你的女友	-11.796
采取行动	-11.7964
愿意为了	-11.7965
进一步发展	-11.7965
第三种	-11.7965
发自内心	-11.7968
遇到类似	-11.7974
为什么还要	-11.7975
守住	-11.7981
冲突纠结	-11.7982
就没有那么	-11.7983
同事之间	-11.7983
发声	-11.7983
带来的伤害	-11.7986
更多时候	-11.7987
给人带来	-11.7987
会议	-11.7988
自己的真实感受	-11.7993
去医院做	-11.7993
就会导致	-11.7997
的那部分	-11.8
虚荣心	-11.8001
懂事的孩子	-11.8004
无理	-11.8005
是不够的	-11.8014
多出去走走	-11.802
选择的权利	-11.8022
有这样的感觉	-11.8023
经历了很多	-11.8024
还没有完全	-11.8025
对自己有一个	-11.8026
事项	-11.8029
陆	-11.8031
求职	-11.8033
题主说到	-11.8034
具体是什么	-11.8035
绝不是	-11.8035
希望楼主能够	-11.8035
这个角色	-11.8036
链	-11.8036
虚假	-11.8038
勃	-11.8038
蜜	-11.8039
无可奈何	-11.804
建立新的	-11.804
旅途	-11.804
络	-11.804
生而为人	-11.8041
随时随地	-11.8041
不要给自己太大的压力	-11.8042
献	-11.8042
重塑	-11.8043
源泉	-11.8043
何尝	-11.8043
不是一件	-11.8044
无措	-11.8046
做自己想做的事	-11.8046
节日	-11.8047
会计	-11.8048
转身	-11.8048
小动物	-11.8049
方面的知识	-11.8051
积累经验	-11.8054
表姐	-11.8055
工作任务	-11.8055
解放	-11.8057
庆幸的是	-11.8058
有所改善	-11.806
进一步了解	-11.8062
比较稳定	-11.8065
的感情经历	-11.8065
跟你在一起	-11.8067
哈哈哈	-11.8068
的主要原因	-11.8069
那我就	-11.8073
是假的	-11.8074
哪天	-11.8077
升职	-11.8078
私人空间	-11.8082
实现目标	-11.8082
被打破	-11.8084
费力	-11.8084
解决掉	-11.8088
每个孩子都	-11.8089
外界环境	-11.8089
用文字	-11.809
睡觉前	-11.8097
长大以后	-11.8098
道题	-11.81
意向	-11.8104
不妨试着	-11.8109
好好谈谈	-11.8112
是必要的	-11.8112
自己的价值观	-11.8117
含义	-11.8118
对我们来说	-11.8119
这个时代	-11.8119
可以提前	-11.8123
男主	-11.8123
痛心	-11.8124
依赖于	-11.8127
肤	-11.8128
离开这个世界	-11.8128
在这样的家庭	-11.8129
是两个人的事情	-11.8129
粗暴	-11.8129
放慢	-11.8129
瓦	-11.8129
稳定的工作	-11.813
本身就是一个	-11.813
伤到	-11.8132
淫	-11.8132
年幼	-11.8134
抱一抱	-11.8134
同步	-11.8134
洁	-11.8134
协议	-11.8134
崩塌	-11.8134
粉丝	-11.8135
那么糟糕	-11.8135
启示	-11.8135
指指点点	-11.8135
狠狠	-11.8136
一事无成	-11.8136
航	-11.8136
给你个温暖的抱抱	-11.8136
疙瘩	-11.8136
Q	-11.8137
波澜	-11.8137
征求	-11.8137
⊙	-11.8138
禅	-11.8138
辆	-11.8138
放下过去	-11.814
逆反心理	-11.814
戒烟	-11.814
都有其	-11.8145
周全	-11.8146
想不通	-11.8146
无尽的	-11.8147
真切	-11.8147
比昨天	-11.8148
的真正原因	-11.8148
再做决定	-11.815
侧	-11.815
来形容	-11.8152
是很正常的现象	-11.8152
每个人都是独立的个体	-11.8152
交通	-11.8153
找个机会	-11.8153
更有动力	-11.8155
著名	-11.8156
对未知	-11.8157
几个小时	-11.8165
积极的一面	-11.8166
能帮到你	-11.8167
会有新的	-11.8168
趁着	-11.8169
日本	-11.817
在你的心里	-11.8173
这世界上	-11.8174
能带给你	-11.8175
记录下	-11.8176
徒增	-11.8176
和孩子沟通	-11.8179
无非	-11.818
真正的爱	-11.8186
什么都做不好	-11.8188
无法释怀	-11.8189
看不上	-11.8197
讲理	-11.8198
这么认为	-11.8198
做一些自己喜欢的事情	-11.8203
有底气	-11.8206
癖	-11.821
.....	-11.8211
是有帮助的	-11.8212
一个完整的	-11.8216
稳定下来	-11.8216
生闷气	-11.822
级别	-11.8221
恢复到	-11.8222
缺乏足够的	-11.8223
给自己制定	-11.8227
归纳	-11.8229
严谨	-11.823
愉悦感	-11.823
浮躁	-11.823
怂	-11.823
振作起来	-11.8231
让自己忙起来	-11.8231
爬山	-11.8232
的一举一动	-11.8232
侵入	-11.8232
某种意义上	-11.8232
支付	-11.8232
头晕	-11.8233
公众号	-11.8233
调节自己的情绪	-11.8233
人生意义	-11.8234
的一个重要	-11.8235
我们来分析一下	-11.8236
预言	-11.8236
牵手	-11.8237
希望楼主能	-11.8238
贴心	-11.8241
互助	-11.8242
安宁	-11.8243
打消	-11.8246
总有人	-11.825
大学期间	-11.8251
在此之前	-11.8252
过客	-11.8252
希望能帮助你	-11.8258
作为子女	-11.8261
希望楼主可以	-11.8263
自杀的想法	-11.8263
缩小	-11.8263
每天都要	-11.8267
尽量减少	-11.8271
受到外界	-11.8274
和谐相处	-11.8278
个人观点	-11.8281
言论	-11.8281
创作	-11.8287
会适得其反	-11.8287
表哥	-11.8288
过于在意	-11.829
找不到工作	-11.8291
题主宝贝	-11.8292
参与到	-11.8295
性格特质	-11.8298
生活和学习	-11.8302
为此感到	-11.8304
不被重视	-11.8305
楼主描述的	-11.8306
玩玩	-11.8307
感到快乐	-11.8308
最快	-11.8311
努力的方向	-11.8311
情绪爆发	-11.8315
人和人	-11.8315
焦虑和恐惧	-11.8315
不愉快的事情	-11.8317
政	-11.8317
QQ	-11.8321
寻找专业	-11.8322
植物	-11.8324
玫瑰	-11.8324
焦点效应	-11.8325
背诵	-11.8326
弊端	-11.8326
印证	-11.8326
伤痕	-11.8326
骨子里	-11.8326
癌	-11.8327
苍	-11.8327
保险	-11.8327
炒	-11.8327
鄙视	-11.8327
罐	-11.8327
悦纳	-11.8327
事与愿违	-11.8327
v	-11.8327
音频	-11.8327
不经意间	-11.8328
自己的性取向	-11.8328
成绩下降	-11.8328
拉扯	-11.8329
被打扰	-11.8329
自虐	-11.8329
出汗	-11.833
抓紧	-11.833
是必须的	-11.833
百态	-11.833
所愿	-11.8331
轻音乐	-11.8332
很羡慕	-11.8333
较强	-11.8333
两件事	-11.8334
社会支持系统	-11.8334
正义	-11.8336
百分之	-11.8336
适应社会	-11.8337
睡眠不好	-11.834
双相	-11.834
确信	-11.8342
上厕所	-11.8345
单调	-11.8346
理顺	-11.8347
站出来	-11.8348
一分钟	-11.835
养家	-11.8351
自愈	-11.8351
有了新的	-11.8355
过往的经历	-11.8355
该做的事情	-11.8362
现实层面	-11.8368
变动	-11.8369
适得其反	-11.8369
真正想要的是什么	-11.8372
以此为	-11.8372
真情	-11.8375
其余	-11.8377
不太愿意	-11.838
早睡	-11.8383
这两点	-11.8385
能力范围	-11.8386
跟她说	-11.8388
专业课	-11.8392
二本	-11.8392
这两件事	-11.8394
为你付出	-11.8395
很疲惫	-11.8396
特别在意	-11.8397
去帮助别人	-11.8404
影响到了你的	-11.841
中途	-11.8412
几十	-11.8412
加大	-11.8413
洪	-11.8415
私信	-11.8419
你的潜意识里	-11.8419
延迟	-11.842
叔	-11.842
援	-11.842
伞	-11.8421
坠	-11.8421
无微不至	-11.8422
蝶	-11.8423
捷径	-11.8423
心安理得	-11.8423
可有可无	-11.8424
委曲求全	-11.8424
xx	-11.8424
收敛	-11.8425
哀悼	-11.8425
输赢	-11.8425
耳机	-11.8425
优质	-11.8425
能够看出	-11.8426
到了大学	-11.8426
兄	-11.8426
取消	-11.8426
弥	-11.8426
荣誉	-11.8426
细微	-11.8426
激化	-11.8427
知乎	-11.8427
带去温暖	-11.8428
补救	-11.8428
温情	-11.8429
在别人面前	-11.8429
内心的痛苦	-11.843
预知	-11.843
结婚前	-11.8432
成效	-11.8433
尊重他人	-11.8434
第三方	-11.8434
阻断	-11.8435
健康成长	-11.8436
落空	-11.8436
反问	-11.8438
支出	-11.8439
一起讨论	-11.8439
死循环	-11.844
需要的是什么	-11.8441
良好的沟通	-11.8442
心机	-11.8446
提供帮助	-11.8446
习惯性地	-11.8449
肚子里	-11.845
全力	-11.8453
美好的事物	-11.8455
无非就是	-11.8455
听不懂	-11.8456
经验教训	-11.8456
并不像	-11.8459
精神障碍	-11.8459
起初	-11.846
婆	-11.846
帮不了	-11.846
底下	-11.8462
流露	-11.8462
家人之间	-11.8466
在短时间内	-11.8468
直接告诉	-11.8469
一整天	-11.8476
力所能及	-11.8478
美好的未来	-11.8482
自己喜欢做的事	-11.8484
手指	-11.8485
好好思考一下	-11.8492
全盘	-11.8493
无法摆脱	-11.8494
一个小目标	-11.8498
上升到	-11.8501
体验一下	-11.8502
还是蛮	-11.8504
大约	-11.8505
同一件事情	-11.8509
更清晰	-11.8509
笑着	-11.8511
钉	-11.8513
感到疲惫	-11.8514
讲清楚	-11.8515
健康快乐	-11.8516
彻	-11.8518
学会接纳自己	-11.8518
未尝不	-11.8518
的那一个	-11.8518
如果有的话	-11.8519
济	-11.8519
喘	-11.8519
庸	-11.8519
纪念	-11.852
惊讶	-11.8521
警觉	-11.8521
〰	-11.8522
誓	-11.8522
一切都会好起来的	-11.8522
谁对谁错	-11.8522
届	-11.8523
歉意	-11.8523
隐形	-11.8523
摧毁	-11.8523
机械	-11.8524
沟通技巧	-11.8524
对同性	-11.8524
扭转	-11.8525
棘手	-11.8525
在所难免	-11.8525
躯体症状	-11.8525
一阵子	-11.8525
的一员	-11.8527
在别人眼里	-11.8528
现如今	-11.8528
去看心理医生	-11.8529
一时冲动	-11.853
考试成绩	-11.853
晚辈	-11.853
节约	-11.8531
灵感	-11.8531
与你无关	-11.8532
病毒	-11.8532
光彩	-11.8534
躺着	-11.8535
长程	-11.8542
共同语言	-11.8542
内心的压力	-11.8543
宝妈	-11.8548
出不来	-11.8549
应该做的事情	-11.8549
尽头	-11.855
被侵犯	-11.8551
合拍	-11.8559
给题主带来	-11.8559
给自己贴	-11.856
一万	-11.8571
求证	-11.8577
志同道合的人	-11.8578
给我的感觉	-11.8579
和家人沟通	-11.8583
罗列	-11.8583
又是如何	-11.8583
发生什么事情	-11.8585
已有的	-11.8587
会有什么样的	-11.8588
什么样的事情	-11.8589
很大的伤害	-11.8589
in	-11.859
an	-11.8594
我们一起来看看	-11.8594
亲身	-11.8599
勇敢的面对	-11.8604
自主性	-11.8605
很可爱	-11.8611
经由	-11.8611
强迫性重复	-11.8617
全能自恋	-11.8617
只能靠	-11.8617
卑	-11.8618
不要太过于	-11.8618
相貌	-11.8618
训斥	-11.8619
富裕	-11.8619
渺小	-11.8619
从你的提问中	-11.862
誉	-11.862
怯	-11.8621
屈服	-11.8621
游刃有余	-11.8621
踪	-11.8621
气馁	-11.8621
刹	-11.8621
情谊	-11.8622
完不成	-11.8622
拼尽全力	-11.8622
多陪陪	-11.8622
有义务	-11.8624
分析和建议	-11.8624
假象	-11.8624
学校的心理老师	-11.8625
现在的处境	-11.8626
绝交	-11.863
添加	-11.863
神经系统	-11.8631
每种	-11.8634
反差	-11.8634
和别人相处	-11.8638
给您带来	-11.864
的感受是什么	-11.8642
这几天	-11.8642
闲聊	-11.8648
出去旅游	-11.8652
问清楚	-11.8656
窗户	-11.8657
最终的结果	-11.8657
处于青春期	-11.8658
一生都在	-11.8664
想到了什么	-11.8666
终有一天	-11.8672
改变自己的心态	-11.8675
经历过什么	-11.8678
学院	-11.8678
算不上	-11.8684
让我们一起	-11.8685
对等的	-11.8688
那句	-11.869
社会化	-11.8692
错事	-11.8695
修改	-11.8697
存在的价值	-11.87
顾及到	-11.8705
敌对	-11.871
是否适合	-11.8712
产生好感	-11.8714
竞	-11.8715
脂	-11.8716
给自己定一个	-11.8718
淘汰	-11.8718
仿	-11.8718
泼	-11.8718
述说	-11.8719
985	-11.8719
也会随之	-11.8719
归咎于	-11.872
助力	-11.872
凌	-11.8721
学习和工作	-11.8722
遇到的困难	-11.8722
漠	-11.8722
线索	-11.8722
松懈	-11.8723
节省	-11.8723
静静汀	-11.8724
价值观念	-11.8724
螺旋式上升	-11.8724
花点时间	-11.8724
繁重	-11.8726
愿我的文字能给	-11.8726
心理顾问	-11.8726
双眼	-11.8727
亲切	-11.8727
承接	-11.8727
课题分离	-11.8728
叠加	-11.8729
朋友的阅读	-11.873
正值	-11.8731
已经意识到了	-11.8731
打个比方	-11.8735
订婚	-11.8736
有句话叫	-11.8736
班级里	-11.8737
考场	-11.8738
八年	-11.8739
彼此的感情	-11.8742
睡眠时间	-11.8742
对楼主来说	-11.8743
给人一种	-11.8743
如果条件允许	-11.8747
晚睡	-11.8748
感受到了题主	-11.875
直接拒绝	-11.875
身心疲惫	-11.875
敏	-11.8752
因素的影响	-11.8753
调整自己的情绪	-11.8754
是否合适	-11.8756
夫妻感情	-11.8756
还有更多	-11.8759
毕业之后	-11.876
太深	-11.8765
当众	-11.8771
通常来说	-11.8772
逝去	-11.8775
从心理上	-11.8776
我们能做的就是	-11.8783
文凭	-11.8783
加速	-11.8787
各种各样的问题	-11.8793
弄明白	-11.8795
太累	-11.88
有趣的事情	-11.8805
不必过于	-11.8806
两个人共同	-11.8806
自己的原生家庭	-11.8808
带走	-11.8808
磁	-11.8809
忌	-11.8814
拘	-11.8818
典	-11.8819
放学	-11.8819
过得更好	-11.882
庄	-11.882
惠	-11.882
不被认可	-11.882
自我效能感	-11.8821
以偏概全	-11.8822
归根结底	-11.8822
100%	-11.8822
容器	-11.8823
一路走来	-11.8823
直至	-11.8823
监护	-11.8823
๑	-11.8823
冰山	-11.8823
生物钟	-11.8824
让自己的内心	-11.8824
视而不见	-11.8825
不屑	-11.8825
。++	-11.8825
正规医院	-11.8827
新奇	-11.8827
五六	-11.8827
尚且	-11.8828
没有做错什么	-11.8828
在社会中	-11.8828
固然重要	-11.8828
包围	-11.8831
我们要做的就是	-11.8831
见不得	-11.8832
头脑里	-11.8834
不善于表达	-11.8836
妥当	-11.8836
配得上	-11.8837
的那一部分	-11.8839
本专业	-11.8839
常规	-11.8852
做好心理准备	-11.8854
让我想到了	-11.8855
是很常见的	-11.8859
您身边的	-11.8861
房间里	-11.8866
点儿	-11.8868
造成的伤害	-11.8869
叙述中	-11.8869
发怒	-11.887
千万别	-11.887
一双	-11.8871
年长	-11.8872
女孩儿	-11.8877
正确的认识	-11.8879
咨询效果	-11.8881
求助于	-11.8883
爱的语言	-11.8884
一篇	-11.8886
诸如	-11.8891
体现出	-11.8898
去做心理咨询	-11.8908
交际圈	-11.8909
唤	-11.8911
老天	-11.8917
不是唯一	-11.8918
不够爱	-11.892
韧	-11.8921
滞	-11.8922
综艺	-11.8922
压垮	-11.8922
缺乏自信和安全感	-11.8922
滥	-11.8923
上午好	-11.8924
图片	-11.8924
柴米油盐	-11.8924
古代	-11.8925
传统文化	-11.8925
呈现出	-11.8925
诉苦	-11.8927
主张	-11.8927
顺遂	-11.8928
相互吸引	-11.8928
感叹	-11.8929
输入	-11.8929
搬出去	-11.8929
做错了什么	-11.8931
重生	-11.8931
...........................	-11.8931
赌气	-11.8932
受到的伤害	-11.8932
倍感	-11.8933
类似的问题	-11.894
回首	-11.894
对我们的影响	-11.894
男同事	-11.8942
说的那样	-11.8942
妥	-11.8943
找一找	-11.8946
主管	-11.8947
活在过去	-11.8954
可言	-11.8954
负性情绪	-11.8955
高质量的	-11.8955
帮助到您	-11.8959
为人处事	-11.8961
重担	-11.8962
从你的描述中可以看出	-11.8963
是改变的开始	-11.8964
一个星期	-11.8967
势必会	-11.8968
别人的错误	-11.8969
曾有过	-11.8971
难处	-11.8971
所期待的	-11.8974
确实是一件	-11.898
恢复正常	-11.8981
高中阶段	-11.8986
事故	-11.8996
是很棒的	-11.8997
闲下来	-11.9006
也能理解	-11.9011
支持和帮助	-11.9013
推荐你看	-11.9013
量化	-11.9017
自己的喜好	-11.9017
按摩	-11.9019
介	-11.902
从何而来	-11.9023
洛	-11.9024
轻重缓急	-11.9025
归结于	-11.9025
社工	-11.9026
衬	-11.9026
笼	-11.9026
抱持	-11.9026
密码	-11.9027
心理边界	-11.9027
制订	-11.9027
竞选	-11.9027
就事论事	-11.9027
越走越	-11.9027
糟糕至极	-11.9028
的所作所为	-11.9029
雅	-11.903
苦衷	-11.903
杂念	-11.903
国企	-11.903
分割	-11.9031
非常清楚	-11.9032
损伤	-11.9034
矛盾和冲突	-11.9034
吸气	-11.9035
退学	-11.9037
两人之间	-11.9039
每个人都是独一无二的	-11.9039
进行心理建设	-11.9039
物质条件	-11.9045
热水	-11.9046
忘却	-11.9048
这个念头	-11.9051
处理人际关系	-11.9052
无果	-11.9052
在作祟	-11.9056
像你这样	-11.9057
老公出轨	-11.9058
七八	-11.9061
心门	-11.9063
付出代价	-11.9063
可以看得出来	-11.9064
有这方面的	-11.9064
与父母的关系	-11.9066
一个人独处	-11.9066
不妨试试	-11.9067
在爱情里	-11.9068
也许你还可以	-11.9076
精心	-11.9076
回避型	-11.9078
像你说的	-11.9082
建议您可以	-11.9086
考取	-11.9093
提出要求	-11.91
不断提升自己	-11.91
希望我的文字能	-11.9107
换个角度想	-11.9109
越来越远	-11.9113
较低	-11.912
源自	-11.9121
事件本身	-11.9122
座位	-11.9125
刑	-11.9127
搏	-11.9128
大大咧咧	-11.9128
起冲突	-11.9129
x	-11.9129
银行	-11.9129
雄	-11.9129
无动于衷	-11.9129
无忧无虑	-11.913
调适	-11.913
解惑	-11.913
隐患	-11.913
随心所欲	-11.9131
刻板印象	-11.9131
孕妇	-11.9132
再正常不过	-11.9132
嘿	-11.9132
门口	-11.9132
固化	-11.9132
愚蠢	-11.9132
虚幻	-11.9133
希望可以帮助到题主	-11.9133
怒火	-11.9133
(*▁̄)▁̄)	-11.9133
真的很同情你的遭遇呢	-11.9134
照亮	-11.9136
碍于	-11.9137
带娃	-11.9137
初次	-11.9139
照样	-11.914
钱财	-11.9141
连自己都	-11.9143
推断	-11.9144
索性	-11.9146
留心	-11.9147
必备	-11.9152
清晰的认识	-11.9152
生活愉快	-11.9155
静静地	-11.9157
存在一定的	-11.9158
一天天	-11.9162
业余时间	-11.9162
一书中	-11.9162
回过头来	-11.9164
一般而言	-11.917
计划表	-11.9172
的情绪和感受	-11.9174
今日	-11.9174
虚荣	-11.9176
宁	-11.9178
成年人的世界	-11.918
考生	-11.9184
迎合别人	-11.9188
有些许	-11.9188
是一个什么样的人	-11.9189
对方的优点	-11.9191
难以承受	-11.9192
剧本	-11.9193
慕	-11.9194
对你的关心	-11.9202
不太舒服	-11.9213
不到位	-11.9215
自带	-11.9216
摸摸	-11.9217
你好吖	-11.9219
不要刻意	-11.9221
一阵	-11.9223
严格要求	-11.9223
棍	-11.9226
已经习惯了	-11.923
汤	-11.9232
感受到世界的温暖	-11.9233
涵	-11.9233
V	-11.9235
鸡毛蒜皮	-11.9237
́	-11.9237
惊恐	-11.9237
铺垫	-11.9237
美术	-11.9237
免疫力	-11.9238
朝夕相处	-11.9238
台词	-11.9238
的名义	-11.9239
从楼主的描述中了解到	-11.9239
怪罪	-11.9239
希望以上回复对你有所	-11.9239
勒索	-11.9239
争夺	-11.9241
追星	-11.9241
趋于	-11.9242
一代人	-11.9246
误以为	-11.9249
两个小时	-11.9249
难以忍受	-11.9249
那个年代	-11.925
学位	-11.925
所面临的	-11.925
喜欢的女生	-11.9251
轻重	-11.9252
外部世界	-11.9253
变优秀	-11.9254
安静下来	-11.9256
杀死	-11.9257
备受	-11.9263
学业压力	-11.9269
实话	-11.927
成长经历当中	-11.9273
看不清	-11.9277
只顾	-11.9278
好好聊聊	-11.9279
在这之前	-11.928
我以前也	-11.9284
无意识地	-11.9284
切换	-11.9289
问题的解决	-11.9292
祝愿题主	-11.9294
客观的看待	-11.9298
真的很不容易	-11.9299
做生意	-11.93
极有可能	-11.9301
交给时间	-11.9302
美好的东西	-11.9304
放在第一位	-11.9308
都不晚	-11.9311
心急	-11.9316
相互尊重	-11.9318
社会交往	-11.9321
瞒	-11.9324
报考	-11.9324
巨大的压力	-11.9324
顿饭	-11.933
绷	-11.9333
企	-11.9337
循	-11.9337
饼	-11.9339
现在我分享我的观察	-11.9339
蛇	-11.9339
眉	-11.9339
笼统	-11.934
屏幕	-11.934
栏	-11.934
微不足道	-11.934
对她来说	-11.934
措	-11.9341
的角度出发	-11.9341
广告	-11.9341
這	-11.9341
〔	-11.9342
做得不够好	-11.9342
窍	-11.9342
〕	-11.9342
生完孩子	-11.9342
逃脱	-11.9342
设身处地	-11.9342
明晰	-11.9342
肿	-11.9343
变得强大	-11.9343
终结	-11.9343
咨	-11.9343
有氧运动	-11.9344
谢谢你的提问	-11.9345
人和人之间	-11.9345
晚上睡觉	-11.9345
肾	-11.9345
猴	-11.9345
升温	-11.9345
最亲的人	-11.9346
进行专门咨询	-11.9346
已经尽力了	-11.9349
插手	-11.9351
破解	-11.9351
的那一面	-11.9352
修通	-11.9352
断开	-11.9353
惊吓	-11.9354
可以看出你对	-11.9356
勾起	-11.936
只是单纯的	-11.9361
沟	-11.9361
失去信心	-11.9367
记下来	-11.9368
好与不好	-11.9371
形成了一种	-11.9373
为之努力	-11.9374
老天的事	-11.938
老年	-11.9381
所吸引	-11.9381
隔绝	-11.9389
内分泌	-11.9389
被嘲笑	-11.9393
很介意	-11.9393
当代	-11.9397
家门	-11.9398
能力有限	-11.94
一个很重要的	-11.9402
和他们沟通	-11.9405
女子	-11.9406
标准答案	-11.9408
这一行为	-11.9409
最根本的	-11.941
到底想要什么	-11.9412
别人怎么看	-11.9412
并存	-11.9413
所看到的	-11.9415
相符	-11.9425
朋	-11.9427
竟	-11.9429
衍生	-11.9431
这一刻	-11.9433
承担的责任	-11.9434
适不适合	-11.9436
或多或少都	-11.9444
月子	-11.9445
灾	-11.9447
时间安排	-11.9448
浴	-11.9448
表弟	-11.9449
专制	-11.9449
残疾	-11.9449
灿烂	-11.945
高高在上	-11.945
驾	-11.945
开拓	-11.945
管控	-11.9451
从心理学角度	-11.9451
库	-11.9451
不能自拔	-11.9451
津	-11.9452
分散注意力	-11.9452
这样一来	-11.9452
跳楼	-11.9452
组合	-11.9452
・。)	-11.9453
寻求专业人士的帮助	-11.9453
懒散	-11.9453
良性循环	-11.9453
酒精	-11.9453
稳妥	-11.9454
商品	-11.9454
素养	-11.9456
与自己和解	-11.9457
使劲	-11.9457
自述	-11.946
细化	-11.9461
平日里	-11.9462
在意别人的评价	-11.9462
全职妈妈	-11.9462
难忘	-11.9463
等待着	-11.9463
精进	-11.9463
两条	-11.9464
为自己争取	-11.9467
常理	-11.947
个人的一些想法	-11.947
情感隔离	-11.9472
对你来说意味着什么	-11.9474
最重要的一点	-11.9474
共生	-11.9478
这么长时间	-11.9482
印象深刻	-11.9489
两件	-11.9494
在外地	-11.9496
小技巧	-11.95
表达你的感受	-11.95
你还年轻	-11.9502
呆着	-11.9502
是否符合	-11.9507
hi	-11.9519
造成困扰	-11.9529
让自己放松下来	-11.9533
理清楚	-11.9534
房贷	-11.9536
冬	-11.9537
圣人	-11.9541
双方共同	-11.9542
很聪明	-11.9544
可以去看看	-11.9544
轨	-11.9547
到底是不是	-11.955
迁怒	-11.9553
⏩	-11.9554
夹杂	-11.9556
驾照	-11.9557
世纪	-11.9558
羁绊	-11.9558
终其一生	-11.9558
励志	-11.9558
日复一日	-11.9558
主动出击	-11.9558
咳	-11.9558
充盈	-11.9558
对孩子来说	-11.9558
扬长避短	-11.9559
煮	-11.956
搭配	-11.956
吸取教训	-11.956
宽慰	-11.956
丛	-11.956
眼镜	-11.9561
特别能理解	-11.9561
吐露	-11.9561
副业	-11.9562
已经很棒了	-11.9562
寄存到一	-11.9562
学习氛围	-11.9563
张车票	-11.9563
沉没成本	-11.9564
客体关系	-11.9564
公式	-11.9565
予以	-11.9568
不光是	-11.9569
全班	-11.957
张三	-11.9572
体会不到	-11.9572
小时候的经历	-11.9573
过敏	-11.9585
糟心	-11.9588
务必	-11.9588
过于敏感	-11.9589
幸运的是	-11.9593
轻松愉快	-11.9593
专业的心理医生	-11.9594
那个样子	-11.9597
我想对你说	-11.9597
不是完美的	-11.96
打扰到	-11.9601
安全型	-11.9602
内向性格	-11.9606
自我关怀	-11.9607
创新	-11.9609
顺心	-11.961
某某	-11.961
我想你一定	-11.9614
要靠自己	-11.9623
很看重	-11.9627
满足不了	-11.963
事例	-11.9632
又不得不	-11.9632
充当	-11.9634
比较强势	-11.9635
压力源	-11.964
en	-11.9655
抚	-11.9658
不足之处	-11.9658
西方	-11.9659
支柱	-11.9664
劣	-11.9664
能够感觉的到楼主内心的	-11.9664
颇	-11.9665
肆	-11.9665
希	-11.9667
祝贺	-11.9667
枪	-11.9668
呕吐	-11.9668
[...]
