<unk>	0
<s>	0
</s>	0
,	-2.27555
。	-3.39468
的	-3.66284
你	-4.51047
了	-4.90547
是	-4.93812
和	-4.97893
自己	-5.01689
在	-5.05371
?	-5.16934
我	-5.28278
不	-5.29756
有	-5.32265
我们	-5.5513
他	-5.63418
、	-5.64667
也	-5.69847
去	-5.74307
就	-5.77628
会	-5.78469
可以	-5.83596
“	-5.86261
!	-5.90405
人	-5.95933
而	-5.97575
对	-6.03564
来	-6.05925
没有	-6.07296
好	-6.09911
她	-6.10099
要	-6.13947
所以	-6.14697
”	-6.14914
一个	-6.15779
想	-6.16307
如果	-6.16874
说	-6.17003
因为	-6.19338
都	-6.21514
的时候	-6.22751
呢	-6.23355
上	-6.23791
一	-6.24444
很	-6.2577
这	-6.26757
中	-6.26993
但	-6.27468
可能	-6.2943
这个	-6.30703
但是	-6.31739
需要	-6.31848
孩子	-6.33009
一些	-6.33145
的人	-6.34037
楼主	-6.34793
被	-6.36013
:	-6.37283
他们	-6.37542
就是	-6.3765
自己的	-6.38839
从	-6.43373
别人	-6.44352
多	-6.45418
能	-6.45735
题主	-6.46255
你的	-6.46695
这样	-6.46823
还是	-6.47797
与	-6.4867
父母	-6.50001
做	-6.51055
问题	-6.5218
或者	-6.52621
到	-6.53661
那么	-6.56252
其实	-6.5627
时	-6.60006
对方	-6.60703
地	-6.64207
情绪	-6.65407
心	-6.665
学习	-6.67113
过	-6.67769
大	-6.68234
爱	-6.68378
把	-6.6871
更	-6.68957
生活	-6.69757
用	-6.73158
工作	-6.73412
着	-6.73628
现在	-6.74708
不是	-6.75682
这种	-6.7688
都是	-6.77871
又	-6.79737
看	-6.79841
什么	-6.82241
性	-6.82413
为	-6.83038
那	-6.84115
能够	-6.85335
觉得	-6.85606
的事情	-6.85822
这些	-6.86068
还	-6.86577
再	-6.87134
得	-6.87536
吗	-6.87806
只是	-6.88756
选择	-6.89608
您	-6.90146
对于	-6.90453
后	-6.90462
】	-6.91838
也是	-6.93911
朋友	-6.94221
比较	-6.9476
喜欢	-6.94971
下	-6.95194
时间	-6.95214
让自己	-6.95438
里	-6.95584
关系	-6.95653
一下	-6.96286
自我	-6.98329
你们	-6.98829
当	-6.99115
不要	-6.99727
吧	-6.99994
先	-7.00622
事	-7.01407
改变	-7.0315
比如	-7.04405
已经	-7.0444
;	-7.07163
感觉	-7.07751
让	-7.08415
努力	-7.09141
你好	-7.11729
不能	-7.12279
小	-7.12353
想要	-7.12461
【	-7.12906
希望	-7.14067
很多	-7.15099
最	-7.1567
面对	-7.16186
它	-7.16356
就会	-7.17157
出	-7.18013
无	-7.18489
的话	-7.18936
的问题	-7.19099
等	-7.19108
让你	-7.19214
沟通	-7.1953
开始	-7.20576
心理	-7.21121
非常	-7.21537
点	-7.22219
内心	-7.236
焦虑	-7.24177
一个人	-7.24211
(	-7.24938
看到	-7.2504
理解	-7.25146
也会	-7.2565
事情	-7.26069
无法	-7.26671
所	-7.26713
然后	-7.26812
影响	-7.27388
是否	-7.27965
感	-7.29571
祝好	-7.2963
不好	-7.30393
通过	-7.31246
以	-7.32276
妈妈	-7.32637
应该	-7.32817
一点	-7.33105
害怕	-7.33415
首先	-7.34739
也许	-7.35533
跟	-7.3579
真的	-7.36815
没	-7.36857
一直	-7.36894
于	-7.37796
自	-7.37837
学	-7.38372
或	-7.38728
表达	-7.38805
进行	-7.39414
之后	-7.39664
如何	-7.4012
帮助	-7.40253
或许	-7.40643
一种	-7.43036
甚至	-7.43247
生	-7.43341
这是	-7.43638
你可以	-7.43924
方式	-7.44061
接受	-7.44165
最后	-7.44196
能力	-7.44263
)	-7.44488
家	-7.45141
高	-7.45444
一样	-7.46117
压力	-7.4638
成长	-7.46442
而且	-7.46527
一起	-7.47529
个	-7.47975
不会	-7.48443
解决	-7.49259
家庭	-7.50149
找	-7.50155
比	-7.50398
对你	-7.50868
当然	-7.50948
却	-7.5097
之	-7.51384
给	-7.51663
怎么	-7.51794
如果你	-7.52125
这样的	-7.52381
分	-7.5244
子	-7.53071
”,	-7.53183
太	-7.53358
是不是	-7.5337
有些	-7.5419
来说	-7.55681
虽然	-7.56194
听	-7.56522
打	-7.56708
感情	-7.57023
才	-7.57262
还有	-7.57365
社会	-7.57388
担心	-7.57391
建议	-7.57422
他人	-7.5763
相处	-7.57885
了解	-7.57908
知道	-7.58288
感到	-7.58335
以后	-7.58378
产生	-7.58692
力	-7.59278
身体	-7.59304
老师	-7.59363
对自己	-7.59393
并	-7.60013
的情绪	-7.60511
像	-7.61036
也可以	-7.61165
得到	-7.61225
走	-7.61489
关注	-7.61634
～	-7.61799
并且	-7.62204
发	-7.62579
我想	-7.6324
当你	-7.6342
才能	-7.64515
特别	-7.64525
找到	-7.64565
向	-7.64904
经历	-7.65068
认为	-7.65214
给你	-7.65565
痛苦	-7.65583
出现	-7.65768
行为	-7.65868
状态	-7.65886
遇到	-7.66614
只有	-7.66638
为什么	-7.66924
可	-7.67354
因此	-7.67415
总是	-7.67766
天	-7.68286
越	-7.68287
不想	-7.68415
发生	-7.68514
思考	-7.68753
一定	-7.70132
家人	-7.70261
心里	-7.70289
的方式	-7.71229
母亲	-7.71348
前	-7.71353
那些	-7.7191
发现	-7.72113
将	-7.72602
原因	-7.73015
方面	-7.73126
感受	-7.73182
不同	-7.73969
之前	-7.74264
给自己	-7.74598
伤害	-7.74667
同时	-7.75199
成	-7.75212
在一起	-7.7588
相信	-7.76002
并不是	-7.76161
起来	-7.76318
都会	-7.76532
等等	-7.76763
者	-7.77428
手	-7.77687
其他	-7.7776
年	-7.77841
开	-7.78425
人生	-7.79178
只	-7.79249
啊	-7.79284
不知道	-7.79367
学会	-7.79578
气	-7.79589
吃	-7.7966
的想法	-7.80242
而是	-7.80897
接纳	-7.81224
的生活	-7.81933
控制	-7.82228
出来	-7.82306
问	-7.82522
获得	-7.82834
的感觉	-7.82849
的事	-7.82924
起	-7.83017
更加	-7.83276
以及	-7.83522
方法	-7.83625
难	-7.83858
情感	-7.84245
看看	-7.84727
的关系	-7.84874
目标	-7.85224
为了	-7.8524
发展	-7.85329
快乐	-7.85654
存在	-7.8576
情	-7.85933
咨询师	-7.86169
我觉得	-7.86253
交流	-7.86903
是因为	-7.87124
那个	-7.87379
慢慢	-7.87441
确实	-7.87764
行	-7.88512
是什么	-7.88697
似乎	-7.88804
继续	-7.88938
是一个	-7.89295
愿意	-7.89317
受	-7.89398
三	-7.89692
可能会	-7.89894
个人	-7.9045
的状态	-7.90942
环境	-7.91445
主动	-7.9192
咨询	-7.91972
情况	-7.92167
尝试	-7.92319
好好	-7.92446
真正	-7.92447
的原因	-7.92956
父亲	-7.93353
满足	-7.93561
要求	-7.9367
......	-7.93683
只要	-7.9388
而不是	-7.94224
现实	-7.94225
未来	-7.94353
化	-7.94714
并不	-7.94898
有时候	-7.95495
过去	-7.9555
彼此	-7.95693
钱	-7.95729
很难	-7.9596
付出	-7.95978
~	-7.96713
肯定	-7.97095
重	-7.97427
的感受	-7.97582
怎样	-7.97734
话	-7.98059
题主你好	-7.98091
岁	-7.98102
他的	-7.98254
建立	-7.98937
长	-7.99113
世界	-7.9929
考虑	-7.99484
期	-7.99812
尊重	-7.99947
容易	-7.99951
自信	-7.99965
作为	-8.00304
怕	-8.00533
意	-8.00552
本	-8.00692
的行为	-8.00767
新	-8.00774
处理	-8.00966
矛盾	-8.01003
压抑	-8.01077
恐惧	-8.0108
完全	-8.01111
头	-8.01214
外	-8.01215
身上	-8.01557
幸福	-8.01581
恋爱	-8.01621
调整	-8.01691
成为	-8.01996
坚持	-8.02027
考	-8.02122
如	-8.02249
分析	-8.02304
毕竟	-8.02478
爱情	-8.03042
保持	-8.03224
不喜欢	-8.03256
婚姻	-8.03493
我们可以	-8.03874
拒绝	-8.03917
结果	-8.04025
带	-8.04063
也有	-8.04119
就像	-8.04146
决定	-8.04794
这么	-8.05265
去做	-8.0541
这件事	-8.05628
会有	-8.06165
楼主你好	-8.06366
一次	-8.06557
谁	-8.07034
动	-8.07067
对待	-8.07432
每天	-8.07803
关于	-8.08053
少	-8.08083
面	-8.08393
的地方	-8.09147
觉得自己	-8.09211
和你	-8.09483
并没有	-8.09688
两	-8.10018
自卑	-8.10212
积极	-8.10474
可能是	-8.10492
世界和我爱着你	-8.10581
曾经	-8.10919
呀	-8.11013
老	-8.11201
回	-8.11247
离开	-8.11261
完成	-8.11304
导致	-8.11363
可是	-8.11677
老公	-8.11776
明白	-8.11848
强	-8.11858
独立	-8.12061
经常	-8.12354
性格	-8.12615
照顾	-8.12676
精神	-8.12764
的时间	-8.12769
不过	-8.12776
自然	-8.13029
需求	-8.13211
全	-8.13301
的情况	-8.13441
理	-8.13555
抱抱你	-8.13595
家长	-8.13761
只能	-8.13792
度	-8.13831
结婚	-8.13909
变	-8.14469
分手	-8.14629
住	-8.14658
别	-8.14841
加油	-8.14999
总	-8.15158
有没有	-8.15266
相	-8.15418
深	-8.15473
男友	-8.1601
我们的	-8.16066
各种	-8.16297
也不	-8.16816
感受到	-8.16821
你现在	-8.16919
目前	-8.17102
支持	-8.17159
更多	-8.17328
紧张	-8.17335
的东西	-8.17491
想法	-8.17781
大学	-8.18043
写	-8.18097
哦	-8.18171
任何	-8.18284
做出	-8.18511
这个问题	-8.18655
两个人	-8.18797
专业	-8.19091
是一种	-8.19196
讲	-8.1963
学校	-8.19694
二	-8.19734
成功	-8.19991
说明	-8.20203
困难	-8.20584
更好的	-8.20601
同学	-8.20873
你会	-8.20917
不太	-8.21106
东西	-8.21177
感觉到	-8.21222
认识	-8.21323
冲突	-8.21541
放	-8.21556
有点	-8.22037
直接	-8.22213
关心	-8.22353
的是	-8.22419
习惯	-8.22451
亲密关系	-8.22524
开心	-8.22717
”。	-8.22768
以上	-8.22999
低	-8.23011
路	-8.23241
值得	-8.23425
有很多	-8.23604
体	-8.23892
放松	-8.24023
一定要	-8.24069
同	-8.24152
一般	-8.24354
即使	-8.24367
正常	-8.24454
请	-8.24589
你要	-8.24643
既然	-8.25108
渴望	-8.25182
期待	-8.25208
该	-8.25526
更多的	-8.25634
都有	-8.26078
见	-8.26416
愤怒	-8.26465
定	-8.26516
我也	-8.2656
那就	-8.27081
描述	-8.27088
言	-8.27098
早	-8.27109
接触	-8.2722
不管	-8.27269
变得	-8.27822
本身	-8.27971
️	-8.28026
内	-8.28038
以前	-8.28117
心理学	-8.2818
好像	-8.2836
你自己	-8.28461
有什么	-8.28521
纠结	-8.2871
病	-8.28946
做的	-8.28976
才会	-8.29224
加	-8.29435
失败	-8.29446
真	-8.29456
社交	-8.29523
之间	-8.29647
放弃	-8.29843
——	-8.30419
无论	-8.30442
的态度	-8.30615
清楚	-8.30639
反应	-8.30803
信任	-8.31107
在意	-8.31422
有一个	-8.31565
你也	-8.31659
快	-8.3174
不敢	-8.32143
把自己	-8.32192
拥有	-8.32633
掉	-8.32798
说话	-8.32799
口	-8.32939
表现	-8.3309
当时	-8.33158
不断	-8.33362
错	-8.3371
分享	-8.33738
运动	-8.33745
行动	-8.33957
谈	-8.34388
如此	-8.34483
做到	-8.34657
另外	-8.34728
的工作	-8.3473
如果是	-8.34927
新的	-8.34945
的影响	-8.35147
抑郁	-8.35556
逃避	-8.3578
花	-8.35797
身边	-8.35872
体验	-8.36001
。【	-8.36133
死	-8.36432
女生	-8.36527
困扰	-8.36697
2	-8.36776
安全感	-8.36858
换	-8.36914
做好	-8.37012
平时	-8.37266
重新	-8.37271
这里	-8.3734
不一样	-8.37503
正	-8.37518
第一	-8.37576
来看	-8.37587
到了	-8.37688
》	-8.37731
大家	-8.38011
对自己的	-8.38267
身	-8.38372
想象	-8.38518
进	-8.38763
玩	-8.38933
《	-8.39069
心理咨询	-8.39097
心情	-8.39181
联系	-8.39272
的朋友	-8.39449
差	-8.39521
不如	-8.39528
有人	-8.3963
那样	-8.39835
不愿意	-8.39938
别人的	-8.40511
很好	-8.40575
是个	-8.40613
其	-8.40714
有了	-8.40763
让他	-8.40876
陪伴	-8.40946
缓解	-8.41328
计划	-8.41392
水	-8.41475
男生	-8.41728
好的	-8.41939
知	-8.41983
是你	-8.42091
放下	-8.42093
由于	-8.42214
寻找	-8.42307
认知	-8.42323
太多	-8.42329
的心理	-8.42553
难过	-8.42653
你说	-8.42995
考试	-8.43202
双方	-8.43321
成绩	-8.43403
当我们	-8.43671
敏感	-8.43783
坏	-8.4392
父母的	-8.43921
难受	-8.43962
拿	-8.44077
其次	-8.44156
模式	-8.44434
1	-8.44506
的方法	-8.44624
苦	-8.44722
名	-8.4495
一切	-8.44997
带来	-8.4538
共同	-8.45484
才是	-8.45505
提出	-8.45581
学生	-8.45692
试着	-8.46095
男朋友	-8.46121
受到	-8.46141
她的	-8.4617
经验	-8.463
每个人	-8.46388
完	-8.46447
给予	-8.46535
阶段	-8.46638
的孩子	-8.46678
重要	-8.46691
人的	-8.47049
具体	-8.47097
自己的情绪	-8.4715
追求	-8.47218
的过程	-8.4743
读	-8.47507
解决问题	-8.47508
爸爸	-8.47537
交往	-8.47606
造成	-8.47615
入	-8.47628
生气	-8.47983
所有	-8.48087
量	-8.48239
也没有	-8.48324
有所	-8.48343
除了	-8.48418
最好	-8.48453
在你	-8.4857
最近	-8.48579
孤独	-8.4859
转	-8.48725
同事	-8.4889
生活中	-8.49131
事件	-8.49278
也就	-8.49701
日	-8.49782
她们	-8.49819
未	-8.49855
互相	-8.49877
让我们	-8.4993
让人	-8.49955
委屈	-8.5
买	-8.50005
每	-8.50241
亲	-8.50243
往	-8.50358
空	-8.50439
人际关系	-8.50449
不了	-8.50497
交	-8.50542
教育	-8.50622
根据	-8.50645
活动	-8.50683
两个	-8.50757
不够	-8.50781
提	-8.50791
治疗	-8.51186
我的	-8.51193
及时	-8.51446
因	-8.51667
你是	-8.51767
因为你	-8.51817
你在	-8.51874
当中	-8.52078
或者是	-8.52278
教	-8.52335
及	-8.52508
你需要	-8.52524
也要	-8.52581
适应	-8.52612
的能力	-8.52826
女	-8.52968
安全	-8.53001
当下	-8.53014
避免	-8.53066
一段	-8.53236
作	-8.53447
从而	-8.53629
自身	-8.53671
认可	-8.53758
原生家庭	-8.53777
的压力	-8.53936
不舒服	-8.53994
里面	-8.54408
。2.	-8.54496
哭	-8.54568
道	-8.54672
机会	-8.54884
儿	-8.54947
知识	-8.5497
对你的	-8.55019
丈夫	-8.55088
不用	-8.55277
你觉得	-8.55527
觉察	-8.55529
提升	-8.55546
属于	-8.55639
就可以	-8.55878
下来	-8.5588
优秀	-8.55995
使	-8.56073
内心的	-8.56232
美	-8.56468
变化	-8.56833
由	-8.56851
释放	-8.56887
帮	-8.5692
一方面	-8.57037
离婚	-8.57222
事实	-8.5724
心理咨询师	-8.57272
解	-8.5731
。️	-8.57369
这件事情	-8.57482
伤	-8.57553
某些	-8.57589
精力	-8.57651
孩子的	-8.57978
后来	-8.58071
上的	-8.58105
什么样的	-8.58184
依赖	-8.587
进入	-8.58757
不需要	-8.58763
内在	-8.58815
便	-8.58842
处	-8.58851
亲密	-8.58957
越来越	-8.58968
你对	-8.59319
减少	-8.59566
同样	-8.59579
鼓励	-8.59761
光	-8.59837
的需求	-8.5985
处于	-8.59953
家里	-8.60114
往往	-8.60155
来访者	-8.60184
明	-8.6022
:“	-8.60226
思维	-8.60282
寻求	-8.6034
改善	-8.6051
和他	-8.6071
的看法	-8.60712
的经历	-8.60867
动力	-8.60938
是为了	-8.61189
通	-8.61214
有关	-8.61431
现在的	-8.61444
条件	-8.61504
#	-8.61549
不同的	-8.61717
然	-8.61722
活	-8.61741
领导	-8.61769
求	-8.61828
男人	-8.6188
为自己	-8.61922
严重	-8.62158
理想	-8.62233
长期	-8.62302
必须	-8.62331
型	-8.62802
讨厌	-8.62808
就要	-8.63031
次	-8.6308
3	-8.63222
永远	-8.63381
负责	-8.63389
书	-8.63478
怎么样	-8.635
意识	-8.63616
而已	-8.63627
承担	-8.63629
经济	-8.6376
远	-8.64063
达到	-8.64229
尽量	-8.64314
挺	-8.64431
暂时	-8.64441
第二	-8.64535
~。	-8.64598
放在	-8.64621
的角度	-8.64674
判断	-8.64712
哪	-8.6479
十	-8.64812
真正的	-8.65028
实现	-8.65043
很多人	-8.65081
视	-8.65171
兴趣	-8.65269
是在	-8.6537
承受	-8.65379
更好	-8.6541
时候	-8.65556
尽	-8.65562
评价	-8.65783
难以	-8.65925
注意	-8.65968
不再	-8.65976
背后	-8.66002
自由	-8.66076
准备	-8.6608
认真	-8.66201
实	-8.66385
流	-8.66553
医生	-8.66581
的感情	-8.66583
5	-8.6659
因素	-8.66691
异性	-8.66703
年龄	-8.66728
形成	-8.66854
小时候	-8.66975
很好的	-8.67035
主	-8.6731
眼	-8.67353
那种	-8.67411
倾诉	-8.67484
认同	-8.67535
到底	-8.67741
力量	-8.67784
抑郁症	-8.67959
想想	-8.68246
包括	-8.68282
-	-8.68328
最终	-8.68528
离	-8.68587
这种情况	-8.68679
安	-8.68813
是有	-8.69037
失去	-8.69097
几	-8.69199
养	-8.69218
很容易	-8.69277
高中	-8.6946
调	-8.69516
回答	-8.69541
跟你	-8.69921
不可	-8.69937
你想	-8.6994
潜意识	-8.70214
痛	-8.70255
单	-8.70362
他们的	-8.70564
聊天	-8.70583
有一些	-8.70587
累	-8.70641
常	-8.71062
反	-8.71111
也不会	-8.71136
信息	-8.71144
所以你	-8.7122
让我	-8.71221
不妨	-8.71342
中的	-8.71716
近	-8.71887
女性	-8.71968
意义	-8.72005
叫	-8.7204
的结果	-8.72048
你就	-8.72092
利	-8.72206
应	-8.72259
断	-8.72424
美好	-8.72556
回应	-8.72674
就好	-8.72957
心态	-8.72991
很大	-8.73465
反而	-8.73557
白	-8.73658
干	-8.7367
课	-8.73695
第三	-8.73781
管	-8.73793
合	-8.7402
想到	-8.7402
生命	-8.74295
取	-8.74343
几个	-8.74372
过度	-8.74575
意识到	-8.74787
培养	-8.74845
这个时候	-8.74909
轻松	-8.74926
温暖	-8.75068
告诉	-8.75289
一段时间	-8.75408
享受	-8.7548
则	-8.75576
做什么	-8.75625
对方的	-8.75922
某	-8.76157
既	-8.76161
非	-8.76231
手机	-8.76316
————	-8.76446
些	-8.76491
应对	-8.765
回到	-8.76507
待	-8.76511
就不会	-8.76654
题	-8.76682
很重要	-8.76975
出去	-8.77171
方向	-8.77295
程度	-8.77323
确定	-8.7735
的过程中	-8.7739
接纳自己	-8.77534
退	-8.77744
很多时候	-8.77769
哪些	-8.77782
错误	-8.77858
每次	-8.77885
愿	-8.78038
价值	-8.78163
态度	-8.78204
爱自己	-8.78311
根本	-8.78573
也不是	-8.78709
人们	-8.79045
选	-8.79092
稳定	-8.7953
比如说	-8.80034
的心情	-8.80056
应该是	-8.80187
迷茫	-8.80211
物	-8.80235
相互	-8.80398
步	-8.80427
女朋友	-8.80446
短	-8.80554
指	-8.80658
增加	-8.80693
吵架	-8.80704
睡	-8.80726
即	-8.81089
落	-8.81189
已	-8.81257
平	-8.81354
大脑	-8.81365
烦恼	-8.81404
效果	-8.81459
多少	-8.81527
引起	-8.81677
长大	-8.81738
变成	-8.81862
下去	-8.8197
推	-8.81998
晚	-8.82175
让她	-8.82232
健康	-8.82244
这一点	-8.82293
重视	-8.82392
线	-8.82447
看到你	-8.82565
答案	-8.82674
高考	-8.82704
半	-8.82858
困惑	-8.82877
面前	-8.82934
进步	-8.82976
聊	-8.83019
简单	-8.83213
还要	-8.83224
性的	-8.8325
爱你	-8.83512
语	-8.83569
你好呀	-8.83582
弱	-8.83619
种	-8.8362
安排	-8.83636
和父母	-8.83677
产生了	-8.83813
责任	-8.8387
持续	-8.84006
门	-8.84013
帮助你	-8.84016
事物	-8.84017
还会	-8.84078
过于	-8.84214
的性格	-8.84245
会不会	-8.84249
一天	-8.84262
提高	-8.84414
祝	-8.84605
依然	-8.84615
信	-8.84708
强大	-8.84756
包容	-8.84863
真实	-8.84902
说的	-8.84906
女儿	-8.84945
算	-8.85222
外界	-8.85283
缺乏	-8.85323
自责	-8.85366
也很	-8.85513
的帮助	-8.856
公司	-8.85653
们	-8.85808
否定	-8.85882
按照	-8.85887
留	-8.85905
一点点	-8.85958
其中	-8.8612
陷入	-8.86188
今天	-8.86307
笑	-8.86531
于是	-8.86533
的表现	-8.86762
成熟	-8.86965
还没有	-8.8697
表	-8.87042
清	-8.87121
其实是	-8.87219
和别人	-8.87247
在于	-8.8729
突然	-8.87296
女人	-8.87346
或者说	-8.87423
无助	-8.87552
安慰	-8.87608
其他人	-8.87697
解释	-8.87803
读书	-8.8784
这就是	-8.87858
尤其是	-8.87998
连	-8.88035
吸引	-8.88087
规划	-8.88224
在乎	-8.88238
不足	-8.88489
没有办法	-8.88704
位	-8.88882
切	-8.88884
自己的想法	-8.89012
理性	-8.89025
有着	-8.89126
婆婆	-8.89136
车	-8.89143
的一种	-8.89232
且	-8.89244
指责	-8.89268
的情感	-8.89277
了很多	-8.89385
调节	-8.89432
没有人	-8.89443
练习	-8.8946
至于	-8.89595
至少	-8.89795
一生	-8.89957
不必	-8.89977
改	-8.90118
倒	-8.90121
为你	-8.90134
探索	-8.90154
看待	-8.90204
约	-8.90207
此	-8.90241
保护	-8.90252
伴侣	-8.9027
顺	-8.90272
文	-8.90291
停	-8.90336
观察	-8.90449
你已经	-8.90475
就能	-8.90475
也能	-8.90541
职业	-8.90632
舒服	-8.90705
一旦	-8.90766
忙	-8.90808
明确	-8.90887
走出	-8.91088
相对	-8.91273
就算	-8.91347
都不	-8.91717
出轨	-8.91854
或是	-8.91855
看见	-8.91866
攻击	-8.9199
间	-8.92065
休息	-8.92133
拉	-8.92309
逐渐	-8.92343
慢慢的	-8.92392
收获	-8.92495
。2、	-8.92582
失	-8.92654
负面情绪	-8.92655
距离	-8.92659
这个人	-8.92694
节	-8.92715
一定会	-8.9283
做一些	-8.92874
毕业	-8.92929
的爱	-8.93234
"	-8.93358
在这里	-8.93501
公	-8.93771
可以通过	-8.93846
.	-8.94162
是需要	-8.94213
万	-8.94223
您的	-8.94238
建议你	-8.9424
轻	-8.94483
提到	-8.94503
我们需要	-8.94597
不容易	-8.94674
热	-8.9485
而言	-8.94954
的心态	-8.9513
有个	-8.95149
法	-8.95209
。(	-8.9521
带着	-8.95261
所有的	-8.95318
类	-8.95529
条	-8.95533
一句话	-8.9585
都没有	-8.95911
四	-8.95995
场	-8.96087
足够	-8.96134
记得	-8.96188
是很	-8.96192
是我们	-8.96228
发泄	-8.96328
初	-8.96512
对象	-8.96778
觉	-8.96784
方	-8.96993
结	-8.9706
不去	-8.97308
负面	-8.97349
女孩	-8.97406
现象	-8.976
每个	-8.97644
靠	-8.97799
希望你	-8.97886
标准	-8.97905
时期	-8.97923
不到	-8.97986
各	-8.98035
抱抱	-8.98116
过程中	-8.98125
这份	-8.98201
面临	-8.98368
做了	-8.98526
症	-8.98607
亲人	-8.98735
的确	-8.98751
的机会	-8.98821
后悔	-8.99013
睡眠	-8.99142
),	-8.99146
怀疑	-8.99181
闹	-8.99296
部分	-8.99342
美好的	-8.99358
您好	-8.99365
梦	-8.99374
权	-8.99474
喜	-8.99499
也就是	-8.9963
带来的	-8.99861
症状	-8.99885
真诚	-8.99887
适合	-8.99936
的认知	-8.99986
风	-8.99992
能量	-9.00121
不安	-9.00124
它们	-9.00137
是可以	-9.00141
不知道你	-9.0024
的人生	-9.00298
不可能	-9.0046
班	-9.00534
楼主的	-9.0055
有时	-9.00622
我们要	-9.00658
观	-9.0066
弟弟	-9.00717
是否有	-9.00857
互动	-9.00975
创伤	-9.01004
回忆	-9.01033
归	-9.01059
真实的	-9.01108
机	-9.01118
要学会	-9.01131
还可以	-9.01157
有可能	-9.01256
语言	-9.01268
生活的	-9.01528
恋	-9.01592
一份	-9.01627
会觉得	-9.01715
不开心	-9.01721
婚	-9.01852
送	-9.01894
他人的	-9.01972
主要	-9.02041
道理	-9.02056
举	-9.02145
提供	-9.02148
我就	-9.02191
的情况下	-9.0226
都可以	-9.02372
以为	-9.02384
糟糕	-9.02406
道德	-9.02513
报	-9.02623
给他	-9.0266
晚上	-9.02847
过程	-9.02898
之间的	-9.02915
恨	-9.02974
仍然	-9.02988
没有什么	-9.03
客观	-9.03022
结束	-9.03069
你所	-9.03085
最好的	-9.03151
接下来	-9.03157
文字	-9.03164
较	-9.03177
随	-9.03332
信心	-9.03403
科	-9.03413
乱	-9.03604
与你	-9.03616
从小	-9.03623
通常	-9.03624
失望	-9.03967
也许你	-9.04057
久	-9.04083
我相信	-9.04237
相信自己	-9.04257
色	-9.04282
合适的	-9.04287
立	-9.04313
内向	-9.04414
制	-9.04415
反思	-9.04468
追	-9.0455
活着	-9.04745
另一方面	-9.04861
熟悉	-9.04916
这也是	-9.05014
的意义	-9.05049
声	-9.05088
数	-9.05151
急	-9.05285
状况	-9.0535
不满	-9.05414
记忆	-9.05462
平衡	-9.05511
件	-9.05595
过去的	-9.05738
站在	-9.05784
这个世界	-9.05787
心中	-9.05878
照	-9.05908
女孩子	-9.0594
男	-9.06128
级	-9.06186
何	-9.06305
正确	-9.06306
为什么会	-9.06428
若	-9.06435
求助	-9.0645
也需要	-9.06553
一部分	-9.06573
说出	-9.0658
担忧	-9.06599
的痛苦	-9.06628
办法	-9.06753
做事	-9.06773
是自己	-9.06814
都在	-9.06824
把你	-9.06851
锻炼	-9.06869
代	-9.06911
幻想	-9.06939
生理	-9.06949
许多	-9.07023
刚	-9.07055
极	-9.0709
足	-9.07175
的选择	-9.07201
一定的	-9.07313
词	-9.07375
给你带来	-9.07497
和对方	-9.07527
的一些	-9.07531
不仅	-9.07537
完美	-9.07667
让他们	-9.0769
证明	-9.07812
女友	-9.07816
有些人	-9.07857
不被	-9.07981
偏	-9.08116
类似	-9.08127
勇敢	-9.08247
可以尝试	-9.08303
的环境	-9.08398
直	-9.08432
观念	-9.08455
告诉你	-9.08465
合理	-9.08496
正常的	-9.08669
层面	-9.08744
师	-9.09055
爱的	-9.09077
亲爱的	-9.09151
游戏	-9.09244
回来	-9.09316
你能	-9.09354
你有	-9.09438
真心	-9.0947
人格	-9.09483
原	-9.09483
批评	-9.09483
童年	-9.09715
懂	-9.09824
修	-9.09884
作用	-9.09888
字	-9.09912
费	-9.10011
关	-9.10032
说明你	-9.10123
有的人	-9.10232
啦	-9.10239
自己的内心	-9.10487
还是要	-9.10503
刺激	-9.10602
妻子	-9.1082
穿	-9.10894
进一步	-9.1112
说出来	-9.11125
消极	-9.11135
地方	-9.11343
的目标	-9.1139
看起来	-9.11494
而你	-9.11534
拥抱	-9.1159
从你的描述中	-9.11639
～。	-9.11649
正确的	-9.11912
关爱	-9.11918
假	-9.11922
跑	-9.12014
身心	-9.12053
骂	-9.12087
思想	-9.12109
同时也	-9.12115
的一个	-9.12263
。3.	-9.12265
辛苦	-9.12338
空间	-9.12393
允许	-9.12443
犯	-9.12448
改变自己	-9.12662
姐姐	-9.12677
角度	-9.12705
喜欢的	-9.12723
任务	-9.12758
在这个	-9.12766
神	-9.12801
1.	-9.12807
式	-9.1282
障碍	-9.12846
的部分	-9.12883
摆脱	-9.12898
做自己	-9.13141
试	-9.13161
有过	-9.13183
这段	-9.13212
分开	-9.13213
去面对	-9.1342
管理	-9.13566
随着	-9.13604
内容	-9.13644
你的问题	-9.1369
感谢	-9.13716
2.	-9.13769
收	-9.13893
考研	-9.14019
告诉自己	-9.14056
嫉妒	-9.14382
对他	-9.14528
压	-9.14546
积累	-9.146
和她	-9.14736
擅长	-9.14795
终	-9.14822
自己的生活	-9.14857
引导	-9.14927
男性	-9.14955
个体	-9.15029
大概	-9.15073
的样子	-9.1511
慢	-9.15187
:1、	-9.15198
曾	-9.15204
了一个	-9.15262
儿子	-9.15287
都要	-9.15333
善良	-9.15346
一定是	-9.15407
但是你	-9.1544
的力量	-9.15565
一件事	-9.15653
期望	-9.15772
来自	-9.15795
上面	-9.15885
针对	-9.15935
一件	-9.16225
楼楼	-9.16256
经过	-9.16288
知道自己	-9.16305
原谅	-9.1634
实际上	-9.16378
绝	-9.16399
是非常	-9.16404
。3、	-9.1644
五	-9.16453
耐心	-9.16664
吃饭	-9.16727
跟他	-9.16839
的家庭	-9.1693
哪里	-9.17094
珍惜	-9.1719
6	-9.17246
脸	-9.17297
看了	-9.17337
乐	-9.17351
以下	-9.17405
看来	-9.17423
冲动	-9.17619
维持	-9.17946
参加	-9.18147
接	-9.1825
过来	-9.1826
顺利	-9.18282
做的事情	-9.18308
克服	-9.18442
的学习	-9.18597
改变的	-9.18657
每个人都	-9.18686
充满	-9.18745
伤心	-9.18827
会让你	-9.19091
体会	-9.19133
帮你	-9.19209
悲伤	-9.1924
职场	-9.19241
相关	-9.19275
成年人	-9.19329
大家都	-9.19443
讨论	-9.19607
然而	-9.19698
谈恋爱	-9.19779
资源	-9.19796
命	-9.19979
相信你	-9.20219
满	-9.203
国	-9.20357
实际	-9.2037
绝对	-9.20462
记	-9.20477
品	-9.20534
倾听	-9.20682
格	-9.20683
的小	-9.20691
念	-9.20736
系统	-9.20785
看到了	-9.20803
一年	-9.20824
群	-9.20825
的要求	-9.20925
哪怕	-9.21015
挑战	-9.21037
第一次	-9.21038
看法	-9.21042
无论是	-9.21071
再次	-9.21155
好处	-9.21162
没办法	-9.21212
深入	-9.21332
不爱	-9.21349
对吗	-9.21366
月	-9.2152
麻烦	-9.21575
感兴趣	-9.21658
想着	-9.21803
很正常	-9.21857
讨好	-9.21933
预	-9.21966
抱怨	-9.22156
很大的	-9.22176
之所以	-9.2227
回避	-9.22281
说了	-9.22389
止	-9.22441
负	-9.22476
/	-9.22673
让孩子	-9.22738
不好的	-9.22774
陪	-9.22808
得不到	-9.22835
境	-9.22863
希望能	-9.22863
基本	-9.22951
夫妻	-9.23078
打击	-9.23129
十分	-9.23192
百	-9.23193
爱好	-9.23232
周	-9.23238
装	-9.23366
论	-9.23394
基础	-9.23446
证	-9.23481
理解你	-9.235
找个	-9.2358
这一	-9.23651
怎么做	-9.23802
工	-9.23852
理论	-9.24059
救	-9.24075
睡觉	-9.24132
容	-9.24151
程	-9.24193
本能	-9.24283
和自己	-9.24305
你也可以	-9.24393
适当的	-9.24454
这段感情	-9.24513
的焦虑	-9.24514
是正常的	-9.24548
丢	-9.2459
被人	-9.24639
补	-9.24647
火	-9.24809
感觉自己	-9.24865
你还	-9.2493
专业的	-9.24986
总结	-9.24998
过得	-9.25013
关系的	-9.25049
青春期	-9.2522
听到	-9.25231
欣赏	-9.2524
不然	-9.25246
食	-9.25394
着你	-9.25536
脾气	-9.25547
药	-9.25568
烦	-9.25688
冷	-9.25796
淡	-9.25797
山	-9.25851
)。	-9.25942
小孩	-9.2597
脚	-9.26031
冥想	-9.26049
长时间	-9.2608
懂得	-9.2608
不行	-9.26092
自己的感受	-9.26136
因为我们	-9.26162
。2	-9.26186
很少	-9.26207
*	-9.2624
出现了	-9.26301
自杀	-9.26318
对我	-9.26381
一件事情	-9.26435
遇见	-9.26486
精	-9.26574
也就是说	-9.26662
某种	-9.26706
一切都	-9.26863
可以先	-9.26894
那么多	-9.26949
良好的	-9.27192
血	-9.27334
楼主可以	-9.27375
满意	-9.27398
受伤	-9.27609
好朋友	-9.27783
提醒	-9.27871
具有	-9.2789
积极的	-9.27914
强迫	-9.27996
提问	-9.28004
抱	-9.28005
疾病	-9.28089
特点	-9.28253
分离	-9.28263
即便	-9.2837
回家	-9.28536
一直在	-9.28565
发生了	-9.28605
有一种	-9.28622
技能	-9.28651
遗憾	-9.28754
就不	-9.28801
能不能	-9.28941
众	-9.28948
人类	-9.29103
外在	-9.29136
边界	-9.29198
存	-9.29203
做一个	-9.29209
表达自己	-9.29262
现状	-9.2929
合适	-9.29358
缺点	-9.29393
祝你	-9.2941
暴力	-9.29431
定义	-9.29485
是怎样的	-9.2953
优	-9.29538
和谐	-9.29555
见字如面	-9.29602
当初	-9.29642
按	-9.29648
喝	-9.2968
部	-9.29755
你说的	-9.29776
不知	-9.29817
常常	-9.2991
后面	-9.29934
很多事情	-9.29935
一步	-9.30155
推荐	-9.30322
剧	-9.30438
张	-9.30495
要么	-9.30498
检查	-9.30529
学业	-9.30643
有能力	-9.30671
找一个	-9.30698
助	-9.30707
无力	-9.30776
其他的	-9.30926
忘记	-9.30942
是不	-9.30957
一位	-9.30967
目的	-9.31017
。#	-9.31083
挫折	-9.31106
表示	-9.31153
偶尔	-9.31273
利用	-9.31294
任	-9.31347
。3	-9.3151
着急	-9.31676
经历过	-9.31774
这方面	-9.31784
过分	-9.31809
只会	-9.31816
脆弱	-9.31886
聊聊	-9.31886
你很	-9.31896
大部分	-9.31914
不自信	-9.3207
创造	-9.32204
疗愈	-9.32255
祝福你	-9.32351
意味着	-9.32384
身边的人	-9.32614
味	-9.32889
坚定	-9.32953
:1.	-9.33086
多了	-9.33138
什么事情	-9.33151
最重要的	-9.33169
饭	-9.33262
认为自己	-9.33319
在家	-9.33345
我们都	-9.33375
好了	-9.33485
心灵	-9.33501
争吵	-9.3351
了解到	-9.33554
恶	-9.33559
远离	-9.33559
的世界	-9.33598
某个	-9.33644
保	-9.33645
尽管	-9.33681
不对	-9.33687
别的	-9.33724
恢复	-9.33728
你内心	-9.33733
消	-9.33782
如果我们	-9.33901
职	-9.34
微	-9.34025
有效	-9.3405
唯一	-9.34053
仔细	-9.34086
都会有	-9.34173
水平	-9.34237
只要你	-9.34255
阅读	-9.34305
让对方	-9.34307
如果没有	-9.34328
实在	-9.34343
小事	-9.34392
我认为	-9.34463
经	-9.34544
各自	-9.34678
反复	-9.34698
善	-9.347
就好了	-9.34716
足够的	-9.34741
允许自己	-9.34796
一边	-9.34844
降低	-9.34859
太大	-9.34893
我个人	-9.34947
20	-9.34952
原来	-9.34973
层	-9.35006
了解自己	-9.35106
注意力	-9.35212
传	-9.35248
失眠	-9.35285
情况下	-9.35298
双	-9.35304
沉	-9.35327
世	-9.35334
每个人都有	-9.35465
争	-9.35539
关键	-9.35583
没什么	-9.35592
话题	-9.35693
这些问题	-9.35724
医	-9.35771
边	-9.35785
我们会	-9.35928
自己内心	-9.35986
你的感受	-9.36119
友谊	-9.36157
好奇	-9.3617
的心	-9.36336
理智	-9.36516
对你来说	-9.3657
4	-9.36773
怪	-9.36825
留下	-9.36862
什么时候	-9.36905
共	-9.36922
梳理	-9.3694
坐	-9.36947
有自己的	-9.36968
缘	-9.36997
找不到	-9.37005
全部	-9.37035
破	-9.37036
样	-9.3709
原则	-9.37124
居	-9.37181
第	-9.3721
的内心	-9.37244
必要	-9.37305
反馈	-9.37318
可以试着	-9.37371
宝	-9.37419
简单的	-9.37445
余	-9.37474
的建议	-9.37566
你可能	-9.37576
利益	-9.37655
虚	-9.37665
无奈	-9.37707
不一定	-9.37851
丰富	-9.37852
不断的	-9.37926
也不要	-9.38023
温柔	-9.38078
想一想	-9.38087
心疼	-9.38151
自己身上	-9.38178
忽视	-9.38234
但你	-9.38269
夜	-9.38288
e	-9.38379
本来	-9.38474
忍	-9.38558
备	-9.38654
烦躁	-9.38666
这次	-9.38738
投入	-9.38833
这段关系	-9.38847
适当	-9.38848
小时	-9.38888
跳	-9.38979
之中	-9.39023
竞争	-9.39104
了自己	-9.39188
一下自己	-9.39264
控	-9.39303
自己喜欢的	-9.39345
人生的	-9.39403
事业	-9.39408
紧	-9.3945
包	-9.39476
借	-9.39479
真的很	-9.39534
生存	-9.39544
去找	-9.39582
探讨	-9.3972
可以看出	-9.39753
对孩子	-9.39796
也是一种	-9.398
冷静	-9.39874
例如	-9.39988
这样做	-9.40078
评判	-9.40165
好好的	-9.40251
将来	-9.4028
否则	-9.4041
私	-9.40418
一句	-9.40532
...	-9.40658
遇	-9.40691
苦恼	-9.40703
的存在	-9.4073
排斥	-9.40757
帮忙	-9.40793
和孩子	-9.40812
制定	-9.40968
依恋	-9.40995
脑	-9.41064
服	-9.41171
做不到	-9.41353
问题的	-9.41361
更容易	-9.41385
如果有	-9.41408
勇气	-9.41512
物质	-9.41619
重复	-9.4163
的评价	-9.41713
影响到	-9.41729
细	-9.4184
一方	-9.41868
说你	-9.41887
的责任	-9.42082
么	-9.42093
重要的	-9.42151
的期待	-9.42296
选择了	-9.42346
保护自己	-9.42511
象	-9.42542
正是	-9.42578
拖延	-9.42604
妹妹	-9.42785
产	-9.42821
顾	-9.42828
刻意	-9.42858
围	-9.42902
会出现	-9.42905
感受到了	-9.42999
和朋友	-9.4305
真的是	-9.43069
尝试着	-9.43153
你会发现	-9.43178
未来的	-9.43348
掌握	-9.43379
现	-9.434
贵	-9.4347
每一个	-9.43501
所谓的	-9.43512
怎么办	-9.43517
初中	-9.43585
最大的	-9.43652
认识到	-9.43707
当成	-9.43709
一致	-9.4371
宣泄	-9.4378
静	-9.43841
角色	-9.43855
夸	-9.43931
困境	-9.43948
时刻	-9.44002
找到自己	-9.44018
下次	-9.44049
声音	-9.44089
时代	-9.44112
不上	-9.44114
给了	-9.44141
结合	-9.44164
一时	-9.44195
金	-9.443
硬	-9.44322
啥	-9.44336
年轻	-9.44338
你就会	-9.44341
不管是	-9.44397
不得不	-9.44438
使用	-9.44439
回复	-9.44476
多么	-9.44477
尴尬	-9.44493
清晰	-9.44512
去看	-9.44542
独处	-9.44602
过往	-9.44617
方面的	-9.44658
母	-9.44659
片	-9.44724
的信息	-9.44764
千	-9.44873
海	-9.44891
总之	-9.44944
医院	-9.45014
的困扰	-9.45066
你们的	-9.45137
我很	-9.45164
的目的	-9.45165
去改变	-9.45293
不应该	-9.45361
保证	-9.4537
不完美	-9.45431
如果他	-9.45631
缺少	-9.45677
类型	-9.45711
分钟	-9.45723
子女	-9.45812
校	-9.45893
ta	-9.45904
参考	-9.45918
可以去	-9.46022
引发	-9.46053
给我	-9.46156
+	-9.46206
搞	-9.46294
的内容	-9.46325
a	-9.46385
你应该	-9.46397
几乎	-9.46472
发生了什么	-9.46549
题主的	-9.46654
另一个	-9.46664
室友	-9.46704
什么都	-9.46782
故事	-9.46824
采取	-9.46953
逼	-9.46958
有一定的	-9.46976
几年	-9.47035
问问	-9.47061
质	-9.47076
段	-9.47138
大多数	-9.47185
在你的	-9.47197
是一件	-9.47211
情绪的	-9.47228
战	-9.4734
对她	-9.47382
代表	-9.47439
排	-9.47517
充	-9.47554
作业	-9.47611
发现自己	-9.47616
确实是	-9.47715
必	-9.47751
思	-9.47782
意见	-9.47986
一辈子	-9.481
了你的	-9.48135
背	-9.4814
效	-9.48166
题主说	-9.48197
生病	-9.48221
业	-9.48243
迷	-9.48245
洗	-9.48344
缺	-9.48386
你的内心	-9.4844
整个	-9.48472
死亡	-9.48522
你是否	-9.48525
和他们	-9.48552
想办法	-9.48556
专注	-9.48565
查	-9.48589
界限	-9.48591
望	-9.48622
慢慢地	-9.48695
特质	-9.48756
心理问题	-9.48811
~~~	-9.48937
处在	-9.48951
提升自己	-9.4902
暗示	-9.4902
哪个	-9.49063
迟	-9.49081
聚	-9.49091
诊断	-9.49107
思考一下	-9.49134
研究	-9.49134
问问自己	-9.49167
也会有	-9.49182
不够好	-9.49271
怀	-9.49294
你没有	-9.49295
在生活中	-9.49317
疑	-9.49363
参与	-9.49466
路上	-9.4963
见面	-9.49641
散	-9.49677
有的时候	-9.4969
脱	-9.49691
的动力	-9.49787
:1	-9.49821
给孩子	-9.49824
是很正常的	-9.49844
值	-9.50055
争取	-9.50126
特	-9.5014
成年	-9.5023
说说	-9.50276
复	-9.50315
有机会	-9.50363
意思	-9.50379
再去	-9.50383
明明	-9.50411
了吗	-9.50453
发挥	-9.50521
果	-9.50618
妈	-9.50677
训练	-9.50755
承认	-9.5076
就需要	-9.50806
一些事情	-9.50834
也许是	-9.50848
的观点	-9.50871
这也	-9.50909
可怕	-9.50957
也不能	-9.51063
那么就	-9.51117
言语	-9.51157
来讲	-9.51209
我会	-9.51256
强烈	-9.51269
越是	-9.51302
长久	-9.51424
的经验	-9.51426
这时候	-9.51437
依靠	-9.51451
我们自己	-9.51465
必然	-9.51468
普通	-9.51473
圈子	-9.5148
多大	-9.51533
这句话	-9.51582
练	-9.51628
关系中	-9.51635
忽略	-9.51645
观点	-9.51652
只不过	-9.51753
六	-9.51763
占	-9.51905
谈谈	-9.51948
两人	-9.51974
存在的	-9.52016
限	-9.52165
与其	-9.52171
上学	-9.52178
抗拒	-9.5236
看书	-9.52397
坦诚	-9.52442
亲戚	-9.52457
o	-9.52476
表明	-9.52559
经营	-9.52611
掌控	-9.52613
邀请	-9.52638
马	-9.52643
并非	-9.52746
忘	-9.52786
网络	-9.52851
图	-9.53041
自己想要的	-9.53061
的方式来	-9.53062
表达出来	-9.53069
三个	-9.5313
不确定	-9.53176
体现	-9.53299
这些事情	-9.53299
理由	-9.53325
有一天	-9.53332
在心里	-9.53369
电影	-9.53398
你的父母	-9.5344
文化	-9.5345
那里	-9.53459
反抗	-9.53467
自尊	-9.53523
害	-9.53582
特别是	-9.5367
优点	-9.53685
这些都是	-9.5369
平静	-9.53694
所以我们	-9.53725
爱人	-9.53737
那么你	-9.53749
内心深处	-9.53811
形式	-9.53823
那是	-9.53902
你提到	-9.53918
行业	-9.53949
的父母	-9.54056
每天都	-9.54283
让你感到	-9.54295
自信心	-9.54335
总会	-9.54395
左右	-9.54433
成了	-9.54455
人际交往	-9.54611
但我	-9.54613
打开	-9.54633
醒	-9.54675
呼吸	-9.54836
出来的	-9.54863
你老公	-9.54879
遇到了	-9.54897
有这样的	-9.54898
和家人	-9.54932
失去了	-9.54959
复杂	-9.55033
羡慕	-9.55037
让别人	-9.55066
充实	-9.5508
动机	-9.55102
吵	-9.55204
希望自己	-9.55232
并不能	-9.55241
信念	-9.55381
神经	-9.55387
底	-9.5539
高兴	-9.55391
身份	-9.55405
假如	-9.55448
区	-9.55451
友情	-9.55516
可以选择	-9.55577
期间	-9.55582
缓	-9.55639
治愈	-9.55664
没有得到	-9.55676
日常	-9.55761
希望你能	-9.55818
可以在	-9.55871
投射	-9.56002
差异	-9.56063
与人	-9.5608
的沟通	-9.56284
##	-9.56314
会让	-9.56463
来自于	-9.56589
把自己的	-9.5664
谢谢	-9.56668
负担	-9.56712
不懂	-9.5675
养成	-9.56763
正在	-9.56798
很难受	-9.56814
球	-9.56816
都需要	-9.56821
我在	-9.56895
易	-9.57147
致	-9.57287
因为我	-9.57308
充分	-9.57316
是指	-9.57324
犯错	-9.57329
2、	-9.57339
A	-9.57343
上班	-9.57347
强烈的	-9.57369
告诉他	-9.57408
猜测	-9.5742
的方向	-9.57451
第一步	-9.57584
的反应	-9.57667
奶奶	-9.57696
平台	-9.578
的一面	-9.5793
我知道	-9.57957
一开始	-9.57972
”“	-9.57983
可以找	-9.57994
技巧	-9.58069
劝	-9.58074
还在	-9.58174
我们在	-9.58176
是怎么	-9.58201
这是一个	-9.58226
提前	-9.58246
是最	-9.583
房	-9.58355
想起	-9.58375
题主可以	-9.58416
遭遇	-9.58438
与他人	-9.58457
平等	-9.58465
很累	-9.58528
升	-9.58577
早日	-9.58676
人际	-9.58676
成长的	-9.5874
会更	-9.58776
露	-9.58781
被爱	-9.58812
自身的	-9.58862
很痛苦	-9.58907
画	-9.58918
这就	-9.58922
但是我	-9.58991
相似	-9.59079
一条	-9.59092
藏	-9.59219
准	-9.59226
有哪些	-9.59333
始终	-9.59411
男女	-9.59492
在学校	-9.59576
造成的	-9.59693
磨	-9.59822
之类的	-9.59829
喜欢你	-9.59896
心理医生	-9.59927
用心	-9.60017
形	-9.60095
称	-9.60159
网	-9.60171
大的	-9.60192
时光	-9.60281
黑	-9.60341
嘴	-9.60345
都能	-9.60366
误会	-9.60392
独	-9.60401
看了你的描述	-9.60402
被别人	-9.60416
他会	-9.60417
倾向	-9.60481
还能	-9.60526
首先要	-9.6058
一场	-9.60589
可以多	-9.60606
●	-9.60659
爸妈	-9.60707
安静	-9.60712
衣服	-9.60722
学历	-9.60725
身边的	-9.60763
界	-9.60796
怒	-9.60813
消失	-9.60822
欲	-9.60843
两种	-9.60868
潜	-9.60889
能否	-9.60889
把握	-9.60957
在家里	-9.60996
为什么要	-9.60998
属	-9.61021
固	-9.61044
太过	-9.61085
八	-9.61094
10	-9.61182
不满意	-9.61209
描述中	-9.61342
之外	-9.61353
说过	-9.61411
集中	-9.61435
那么我们	-9.6152
你是一个	-9.61527
疫情	-9.6154
计	-9.6163
欲望	-9.61656
没关系	-9.61663
句	-9.61669
困	-9.61691
的恐惧	-9.61694
成就感	-9.61732
能理解	-9.61782
己	-9.61788
母亲的	-9.61827
造成了	-9.62016
7	-9.621
眼里	-9.62166
嘛	-9.62217
有助于	-9.62227
比较好	-9.62231
你们之间	-9.62247
尽可能	-9.62262
看着	-9.62303
融入	-9.6231
前任	-9.62312
闲	-9.62389
合理的	-9.62423
的办法	-9.62441
激	-9.62496
就有	-9.62508
相同	-9.62555
这种感觉	-9.62582
不起	-9.62656
维护	-9.62694
突破	-9.62696
记住	-9.62746
做得	-9.62787
识	-9.62805
热情	-9.62852
是什么呢	-9.62896
课程	-9.62912
?”	-9.62915
所在	-9.62916
づ	-9.63031
很想	-9.63036
宝宝	-9.63066
疲惫	-9.6307
和他人	-9.63125
平常	-9.63255
你认为	-9.63263
转变	-9.63266
规则	-9.63273
那就是	-9.63389
理解和	-9.63427
记录	-9.63537
在哪里	-9.63548
的成长	-9.63587
度过	-9.63635
任何人	-9.63687
尽力	-9.63849
的同时	-9.6385
愧疚	-9.63915
老板	-9.63962
替	-9.64107
异	-9.64127
阴影	-9.64138
的路	-9.64198
给她	-9.64251
互	-9.64297
那你	-9.64297
正面	-9.64308
失落	-9.64313
效率	-9.64349
在这	-9.64439
甚至是	-9.64563
欺负	-9.64593
志	-9.64653
共情	-9.64682
有效的	-9.64686
带给你	-9.64723
在一个	-9.64769
台	-9.64796
至	-9.64867
每个人的	-9.64896
演	-9.64948
老人	-9.64997
打算	-9.65043
梦想	-9.65075
让楼主	-9.6516
广	-9.6519
素	-9.65215
你的描述	-9.65259
配合	-9.65266
惩罚	-9.65289
不清楚	-9.65343
来的	-9.65355
站	-9.65362
走出来	-9.65409
男孩	-9.65519
妈妈的	-9.6552
这位	-9.65535
的努力	-9.65641
觉得你	-9.65702
愉快	-9.65752
坚强	-9.65781
主观	-9.65824
对我们	-9.65844
的做法	-9.65949
风险	-9.65957
项	-9.66015
隐	-9.66033
节奏	-9.66068
上了	-9.66084
爸爸妈妈	-9.66135
相亲	-9.66146
办	-9.66354
但是我们	-9.6644
自己的人生	-9.66473
周围	-9.66474
是如何	-9.66497
员	-9.66561
直到	-9.66613
为何	-9.66635
彼此的	-9.6676
乐观	-9.66773
回报	-9.66801
可以理解	-9.66857
之一	-9.66875
商量	-9.66964
电	-9.66974
的价值	-9.67136
输	-9.67139
危险	-9.67216
很棒	-9.67249
根	-9.67261
会产生	-9.67332
规律	-9.67333
所谓	-9.67345
聊一聊	-9.67346
更有	-9.67346
对话	-9.67394
持	-9.6741
符合	-9.67445
不得	-9.67448
听听	-9.67491
还需要	-9.67504
这个过程	-9.67584
的相处	-9.67639
究竟	-9.6765
9	-9.67931
厌恶	-9.67936
目前的	-9.67983
的同学	-9.68027
养育	-9.68039
减	-9.68182
缺失	-9.68343
不适	-9.6838
这个世界上	-9.68403
视频	-9.68465
去医院	-9.68518
浪费	-9.68539
循环	-9.6854
恋人	-9.68563
相应的	-9.68572
的意见	-9.68591
出生	-9.68595
挽回	-9.68632
老婆	-9.68671
阳光	-9.68771
被动	-9.68773
闷	-9.68849
还没	-9.68897
当下的	-9.68898
城市	-9.68909
闺蜜	-9.68934
世界上	-9.69059
里的	-9.69079
目	-9.691
家庭的	-9.69171
分析一下	-9.69172
重点	-9.69175
对未来	-9.69246
你想要	-9.69322
架	-9.69337
或许你	-9.69412
弄	-9.69424
做的事	-9.69426
弥补	-9.69437
的优点	-9.69447
奇	-9.69461
不理解	-9.69556
几次	-9.69595
相反	-9.69624
你们的关系	-9.69795
的理由	-9.69806
有帮助	-9.69839
内疚	-9.69842
夫	-9.69843
兴趣爱好	-9.69849
评估	-9.69851
有问题	-9.69919
拖	-9.69942
招	-9.69948
这样的情况	-9.69952
可以从	-9.70018
轻易	-9.70035
惊	-9.70043
忍受	-9.7005
有用	-9.70062
贴	-9.70107
如果对方	-9.70115
喜欢的人	-9.70118
有限	-9.70248
人家	-9.70271
日子	-9.70276
完美的	-9.70288
知道你	-9.70288
优秀的	-9.70406
抗	-9.70411
思路	-9.70435
。*	-9.70452
更好地	-9.70483
也好	-9.70487
那个人	-9.70491
在我们	-9.70546
势	-9.7058
激情	-9.7059
标	-9.70648
成就	-9.70671
首	-9.70677
细节	-9.70681
事实上	-9.70757
依旧	-9.70779
也没	-9.70872
特殊	-9.70873
奖励	-9.70875
在自己	-9.7091
这不是	-9.70914
例	-9.70938
的伤害	-9.71035
未知	-9.71046
带给	-9.71076
领	-9.71079
的权利	-9.71238
需要你	-9.71258
进去	-9.71361
1、	-9.71376
内在的	-9.71389
照顾好自己	-9.71409
成人	-9.71427
呆	-9.71484
会被	-9.71539
因为他	-9.71568
道歉	-9.7161
i	-9.71614
看得出来	-9.71682
的声音	-9.71692
把它	-9.71716
其实你	-9.71736
作为一个	-9.71754
元	-9.71799
纸	-9.72015
非常的	-9.7215
长大了	-9.72169
或许是	-9.72199
患	-9.7229
明显	-9.72293
显得	-9.72302
的婚姻	-9.72351
发脾气	-9.72355
狗	-9.72413
凭	-9.72415
是对	-9.7249
长辈	-9.72511
不值得	-9.72539
姑娘	-9.72539
达成	-9.72583
尽快	-9.72622
守	-9.7263
过了	-9.72657
陌生人	-9.72678
心思	-9.72727
很久	-9.72771
皮	-9.72848
两年	-9.72849
减轻	-9.72852
这么多	-9.72887
除	-9.72889
这是一种	-9.72901
的发展	-9.72908
的变化	-9.72955
密	-9.73024
愉悦	-9.73046
实践	-9.73064
自己也	-9.73079
到你	-9.73096
很强	-9.73102
收入	-9.73102
丧	-9.73108
价值感	-9.73113
马上	-9.73132
将自己	-9.73216
中国	-9.73266
热爱	-9.73331
是什么样的	-9.73378
迫	-9.73404
份	-9.73412
有多	-9.73428
更多的是	-9.73501
体会到	-9.73522
优势	-9.7353
不代表	-9.73585
造	-9.73611
局	-9.73635
休	-9.73683
不错	-9.73825
有意义	-9.73839
启发	-9.7385
勇敢的	-9.73866
你的情绪	-9.73882
支	-9.73995
赚钱	-9.74039
不论	-9.74054
的知识	-9.7408
刚刚	-9.74096
区别	-9.74104
大人	-9.74173
裂	-9.74199
会影响	-9.74221
对别人	-9.74242
0	-9.74314
卡	-9.74319
很快	-9.74482
表白	-9.74564
B	-9.74625
是真的	-9.74647
暴	-9.74661
对此	-9.74723
适	-9.74745
金钱	-9.74791
让你觉得	-9.74798
高三	-9.748
令	-9.74813
类似的	-9.74948
增强	-9.74983
如果真的	-9.7501
你说你	-9.75036
产生的	-9.75051
华	-9.75072
你的想法	-9.75132
必须要	-9.75141
领域	-9.75169
不住	-9.75195
不错的	-9.75254
患者	-9.75256
孤单	-9.75289
可能你	-9.75353
圈	-9.75384
8	-9.754
功能	-9.75444
天天	-9.75462
从你的	-9.75463
室	-9.75492
会很	-9.75568
复习	-9.75619
渐渐	-9.7565
一个人的	-9.75667
与自己	-9.75701
价值观	-9.7573
给我们	-9.75731
比你	-9.75851
能够理解	-9.75875
音乐	-9.75887
刚开始	-9.76027
差距	-9.76043
投	-9.76105
很有	-9.76117
乏	-9.76118
的习惯	-9.76252
同样的	-9.76297
红	-9.76353
牵	-9.76362
了呢	-9.76392
同性恋	-9.76408
的好	-9.76492
姐	-9.7656
是没有	-9.76625
熟	-9.7674
不那么	-9.76836
。1.	-9.76917
打破	-9.76988
是你的	-9.77014
我自己	-9.77029
和行为	-9.77114
题主您好	-9.7713
想过	-9.77287
现实中	-9.77302
功	-9.77313
动物	-9.77314
施	-9.77317
罪	-9.77317
都很	-9.77317
确认	-9.77333
礼物	-9.77349
肯定是	-9.77538
岗位	-9.77558
真实的自己	-9.77563
稳	-9.77569
给你一个	-9.77581
什么呢	-9.77589
笔	-9.77661
怀孕	-9.77691
设	-9.77709
告	-9.77766
隔	-9.77775
与父母	-9.77785
不少	-9.77837
影响了	-9.77859
这种状态	-9.77885
没必要	-9.77931
也可能	-9.78065
技术	-9.78106
途径	-9.78116
年纪	-9.78148
前进	-9.78384
引	-9.78418
挑	-9.78428
了自己的	-9.78457
来源	-9.78494
缺乏安全感	-9.78496
30	-9.78584
给出	-9.78712
调整自己	-9.78732
是因为你	-9.78785
小小的	-9.78834
去学习	-9.78863
七	-9.78894
态	-9.78894
亲近	-9.78942
会对	-9.78964
极端	-9.79013
翻	-9.79021
转移	-9.79029
劲	-9.79091
不是很	-9.79165
我觉得你	-9.79204
挂	-9.79243
舍友	-9.79246
给对方	-9.7927
当做	-9.79289
去解决	-9.79298
后果	-9.79375
希望能够	-9.79427
你心里	-9.7946
我们就	-9.79465
3.	-9.79482
显然	-9.79499
赢	-9.79568
的体验	-9.7957
没有任何	-9.79597
上进	-9.79602
认	-9.79627
是要	-9.79727
消耗	-9.79783
核心	-9.79829
限制	-9.79832
自律	-9.79837
第四	-9.79857
等待	-9.7986
疼	-9.79943
暴露	-9.80009
对你有	-9.80027
独自	-9.80101
活在	-9.80113
爆发	-9.80115
的意思	-9.80136
担心自己	-9.80176
不合适	-9.80202
头脑	-9.80274
不良	-9.80336
和解	-9.80337
测	-9.80352
会遇到	-9.80397
温	-9.80445
就没有	-9.80501
超	-9.80535
是我	-9.80577
在面对	-9.80631
慢慢来	-9.80724
息	-9.80744
莫	-9.80807
样子	-9.80831
经历了	-9.80834
有一点	-9.80865
古	-9.80931
眼中	-9.80941
场合	-9.80957
舒适	-9.81191
外界的	-9.81267
难道	-9.81268
心理上	-9.81291
临	-9.81403
酒	-9.81462
的支持	-9.81478
假设	-9.81483
有趣	-9.81507
号	-9.8153
是谁	-9.81532
需	-9.81552
楼主你好呀	-9.81591
绝望	-9.81613
就是你	-9.81636
不愉快	-9.81743
显	-9.81849
我是	-9.81954
健康的	-9.82002
免	-9.82121
护	-9.82164
取得	-9.82209
能做的	-9.82271
怀疑自己	-9.82283
这点	-9.82294
促进	-9.82438
无条件	-9.82455
要知道	-9.82471
是比较	-9.82476
刷	-9.82499
转移注意力	-9.82539
学习的	-9.82551
崩溃	-9.82623
逻辑	-9.82629
过多	-9.82704
的思维	-9.82806
透	-9.82848
毫无	-9.82863
▁	-9.82871
今年	-9.82948
对比	-9.82973
做好自己	-9.8298
赞	-9.83087
奋斗	-9.83098
父	-9.83132
如果不	-9.83183
的故事	-9.83189
料	-9.83327
楼主说	-9.83357
导致的	-9.8352
欢	-9.83546
%	-9.83563
源	-9.83596
几天	-9.83629
可能需要	-9.83671
太多的	-9.83675
什么是	-9.83693
宿舍	-9.83803
资	-9.83828
属于自己的	-9.83832
的眼光	-9.83844
说到	-9.84005
善于	-9.84026
和我	-9.84029
3、	-9.84047
小孩子	-9.8405
希望我的回答	-9.84089
防	-9.84131
划	-9.84136
去想	-9.84143
询问	-9.84175
。1、	-9.8421
和感受	-9.84215
客	-9.84334
。)	-9.8438
稍微	-9.84395
整	-9.84464
的标准	-9.84476
单位	-9.84546
可以把	-9.84552
摆	-9.84621
而不	-9.84623
看完	-9.84707
焦虑和	-9.84713
群体	-9.84714
科学	-9.84734
但如果	-9.84745
我看到	-9.8475
要不要	-9.84754
帮助自己	-9.84764
和妈妈	-9.84795
消息	-9.84868
的状况	-9.84872
预期	-9.84883
你希望	-9.84902
寻求帮助	-9.84963
变成了	-9.85021
故	-9.85066
承诺	-9.8507
下面	-9.8514
看不到	-9.85176
义	-9.85199
所说的	-9.85223
未必	-9.85301
发生的	-9.8534
呈现	-9.85375
星	-9.85375
过的	-9.8545
试试	-9.85454
不太好	-9.85466
自己内心的	-9.85549
都不是	-9.85553
去思考	-9.85632
:(1)	-9.85649
去寻找	-9.85652
感恩	-9.85744
这个事情	-9.85754
专	-9.85787
治	-9.85834
曾经的	-9.85865
的一部分	-9.85875
考上	-9.85912
为此	-9.85913
悟	-9.85933
多年	-9.8597
宽	-9.85976
外面	-9.86055
自己的问题	-9.86077
隐藏	-9.86159
你一定	-9.86249
威胁	-9.8626
友	-9.8628
才有	-9.86432
很高兴	-9.86459
外向	-9.86469
多久	-9.86509
s	-9.86522
会让我们	-9.86557
交朋友	-9.86589
去看看	-9.8662
然后再	-9.86624
来源于	-9.86641
修复	-9.86659
表现出	-9.86702
这是你	-9.86768
老师的	-9.86837
走向	-9.86872
多一些	-9.86876
这样的人	-9.86884
有利于	-9.86908
想要的	-9.8697
眼睛	-9.86997
对您	-9.8705
心理学上	-9.87054
痛苦的	-9.87059
对错	-9.87068
诉说	-9.87083
具备	-9.87117
又是	-9.87176
帮助到	-9.87191
彻底	-9.87237
祝福	-9.87254
双方都	-9.87275
原本	-9.87319
悲	-9.87335
列	-9.87357
视角	-9.87369
解决的	-9.87386
随时	-9.87395
就像是	-9.87412
的教育	-9.87463
局限	-9.87472
嫌弃	-9.87483
他对你	-9.87555
说什么	-9.87585
跟她	-9.87631
做决定	-9.877
看你	-9.87712
要去	-9.87725
潜意识里	-9.87731
示	-9.87792
令人	-9.87987
都不会	-9.87998
的作用	-9.88064
大胆	-9.88104
深刻	-9.8811
岁的	-9.88138
加上	-9.88154
特征	-9.88212
对抗	-9.88249
组	-9.88296
在学习	-9.88305
父亲的	-9.88307
标签	-9.88313
印象	-9.88361
排除	-9.88397
句话	-9.88416
导	-9.88505
个月	-9.88578
多多	-9.88585
顾虑	-9.88588
处理好	-9.88756
的那种	-9.88759
旧	-9.88818
试着去	-9.88839
自在	-9.88852
率	-9.88869
建议楼主	-9.88885
述	-9.88918
省	-9.88929
拍	-9.88953
陌生	-9.89026
也是一个	-9.89042
慌	-9.8908
三年	-9.89093
抓	-9.8918
很多的	-9.89227
益	-9.89233
许	-9.89237
没有必要	-9.89243
付	-9.89285
菜	-9.89314
效应	-9.89336
很多人都	-9.89386
失恋	-9.89479
达	-9.89522
错了	-9.89524
警	-9.89554
如果说	-9.89555
放心	-9.89574
我想你	-9.89612
面子	-9.89665
说自己	-9.89697
从中	-9.8991
停止	-9.89964
以至于	-9.89979
这些都	-9.90015
的是什么	-9.90029
要有	-9.90043
荣	-9.9007
是一个很	-9.90084
概念	-9.90101
去尝试	-9.90132
说法	-9.90218
基于	-9.90275
不要太	-9.90288
所以我	-9.90345
仅仅	-9.90353
杂	-9.90404
阻	-9.90409
家里人	-9.90449
性别	-9.90503
呼	-9.90561
我感觉	-9.90611
不愿	-9.9068
还是会	-9.90683
觉得很	-9.90701
给你一个温暖的抱抱	-9.90736
但又	-9.90763
士	-9.90777
寻	-9.90806
可以考虑	-9.90834
无法改变	-9.90913
哥哥	-9.90952
不断地	-9.90965
没有那么	-9.90976
认识自己	-9.91007
故意	-9.91093
因为自己	-9.91102
回去	-9.91116
又会	-9.91128
婴儿	-9.91188
答	-9.91202
可爱	-9.91266
多次	-9.91347
命运	-9.91396
t	-9.91475
学习和	-9.91488
有所帮助	-9.91502
的话题	-9.91524
冲	-9.9153
自己的能力	-9.91552
详细	-9.9159
他说	-9.9163
你又	-9.9165
匹配	-9.91669
自私	-9.9167
你知道	-9.91684
」	-9.91691
「	-9.91692
跑步	-9.91867
环境中	-9.91869
此时	-9.919
品质	-9.91923
『	-9.91946
话语	-9.91954
漂亮	-9.91957
普遍	-9.91959
当自己	-9.92029
给别人	-9.92062
仅	-9.92104
置	-9.92176
』	-9.922
学着	-9.92239
※	-9.92255
可以说	-9.92268
可能是因为	-9.92294
说的话	-9.92309
明确的	-9.92313
看到你的	-9.92313
幸运	-9.9249
在这个过程中	-9.92494
安心	-9.92524
折磨	-9.92575
他也	-9.92575
看出	-9.92583
阻碍	-9.92585
陷	-9.92676
帮到你	-9.92754
我现在	-9.92788
的答案	-9.9279
你目前	-9.92825
的对象	-9.92829
辈	-9.92862
的错误	-9.92921
我们每个人	-9.9297
巴	-9.92977
对对方	-9.92999
的矛盾	-9.93104
的空间	-9.93104
抱抱题主	-9.93113
的日子	-9.93174
辞职	-9.93233
深呼吸	-9.93278
超越	-9.93292
集体	-9.93373
算是	-9.93391
的因素	-9.93441
动作	-9.9347
哈	-9.93499
艰难	-9.93502
的决定	-9.93514
一段感情	-9.93571
树	-9.93613
自己的需求	-9.93633
正视	-9.93658
生活中的	-9.93689
去了解	-9.93736
现在的你	-9.93753
我要	-9.93773
积	-9.93782
还有很多	-9.93813
合作	-9.93839
小建议	-9.93853
冷漠	-9.93867
富	-9.93872
疑惑	-9.9388
说我	-9.93936
不知道怎么	-9.93938
单纯	-9.93978
严格	-9.94001
叫做	-9.94009
反感	-9.94031
希望我的	-9.94032
幸	-9.94056
的呢	-9.94077
我不	-9.941
戒	-9.9413
诚	-9.94131
想要什么	-9.94131
堂	-9.94133
这段时间	-9.94229
磨合	-9.9424
衣	-9.94243
那个时候	-9.94271
和男友	-9.9435
也在	-9.94401
在这样的	-9.94447
是想	-9.94456
板	-9.94492
飞	-9.94539
种种	-9.94546
劳	-9.94612
幸福的	-9.94623
到底是	-9.94635
和焦虑	-9.94638
责怪	-9.94643
我可以	-9.94673
一个问题	-9.94812
否认	-9.94814
脱离	-9.94898
消除	-9.94905
运	-9.9501
过去了	-9.95011
干扰	-9.95048
的思想	-9.95057
差不多	-9.95058
全面	-9.9508
可以尝试着	-9.9513
沟通一下	-9.95166
成长过程中	-9.95178
暴躁	-9.95306
餐	-9.95434
工资	-9.95444
无关	-9.95478
超过	-9.95501
有些事情	-9.95612
放大	-9.95615
稳定的	-9.95621
愿你	-9.95648
嫁	-9.95691
就越	-9.95699
上课	-9.9572
例子	-9.95893
主要是	-9.95925
很长	-9.95969
谁都	-9.96066
俗	-9.96091
配	-9.96095
自恋	-9.96133
斯	-9.96235
骗	-9.96256
摸	-9.96355
相比	-9.96355
源于	-9.96374
朋友圈	-9.96374
套	-9.96405
魅力	-9.96488
另一半	-9.96489
代价	-9.96502
智慧	-9.96504
过多的	-9.96577
帮助我们	-9.96586
并不会	-9.96587
闭	-9.96606
~~	-9.96621
歌	-9.96627
严重的	-9.96644
电话	-9.96656
让您	-9.96663
有价值	-9.96717
表达自己的	-9.96726
■	-9.96743
的一切	-9.96748
一面	-9.96799
道路	-9.96817
这些情绪	-9.96832
工作上	-9.96909
会发现	-9.96939
药物	-9.96988
他是	-9.9701
之间的关系	-9.97043
要想	-9.97077
非常理解你的心情	-9.97095
杀	-9.97096
是对的	-9.97107
的回答	-9.97123
的背后	-9.97138
注意到	-9.97198
更重要	-9.97234
纳	-9.97285
其它	-9.97301
当前	-9.97303
强势	-9.97313
务	-9.97365
意识到自己	-9.97389
天生	-9.97405
搭	-9.97415
·	-9.97426
会更加	-9.97427
就会有	-9.9745
建议题主	-9.97453
这部分	-9.97511
给自己一个	-9.97515
权威	-9.97563
还是有	-9.97624
智	-9.97648
的那个	-9.9765
什么样的人	-9.9766
是他	-9.97697
相关的	-9.97712
击	-9.97752
这一切	-9.978
出了	-9.97835
激发	-9.97863
嗯	-9.97958
失控	-9.97985
低落	-9.9804
。4、	-9.98055
底线	-9.9806
误解	-9.98114
进而	-9.98122
想要改变	-9.98212
越来越好	-9.98214
微信	-9.98297
孤立	-9.98353
冒	-9.98435
可以感受到你	-9.98507
人在	-9.98547
爱和	-9.98549
的期望	-9.98552
靠近	-9.98553
之前的	-9.98627
n	-9.98648
给你温暖的抱抱	-9.9868
看重	-9.9868
欺骗	-9.98757
妥协	-9.98775
介意	-9.98787
是最好的	-9.9891
工作中	-9.98912
不稳定	-9.98995
最重要的是	-9.99011
危机	-9.99041
奔	-9.99047
】1.	-9.9905
变得更好	-9.99075
眼前	-9.9908
不适合	-9.99085
想改变	-9.99168
满足自己	-9.99176
以此	-9.99245
所有人	-9.99254
但也	-9.99255
肉	-9.99322
压力大	-9.99376
器	-9.99396
导致你	-9.99413
家庭中	-9.99422
范围	-9.99423
表面	-9.9945
犹豫	-9.99456
对楼主	-9.99462
试图	-9.99464
的美好	-9.99474
能感受到	-9.99476
破坏	-9.99487
觉察到	-9.99492
完善	-9.99516
的成绩	-9.99529
看的	-9.99542
中间	-9.99548
不合理	-9.99572
为人	-9.99582
关怀	-9.99584
自己去	-9.99589
开朗	-9.99598
很喜欢	-9.99609
想做	-9.99674
否定自己	-9.99703
比较大	-9.99728
的付出	-9.99807
模	-9.99824
会越来越	-9.9986
习	-9.99866
法律	-9.99887
r	-9.99893
自己的价值	-9.9991
点赞	-9.9993
同性	-9.99947
。(2)	-10.0002
床	-10.0002
个性	-10.0009
树立	-10.0016
尤其	-10.0021
你的提问	-10.0021
传统	-10.0028
的咨询师	-10.0032
这样的话	-10.0037
之下	-10.0052
的角色	-10.0054
毁	-10.0055
的生命	-10.0057
转化	-10.0058
。4.	-10.006
不受	-10.0068
懒	-10.0069
具体的	-10.0071
棒	-10.0071
舞	-10.0073
的未来	-10.0077
前面	-10.0077
地位	-10.008
不公平	-10.0087
避	-10.0087
够	-10.0091
欢迎	-10.0093
等到	-10.0094
能做到	-10.0096
块	-10.0096
我能	-10.0098
l	-10.0099
你内心的	-10.0105
房子	-10.0108
亮	-10.0111
丑	-10.0112
不安全感	-10.0118
不适应	-10.012
三观	-10.0121
生命的	-10.0124
憋	-10.0125
不在	-10.0128
的意愿	-10.013
展现	-10.0133
误	-10.0134
音	-10.0136
这份工作	-10.0141
做过	-10.0147
干涉	-10.0153
卖	-10.0153
只需要	-10.0154
和想法	-10.0156
舍	-10.0157
逃	-10.0158
感知	-10.0158
人群	-10.0159
这么做	-10.016
不合	-10.0161
外部	-10.0161
你的生活	-10.0164
男孩子	-10.0164
往往是	-10.0164
看到的	-10.0165
议	-10.0165
偷	-10.0167
的勇气	-10.0167
巨大的	-10.0168
告诉她	-10.017
周围的人	-10.0175
的位置	-10.018
乖	-10.0194
但这	-10.0194
从小到大	-10.0196
增	-10.02
一个小	-10.0201
每个人都是	-10.0212
极度	-10.0213
快速	-10.0222
拼	-10.0222
默默	-10.0237
一下子	-10.0238
坦然	-10.0239
考验	-10.0251
依	-10.0254
自残	-10.0256
先给楼主一个抱抱	-10.0256
出门	-10.0262
书籍	-10.027
要是	-10.0275
玩手机	-10.0286
情结	-10.0287
形成了	-10.0293
可以看出你	-10.03
丧失	-10.03
不是吗	-10.0301
忌	-10.0308
综合	-10.0308
目光	-10.0309
来了	-10.0312
不自觉	-10.0313
自主	-10.0315
敢于	-10.032
对于自己	-10.0322
的模式	-10.0327
商	-10.0329
同情	-10.033
可以做	-10.0341
折	-10.0344
总有	-10.0348
你对他	-10.0349
恋情	-10.0358
了解一下	-10.0358
院	-10.0363
不幸	-10.0366
因为他们	-10.0367
不能接受	-10.0378
出发	-10.0378
胡思乱想	-10.0379
机制	-10.038
但是如果	-10.0385
的年龄	-10.0388
好坏	-10.0388
这种情绪	-10.0392
不仅仅是	-10.0393
抽	-10.0398
就可以了	-10.0401
之处	-10.0403
那时候	-10.0407
仿佛	-10.0408
害怕自己	-10.041
好好地	-10.041
敢	-10.0411
本人	-10.0411
你想要的	-10.0416
而感到	-10.0416
你真的	-10.0421
放不下	-10.0422
的可能性	-10.0424
对于你	-10.0426
忧	-10.0435
走到	-10.0439
优秀的人	-10.044
自己在	-10.0441
接受自己	-10.0442
但我们	-10.0446
仍	-10.0448
没法	-10.045
深深的	-10.0451
无意识	-10.0461
端	-10.0463
暧昧	-10.0465
每一次	-10.0465
云	-10.0465
使你	-10.0469
防御	-10.0475
和老公	-10.0476
会感到	-10.0477
仅仅是	-10.0478
使得	-10.0487
各种各样的	-10.0493
影	-10.0501
方案	-10.0503
这个阶段	-10.0504
择	-10.0505
相爱	-10.0506
懂事	-10.0507
乎	-10.0507
的注意力	-10.0517
的专业	-10.0523
疏导	-10.0525
解读	-10.0525
随便	-10.0527
说不定	-10.0532
难度	-10.0534
对他人	-10.054
在他	-10.0541
这类	-10.0542
背景	-10.0551
复合	-10.0552
质量	-10.0554
勉强	-10.0554
花钱	-10.0556
现实生活中	-10.0557
的创伤	-10.0558
他们会	-10.0566
就是这样	-10.0571
有力量	-10.0587
我不知道	-10.0588
前提	-10.0591
怨	-10.0592
隐私	-10.0597
希望题主	-10.0602
是不一样的	-10.0604
的错	-10.0604
没有安全感	-10.0614
找工作	-10.0615
化解	-10.0616
和人	-10.0619
看到自己	-10.0621
也不知道	-10.0633
顶	-10.0638
两者	-10.0639
厉害	-10.0639
触	-10.0641
今后	-10.0648
给题主	-10.065
宠	-10.0652
爱他	-10.0671
形象	-10.0675
看似	-10.0692
打扰	-10.0701
就是一个	-10.0703
自己的行为	-10.0703
小学	-10.0707
损	-10.0707
团	-10.0708
心中的	-10.0714
所以在	-10.0719
这种方式	-10.0724
正如	-10.0725
牢	-10.0726
不知道如何	-10.0727
最初	-10.0736
弃	-10.0738
却是	-10.074
的交流	-10.0741
尚	-10.0742
衡量	-10.0742
好感	-10.0743
对你有所帮助	-10.0745
控制不住	-10.0747
刺	-10.0755
的女生	-10.0756
从事	-10.0757
如果自己	-10.0761
的程度	-10.0769
就行	-10.077
沉默	-10.077
跟我	-10.0783
吓	-10.0785
来到	-10.08
你妈妈	-10.0801
灵魂	-10.0801
胖	-10.0802
对他的	-10.0803
重要的是	-10.081
出于	-10.0811
脏	-10.0815
这种想法	-10.0818
排解	-10.0821
这种行为	-10.0822
毒	-10.0829
想清楚	-10.0838
有很大的	-10.0839
跟着	-10.0844
跟别人	-10.0845
看看自己	-10.085
希望我的回答能	-10.0851
更高	-10.0854
对题主	-10.0855
强迫症	-10.0857
疗法	-10.0865
是你自己	-10.0868
抱抱你呀	-10.087
伤害自己	-10.0872
明天	-10.0873
下降	-10.0875
礼	-10.0875
不知道自己	-10.0875
巧	-10.0877
准确	-10.0878
用来	-10.0879
没人	-10.0889
鱼	-10.0906
这都是	-10.0912
找出	-10.0913
单身	-10.0915
松	-10.0917
的烦恼	-10.0918
你的情况	-10.0919
那我们	-10.092
就开始	-10.0935
此刻	-10.0936
自然而然	-10.0936
忍不住	-10.0937
该如何	-10.0947
请你	-10.0949
可以用	-10.0949
简	-10.095
执行	-10.0953
的爱情	-10.0954
习惯了	-10.0957
这只是	-10.0958
最大	-10.0961
得到了	-10.0966
异地	-10.0968
固定	-10.0971
自己的优点	-10.0971
草	-10.0982
课题	-10.0986
真相	-10.0989
建	-10.099
心理学家	-10.0994
小说	-10.0996
弹	-10.0997
向你	-10.1
回归	-10.1006
不是你的错	-10.1009
不要因为	-10.1012
负责任	-10.1018
猜	-10.1021
和情绪	-10.1021
坚持下去	-10.1024
不清	-10.1025
意愿	-10.1032
可能就是	-10.1037
不要去	-10.1037
欠	-10.1039
和母亲	-10.1043
一个月	-10.1044
前男友	-10.1046
根据你的描述	-10.1048
这样的想法	-10.1049
受到了	-10.1054
想一下	-10.1056
碎	-10.1057
青春	-10.1066
索	-10.1067
适合自己的	-10.1069
如今	-10.1072
同意	-10.1076
学到	-10.1079
混	-10.1086
做些什么	-10.1088
情景	-10.1091
遭受	-10.112
对自己有	-10.112
反而会	-10.1124
带孩子	-10.1124
是否可以	-10.1124
对他们	-10.1132
直面	-10.1135
说服	-10.1136
作息	-10.1137
也无法	-10.114
碰到	-10.1144
周围人	-10.1145
才能够	-10.1147
减肥	-10.1148
有必要	-10.1153
导致了	-10.1157
的现象	-10.1166
自慰	-10.1169
无聊	-10.1177
不重要	-10.1181
。**	-10.1182
地去	-10.1185
第一个	-10.1185
不信任	-10.1189
本身就是	-10.1192
安抚	-10.1194
支撑	-10.1197
了解你	-10.1208
能接受	-10.121
旅游	-10.1211
所有人都	-10.1217
写下来	-10.122
强化	-10.1221
答应	-10.1228
在此	-10.123
就业	-10.123
体验到	-10.1231
抛弃	-10.1232
就已经	-10.1236
。——	-10.1254
不要把	-10.1257
我也是	-10.1258
再加上	-10.1258
陪着	-10.1258
耳	-10.1258
交际	-10.1259
成为一个	-10.1261
很高	-10.1261
给你一些	-10.1263
镜子	-10.1265
俩	-10.1266
各方面	-10.1269
意外	-10.127
偶	-10.127
什么样	-10.1274
取决于	-10.1275
梳理一下	-10.1278
那段	-10.1278
一本书	-10.1284
成为了	-10.1289
对你有帮助	-10.1289
哪怕是	-10.1292
做法	-10.1295
儿童	-10.1297
好好学习	-10.13
丝	-10.13
自动	-10.1304
情绪低落	-10.1307
你的朋友	-10.1307
不做	-10.1309
接近	-10.1311
本身就	-10.1312
贬低	-10.1321
的缺点	-10.1325
哪些是	-10.1328
和理解	-10.1331
途	-10.1333
德	-10.1335
质疑	-10.1336
但其实	-10.1336
价	-10.1349
自然会	-10.135
辩	-10.135
年轻人	-10.1351
歉	-10.1352
方便	-10.1353
雨	-10.1353
借口	-10.1357
总是会	-10.1357
愈	-10.1365
诉求	-10.1368
该怎么办	-10.1369
不见	-10.1374
楼	-10.1375
由此	-10.1375
孕	-10.1378
的阶段	-10.1382
胜	-10.1382
国家	-10.1386
会导致	-10.1395
很开心	-10.1395
喜欢他	-10.1399
乐趣	-10.14
钟	-10.1402
不要再	-10.1404
辅导	-10.1405
如果你觉得	-10.1408
温暖的	-10.1409
改正	-10.1409
是很难	-10.141
情侣	-10.1415
这里面	-10.1416
连接	-10.142
做不好	-10.1425
也可能是	-10.1428
嘲笑	-10.1431
抱着	-10.1431
敬	-10.1432
顺其自然	-10.1432
朝	-10.1433
能够感受到	-10.1436
无意	-10.1442
做事情	-10.1443
归因	-10.1445
也许会	-10.1445
什么事	-10.1445
很有可能	-10.1455
累了	-10.1457
厚	-10.1462
束缚	-10.1463
获取	-10.1464
忽略了	-10.1467
好吗	-10.1467
过后	-10.1468
伤痛	-10.1471
几点	-10.1471
好多	-10.1475
一段关系	-10.1475
是从	-10.1477
人生中	-10.1486
伤害到	-10.1487
义务	-10.1489
序	-10.149
跟自己	-10.1491
睡不着	-10.1496
良	-10.1508
一颗	-10.1512
真是	-10.1519
踏	-10.1525
静下心来	-10.1527
我想说	-10.1527
会让人	-10.1528
完全可以	-10.1529
可以说是	-10.1529
白天	-10.153
交给	-10.1531
良好	-10.1532
错过	-10.1533
也只是	-10.1542
聪明	-10.1542
哄	-10.1542
叛逆	-10.1543
传递	-10.1543
念头	-10.1545
**	-10.155
往往会	-10.1552
做错	-10.1556
评	-10.1558
赶	-10.1561
考虑到	-10.1567
不配	-10.1569
蛮	-10.1575
‘	-10.1575
---	-10.1576
只是一个	-10.1578
十年	-10.1585
给楼主	-10.159
没那么	-10.1595
网上	-10.1598
走下去	-10.161
估计	-10.1611
需要我们	-10.1611
不知道题主	-10.1616
健身	-10.1617
除非	-10.1619
的任务	-10.1621
’	-10.1623
民	-10.1624
去看待	-10.1624
额	-10.1625
暗	-10.1631
中心	-10.1631
希望对你有所帮助	-10.1637
催	-10.1638
变好	-10.1639
饮食	-10.1639
只是在	-10.1644
楼主您好	-10.1653
自己的身体	-10.1656
体谅	-10.1656
娱乐	-10.1656
没有错	-10.1659
干预	-10.1664
黑暗	-10.1674
经常会	-10.1681
幻	-10.1682
大多数人	-10.1682
逆	-10.1688
熬夜	-10.1688
历	-10.169
性行为	-10.1692
可见	-10.1694
店	-10.1704
篇	-10.1705
一些问题	-10.1705
王	-10.1706
肯定会	-10.1712
爱护	-10.1721
替代	-10.1722
在我看来	-10.1723
千万不要	-10.1723
些什么	-10.1724
注	-10.1726
的观念	-10.1726
吸	-10.1729
毛	-10.1734
或多或少	-10.1737
抵触	-10.1738
整理	-10.1746
什么都不	-10.1751
证明自己	-10.1752
股	-10.1754
设定	-10.1759
外人	-10.1761
可能在	-10.1763
自己所	-10.1763
我们每个人都	-10.1766
爽	-10.177
甜	-10.1772
过好	-10.1774
客观的	-10.1774
不说	-10.1783
克	-10.1784
友好	-10.1786
交友	-10.1786
背叛	-10.1787
恰当	-10.1793
很难过	-10.1795
伴	-10.1797
正念	-10.1799
我们不能	-10.1804
宝贝	-10.1804
损失	-10.1805
玩游戏	-10.1807
你觉得自己	-10.1811
的念头	-10.1815
更大的	-10.1818
奶	-10.1819
狂	-10.1821
抚养	-10.1822
重大	-10.1826
抑郁情绪	-10.1831
洁	-10.1835
恰恰	-10.1836
妥	-10.1837
瞬间	-10.1837
起码	-10.1839
的困惑	-10.1846
悲观	-10.1853
半年	-10.1854
找到一个	-10.1856
题主的描述	-10.1863
博	-10.1867
烟	-10.187
情境	-10.1879
看得出	-10.1884
换位思考	-10.1885
靠自己	-10.1886
平和	-10.1887
胸	-10.1887
焦虑情绪	-10.1887
关心你	-10.1893
总觉得	-10.1894
形成的	-10.1895
有多少	-10.1898
我们应该	-10.1899
专业人士	-10.1899
另	-10.1901
这时	-10.1912
确	-10.1917
并不代表	-10.1918
也是可以	-10.1918
尝	-10.1934
学习成绩	-10.1936
跟父母	-10.1937
展	-10.194
!(^_-)	-10.1941
心意	-10.1946
有更多的	-10.1949
刀	-10.1951
关心和	-10.1956
的事件	-10.1958
作出	-10.1959
疑问	-10.1962
做朋友	-10.1962
斗	-10.1968
存在着	-10.197
面试	-10.1972
去理解	-10.1974
自卑感	-10.198
败	-10.1981
做个	-10.1982
值得被爱	-10.1984
却没有	-10.1986
不堪	-10.1987
精彩	-10.1989
婆	-10.1995
的原生家庭	-10.1997
粗	-10.2001
不允许	-10.2003
给人	-10.2004
很可能	-10.2011
的处境	-10.2012
承	-10.2013
挣扎	-10.2019
附	-10.202
亲情	-10.202
找回	-10.2022
冷静下来	-10.2023
前行	-10.2034
情商	-10.2041
会让自己	-10.2047
午	-10.205
的相处模式	-10.2056
而非	-10.2063
食物	-10.2064
自我成长	-10.2069
▲	-10.2069
自己的选择	-10.2072
咱们	-10.2072
强迫自己	-10.2073
的女孩	-10.2082
信号	-10.2082
是一样的	-10.2084
告知	-10.209
洞	-10.2101
介绍	-10.2103
常见的	-10.2103
户	-10.2103
—	-10.2103
添	-10.2103
穷	-10.2104
不出	-10.2112
好友	-10.2113
还是需要	-10.2114
牺牲	-10.2119
链接	-10.212
跨	-10.2121
搬	-10.2121
角	-10.2125
对孩子的	-10.2131
随意	-10.2131
微笑	-10.2157
只有自己	-10.2159
要注意	-10.216
攻击性	-10.2161
决心	-10.2166
的根源	-10.2168
畅	-10.217
画画	-10.2174
本来就	-10.2183
你男朋友	-10.2186
牌	-10.2187
采用	-10.2196
遍	-10.2198
转移到	-10.22
不易	-10.2201
副	-10.2206
收到	-10.2207
不算	-10.2209
财	-10.2212
逃离	-10.2213
侵	-10.2222
激励	-10.2222
焦虑不安	-10.2223
非常重要	-10.2227
手段	-10.2231
曲	-10.2239
可能性	-10.2241
还是很	-10.2247
我都	-10.2247
所以楼主	-10.2253
环	-10.2255
刻	-10.2256
被拒绝	-10.2262
盘	-10.2265
见到	-10.2271
锁	-10.2275
更大	-10.2275
普通人	-10.2282
要看	-10.2287
无限	-10.2287
题主现在	-10.2287
奇怪	-10.2289
迁	-10.229
却又	-10.229
躯体	-10.2292
心动	-10.2292
设置	-10.2293
关注自己	-10.2297
反对	-10.2301
TA	-10.2308
含	-10.2308
感同身受	-10.231
一项	-10.2311
爱的人	-10.2311
小的时候	-10.2315
从描述中可以了解到	-10.2315
向往	-10.2317
少了	-10.232
定位	-10.2321
我相信你	-10.2322
注重	-10.2329
放手	-10.2334
这样的状态	-10.2337
统	-10.234
功课	-10.2343
人与人之间	-10.2345
很爱	-10.2349
理解你的感受	-10.2355
走了	-10.2356
吐	-10.236
辞	-10.236
寄	-10.2361
不希望	-10.2363
的愿望	-10.2366
请求	-10.2367
员工	-10.2369
胎	-10.237
如果楼主	-10.237
集	-10.2372
赚	-10.2375
出口	-10.239
让父母	-10.2392
换一个	-10.2393
缩	-10.2393
禁	-10.2395
款	-10.2397
确实会	-10.2398
一点点分析和建议	-10.2402
善意	-10.2405
告诉他们	-10.2408
不好意思	-10.241
是不会	-10.2412
加强	-10.2414
校园	-10.2416
再来	-10.2421
到现在	-10.2423
表现出来	-10.2428
是否是	-10.243
无需	-10.2441
这样一个	-10.2443
上大学	-10.2443
恋爱关系	-10.2444
的基础上	-10.2447
爸	-10.2447
牛	-10.2448
喊	-10.2448
的欲望	-10.2449
布	-10.2449
表述	-10.245
把这些	-10.2457
为什么不	-10.2458
亲近的人	-10.246
审视	-10.2466
迹	-10.2468
向前	-10.2469
性取向	-10.2469
一般来说	-10.2469
你们之间的	-10.2472
在关系中	-10.2473
会慢慢	-10.2474
二是	-10.248
心结	-10.2488
看过	-10.2495
碰	-10.2504
的陪伴	-10.2505
希望楼主	-10.2506
发生的事情	-10.2511
身边人	-10.2515
4、	-10.2517
冰	-10.2519
机构	-10.2522
的信念	-10.2524
另一种	-10.2526
但是在	-10.253
踏实	-10.2537
割	-10.2537
座	-10.2537
克制	-10.2538
自己的目标	-10.2546
和你一样	-10.2546
你的人生	-10.255
开放	-10.2551
一系列	-10.2553
心疼你	-10.2554
心理上的	-10.2554
亦	-10.2557
沉浸在	-10.2558
勇敢地	-10.256
给您	-10.2567
准备好	-10.2569
有可能是	-10.2572
也不想	-10.2575
这样的事情	-10.258
该怎么	-10.2586
是吗	-10.2587
希望可以	-10.2592
家暴	-10.2593
比较多	-10.2602
不了解	-10.2603
在工作中	-10.2604
躲	-10.2605
清晰的	-10.2606
感到很	-10.2613
解答	-10.2617
堆	-10.2625
可以试试	-10.2637
仪	-10.2642
非常好	-10.2643
封闭	-10.2643
是好的	-10.2648
有些时候	-10.2652
能感受到你	-10.2667
好起来	-10.2669
一遍	-10.2671
短暂	-10.268
坏事	-10.2683
才可以	-10.2683
走进	-10.2684
幼	-10.2684
使自己	-10.2684
忘了	-10.2697
迈出	-10.2697
只想	-10.2697
灭	-10.2697
T	-10.2697
的真实	-10.2698
自己喜欢的事情	-10.2707
每一天	-10.2707
会把	-10.271
是由	-10.2712
敌	-10.2713
石	-10.2717
猫	-10.2717
强调	-10.2718
等于	-10.2719
大多	-10.2726
运用	-10.2733
著	-10.2734
所以才会	-10.2734
问自己	-10.2737
当前的	-10.2739
主义	-10.2742
认真的	-10.2742
听话	-10.2744
多数	-10.2747
的后果	-10.275
也知道	-10.275
的语言	-10.275
联想	-10.2751
顾及	-10.2762
羞耻	-10.2767
要明白	-10.2768
为难	-10.2769
。4	-10.277
一些建议	-10.2775
不舍	-10.2776
烈	-10.2777
你的文字	-10.2778
太过于	-10.2782
看一下	-10.2783
也能够	-10.2786
前提是	-10.2791
反过来	-10.2794
才会有	-10.2797
也就会	-10.2797
知道了	-10.2801
茶	-10.2806
的重要	-10.2811
需要做的	-10.2817
恶性循环	-10.2823
纠缠	-10.2824
惹	-10.2824
对生活	-10.2825
基本上	-10.2826
把注意力	-10.2834
如果题主	-10.2839
就不要	-10.2842
饱	-10.2844
波	-10.2852
我建议你	-10.2854
频率	-10.2861
展示	-10.2862
聊聊天	-10.2867
实验	-10.2871
楼主内心	-10.288
指导	-10.288
00	-10.2898
不如意	-10.2902
一名	-10.2906
数学	-10.2914
繁	-10.2915
牙	-10.2915
责备	-10.2916
久了	-10.2922
的症状	-10.2924
肯	-10.293
英语	-10.2936
尔	-10.2937
一个好的	-10.2938
填	-10.2945
做出改变	-10.2946
暖	-10.2952
措施	-10.2953
托	-10.2954
今	-10.2955
温和	-10.2955
结论	-10.2956
充满了	-10.2957
就应该	-10.2957
小目标	-10.2958
活出	-10.2962
就好像	-10.2965
般	-10.2968
其实就是	-10.2968
长处	-10.2969
扬	-10.2969
文章	-10.2973
入睡	-10.2974
实力	-10.2978
提升自己的	-10.2979
更是	-10.298
很心疼	-10.2981
希望对你有帮助	-10.2985
那时	-10.2997
和男朋友	-10.2997
早上	-10.2999
如何去	-10.3001
分为	-10.3003
和老师	-10.3013
创	-10.3019
的年纪	-10.3019
即使是	-10.302
难免	-10.3025
亏	-10.3025
因为她	-10.303
的书	-10.3031
抓住	-10.3033
自我保护	-10.3034
发现了	-10.3039
恐慌	-10.3045
糟	-10.3045
倾向于	-10.3046
把他	-10.3052
题目	-10.3052
娃	-10.3063
不止	-10.3067
受到伤害	-10.3068
宽容	-10.3072
不大	-10.3076
看一看	-10.3077
吃药	-10.3084
逐步	-10.3084
・	-10.309
研究生	-10.3092
看清	-10.3095
越多	-10.3095
补充	-10.3096
@	-10.3097
频	-10.3098
播	-10.3101
律	-10.3112
回头	-10.3112
一些小	-10.3115
是这样吗	-10.3118
即可	-10.3118
楼主现在	-10.312
的认可	-10.3121
约束	-10.3121
给自己一些	-10.3122
术	-10.3122
c	-10.3122
加重	-10.3124
对吧	-10.3126
哥	-10.3138
闪	-10.314
服务	-10.314
当作	-10.3143
发出	-10.3154
西	-10.3159
您可以	-10.316
复杂的	-10.3163
大部分人	-10.3168
当年	-10.3171
停下来	-10.3185
希望你可以	-10.3187
继	-10.3193
坎	-10.3196
即将	-10.3196
到最后	-10.3207
以外	-10.3211
无数	-10.3222
给他们	-10.3225
找到了	-10.3225
如果她	-10.3227
时常	-10.3229
喜欢一个人	-10.3231
习惯性	-10.3233
倍	-10.3234
涉及到	-10.3238
的负面情绪	-10.324
赞美	-10.3243
其实也是	-10.3245
工具	-10.3247
自我否定	-10.3253
组织	-10.3254
跟他们	-10.3257
回想	-10.3269
策	-10.3272
傻	-10.3272
似	-10.3274
这两个	-10.328
凡	-10.3285
纯	-10.3287
两次	-10.3289
当事人	-10.3292
释怀	-10.3292
和痛苦	-10.3302
虐	-10.3309
妙	-10.3312
与否	-10.3313
倾	-10.3314
不甘心	-10.3318
被抛弃	-10.3318
典	-10.3329
赋予	-10.3331
的关键	-10.3336
消化	-10.3339
越来越多	-10.334
出错	-10.3342
成本	-10.3343
完美主义	-10.3343
不出来	-10.3345
对不对	-10.3348
操	-10.3357
在意别人	-10.3364
换个角度	-10.3368
沉迷	-10.3369
骨	-10.337
换个	-10.3373
寻求专业	-10.3375
正向	-10.3383
圆	-10.3386
报复	-10.3389
妹	-10.3389
房间	-10.339
画面	-10.3394
起到	-10.3396
场景	-10.3404
宁	-10.3404
企业	-10.3405
去做一些	-10.3407
九	-10.3407
厌	-10.3423
策略	-10.3425
不要害怕	-10.3432
祝愿	-10.3434
是很重要的	-10.3443
控制欲	-10.3451
活得	-10.3456
发育	-10.3459
的能量	-10.3462
征	-10.3464
趋	-10.3464
非要	-10.3464
这本书	-10.3466
不存在	-10.3467
风格	-10.3469
很小	-10.347
下一次	-10.348
印	-10.3483
素质	-10.3484
不在乎	-10.3484
公平	-10.3485
深度	-10.3489
有种	-10.3493
抱抱楼主	-10.3497
。(3)	-10.3498
彼此都	-10.3498
镜	-10.3499
可不可以	-10.3502
担	-10.3502
检	-10.3502
甜蜜	-10.3503
秘密	-10.3503
疏远	-10.3503
唤	-10.3504
空虚	-10.3508
是我的分析和建议	-10.3509
偏差	-10.351
心情不好	-10.3513
保留	-10.3515
薪	-10.3521
题主好	-10.3522
事儿	-10.3524
这样子	-10.3525
很辛苦	-10.3535
变得更加	-10.3536
没能	-10.3537
家庭关系	-10.3538
事后	-10.3541
的时刻	-10.3545
平淡	-10.3546
保护好自己	-10.355
性生活	-10.3558
稍	-10.3559
队	-10.3559
漫长	-10.3567
看得	-10.357
区分	-10.3571
每当	-10.3576
生孩子	-10.358
饿	-10.3581
很简单	-10.3584
自我怀疑	-10.3586
罢了	-10.359
会影响到	-10.3599
熬	-10.3601
只会让	-10.361
哪种	-10.361
不理	-10.3618
艺术	-10.3623
位置	-10.3623
培训	-10.3623
哭泣	-10.3624
是出于	-10.363
心理暗示	-10.3634
感性	-10.3638
宿	-10.3641
浅	-10.3641
想知道	-10.3642
凡事	-10.3644
会有一些	-10.3646
对她的	-10.3647
交谈	-10.3654
自己的孩子	-10.3657
我们也可以	-10.3662
生物	-10.3664
激烈	-10.368
让自己变得	-10.3688
可以做到	-10.3693
每个人都有自己的	-10.3696
决	-10.37
久而久之	-10.37
适度	-10.3703
规定	-10.3704
煎熬	-10.372
无力感	-10.3721
彩	-10.3721
畏	-10.3722
以往	-10.3728
短期	-10.373
想哭	-10.3732
发生过	-10.3735
缘分	-10.3736
一次次	-10.3739
卷	-10.374
这才是	-10.3745
没事	-10.3755
旁	-10.3759
建设	-10.3762
只是因为	-10.3765
身体健康	-10.3769
看到你的描述	-10.3771
什么原因	-10.3774
的基础	-10.3776
陪你	-10.3777
普	-10.3779
心境	-10.378
如果不是	-10.3781
无法接受	-10.3783
有两个	-10.3787
与别人	-10.3792
景	-10.3794
资料	-10.3799
魔	-10.3802
乡	-10.3802
你可以试着	-10.3813
适合你	-10.3814
很优秀	-10.3815
在一定程度上	-10.3819
谨慎	-10.382
拔	-10.3822
考虑一下	-10.3822
是什么原因	-10.3823
的本质	-10.3824
但是又	-10.3826
的形象	-10.383
规	-10.3833
察觉	-10.3834
案	-10.3838
还有就是	-10.3841
打电话	-10.3848
这些想法	-10.3852
默	-10.3859
社会上	-10.3859
的成长经历	-10.3859
痕	-10.3861
挺好的	-10.3862
混乱	-10.3864
当他	-10.3865
黄	-10.3879
灯	-10.388
秒	-10.3881
呵护	-10.3901
p	-10.3902
的信任	-10.3908
心理治疗	-10.3911
心底	-10.392
愿望	-10.3921
爱上	-10.3921
写日记	-10.393
是可以理解的	-10.3932
影响到了	-10.3933
男方	-10.3935
兴奋	-10.3941
扯	-10.3941
的人格	-10.3942
让你感觉	-10.3943
希望得到	-10.3944
消费	-10.3944
好一点	-10.3945
给自己带来	-10.3949
落差	-10.3952
根源	-10.3955
人性	-10.3956
拿出	-10.396
解决办法	-10.3963
走过	-10.397
福	-10.3979
软	-10.3979
=	-10.3983
每个人都会有	-10.3983
S	-10.3984
自己的事	-10.3992
先生	-10.3996
难题	-10.4001
分歧	-10.4004
在这种情况下	-10.4006
同学们	-10.4006
听起来	-10.4014
废	-10.4023
妇	-10.4023
资格	-10.4026
一步步	-10.4031
支持你	-10.4036
恐	-10.404
太阳	-10.4042
糊	-10.4044
苛责	-10.4044
闪光点	-10.4045
特定	-10.4049
阅历	-10.4053
彼此之间	-10.4056
不一定是	-10.4058
和同学	-10.4059
悔	-10.4061
姑	-10.4063
概率	-10.4065
回想一下	-10.407
能让你	-10.407
题主你好呀	-10.4081
坦	-10.4081
就会觉得	-10.4082
供	-10.4082
也有可能	-10.4083
存在感	-10.4083
亲子关系	-10.4086
腿	-10.4087
u	-10.4087
忙碌	-10.4087
班级	-10.4095
人员	-10.4098
打压	-10.4102
打游戏	-10.4104
疲	-10.4106
官	-10.4106
应激	-10.4116
表情	-10.4125
计较	-10.4127
创业	-10.4127
木	-10.4128
有勇气	-10.4138
诊	-10.4139
可以帮助你	-10.4141
摔	-10.4148
愤	-10.4148
同一个	-10.4149
代替	-10.4149
紧急	-10.415
干什么	-10.415
自我价值	-10.4157
气质	-10.4159
很能理解你	-10.4163
明显的	-10.4165
～～	-10.4165
不知道楼主	-10.4168
正是因为	-10.4176
认真地	-10.4183
感动	-10.4183
我猜	-10.4184
状态下	-10.4186
的担忧	-10.4187
剩	-10.4187
的主要	-10.419
是一件很	-10.4198
为主	-10.4199
日常生活	-10.4201
启	-10.4201
电视	-10.4208
频繁	-10.421
缺陷	-10.4211
帮助别人	-10.4212
可能就会	-10.4215
常态	-10.4221
但是却	-10.4223
恩	-10.4224
清醒	-10.4226
内部	-10.423
违背	-10.4231
范围内	-10.4235
诉	-10.4237
此外	-10.4248
孤	-10.4248
证据	-10.4253
哀	-10.4254
不懂得	-10.4271
被满足	-10.4271
你好题主	-10.4272
狠	-10.4273
爬	-10.4274
层次	-10.4276
吸引力	-10.4276
希望对楼主有所帮助	-10.4279
你可以选择	-10.4281
睡前	-10.4281
成为你	-10.4287
放到	-10.4287
疏	-10.4288
其他方面	-10.429
婚姻中	-10.4292
皆	-10.4295
的边界	-10.4297
怨恨	-10.4298
从前	-10.4303
起床	-10.4311
的确是	-10.4316
协调	-10.4317
初恋	-10.432
对我们的	-10.4328
完整	-10.4332
包含	-10.4337
很在意	-10.4338
政	-10.4339
去处理	-10.4341
关键是	-10.4352
现在的状态	-10.4356
迎合	-10.4358
零	-10.4358
表扬	-10.436
停留在	-10.436
做些	-10.4364
处事	-10.4373
挫败	-10.4378
另外一个	-10.438
谈一谈	-10.4381
逝	-10.4381
战胜	-10.4381
令你	-10.4382
希望我的回答能够	-10.4383
的场景	-10.4384
意志	-10.4386
夫妻关系	-10.4392
让它	-10.4393
漫	-10.4395
本质上	-10.4397
有足够的	-10.44
鬼	-10.4403
佛	-10.4403
你可以尝试	-10.4404
希望能够帮助到你	-10.4406
这种感受	-10.4414
好转	-10.4417
去探索	-10.4421
分数	-10.4421
阳	-10.4428
家务	-10.4432
另一	-10.4439
批判	-10.444
委屈自己	-10.4441
编	-10.4442
模仿	-10.4444
滋养	-10.4445
m	-10.4445
慎重	-10.4446
河	-10.4447
也有很多	-10.4449
***	-10.4449
单纯的	-10.4451
无所谓	-10.4454
相遇	-10.4455
舒缓	-10.4457
高度	-10.4459
不该	-10.4463
游	-10.4465
你所说的	-10.4468
在网上	-10.4473
更何况	-10.4474
步入	-10.4476
伙伴	-10.4477
一类	-10.4478
可能只是	-10.4485
灰	-10.4487
需要的是	-10.4488
鸡	-10.4488
能理解你	-10.449
早期	-10.4495
没用	-10.4501
很清楚	-10.4501
严	-10.4502
录	-10.4503
每个人都会	-10.4505
新闻	-10.4506
独立的个体	-10.4508
凌	-10.4509
美丽	-10.451
的优势	-10.4515
动手	-10.4515
出现问题	-10.4521
扰	-10.4524
这么多年	-10.4525
自己感兴趣的	-10.4527
爱着	-10.4527
猜想	-10.4529
摇	-10.453
”、“	-10.4539
做完	-10.4539
我妈	-10.4551
孝顺	-10.4553
开玩笑	-10.4554
长大后	-10.456
改进	-10.4565
都不能	-10.4566
的价值观	-10.4569
流动	-10.457
100	-10.4574
h	-10.4575
次数	-10.458
长远	-10.4581
一味的	-10.4589
抵	-10.4594
评论	-10.4595
女方	-10.4596
建立起	-10.4596
测试	-10.4599
精神分析	-10.4609
留言	-10.461
比起	-10.4616
薄	-10.4617
感受不到	-10.4617
退缩	-10.4618
结局	-10.4619
执着	-10.4622
眼神	-10.4623
去接受	-10.4625
比别人	-10.4627
咬	-10.4637
去世	-10.4637
插	-10.4638
窗	-10.4638
媳	-10.4638
解决不了	-10.4643
这说明	-10.4645
超我	-10.4647
能找到	-10.4649
最重要	-10.4649
或者其他	-10.4657
僵	-10.466
时间和精力	-10.4663
去感受	-10.4667
讨	-10.4671
不同的人	-10.4671
️️️	-10.4673
联	-10.4675
看到自己的	-10.4678
躁	-10.4681
蛋	-10.4683
阔	-10.4683
喝酒	-10.4684
身材	-10.4685
焦虑症	-10.4686
缺爱	-10.4688
榜样	-10.4704
P	-10.4706
喜悦	-10.4706
移情	-10.4709
入手	-10.4711
团体	-10.4711
处女	-10.4714
这么说	-10.4716
很不容易	-10.4717
就会产生	-10.472
想想自己	-10.4721
侵犯	-10.4727
滑	-10.4727
那份	-10.4728
无法控制	-10.4736
冷暴力	-10.4738
物品	-10.4746
C	-10.4749
溺	-10.4749
从题主的描述中	-10.4752
好好爱自己	-10.4752
对不起	-10.4755
感受到你的	-10.4755
有好感	-10.4757
佳	-10.4759
变得更	-10.4764
把事情	-10.4766
但却	-10.4768
访	-10.4769
一块	-10.4773
教师	-10.4776
分散	-10.4785
俱	-10.4792
教训	-10.4795
昨天	-10.4795
不至于	-10.4802
小朋友	-10.4804
转换	-10.4805
的印象	-10.4808
桌	-10.4812
范	-10.4815
独一无二的	-10.4815
卫生	-10.4819
一份工作	-10.483
时机	-10.483
心理压力	-10.4834
如下	-10.4834
从你的描述来看	-10.484
终究	-10.484
行为模式	-10.4847
复读	-10.4852
抱有	-10.4856
屈	-10.4858
补偿	-10.4859
酸	-10.4861
权利	-10.4864
听音乐	-10.4866
恶意	-10.4869
病情	-10.4872
写作	-10.4873
两天	-10.4876
心理疾病	-10.4882
恭	-10.4883
仅供参考	-10.4886
就意味着	-10.4888
提醒自己	-10.4889
那一刻	-10.4891
一丝	-10.4892
同一	-10.4901
泛	-10.4901
异地恋	-10.4906
看不起	-10.491
还有一个	-10.4913
要考虑	-10.4915
每一个人	-10.4916
日记	-10.4919
我的建议是	-10.492
希望可以帮到你	-10.4932
已经有了	-10.4934
惜	-10.4942
发火	-10.4943
朋友们	-10.495
阻止	-10.495
从你的描述	-10.4951
怎么说	-10.4953
认清	-10.4953
沟通交流	-10.4954
负能量	-10.4954
速	-10.4964
貌	-10.4964
文字中	-10.4966
思维模式	-10.4968
◆	-10.4969
杯	-10.4973
更重要的是	-10.498
多一点	-10.4987
告诉对方	-10.4989
你的母亲	-10.4991
催眠	-10.4993
年级	-10.4993
夸奖	-10.4994
骄傲	-10.4994
早点	-10.4996
留在	-10.4996
大事	-10.5003
这样的行为	-10.5005
难免会	-10.5007
有信心	-10.5009
恶心	-10.5011
表达方式	-10.5012
给到	-10.5016
渠道	-10.5016
社团	-10.5017
外表	-10.502
外貌	-10.5024
加入	-10.5031
表面上	-10.5036
寝室	-10.5037
现代	-10.5039
防御机制	-10.504
你会觉得	-10.504
做起	-10.5042
滴	-10.5042
借助	-10.5044
整体	-10.5045
一张	-10.5045
诱	-10.5061
不知所措	-10.5062
毫	-10.5063
去完成	-10.5065
遇到问题	-10.5069
我的理解	-10.5073
想必	-10.5074
加深	-10.5077
是一个非常	-10.508
胃	-10.5084
所以才	-10.5084
你的男朋友	-10.5087
驱	-10.5092
世上	-10.5093
据	-10.5102
意味着什么	-10.5103
留意	-10.5105
解开	-10.511
索取	-10.5114
一周	-10.5119
反正	-10.512
瘾	-10.5126
超出	-10.5128
扮演	-10.513
的遭遇	-10.5133
于此	-10.5139
跳出	-10.5152
心理老师	-10.5152
香	-10.5154
满满	-10.5158
花费	-10.5164
旅行	-10.5165
制造	-10.5174
挣	-10.5176
说的是	-10.5178
不利于	-10.5179
解决这个问题	-10.5181
灵	-10.5183
专注于	-10.5188
你们的感情	-10.5189
隔离	-10.5198
正好	-10.5198
一直以来	-10.5201
(2)	-10.5201
舍不得	-10.5201
中考	-10.5212
足以	-10.5212
周围的	-10.5216
涉及	-10.522
单独	-10.5221
分泌	-10.5224
阴	-10.5224
平复	-10.5228
第二个	-10.5239
大声	-10.5244
浓	-10.5245
礼貌	-10.5246
一个过程	-10.5246
永	-10.5246
锅	-10.5247
无能为力	-10.5247
寄托	-10.5248
环境下	-10.5253
强求	-10.5256
某件事	-10.5259
胆	-10.526
接着	-10.5262
染	-10.5263
演讲	-10.5267
绑	-10.5269
东	-10.527
监督	-10.5271
分担	-10.5279
关系里	-10.5282
来看待	-10.5287
舒	-10.5289
我不知道你	-10.5294
压力很大	-10.5296
一代	-10.5297
那你就	-10.5306
开口	-10.5308
本科	-10.5308
很明显	-10.5309
也不用	-10.5314
家庭环境	-10.5315
结交	-10.5317
心平气和	-10.5317
迎接	-10.5322
追求完美	-10.5323
可以适当	-10.5324
借钱	-10.5327
逐	-10.5328
异常	-10.533
婚后	-10.5331
你的困惑	-10.5334
消极情绪	-10.5336
违	-10.534
听从	-10.5344
扩大	-10.5348
见过	-10.5348
努力学习	-10.535
无论如何	-10.5351
不要给自己	-10.5354
体系	-10.5356
爱你的人	-10.5362
就容易	-10.5365
载	-10.5365
离不开	-10.5367
第二天	-10.5369
恰	-10.5377
受不了	-10.538
码	-10.5383
青	-10.5384
非暴力沟通	-10.5386
振	-10.5387
立刻	-10.5388
监	-10.5389
毛病	-10.5391
才知道	-10.5393
也不必	-10.5394
从来没有	-10.5399
埋怨	-10.541
险	-10.541
静静	-10.5413
干嘛	-10.5416
怎么办呢	-10.5417
写作业	-10.542
解决方法	-10.5422
下班	-10.5426
刚好	-10.5432
幼稚	-10.5434
郁	-10.5434
电视剧	-10.5436
问一下	-10.5436
′	-10.5438
看到你的问题	-10.5442
这并不是	-10.5449
不下去	-10.5459
寒	-10.5459
收拾	-10.5459
陷入了	-10.5459
专门	-10.5462
对自我的	-10.5465
给到你	-10.5467
的心理状态	-10.5467
病人	-10.5469
探	-10.5473
一片	-10.5476
鲜	-10.5479
材	-10.5482
早年	-10.5489
残	-10.5499
掌	-10.5503
屋	-10.5504
另一个人	-10.5506
基	-10.551
霸	-10.5528
讲话	-10.5538
一本	-10.5542
前女友	-10.5543
世间	-10.5544
社	-10.5546
现在已经	-10.5554
弟	-10.5555
不必要的	-10.5565
耐	-10.5565
你的叙述	-10.5569
活在当下	-10.557
分别	-10.5575
戴	-10.5576
向外	-10.5578
保障	-10.5578
谋	-10.5578
财富	-10.558
有意思	-10.5581
操作	-10.5584
的书籍	-10.5585
改变不了	-10.559
您的描述	-10.5591
两点	-10.5591
专业的心理咨询师	-10.5593
打交道	-10.5602
请教	-10.5603
书中	-10.5608
得知	-10.5618
解脱	-10.562
喜爱	-10.5625
终于	-10.5627
完整的	-10.5648
一会儿	-10.565
天赋	-10.5651
可行	-10.5652
爆	-10.5652
在外面	-10.5656
你的家人	-10.5656
做了什么	-10.5658
是否真的	-10.5663
反映	-10.5671
小心翼翼	-10.5673
总会有	-10.5673
武	-10.5673
糖	-10.5673
降	-10.5674
下意识	-10.5674
沙	-10.5675
正规	-10.5678
题主提到	-10.5679
当一个人	-10.5687
给我们带来	-10.5688
告诉我	-10.5695
塞	-10.5697
判	-10.5697
挡	-10.5698
鼓	-10.5701
之间的感情	-10.5701
太在意	-10.5705
有条件	-10.5707
的底线	-10.5714
有许多	-10.5714
很理解你	-10.5718
打骂	-10.5718
盛	-10.5723
b	-10.5723
欺	-10.5723
公婆	-10.5724
靠谱	-10.5724
独特的	-10.573
换一种	-10.5735
能感觉到	-10.5736
油	-10.5738
哪一种	-10.574
销售	-10.5746
差别	-10.5749
同龄人	-10.575
后续	-10.5755
告诉我们	-10.5755
想做的事情	-10.5758
偏见	-10.5759
18	-10.5761
抚	-10.5764
受害者	-10.577
不好的事情	-10.5771
封	-10.5771
衷	-10.5772
奖	-10.5772
姥姥	-10.5772
齐	-10.5773
表达出	-10.5773
你要知道	-10.5773
风景	-10.5774
我们一起来	-10.5774
也不一定	-10.5775
做错了	-10.5776
亲爱的题主	-10.579
导师	-10.5793
打招呼	-10.5796
忧虑	-10.5798
内向的人	-10.5803
不成熟	-10.5809
以上是我	-10.5813
接收	-10.5827
的原因是什么	-10.5829
耽误	-10.5846
想到了	-10.5859
️️	-10.5861
心理健康	-10.5866
激动	-10.5877
为之	-10.5878
慰	-10.5885
系	-10.5887
还有其他	-10.5889
一门	-10.589
埋	-10.5893
内化	-10.5894
铁	-10.5895
肩	-10.5895
千万	-10.5898
盲目	-10.5899
多种	-10.59
激素	-10.5903
也是如此	-10.5907
遇到困难	-10.5913
行动起来	-10.5913
新鲜	-10.5917
干净	-10.592
自我价值感	-10.592
志同道合	-10.592
烂	-10.5921
波动	-10.5923
▽`)	-10.5923
爱着你	-10.593
中走出来	-10.5943
纯粹	-10.5944
趁	-10.5946
汗	-10.5946
•	-10.5949
本质	-10.5955
这个想法	-10.5956
人品	-10.5963
生理上	-10.5966
两个人在一起	-10.5967
颜	-10.5968
很不舒服	-10.5975
相当于	-10.5976
到底是什么	-10.5977
回顾	-10.5978
接受不了	-10.5979
很多时候我们	-10.598
更优秀	-10.5981
万一	-10.5989
需要考虑	-10.5992
进行沟通	-10.5994
勤	-10.5994
参加一些	-10.5997
说清楚	-10.6005
没错	-10.6013
察	-10.6014
这么大	-10.6014
并不一定	-10.6015
实际情况	-10.6016
你描述的	-10.6018
肚子	-10.602
艺	-10.6021
顺从	-10.6021
研	-10.6023
健	-10.6028
在那里	-10.6036
<<	-10.6039
腾	-10.6045
营养	-10.6054
诱惑	-10.6073
整天	-10.6078
才有可能	-10.6081
你的身体	-10.6085
○	-10.6091
自己的优势	-10.6099
写下	-10.6104
理解接纳认可	-10.6113
不确定性	-10.6113
建议您	-10.6119
订	-10.6119
债	-10.6119
唠叨	-10.612
抢	-10.6121
d	-10.6122
的前提下	-10.6125
如果实在	-10.6126
好好沟通	-10.6132
的人和事	-10.6132
表现得	-10.6137
精神科	-10.6139
疗	-10.6144
归属感	-10.6146
针对性	-10.6146
楼主的描述	-10.6151
增长	-10.6152
巨大	-10.6154
的真实想法	-10.6154
弱小	-10.6166
团队	-10.6172
扎	-10.6172
给你一个抱抱	-10.6186
撑	-10.6195
软件	-10.6197
盯着	-10.62
比较容易	-10.6203
弄清楚	-10.6204
心理状态	-10.6209
你们两个	-10.6217
相当	-10.6221
阵	-10.6223
家族	-10.6224
亚	-10.6224
深层次	-10.6225
如果你真的	-10.6225
惊喜	-10.6226
自尊心	-10.6233
一套	-10.6238
感到焦虑	-10.6239
米	-10.6247
满足感	-10.6253
局面	-10.6257
第五	-10.6262
浮	-10.627
朋友之间	-10.6271
帮到	-10.6273
羞耻感	-10.6277
可惜	-10.6279
注定	-10.628
大学生	-10.6283
15	-10.6283
是非常正常的	-10.6287
孩子们	-10.6294
的立场	-10.6297
剂	-10.6299
告别	-10.6301
扔	-10.6301
一步一步	-10.6304
不要轻易	-10.631
底气	-10.6312
确诊	-10.6313
移	-10.6318
[	-10.6321
权力	-10.6323
堵	-10.6325
幼儿园	-10.6325
这边	-10.6328
可私信	-10.633
自己的兴趣爱好	-10.6334
自我觉察	-10.6335
始	-10.6345
]	-10.6347
纵	-10.6348
实质	-10.635
某种程度上	-10.6351
实习	-10.6355
得到满足	-10.6359
组成	-10.6361
私人	-10.6372
定期	-10.6372
维系	-10.6375
说实话	-10.6377
每一个人都	-10.6385
诸	-10.6387
我看到了	-10.6389
做主	-10.6395
这是很正常的	-10.6399
客户	-10.6401
妄	-10.6402
依据	-10.6403
腹	-10.6404
徒	-10.6404
谈论	-10.6412
联结	-10.6431
班主任	-10.6431
看上去	-10.6431
书写	-10.6433
比赛	-10.6434
对应	-10.6453
笨	-10.6454
扛	-10.6455
拼命	-10.6456
抖	-10.6456
冷淡	-10.6456
太高	-10.6458
坦白	-10.6458
药物治疗	-10.646
不符合	-10.646
搞清楚	-10.6464
如同	-10.6467
被看见	-10.6473
从来不	-10.6474
虽	-10.6481
结束语	-10.6495
诸多	-10.6497
是什么样子	-10.65
前者	-10.6508
反省	-10.6512
正常生活	-10.6517
体贴	-10.6517
约定	-10.6522
两个人之间	-10.6522
很不错	-10.6525
身心健康	-10.6525
麻	-10.6533
珍贵	-10.6534
挫败感	-10.6537
对于你来说	-10.6546
爷爷	-10.6557
做饭	-10.656
12	-10.6561
称为	-10.6561
专心	-10.6562
旁观者	-10.6562
疼痛	-10.6563
恐怕	-10.6566
挣钱	-10.6567
周末	-10.6577
这些行为	-10.6582
融	-10.6583
删	-10.6583
的重要性	-10.6587
轮	-10.6587
了解对方	-10.6599
希望你能够	-10.6602
本来就是	-10.6603
保持距离	-10.6606
放松下来	-10.6609
没有意义	-10.6609
物理	-10.6612
青少年	-10.6614
指出	-10.6614
提高自己的	-10.6632
整个人	-10.6638
荡	-10.664
个人成长	-10.6642
俗话说	-10.6642
患得患失	-10.6643
项目	-10.6651
50	-10.6652
坚	-10.6658
才不会	-10.6661
打工	-10.6663
隐瞒	-10.6666
委婉	-10.6667
爷爷奶奶	-10.6667
绊	-10.6669
不用太	-10.6669
情绪波动	-10.6678
趣	-10.6681
利弊	-10.6686
交换	-10.6686
有人说	-10.6687
别人的评价	-10.6689
戏	-10.6693
援	-10.6694
自己的不足	-10.6694
正念冥想	-10.6696
压力太大	-10.6696
有益	-10.6696
比较敏感	-10.67
生活习惯	-10.6709
一顿	-10.671
一半	-10.6711
辱	-10.6719
贪	-10.6723
撞	-10.6724
服药	-10.6728
如何看待	-10.6741
时间久了	-10.6742
军	-10.6749
茫	-10.6749
急于	-10.6752
试探	-10.6759
玩笑	-10.6764
没有意识到	-10.6764
生命中	-10.6767
好的一面	-10.677
延	-10.6772
承认自己	-10.6773
浪漫	-10.6775
出去玩	-10.678
习得	-10.6791
不仅仅	-10.6794
妻	-10.6796
婚前	-10.6799
试试看	-10.6799
庆幸	-10.68
严厉	-10.6802
挑剔	-10.6802
漏	-10.6802
贷	-10.6803
祝你早日	-10.6803
噢	-10.6804
夫妻之间	-10.6805
逼迫	-10.6805
自己的缺点	-10.6807
识别	-10.681
性欲	-10.6814
感冒	-10.6818
模糊	-10.683
渣男	-10.6831
关联	-10.6834
不要放弃	-10.6838
历史	-10.6852
孤独感	-10.6855
孝	-10.6856
烧	-10.6856
林	-10.6857
只是为了	-10.6858
育	-10.6864
做出选择	-10.6868
强度	-10.6868
真实感受	-10.688
朝着	-10.6882
肢体	-10.6883
平凡	-10.689
销	-10.6909
拟	-10.691
融洽	-10.6911
兼职	-10.6913
年龄段	-10.692
被忽视	-10.6925
经历了什么	-10.6929
耗	-10.6932
耻	-10.6938
案例	-10.6939
面具	-10.694
暖暖	-10.694
幸福快乐	-10.6943
达不到	-10.6944
加班	-10.6946
外婆	-10.6947
让你感觉到	-10.6948
脑子	-10.6949
把所有的	-10.6958
从小就	-10.6958
四年	-10.6968
婚姻关系	-10.6968
此时此刻	-10.6969
哈哈	-10.697
离职	-10.6973
塑造	-10.6975
脑子里	-10.6975
情形	-10.6976
大致	-10.6977
很好地	-10.6978
遗	-10.6988
甲	-10.6992
打扮	-10.6996
正式	-10.7003
理念	-10.7009
讲述	-10.7013
细腻	-10.702
活泼	-10.7021
愿意为	-10.703
末	-10.7031
还不够	-10.7039
脑海里	-10.7049
参	-10.7052
释	-10.7054
要做的就是	-10.7057
感激	-10.7064
担当	-10.707
龄	-10.7072
思绪	-10.7078
鞋	-10.7079
实施	-10.708
思维方式	-10.7096
侧	-10.7105
假装	-10.711
掌控感	-10.711
感染	-10.7113
答主	-10.7113
坐下来	-10.7113
发作	-10.7123
理清	-10.7127
的一种方式	-10.7128
主见	-10.7129
那么重要	-10.713
鼻	-10.7132
这其中	-10.7136
遵从	-10.7143
瘦	-10.7159
均	-10.716
反驳	-10.7161
如何处理	-10.7173
楼主提到	-10.7185
公公	-10.7187
也有可能是	-10.7188
矫	-10.719
愁	-10.7191
记录下来	-10.7195
胆小	-10.7196
理解你的心情	-10.7196
自我认知	-10.7196
平台上	-10.7201
活力	-10.7203
不同意	-10.7205
改变现状	-10.7217
略	-10.7218
泥	-10.7219
面对面	-10.7225
客体	-10.7225
不可避免	-10.7233
细心	-10.7238
调整一下	-10.7246
权衡	-10.7246
偷偷	-10.7247
康复	-10.7248
希望可以帮到楼主	-10.7249
深层	-10.725
朋友倾诉	-10.7253
这个词	-10.7254
意志力	-10.7255
表达自己的感受	-10.726
抵抗	-10.7275
懈	-10.7275
友善	-10.7275
网络上	-10.7286
一开始就	-10.7291
几个问题	-10.7297
放松一下	-10.73
的想法和感受	-10.73
罗	-10.7301
综	-10.7301
泡	-10.7303
y	-10.7303
与人交往	-10.7308
增进	-10.7309
是非常重要的	-10.7311
自我认同	-10.7314
采	-10.7318
4.	-10.7319
快感	-10.7321
纪	-10.7326
仇	-10.733
举个例子	-10.7331
请问	-10.7331
骚	-10.7332
市	-10.7333
具	-10.7333
。5、	-10.7341
五年	-10.7345
开学	-10.7355
助人	-10.7355
懦弱	-10.7358
害羞	-10.736
怼	-10.7361
以下几点	-10.7361
是怎么样的	-10.737
美国	-10.7373
分配	-10.7373
才是最重要的	-10.7375
生长	-10.7378
城	-10.7386
遵守	-10.7389
早日走出	-10.7389
敞开心扉	-10.7389
迈	-10.7389
嘱	-10.739
O	-10.739
何必	-10.7407
医学	-10.7409
寂	-10.7417
延续	-10.7417
赌	-10.7419
冷战	-10.742
休息一下	-10.742
信赖	-10.7423
候	-10.7424
负面影响	-10.7432
受挫	-10.7432
25	-10.7434
得很好	-10.7447
一刻	-10.7447
意义上	-10.7447
可怜	-10.745
操心	-10.7454
顿	-10.7457
依恋关系	-10.7466
撕	-10.7473
绕	-10.7475
走路	-10.7475
技	-10.7487
几种	-10.7488
伴随着	-10.7493
我想说的是	-10.7499
脑海中	-10.7504
步骤	-10.7504
蓝	-10.7508
部门	-10.751
前途	-10.7514
上司	-10.7514
的一些想法	-10.7515
一味	-10.7515
人士	-10.7525
单方面	-10.7526
害怕失去	-10.7529
劣	-10.7533
扶	-10.7533
积压	-10.7535
胜任	-10.7535
有没有想过	-10.7541
体育	-10.7542
做好准备	-10.7553
果断	-10.7553
投入到	-10.756
留恋	-10.7562
轨迹	-10.7562
娘	-10.7562
赏	-10.7562
蓄	-10.7563
身处	-10.7563
出了问题	-10.7573
心理准备	-10.758
应付	-10.7583
北	-10.7593
D	-10.7593
莫名其妙	-10.7594
下午	-10.7599
弊	-10.7603
讲道理	-10.7607
所处的	-10.7609
遗传	-10.7623
换成	-10.7624
几点建议	-10.7629
有权利	-10.7638
人物	-10.7645
照片	-10.7656
出发点	-10.7666
按时	-10.7667
递	-10.7679
强迫性	-10.7685
你的描述我了解到	-10.7691
常常会	-10.7702
之路	-10.7707
体重	-10.7708
恐怖	-10.7709
逛	-10.771
派	-10.7711
土	-10.7712
时间长了	-10.7712
迷失	-10.7716
投资	-10.7716
较大	-10.7717
善待	-10.7717
源头	-10.7717
备考	-10.7728
伪装	-10.7739
g	-10.7741
→	-10.7742
遗忘	-10.7746
虎	-10.7747
解决方案	-10.7752
焦点	-10.7752
传达	-10.7756
上升	-10.7767
二十	-10.7778
找找	-10.7782
远远	-10.7785
祝福题主	-10.7791
指的是	-10.7793
很多东西	-10.7794
图书馆	-10.7799
圣	-10.7799
从现在开始	-10.7801
吹	-10.7802
ω	-10.7806
开启	-10.7807
不知道该怎么	-10.781
分析了解问题	-10.7826
很在乎	-10.7827
姿态	-10.7828
措	-10.7829
谦	-10.783
熊	-10.783
笼	-10.783
四个	-10.7831
统一	-10.7836
设想	-10.7843
沉重	-10.7843
这份感情	-10.7858
设计	-10.7859
不知不觉	-10.7861
要相信自己	-10.7872
责	-10.7877
上述	-10.7878
罢	-10.7878
瑜伽	-10.7889
撒	-10.7889
鉴	-10.7889
持久	-10.7893
不良情绪	-10.7899
是不对的	-10.7902
叙述	-10.7905
很多人都会	-10.7908
见解	-10.7916
唯有	-10.7919
径	-10.792
责任感	-10.7925
小可爱	-10.7926
这两种	-10.7939
职位	-10.7956
不是很好	-10.7957
几个月	-10.7963
科目	-10.7968
坚决	-10.798
雷	-10.7983
留给	-10.7987
才发现	-10.7989
碗	-10.8011
纷	-10.8011
扫	-10.8011
循序渐进	-10.8013
角落	-10.8016
不要着急	-10.8017
希望能帮到你	-10.8019
变得越来越	-10.8025
真实的想法	-10.8031
墙	-10.8042
惨	-10.8042
原始	-10.8043
诗	-10.8044
较为	-10.8045
看到了你的	-10.8045
占有欲	-10.8048
不小心	-10.8049
更像是	-10.8058
。2)	-10.8068
脉	-10.8072
秘	-10.8073
汇	-10.8073
...........................	-10.8074
票	-10.8075
19	-10.8076
眼光	-10.8077
家庭成员	-10.8078
时间段	-10.8078
新环境	-10.8091
国外	-10.8099
劣势	-10.8103
伸	-10.8105
厌烦	-10.8106
贫	-10.8106
压制	-10.811
下一步	-10.8115
那么你就	-10.8127
洒	-10.8135
酬	-10.8135
生育	-10.8138
静下来	-10.814
认定	-10.8142
结构	-10.8143
建议你可以	-10.8144
头疼	-10.8145
专科	-10.8146
(1)	-10.8148
暂	-10.815
获	-10.8151
给自己定	-10.8152
通过你的描述	-10.8153
投射到	-10.8159
容忍	-10.8162
浪	-10.8163
授	-10.8166
电脑	-10.8169
贴标签	-10.8169
触碰	-10.8172
估	-10.8188
负性	-10.8189
调整心态	-10.8193
阿德勒	-10.8195
11	-10.8196
企	-10.8196
射	-10.8198
旁边	-10.8199
形容	-10.8199
感谢你的问题	-10.8207
最佳	-10.8216
迎	-10.8224
醋	-10.8229
协商	-10.8229
避开	-10.8232
一番	-10.824
自我意识	-10.824
面临着	-10.8241
觉知	-10.8244
谈话	-10.8247
失利	-10.8248
列出	-10.8258
框	-10.8262
只有你自己	-10.8262
年代	-10.8263
现阶段	-10.8287
宜	-10.829
拆	-10.8292
坑	-10.8295
悦	-10.8354
恒	-10.8357
驾	-10.8386
惑	-10.8387
伙	-10.8388
挥	-10.8413
泄	-10.8414
束	-10.8417
卸	-10.8418
胡	-10.8419
Q	-10.842
跌	-10.842
维	-10.8444
眠	-10.8446
尖	-10.8449
族	-10.8451
ノ	-10.8456
渡	-10.8471
寸	-10.8481
谨	-10.8482
渣	-10.8484
炸	-10.8484
抬	-10.8513
响	-10.8547
童	-10.856
奋	-10.8578
伯	-10.8579
ε	-10.8585
英	-10.8611
柔	-10.8612
盖	-10.8613
衡	-10.8638
抛	-10.864
盼	-10.8642
夺	-10.8676
叶	-10.8709
_	-10.8713
谢	-10.8736
砸	-10.8741
吼	-10.8743
甘	-10.876
甚	-10.8786
构	-10.8795
x	-10.8806
惧	-10.8808
兴	-10.8833
夹	-10.8843
介	-10.8871
鸟	-10.8874
账	-10.8875
姨	-10.8876
截	-10.8876
癖	-10.8876
描	-10.8876
弯	-10.8878
营	-10.8895
虑	-10.8939
抹	-10.8941
桥	-10.8942
滋	-10.8975
斥	-10.8975
睦	-10.8976
港	-10.8977
核	-10.8992
协	-10.9006
塌	-10.9009
尾	-10.901
遭	-10.9017
勉	-10.9041
躺	-10.9042
章	-10.9076
犹	-10.9077
唱	-10.911
粉	-10.9111
晨	-10.9113
揣	-10.9146
促	-10.915
闻	-10.9179
威	-10.918
聘	-10.9214
储	-10.9248
李	-10.9253
ง	-10.9253
泪	-10.9282
蒙	-10.9283
阿	-10.9288
宣	-10.9354
润	-10.9357
M	-10.9388
训	-10.9423
珍	-10.9427
晓	-10.9459
铺	-10.9461
〰	-10.949
搜	-10.9493
页	-10.9495
嫌	-10.9496
左	-10.9497
唯	-10.9549
歇	-10.9565
陈	-10.9566
辨	-10.9599
尘	-10.9602
晕	-10.9636
攻	-10.9639
春	-10.9639
惯	-10.9651
猛	-10.9673
涂	-10.971
史	-10.9717
斤	-10.9748
街	-10.9749
符	-10.9769
擦	-10.9783
祸	-10.9783
敲	-10.9784
呐	-10.9818
癌	-10.982
针	-10.9843
骑	-10.9855
孙	-10.9856
右	-10.9858
澡	-10.9894
租	-10.9925
喻	-10.993
否	-10.994
予	-10.9958
媒	-10.9967
偿	-10.9967
摄	-10.9967
帅	-11.0007
巨	-11.002
涵	-11.0043
瓶	-11.0046
握	-11.0069
野	-11.0079
挤	-11.008
>	-11.008
际	-11.0091
挽	-11.0115
南	-11.0154
闯	-11.0158
焦	-11.0186
哟	-11.0198
峰	-11.0231
雪	-11.0232
季	-11.0233
柱	-11.0234
F	-11.0235
凶	-11.0271
崩	-11.0271
卫	-11.0301
奢	-11.031
遥	-11.0311
溯	-11.0346
呗	-11.0349
罚	-11.0349
梁	-11.0385
凉	-11.0387
究	-11.0423
吻	-11.0424
兵	-11.0427
楚	-11.0454
婴	-11.046
雅	-11.0503
漠	-11.054
扣	-11.0543
园	-11.058
村	-11.0582
懵	-11.0622
涌	-11.0622
登	-11.0624
汉	-11.0625
轨	-11.0651
尊	-11.0651
邀	-11.0656
析	-11.0659
豪	-11.0663
携	-11.0702
竭	-11.0703
潮	-11.0703
龙	-11.0703
阶	-11.0703
贯	-11.0703
吞	-11.074
缠	-11.0742
稀	-11.0779
污	-11.0781
醉	-11.0782
帝	-11.0783
袭	-11.0783
淋	-11.0784
咋	-11.0787
寡	-11.0822
粘	-11.0823
芒	-11.0824
晒	-11.0825
爷	-11.0825
液	-11.086
冬	-11.0861
叹	-11.0863
磕	-11.0864
X	-11.0864
勾	-11.0901
返	-11.0904
丰	-11.0946
享	-11.097
遮	-11.0986
衰	-11.0987
屏	-11.0988
拜	-11.1027
忠	-11.1027
兼	-11.1067
苏	-11.1075
况	-11.1087
沟	-11.1096
尼	-11.1111
瑶	-11.1112
谎	-11.1148
疾	-11.1149
委	-11.1151
肤	-11.1152
夕	-11.1153
挚	-11.1153
罩	-11.1156
续	-11.1178
敛	-11.1194
恕	-11.1237
拘	-11.124
尿	-11.1281
摩	-11.1282
咒	-11.1282
扩	-11.1305
姆	-11.132
森	-11.132
琴	-11.1322
版	-11.1362
嗨	-11.1364
君	-11.1372
萌	-11.1406
蠢	-11.1409
玉	-11.141
瞧	-11.145
N	-11.1452
庸	-11.1494
恳	-11.1494
辛	-11.1535
扇	-11.1538
艾	-11.1539
踩	-11.1579
祖	-11.1581
涯	-11.1583
荒	-11.1584
赛	-11.162
厕	-11.1625
傲	-11.1626
盈	-11.1626
钝	-11.1666
飘	-11.1668
货	-11.1673
状	-11.1701
壮	-11.1712
&	-11.1713
宗	-11.1716
慕	-11.1758
湾	-11.1759
羞	-11.1845
裹	-11.1845
筛	-11.1845
凑	-11.1846
捷	-11.1848
钢	-11.1891
滞	-11.1891
丽	-11.1892
植	-11.1892
秋	-11.1893
炎	-11.1942
肠	-11.198
忽	-11.1981
幅	-11.1981
倦	-11.1982
哇	-11.1983
^	-11.1988
垮	-11.203
侃	-11.2072
炮	-11.2073
挨	-11.2074
肆	-11.2075
瓜	-11.2078
旅	-11.2101
暇	-11.212
彼	-11.212
绿	-11.2121
彻	-11.2164
咱	-11.2165
肺	-11.2165
契	-11.2199
域	-11.2213
幕	-11.2213
f	-11.2213
痘	-11.2263
塑	-11.2294
拓	-11.2304
恼	-11.2305
齿	-11.2306
K	-11.2306
朵	-11.2353
硕	-11.2355
洋	-11.2358
饮	-11.2399
横	-11.24
韧	-11.2401
腰	-11.2402
姿	-11.2402
疤	-11.2404
勒	-11.2447
◎	-11.2449
净	-11.2494
衍	-11.2496
喂	-11.2496
绳	-11.2499
舅	-11.2503
井	-11.2543
垫	-11.2544
吖	-11.255
桶	-11.2592
挖	-11.2593
屡	-11.2596
屁	-11.2643
兰	-11.2645
扭	-11.269
嫂	-11.2692
捋	-11.2692
仁	-11.2693
筋	-11.2693
歧	-11.2735
帖	-11.2736
欣	-11.2737
阐	-11.2739
须	-11.274
膀	-11.274
誉	-11.2742
慈	-11.2742
豆	-11.2744
纠	-11.2781
堪	-11.2783
拒	-11.2787
燃	-11.2789
淀	-11.279
椅	-11.2791
狭	-11.2837
呵	-11.2839
执	-11.2869
兽	-11.2886
I	-11.2887
尺	-11.2888
昏	-11.2892
喔	-11.2892
江	-11.2936
壁	-11.294
倡	-11.294
尤	-11.2979
惶	-11.2988
娶	-11.2988
疫	-11.3005
疯	-11.3038
篮	-11.3039
签	-11.3088
笃	-11.3089
乳	-11.3089
竞	-11.309
捉	-11.309
铃	-11.3141
甩	-11.3191
夏	-11.3191
狼	-11.3192
摊	-11.3193
拾	-11.3195
k	-11.3247
呕	-11.3293
讯	-11.3294
浑	-11.3295
壳	-11.3296
震	-11.3296
堕	-11.3296
蹈	-11.3298
刘	-11.3299
缝	-11.3346
岛	-11.3349
抄	-11.3351
敏	-11.3367
怜	-11.3445
淘	-11.3449
岂	-11.3453
孔	-11.3453
辅	-11.3488
绩	-11.349
拳	-11.3507
涩	-11.3508
奥	-11.3514
勇	-11.3549
涉	-11.3555
络	-11.3555
绘	-11.3557
扉	-11.3558
钻	-11.356
批	-11.3612
饰	-11.3612
逢	-11.3613
船	-11.3613
剥	-11.3665
渊	-11.3666
捡	-11.3667
旋	-11.3667
裸	-11.3667
耍	-11.3701
喘	-11.3718
冠	-11.3721
怠	-11.3774
串	-11.3775
映	-11.3826
颗	-11.3827
席	-11.3829
炼	-11.383
丁	-11.383
蝶	-11.3831
陆	-11.3832
R	-11.3885
H	-11.3886
吊	-11.3936
涨	-11.3938
摧	-11.394
突	-11.3971
赖	-11.398
惠	-11.3994
逸	-11.3995
羊	-11.3997
覆	-11.3998
啡	-11.405
撩	-11.405
济	-11.405
湖	-11.4051
孩	-11.4068
遵	-11.4091
裕	-11.4107
苗	-11.4162
琢	-11.4162
抒	-11.4162
银	-11.4164
漂	-11.4164
捏	-11.4222
厂	-11.4223
阅	-11.4258
掏	-11.4275
慨	-11.4277
虫	-11.4277
叨	-11.4279
愚	-11.428
箱	-11.4281
厅	-11.4332
瞒	-11.4334
痴	-11.4391
滚	-11.4393
讳	-11.4394
仰	-11.4449
E	-11.4451
耀	-11.4452
拨	-11.4508
掩	-11.4509
渺	-11.4509
危	-11.4565
窝	-11.457
腔	-11.4625
悬	-11.4626
摘	-11.4626
蒂	-11.4628
渐	-11.4657
司	-11.4667
v	-11.4684
🤩	-11.4684
咎	-11.4684
氧	-11.4686
臭	-11.4686
馆	-11.4688
伏	-11.4742
憎	-11.4747
▶	-11.48
揭	-11.4805
鸭	-11.4806
踢	-11.4865
叠	-11.4865
瞎	-11.4867
蔽	-11.4928
歪	-11.4928
娇	-11.4929
田	-11.4929
晴	-11.493
哒	-11.4932
番	-11.497
伦	-11.4983
塔	-11.499
挟	-11.499
冤	-11.4991
愧	-11.4993
贬	-11.5109
睁	-11.5114
秀	-11.5115
鲁	-11.5115
赤	-11.5115
悠	-11.5116
谓	-11.5167
讽	-11.5175
锋	-11.5176
拦	-11.5176
L	-11.5184
揪	-11.524
刍	-11.53
臆	-11.5301
曼	-11.5301
拙	-11.5301
碍	-11.5341
鼠	-11.536
枉	-11.5363
革	-11.5364
鄙	-11.5366
腺	-11.5371
庆	-11.5491
肥	-11.5493
沿	-11.5494
捕	-11.5494
扑	-11.5496
欧	-11.5496
臂	-11.5498
痒	-11.5557
棘	-11.5558
祟	-11.556
康	-11.556
农	-11.5562
验	-11.5607
讪	-11.5622
乌	-11.5623
°	-11.5627
厨	-11.5627
猎	-11.5635
藉	-11.569
辣	-11.569
颇	-11.569
w	-11.569
吾	-11.5692
豁	-11.5758
酱	-11.576
肝	-11.5822
怯	-11.5823
咖	-11.5823
卧	-11.5826
岗	-11.5885
腻	-11.5888
勿	-11.589
滤	-11.589
币	-11.5893
̀	-11.5895
菇	-11.5896
窄	-11.5954
肾	-11.5954
袒	-11.5957
棵	-11.5959
罐	-11.5963
逗	-11.6025
详	-11.6025
旺	-11.6026
昂	-11.6029
审	-11.6091
跃	-11.6096
盾	-11.6096
嘻	-11.6098
慎	-11.6159
渴	-11.6159
轰	-11.6164
葛	-11.623
狱	-11.6233
膜	-11.6298
朗	-11.6301
筹	-11.6302
赘	-11.6303
丈	-11.6303
涡	-11.6304
─	-11.6312
谣	-11.6371
诀	-11.6373
孰	-11.6373
邪	-11.6374
佩	-11.6375
档	-11.6378
亡	-11.6441
弥	-11.6442
褪	-11.6442
卦	-11.6443
酷	-11.6444
洪	-11.6445
贱	-11.6445
诺	-11.6446
羽	-11.6446
池	-11.6448
织	-11.6514
苛	-11.6514
削	-11.6515
顽	-11.6516
亵	-11.6584
枕	-11.6586
宅	-11.6588
沦	-11.6589
贤	-11.6593
盲	-11.6651
捧	-11.6659
毕	-11.6661
锦	-11.6662
雾	-11.6662
遂	-11.6736
惰	-11.6805
潭	-11.6807
镇	-11.6807
耽	-11.6808
剑	-11.6809
伐	-11.688
潇	-11.688
蛇	-11.688
贺	-11.6881
汀	-11.6885
艰	-11.6948
黏	-11.6954
履	-11.6956
绵	-11.6959
淹	-11.7028
眉	-11.7028
盐	-11.7029
溢	-11.7032
萨	-11.7034
绪	-11.7095
艳	-11.7104
稻	-11.7106
怎	-11.7107
蜕	-11.7107
旗	-11.7108
芬	-11.7108
裤	-11.7109
攒	-11.718
杆	-11.7181
|	-11.7181
巩	-11.7182
剪	-11.7185
概	-11.7246
矮	-11.7256
奉	-11.7262
谊	-11.7264
碌	-11.7332
届	-11.7333
挠	-11.7335
鞭	-11.7337
吉	-11.7339
―	-11.7339
绽	-11.7339
践	-11.7413
溜	-11.7414
澜	-11.7415
赔	-11.7417
稿	-11.7418
舆	-11.7418
饥	-11.7418
槛	-11.7491
宫	-11.7493
岸	-11.7493
隙	-11.7495
览	-11.757
弛	-11.7572
沾	-11.7576
赴	-11.7576
袋	-11.7647
姓	-11.765
囊	-11.7652
奴	-11.7654
窥	-11.7654
唐	-11.7654
搁	-11.7656
诵	-11.7656
斩	-11.7731
兄	-11.7732
妆	-11.7733
仗	-11.7733
械	-11.7733
册	-11.7734
俭	-11.7735
爹	-11.7735
崇	-11.774
帽	-11.781
咽	-11.7815
凝	-11.7816
抑	-11.7892
裁	-11.7893
沛	-11.7895
煮	-11.7895
赎	-11.7896
荷	-11.7896
仙	-11.7896
揽	-11.7898
凤	-11.7898
柜	-11.7898
砖	-11.7898
滥	-11.7901
嗦	-11.7977
睹	-11.7979
亿	-11.7981
钩	-11.7982
霉	-11.7982
汰	-11.8061
乘	-11.8067
掐	-11.8144
谱	-11.8145
洛	-11.8146
憾	-11.8147
御	-11.8148
汲	-11.8148
殊	-11.8148
哎	-11.815
询	-11.8208
玫	-11.8228
嚼	-11.8229
耕	-11.823
埃	-11.823
昧	-11.8232
杜	-11.8233
猪	-11.8234
皇	-11.8313
瑕	-11.8317
箭	-11.8317
奸	-11.8397
厘	-11.8401
梯	-11.8404
赠	-11.8404
颠	-11.8405
盟	-11.8487
购	-11.8488
灾	-11.8488
宰	-11.8489
彷	-11.8492
妒	-11.8495
舌	-11.8577
戳	-11.8578
枝	-11.8579
惩	-11.8582
屑	-11.8666
秉	-11.8666
倘	-11.8666
榜	-11.8668
喷	-11.8668
叙	-11.867
寥	-11.8754
殖	-11.8755
趟	-11.8755
励	-11.8756
芽	-11.8758
秩	-11.8759
盆	-11.8759
掺	-11.8843
筑	-11.8844
杰	-11.8845
诈	-11.8847
瑰	-11.8932
魄	-11.8937
悼	-11.8938
纽	-11.8939
惋	-11.894
杠	-11.8942
妨	-11.8966
攀	-11.9022
谷	-11.9024
循	-11.9025
啃	-11.9028
腐	-11.9028
坡	-11.9029
铭	-11.903
眷	-11.9031
擅	-11.9118
州	-11.9119
噬	-11.912
疙	-11.912
浇	-11.9121
党	-11.9129
杨	-11.913
链	-11.9211
遣	-11.9213
贸	-11.9213
讶	-11.9213
瘩	-11.9214
蜜	-11.9215
献	-11.9216
卓	-11.9217
勃	-11.9218
⊙	-11.9305
陶	-11.9307
航	-11.9309
禅	-11.9309
辆	-11.9309
诞	-11.9309
焉	-11.931
淫	-11.931
瓦	-11.931
馁	-11.9312
啰	-11.9402
驶	-11.9402
怂	-11.9407
婶	-11.9499
苍	-11.95
霜	-11.95
嗜	-11.95
炒	-11.9505
坠	-11.9597
叔	-11.9599
伞	-11.9599
誓	-11.9696
钉	-11.9699
卑	-11.9789
府	-11.9794
刹	-11.9794
腕	-11.9795
羁	-11.9797
踪	-11.9798
脂	-11.989
泼	-11.9893
柴	-11.9893
仿	-11.9895
驻	-11.9897
灿	-11.9898
译	-11.9902
庄	-11.9993
磁	-11.9996
哺	-11.9999
๑	-12.0005
芥	-12.0097
蹭	-12.0098
弗	-12.0099
<	-12.0196
刮	-12.02
拐	-12.02
衬	-12.0202
雄	-12.03
搏	-12.0302
嘿	-12.0304
殿	-12.0304
刑	-12.0305
陋	-12.0306
兑	-12.0309
晰	-12.0397
V	-12.0406
泰	-12.041
汤	-12.0411
棍	-12.0413
́	-12.0415
肿	-12.0512
绷	-12.0513
栏	-12.0515
猴	-12.0515
咨	-12.0515
窍	-12.0517
〔	-12.0517
〕	-12.0517
廉	-12.0517
竹	-12.0518
饼	-12.052
這	-12.0536
竟	-12.0612
朋	-12.0618
烙	-12.0619
斜	-12.0621
浏	-12.0621
颤	-12.0622
宾	-12.0624
浴	-12.0625
檐	-12.0625
陀	-12.0626
库	-12.0627
津	-12.063
丛	-12.0728
⏩	-12.073
淌	-12.0731
咳	-12.0737
晶	-12.0839
祈	-12.0839
兆	-12.0841
睬	-12.0842
希	-12.0844
驴	-12.0845
枪	-12.0849
愛	-12.0857
挫	-12.0927
摒	-12.0955
撤	-12.1063
溃	-12.1064
咸	-12.1066
霍	-12.1066
墨	-12.1067
棋	-12.1067
蕴	-12.1069
灼	-12.107
辉	-12.1071
柏	-12.1177
烫	-12.1178
麦	-12.1178
酌	-12.1181
迪	-12.1181
鸣	-12.1183
奏	-12.1278
喉	-12.1291
唉	-12.1293
砍	-12.1294
隘	-12.1294
翅	-12.1296
悯	-12.1297
窘	-12.1297
姥	-12.1297
咯	-12.1298
蹦	-12.1409
螺	-12.1411
沼	-12.1412
伪	-12.1413
岳	-12.1414
昨	-12.1525
宏	-12.1526
捅	-12.1528
兜	-12.1528
胀	-12.1529
Z	-12.1531
狐	-12.1553
赋	-12.1635
汁	-12.1645
申	-12.1645
伍	-12.1646
拢	-12.1647
岔	-12.1649
肋	-12.1649
疮	-12.165
舔	-12.1765
谅	-12.1765
逾	-12.1767
伊	-12.1767
捣	-12.1767
裙	-12.1768
蔓	-12.177
唬	-12.1887
拽	-12.1891
湿	-12.1891
劈	-12.1892
觅	-12.1893
掰	-12.1894
尸	-12.2009
灌	-12.201
贞	-12.2012
朱	-12.2012
扼	-12.2014
梅	-12.2014
乞	-12.2016
腆	-12.2017
丫	-12.2018
琐	-12.2023
拥	-12.21
钮	-12.2133
魅	-12.2136
悸	-12.2137
粮	-12.2137
棱	-12.2138
饶	-12.2139
矣	-12.214
隶	-12.214
篱	-12.2141
诅	-12.2141
葩	-12.2141
`	-12.2143
玄	-12.2262
菌	-12.2263
糕	-12.2264
叉	-12.2265
苟	-12.2265
茧	-12.2269
堡	-12.2389
钓	-12.2389
障	-12.239
嘲	-12.239
贝	-12.2395
乙	-12.2522
曰	-12.2523
邻	-12.2525
唠	-12.2526
驰	-12.2526
粒	-12.2527
穴	-12.2527
枯	-12.253
為	-12.2531
蔬	-12.2653
驳	-12.2654
诫	-12.2654
汽	-12.2654
筒	-12.2654
跪	-12.2655
娩	-12.2656
茄	-12.2657
噜	-12.2786
酗	-12.2786
肚	-12.2787
梗	-12.2787
驼	-12.2788
濡	-12.2788
韩	-12.2788
悖	-12.279
蛙	-12.2791
翔	-12.2794
盒	-12.2917
庞	-12.2919
蹲	-12.292
盗	-12.292
彰	-12.2922
叮	-12.2922
婉	-12.2923
恍	-12.2923
冻	-12.2925
墓	-12.3058
驭	-12.3059
咪	-12.3061
缕	-12.3062
什	-12.3062
逊	-12.3063
邋	-12.3066
個	-12.3089
颈	-12.3194
悉	-12.3195
凸	-12.3197
囤	-12.3197
柳	-12.3199
卜	-12.32
跤	-12.3201
刁	-12.3202
朦	-12.3203
來	-12.3214
庭	-12.3312
培	-12.3316
盯	-12.332
弦	-12.3338
锤	-12.3339
弈	-12.334
仓	-12.3341
蛛	-12.3341
芳	-12.3343
虹	-12.3345
玲	-12.3345
肢	-12.3473
窃	-12.3479
键	-12.3481
翁	-12.3482
殆	-12.3483
川	-12.3483
妮	-12.3483
颖	-12.3483
兮	-12.3484
嘘	-12.3485
侄	-12.3485
遢	-12.3486
‍	-12.3486
會	-12.3501
锐	-12.3625
葬	-12.3628
垂	-12.3629
惭	-12.3629
揉	-12.363
肽	-12.3774
🤗	-12.3774
萎	-12.3774
橡	-12.3775
舟	-12.3775
飙	-12.3776
祥	-12.3777
們	-12.3788
q	-12.3918
茬	-12.3921
寿	-12.3925
纲	-12.3926
淑	-12.3926
臣	-12.3926
谧	-12.3926
晦	-12.3928
桃	-12.3929
嚷	-12.4071
蔑	-12.4073
坟	-12.4073
撼	-12.4074
刃	-12.4076
迅	-12.4077
恬	-12.4078
慧	-12.4078
'	-12.4079
召	-12.4083
j	-12.4088
侠	-12.4221
甄	-12.4227
驯	-12.4228
赐	-12.4228
熏	-12.4229
县	-12.4229
庇	-12.4229
骄	-12.423
屎	-12.4231
凯	-12.4235
瞬	-12.438
撇	-12.4382
沫	-12.4383
晃	-12.4384
肌	-12.4384
宵	-12.4384
殴	-12.4385
朴	-12.4386
泽	-12.4386
剖	-12.4386
珠	-12.4387
悄	-12.4387
劫	-12.4391
毅	-12.454
郎	-12.4542
婿	-12.4543
鹿	-12.4545
拧	-12.4546
籍	-12.4608
哲	-12.4698
榨	-12.4705
巅	-12.4705
亢	-12.4706
瑟	-12.4707
枚	-12.4708
U	-12.471
倔	-12.4711
膊	-12.4862
胶	-12.4866
🤔	-12.487
披	-12.4871
曝	-12.4871
呈	-12.4984
雌	-12.5031
栽	-12.5035
妖	-12.5036
棉	-12.5037
纹	-12.5037
嗓	-12.5038
壤	-12.5038
莱	-12.5038
脖	-12.5039
鲸	-12.5041
Y	-12.5041
怦	-12.5042
G	-12.5043
麼	-12.505
伟	-12.5186
乒	-12.5201
耶	-12.5202
惘	-12.5203
寝	-12.5204
媚	-12.5206
媽	-12.5206
暮	-12.5207
{	-12.5208
J	-12.5208
卵	-12.5209
瑾	-12.5209
懦	-12.5373
谬	-12.5375
菲	-12.5377
碑	-12.5378
辙	-12.5378
矜	-12.5378
翼	-12.5382
▽	-12.5383
嫖	-12.5383
乃	-12.5489
冥	-12.5503
婷	-12.5536
崖	-12.5549
疚	-12.555
漆	-12.5551
晾	-12.5551
蜷	-12.5552
芝	-12.5552
吝	-12.5553
芸	-12.5553
搅	-12.5554
斑	-12.5555
扮	-12.5555
罕	-12.5555
袜	-12.5555
嚣	-12.5729
睐	-12.573
≠	-12.573
绎	-12.5732
膝	-12.5732
丹	-12.5733
酵	-12.5733
闺	-12.5734
滔	-12.5736
肖	-12.5738
Ю	-12.5906
讷	-12.5911
抠	-12.5911
帘	-12.5913
躯	-12.5913
巾	-12.5913
旷	-12.5914
沐	-12.5914
匿	-12.5914
胁	-12.5915
逞	-12.5915
桑	-12.5916
粥	-12.5916
洲	-12.5917
睿	-12.5917
莽	-12.5917
唾	-12.5917
W	-12.5919
兔	-12.5923
瘤	-12.6093
椎	-12.6095
壶	-12.6097
乍	-12.6099
砺	-12.6099
崭	-12.61
酿	-12.61
喧	-12.61
浩	-12.6101
隆	-12.6101
靡	-12.6101
浸	-12.6101
秽	-12.6101
桎	-12.6102
皱	-12.6102
竿	-12.6103
雇	-12.6105
說	-12.6135
烤	-12.6279
帐	-12.6283
膨	-12.6284
晋	-12.6285
伺	-12.6286
矢	-12.6288
尬	-12.6288
竖	-12.6288
糙	-12.6289
焕	-12.6289
筷	-12.6292
搓	-12.6293
鸿	-12.6293
叛	-12.6476
殷	-12.6478
z	-12.648
揍	-12.648
佐	-12.648
荆	-12.6481
犬	-12.6482
蚊	-12.6483
袖	-12.6483
聪	-12.6486
陌	-12.6672
蚀	-12.6673
渗	-12.6675
腥	-12.6675
搪	-12.6677
央	-12.6678
沌	-12.6678
🤝	-12.6678
骆	-12.668
嫩	-12.668
話	-12.67
努	-12.6869
狡	-12.6871
郑	-12.6873
沸	-12.6875
糗	-12.6876
倚	-12.6877
撸	-12.6878
戈	-12.6878
淤	-12.6879
迂	-12.688
沒	-12.6892
囚	-12.7077
魂	-12.7078
佬	-12.7079
奠	-12.7081
沃	-12.7081
怡	-12.7082
犒	-12.7082
碳	-12.7084
ヾ	-12.7085
钦	-12.7086
狮	-12.7285
夷	-12.7286
俯	-12.7286
吟	-12.7286
邮	-12.7287
嘉	-12.7287
哑	-12.7287
漱	-12.7288
叭	-12.7288
邦	-12.7289
燥	-12.729
偕	-12.729
戾	-12.729
棚	-12.7292
泊	-12.7292
拗	-12.7292
孟	-12.7293
痔	-12.7294
茨	-12.7297
俊	-12.7302
實	-12.7308
對	-12.7309
¶	-12.7479
秦	-12.7497
柄	-12.7499
醇	-12.7501
谛	-12.7502
乔	-12.7502
匹	-12.7503
捂	-12.7503
桩	-12.7504
昵	-12.7505
曹	-12.7505
玛	-12.7714
衔	-12.7716
渲	-12.7716
蚁	-12.7717
匪	-12.7717
萝	-12.7718
忆	-12.7719
茅	-12.7719
拎	-12.7719
昔	-12.7719
缪	-12.7722
△	-12.7722
過	-12.774
僧	-12.7931
允	-12.7935
鲍	-12.7936
窦	-12.794
徐	-12.794
瑞	-12.7941
刨	-12.7941
郊	-12.7942
矩	-12.7942
瞻	-12.7944
忡	-12.7944
藕	-12.7945
纱	-12.7945
枫	-12.7946
煌	-12.7946
§	-12.8154
嗅	-12.8167
茂	-12.8167
谜	-12.8168
涕	-12.8169
褒	-12.8169
呦	-12.8172
韵	-12.8173
噪	-12.8369
跷	-12.8389
杭	-12.8396
蜂	-12.8398
宴	-12.8398
翩	-12.8399
泉	-12.84
萍	-12.8404
咕	-12.8404
拮	-12.8404
挪	-12.8404
呃	-12.8407
堤	-12.8407
姻	-12.8637
捶	-12.8638
🦄	-12.8638
凳	-12.8638
幽	-12.8639
辑	-12.8641
鹅	-12.8642
喽	-12.8646
脾	-12.8873
烹	-12.8881
掂	-12.8881
祷	-12.8881
阀	-12.8883
猝	-12.8883
缸	-12.8884
瘫	-12.8885
∇	-12.8887
寓	-12.8887
轴	-12.913
阈	-12.9132
蔡	-12.9133
洽	-12.9135
岭	-12.9135
▷	-12.9385
啪	-12.9386
蚂	-12.9386
厉	-12.9387
捐	-12.9387
掀	-12.9389
帕	-12.939
旨	-12.939
坛	-12.939
矿	-12.9391
絮	-12.9392
嗑	-12.9392
雀	-12.9396
覺	-12.9409
⏫	-12.9641
迭	-12.9645
恃	-12.9649
涟	-12.9649
遏	-12.9649
绒	-12.965
犀	-12.9651
役	-12.9652
雕	-12.9655
奕	-12.9656
茁	-12.9658
碾	-12.9659
⋯	-12.9667
丘	-12.9913
橘	-12.9914
贼	-12.9919
贩	-12.9922
烘	-12.9922
京	-12.9923
坍	-12.9923
萦	-12.9924
盔	-12.9924
蒸	-12.9924
稚	-12.9924
紫	-12.9924
钙	-12.9925
拴	-12.9925
媛	-12.9928
燕	-12.9932
哮	-13.0195
秤	-13.0197
瑜	-13.0197
汹	-13.0198
峙	-13.0198
葱	-13.0199
卿	-13.0199
惚	-13.0199
售	-13.02
杞	-13.0201
捆	-13.0201
}	-13.0201
颂	-13.0204
娼	-13.0204
诧	-13.0204
傍	-13.0205
哗	-13.0205
绸	-13.0207
稽	-13.0213
別	-13.0216
憨	-13.0478
ㄓ	-13.0479
煤	-13.048
匀	-13.0482
僻	-13.0483
梳	-13.0483
蜗	-13.0483
弓	-13.0485
垒	-13.0485
凰	-13.0486
剔	-13.0487
￼	-13.0487
暑	-13.0487
泻	-13.0487
诶	-13.0488
渔	-13.0488
嫉	-13.0488
佣	-13.0488
黎	-13.0489
肛	-13.049
址	-13.0491
樣	-13.0506
仔	-13.0771
×	-13.0771
溪	-13.0774
膏	-13.0775
屠	-13.0777
扁	-13.0777
歹	-13.0778
靓	-13.0779
缈	-13.0779
侯	-13.078
铛	-13.0781
丸	-13.0782
堑	-13.0782
辟	-13.0783
偎	-13.0783
熄	-13.0784
叽	-13.0784
澈	-13.0785
涣	-13.0787
噩	-13.0788
問	-13.0794
旦	-13.106
趴	-13.1076
吴	-13.108
吭	-13.1081
峻	-13.1083
斧	-13.1084
唇	-13.1084
坊	-13.1084
庙	-13.1088
赵	-13.1089
彤	-13.109
還	-13.1107
骤	-13.138
盏	-13.1388
怅	-13.139
梨	-13.1393
嘟	-13.1393
呜	-13.1394
摹	-13.1394
樊	-13.1395
莲	-13.1395
柯	-13.1395
咐	-13.1395
愣	-13.1396
迥	-13.1396
遛	-13.1396
槽	-13.1396
簧	-13.1398
甸	-13.1399
董	-13.1399
矛	-13.14
鼾	-13.1401
腊	-13.1404
奈	-13.1712
澳	-13.1715
〖	-13.1715
沓	-13.1715
蓬	-13.1716
〗	-13.1716
咧	-13.1716
馅	-13.1717
趾	-13.1717
藤	-13.1717
豫	-13.1718
馋	-13.1718
嗷	-13.172
珊	-13.172
寐	-13.1721
佑	-13.1721
厢	-13.1721
禀	-13.1721
讥	-13.1723
哼	-13.1725
莉	-13.1728
時	-13.1738
孽	-13.1774
胺	-13.2043
瓣	-13.2045
涛	-13.2047
仆	-13.2047
嬉	-13.205
秃	-13.205
🧡	-13.2051
岩	-13.2051
纾	-13.2051
蝇	-13.2052
儒	-13.2052
濒	-13.2053
毋	-13.2053
蛾	-13.2053
癔	-13.2054
沧	-13.2055
孜	-13.2055
杖	-13.2056
內	-13.2057
帆	-13.2058
題	-13.2065
炉	-13.2388
毯	-13.239
翰	-13.2392
羡	-13.2395
呛	-13.2395
焰	-13.2396
嗤	-13.2396
捞	-13.2397
锚	-13.2398
枢	-13.2399
烛	-13.24
冶	-13.24
敷	-13.2401
畜	-13.2401
滨	-13.2409
讓	-13.2419
於	-13.2419
督	-13.2495
愉	-13.2744
芹	-13.2745
掠	-13.2747
◇	-13.2749
谤	-13.2749
宇	-13.275
祭	-13.2751
凄	-13.2751
琪	-13.2751
喃	-13.2751
赦	-13.2753
搂	-13.2753
亘	-13.2753
嵌	-13.2753
淇	-13.2755
丨	-13.2757
ᴗ	-13.2759
鸦	-13.276
ㄛ	-13.3095
ぴ	-13.3111
厮	-13.3117
魁	-13.3118
诽	-13.3121
郭	-13.3122
鸩	-13.3122
娜	-13.3122
爪	-13.3124
恪	-13.3124
亟	-13.3124
迸	-13.3125
卢	-13.3125
涅	-13.3126
瞩	-13.3127
汪	-13.3129
莹	-13.3131
绞	-13.3132
蕾	-13.3142
敞	-13.3367
诡	-13.3501
眨	-13.3501
啼	-13.3503
凿	-13.3504
睫	-13.3505
掷	-13.3507
娱	-13.3507
遐	-13.3509
靶	-13.351
赫	-13.3511
灸	-13.3511
氏	-13.3512
鹰	-13.3513
梭	-13.3513
韦	-13.3514
蔚	-13.3514
俏	-13.3514
扒	-13.3515
栋	-13.3515
痣	-13.3517
關	-13.3517
栗	-13.3517
绰	-13.3519
親	-13.352
仲	-13.39
勺	-13.39
翘	-13.3904
囧	-13.3906
鳞	-13.3907
颓	-13.3907
踮	-13.3907
宕	-13.3907
撮	-13.3908
龟	-13.3909
哔	-13.3909
瞅	-13.3909
悍	-13.3909
纬	-13.391
炫	-13.391
拂	-13.391
铸	-13.391
鸽	-13.391
🥰	-13.3912
霆	-13.3912
躬	-13.3914
崎	-13.3915
距	-13.4316
押	-13.4321
Ш	-13.4323
慑	-13.4326
拣	-13.4326
∀	-13.4328
憩	-13.4329
哆	-13.4329
喳	-13.4329
嗡	-13.4333
耿	-13.4756
粹	-13.5221
⇨	-13.7263
泳	-13.7865
霾	-13.7868
锻	-13.8486
脆	-13.9143
括	-13.9152
戚	-13.9153
泣	-13.9155
缚	-13.9867
惮	-13.9869
荐	-14.0633
杏	-14.0635
侮	-14.1473
谐	-14.2307
煎	-14.238
俄	-14.238
渠	-14.4481
泌	-14.574
蒜	-14.7165
睛	-14.7177
侣	-14.8809
尴	-14.8833
肃	-15.0833
贡	-15.0852
掘	-15.3314
恢	-15.332
狄	-15.3323
牲	-15.3351
惫	-15.6639
绍	-15.6654
馨	-15.6658
伽	-15.6676
谴	-16.1639
怖	-16.1641
懊	-16.1664
逻	-16.1666
浦	-16.167
髅	-17.1531
骷	-17.1532
酝	-17.1533
蛔	-17.1534
缜	-17.1535
筝	-17.1536
瘠	-17.1537
膳	-17.1538
澎	-17.1539
湃	-17.154
慷	-17.1541
辕	-17.1542
蹉	-17.1543
踵	-17.1544
跎	-17.1545
绛	-17.1546
瘁	-17.1547
痿	-17.1548
崛	-17.1549
◾	-17.155
讼	-17.1551
瞌	-17.1552
拇	-17.1553
幌	-17.1554
‿	-17.1555
憔	-17.1556
悴	-17.1557
彬	-17.1558
呱	-17.1559
◕	-17.156
鸵	-17.1561
蔼	-17.1562
滕	-17.1563
邂	-17.1564
逅	-17.1565
抨	-17.1566
黯	-17.1567
躇	-17.1568
踌	-17.1569
葡	-17.157
萄	-17.1571
缥	-17.1572
氓	-17.1573
馒	-17.1574
阉	-17.1575
砝	-17.1576
岌	-17.1577
宙	-17.1578
兀	-17.1578
镳	-17.1579
辄	-17.158
狈	-17.1581
漪	-17.1582
゙	-17.1583
饪	-17.1584
暄	-17.1585
畸	-17.1586
惺	-17.1587
辗	-17.1588
绚	-17.1589
熠	-17.159
咙	-17.1591
呻	-17.1592
̆	-17.1593
婪	-17.1594
忏	-17.1595
铠	-17.1596
扪	-17.1597
丐	-17.1598
髓	-17.1599
肪	-17.16
懑	-17.1601
┈	-17.1602
圳	-17.1603
侬	-17.1604
惬	-17.1605
喋	-17.1606
耘	-17.1607
鼹	-17.1608
蜚	-17.1609
啬	-17.161
佼	-17.1611
梏	-17.1612
缤	-17.1613
猬	-17.1614
咀	-17.1615
狸	-17.1616
乓	-17.1617
衅	-17.1618
斟	-17.1619
胳	-17.162
惴	-17.1621
骛	-17.1622
嗽	-17.1623
咄	-17.1624
▪	-17.1625
匙	-17.1626
嘈	-17.1626
胧	-17.1627
辍	-17.1628
蹶	-17.1629
◍	-17.163
谩	-17.1631
痹	-17.1632
诠	-17.1633
腼	-17.1634
愫	-17.1635
侥	-17.1636
疵	-17.1637
淆	-17.1638
锢	-17.1639
赡	-17.164
徨	-17.1641
譬	-17.1642
阱	-17.1643
┅	-17.1644
侈	-17.1645
兢	-17.1646
漩	-17.1647
惦	-17.1648
̅	-17.1649
蝴	-17.165
捍	-17.1651
痊	-17.1652
傅	-17.1653
诋	-17.1654
蘑	-17.1655
猥	-17.1656
肮	-17.1657
紊	-17.1658
漓	-17.1659
畴	-17.166
徘	-17.1661
徊	-17.1662
袱	-17.1663
忑	-17.1664
忐	-17.1665
钥	-17.1666
璃	-17.1666
玻	-17.1667
蹴	-17.1668
苹	-17.1669
坷	-17.167
聆	-17.167
窒	-17.1671
胞	-17.1671
憬	-17.1672
憧	-17.1673
枷	-17.1674
匆	-17.1675
澄	-17.1676
̄	-17.1677
拯	-17.1678
ᨐ	-17.1679
惕	-17.168
寞	-17.1681
抉	-17.1682
垃	-17.1683
圾	-17.1684
辜	-17.1685
匮	-17.1686
沮	-17.1687
⃣	-17.1688
牺	-17.1689
暧	-17.169
氛	-17.1691
馈	-17.1692
础	-17.1693
阂	-17.1693
