<unk>	0
<s>	0
</s>	0
,	-2.21359
。	-3.33639
的	-3.83339
你	-4.61493
了	-5.01989
和	-5.03526
是	-5.07397
?	-5.13795
自己	-5.1388
在	-5.20075
我	-5.35127
有	-5.46097
不	-5.56127
、	-5.58825
我们	-5.63158
他	-5.71968
也	-5.80419
“	-5.80734
!	-5.86609
去	-5.88272
就	-5.9406
可以	-5.94148
会	-6.00196
而	-6.00847
”	-6.08392
所以	-6.13565
她	-6.14328
没有	-6.15743
人	-6.16544
的时候	-6.18706
呢	-6.18889
对	-6.18999
因为	-6.19078
来	-6.21348
要	-6.23063
一个	-6.24919
但	-6.25643
如果	-6.27584
但是	-6.29114
都	-6.30714
:	-6.32086
的人	-6.33404
好	-6.33986
楼主	-6.3416
可能	-6.35614
这	-6.39022
需要	-6.39023
他们	-6.39069
上	-6.39292
想	-6.4034
就是	-6.41837
这个	-6.42689
孩子	-6.42898
中	-6.4314
一些	-6.43431
说	-6.44411
还是	-6.46875
或者	-6.47877
题主	-6.47925
很	-6.50837
从	-6.51729
这样	-6.5486
被	-6.56312
时	-6.56322
父母	-6.56949
那么	-6.56991
一	-6.57614
其实	-6.57983
别人	-6.58167
与	-6.5874
能	-6.62386
多	-6.62734
对方	-6.63321
你的	-6.64384
自己的	-6.65987
到	-6.68913
问题	-6.70675
学习	-6.70809
做	-6.73966
现在	-6.74646
情绪	-6.74801
地	-6.75501
把	-6.76127
用	-6.76275
工作	-6.80588
那	-6.80654
过	-6.81632
这种	-6.81856
吗	-6.82142
不是	-6.83028
生活	-6.84757
对于	-6.86396
又	-6.87648
更	-6.87938
都是	-6.87957
爱	-6.8801
】	-6.89543
的事情	-6.90471
选择	-6.92079
这些	-6.92221
大	-6.93023
您	-6.93205
觉得	-6.93973
着	-6.94021
性	-6.95032
能够	-6.97651
让自己	-6.98062
再	-6.98588
吧	-6.98679
心	-7.01305
只是	-7.0155
也是	-7.01936
比如	-7.02225
还	-7.02706
下	-7.02893
看	-7.03331
里	-7.05369
;	-7.05379
什么	-7.05434
为	-7.06114
关系	-7.06205
你们	-7.06761
不要	-7.07838
比较	-7.08114
朋友	-7.0819
【	-7.09013
先	-7.09499
你好	-7.10306
的话	-7.11722
喜欢	-7.11953
改变	-7.12316
感觉	-7.12379
后	-7.12813
很多	-7.14418
已经	-7.15077
一下	-7.16125
当	-7.16406
时间	-7.17046
沟通	-7.18503
小	-7.19243
让你	-7.19398
不能	-7.19755
它	-7.20867
想要	-7.21617
然后	-7.2309
祝好	-7.23219
努力	-7.23631
(	-7.23811
自我	-7.2395
希望	-7.24387
就会	-7.24852
让	-7.25188
开始	-7.25813
得	-7.26516
的问题	-7.27747
内心	-7.28153
首先	-7.28325
面对	-7.28989
也会	-7.29264
等	-7.29462
通过	-7.31771
影响	-7.32294
焦虑	-7.32625
点	-7.32698
也许	-7.35087
一个人	-7.353
出	-7.35456
无法	-7.35624
之后	-7.36005
不好	-7.36056
最	-7.36417
真的	-7.36941
或	-7.36985
看到	-7.37135
心理	-7.38058
最后	-7.38246
妈妈	-7.38368
应该	-7.39087
非常	-7.3951
进行	-7.40817
害怕	-7.41859
甚至	-7.42189
是否	-7.42679
而且	-7.43234
没	-7.43509
却	-7.44304
当然	-7.44582
一点	-7.44986
如何	-7.45117
或许	-7.45954
以	-7.46766
一样	-7.47062
事	-7.48424
理解	-7.49057
你可以	-7.49558
这是	-7.50282
一直	-7.50447
跟	-7.50477
不会	-7.50998
表达	-7.51134
有些	-7.52419
一种	-7.52504
担心	-7.53857
以后	-7.54633
虽然	-7.5468
太	-7.5485
找	-7.55106
感到	-7.55167
～	-7.55199
所	-7.55408
并	-7.55422
接受	-7.55568
帮助	-7.55647
是不是	-7.55698
”,	-7.5578
并且	-7.55854
)	-7.55978
压力	-7.56555
建议	-7.56681
当你	-7.5708
于	-7.57342
给	-7.57386
无	-7.58273
家庭	-7.5874
他人	-7.58793
我想	-7.58857
老师	-7.58962
产生	-7.5906
也可以	-7.60366
痛苦	-7.60578
如果你	-7.60657
成长	-7.61276
了解	-7.61379
还有	-7.61899
来说	-7.62506
学	-7.62557
对你	-7.62787
感	-7.63259
能力	-7.6363
知道	-7.637
解决	-7.64183
事情	-7.64385
子	-7.64723
总是	-7.64956
只有	-7.65376
为什么	-7.65445
找到	-7.65781
一起	-7.67213
家	-7.67654
对自己	-7.67862
这样的	-7.68295
才	-7.68499
个	-7.68911
感情	-7.70215
等等	-7.70473
才能	-7.70501
特别	-7.70514
高	-7.71244
之前	-7.71304
感受	-7.7198
思考	-7.72002
那些	-7.72564
的情绪	-7.7285
相处	-7.73287
的方式	-7.73828
比	-7.73937
将	-7.74138
给自己	-7.7463
给你	-7.74871
人生	-7.75279
生	-7.75311
因此	-7.75542
都会	-7.76294
打	-7.76659
出现	-7.76875
认为	-7.76916
方式	-7.76919
社会	-7.77052
可	-7.77057
以及	-7.77186
听	-7.77213
分	-7.77217
同时	-7.77265
并不是	-7.77849
的事	-7.77964
啊	-7.78481
起来	-7.78518
的感觉	-7.78538
像	-7.78833
得到	-7.78894
原因	-7.79041
不同	-7.79071
我觉得	-7.79195
学会	-7.80243
行为	-7.80477
确实	-7.805
获得	-7.81043
吃	-7.81276
不想	-7.8151
发现	-7.81892
而是	-7.82168
更加	-7.82314
心里	-7.82355
的关系	-7.82578
经历	-7.82736
那个	-7.82978
怎么	-7.83107
慢慢	-7.83178
状态	-7.83725
母亲	-7.83828
遇到	-7.84027
走	-7.84926
家人	-7.85274
只	-7.8551
不知道	-7.85616
身体	-7.85928
继续	-7.86329
的想法	-7.8648
的原因	-7.86535
交流	-7.86784
在一起	-7.87393
是一个	-7.87705
相信	-7.87827
看看	-7.88288
而不是	-7.88503
是什么	-7.88635
目标	-7.89126
真正	-7.89477
为了	-7.89556
关注	-7.89585
的状态	-7.90414
自	-7.91004
越	-7.91475
题主你好	-7.91877
好好	-7.91987
接纳	-7.92904
力	-7.93195
咨询师	-7.93581
过去	-7.93653
......	-7.93879
~	-7.93974
未来	-7.94281
方法	-7.94529
一定	-7.94974
之	-7.9498
发	-7.95093
者	-7.95507
结果	-7.95752
毕竟	-7.96127
控制	-7.96214
发展	-7.96258
似乎	-7.96435
的感受	-7.9675
存在	-7.96823
分析	-7.96907
前	-7.96941
向	-7.97271
要求	-7.97292
方面	-7.97553
其他	-7.97936
问	-7.98342
肯定	-7.98521
自信	-7.9869
情况	-7.98708
可能会	-7.9873
坚持	-7.99643
环境	-7.99676
的行为	-8.00013
楼主你好	-8.00015
天	-8.00453
主动	-8.00596
世界	-8.01072
年	-8.01207
伤害	-8.01287
的生活	-8.01372
每天	-8.0143
有时候	-8.01592
关于	-8.01684
保持	-8.01699
他的	-8.02292
尝试	-8.0235
长	-8.0253
的地方	-8.02911
成	-8.02947
手	-8.02992
爱情	-8.03031
情感	-8.03552
这件事	-8.0364
世界和我爱着你	-8.04194
作为	-8.04242
考虑	-8.04576
完全	-8.0471
只要	-8.04751
可是	-8.04974
呀	-8.05286
出来	-8.05755
经常	-8.05849
很难	-8.05878
谁	-8.06159
彼此	-8.06196
是因为	-8.06212
容易	-8.06853
去做	-8.07283
也有	-8.07289
处理	-8.07432
矛盾	-8.07993
的时间	-8.08034
婚姻	-8.08045
发生	-8.08053
个人	-8.0825
气	-8.08281
这么	-8.0846
别	-8.08756
的是	-8.0887
满足	-8.08876
重	-8.09508
咨询	-8.096
父亲	-8.09715
自卑	-8.10218
并不	-8.10259
快乐	-8.10317
岁	-8.10529
我们可以	-8.10551
老公	-8.10575
性格	-8.10908
付出	-8.113
新	-8.11874
抱抱你	-8.11909
这个问题	-8.12055
三	-8.12863
调整	-8.13405
想法	-8.13626
离开	-8.13631
家长	-8.13741
恐惧	-8.13979
现实	-8.14096
拒绝	-8.1441
你现在	-8.14417
起	-8.14785
钱	-8.14852
有点	-8.15253
紧张	-8.15621
不过	-8.16283
积极	-8.16309
考	-8.16372
哦	-8.16901
目前	-8.16939
完成	-8.17153
回	-8.17198
头	-8.17295
如	-8.17348
认识	-8.17403
你会	-8.17441
觉得自己	-8.17481
期待	-8.17954
讲	-8.18062
曾经	-8.18126
一定要	-8.18183
带	-8.18239
导致	-8.1826
你自己	-8.18361
的东西	-8.18585
加油	-8.18651
开	-8.18992
同学	-8.19049
尊重	-8.19153
”。	-8.19335
更多	-8.19535
情	-8.19593
恋爱	-8.19855
一次	-8.19908
可能是	-8.20048
建立	-8.20174
需求	-8.20249
结婚	-8.21176
本身	-8.21193
专业	-8.21307
那就	-8.21506
化	-8.21529
愿意	-8.21586
是一种	-8.2185
会有	-8.22006
的情况	-8.22009
各种	-8.22106
不喜欢	-8.22386
独立	-8.22561
压抑	-8.22685
和你	-8.22718
决定	-8.22997
直接	-8.23077
有没有	-8.23261
两个人	-8.23612
更多的	-8.23695
男友	-8.24006
话	-8.24048
就像	-8.24114
成为	-8.24255
幸福	-8.24623
难	-8.2476
并没有	-8.24834
怕	-8.25298
把自己	-8.25393
关心	-8.25423
困难	-8.25482
只能	-8.25484
即使	-8.25605
学校	-8.25788
——	-8.25904
成功	-8.26004
对待	-8.261
写	-8.26268
有一个	-8.26352
受	-8.26561
我也	-8.26804
说话	-8.26959
之间	-8.2708
外	-8.28084
如此	-8.28312
以上	-8.28322
好像	-8.28493
相	-8.28584
的态度	-8.28894
你要	-8.28903
抑郁	-8.29192
不太	-8.29234
分手	-8.29318
逃避	-8.29432
运动	-8.29861
女生	-8.29973
有很多	-8.30108
。【	-8.3018
习惯	-8.30195
开心	-8.30311
照顾	-8.30346
困扰	-8.30347
才会	-8.30357
不敢	-8.30631
一般	-8.3074
面	-8.30831
有人	-8.31136
失败	-8.31347
身上	-8.31521
怎样	-8.31754
社交	-8.32303
反应	-8.3258
愤怒	-8.32828
另外	-8.32965
支持	-8.33318
做出	-8.335
强	-8.33654
行	-8.33702
也不	-8.33947
不断	-8.34123
纠结	-8.34243
变得	-8.34492
都有	-8.34821
接触	-8.35058
两	-8.35267
拥有	-8.3557
寻找	-8.35585
认知	-8.35676
有了	-8.36024
放下	-8.36117
度	-8.36249
那样	-8.36518
做好	-8.36526
放松	-8.36601
大家	-8.36634
每个人	-8.36744
考试	-8.36837
理	-8.37015
你也	-8.37111
自然	-8.37232
有什么	-8.3731
说明	-8.37322
难受	-8.37633
当我们	-8.37694
其次	-8.37805
本	-8.37961
联系	-8.37974
请	-8.38034
其	-8.38118
经验	-8.38138
明白	-8.38457
见	-8.38643
二	-8.38792
很好	-8.38821
低	-8.38915
男朋友	-8.38964
试着	-8.39074
老	-8.39194
️	-8.39513
少	-8.39551
在意	-8.39608
口	-8.39682
到了	-8.40012
深	-8.40026
值得	-8.4017
》	-8.40227
无论	-8.40271
大学	-8.40397
变	-8.40425
冲突	-8.40679
让他	-8.40681
花	-8.40816
该	-8.40972
爸爸	-8.41196
双方	-8.41199
我们的	-8.412
真	-8.41481
玩	-8.41485
谈	-8.41545
难过	-8.416
《	-8.41691
的影响	-8.41818
事件	-8.42057
既然	-8.4213
具体	-8.42157
正常	-8.42199
孤独	-8.42274
除了	-8.42287
的心理	-8.42363
的方法	-8.4255
死	-8.42676
的工作	-8.4274
住	-8.42823
体验	-8.43033
快	-8.43279
任何	-8.43288
让人	-8.4341
以前	-8.43519
她们	-8.43701
共同	-8.43904
不管	-8.43965
重新	-8.44074
当下	-8.4426
病	-8.44409
感受到	-8.44443
一切	-8.44522
心理学	-8.45094
放弃	-8.45135
渴望	-8.45438
放	-8.45497
同	-8.45624
分享	-8.46005
解决问题	-8.46226
的孩子	-8.46399
的压力	-8.46439
如果是	-8.46579
不愿意	-8.46896
优秀	-8.47024
更好的	-8.47064
平时	-8.47123
的能力	-8.47391
不舒服	-8.4748
水	-8.47554
。2.	-8.47581
重要	-8.47676
这里	-8.47698
你需要	-8.47892
差	-8.47918
从而	-8.48042
对自己的	-8.48217
心情	-8.48233
机会	-8.48295
模式	-8.48704
治疗	-8.48801
第一	-8.48806
总	-8.48827
做到	-8.49001
才是	-8.49172
交往	-8.49687
动	-8.49973
由于	-8.50043
别人的	-8.50116
心理咨询	-8.50349
她的	-8.50471
。️	-8.50541
不如	-8.50565
离婚	-8.50857
来看	-8.50951
成绩	-8.51105
这件事情	-8.51125
因为你	-8.51335
追求	-8.51468
你觉得	-8.51566
最近	-8.51609
自身	-8.51697
敏感	-8.51752
当时	-8.51815
也就	-8.51909
不了	-8.51971
感觉到	-8.52084
信任	-8.52209
陪伴	-8.52239
依赖	-8.52361
生气	-8.52403
定	-8.52408
往往	-8.52513
不够	-8.5257
也没有	-8.5282
或者是	-8.5298
你说	-8.53061
的过程	-8.53065
减少	-8.53212
自己的情绪	-8.53231
让我们	-8.53362
你是	-8.53656
来访者	-8.53852
:“	-8.53997
原生家庭	-8.54098
改善	-8.54153
的朋友	-8.54166
苦	-8.54314
一段	-8.54584
身边	-8.54881
期	-8.5505
你在	-8.55138
领导	-8.55417
不用	-8.55493
是你	-8.55806
互相	-8.5606
提升	-8.56312
讨厌	-8.56468
新的	-8.5683
父母的	-8.56854
而已	-8.572
太多	-8.57355
我的	-8.57389
拿	-8.57693
转	-8.57765
不一样	-8.57777
生活中	-8.57806
身	-8.57927
精神	-8.58349
~。	-8.58378
就要	-8.58468
亲密关系	-8.58471
当中	-8.58588
阶段	-8.58736
变化	-8.58853
读	-8.5897
东西	-8.58993
承受	-8.59011
思维	-8.59369
受到	-8.59564
错	-8.59826
进入	-8.59925
的经历	-8.59962
造成	-8.60047
倾诉	-8.6006
美	-8.60341
2	-8.60375
形成	-8.60563
小时候	-8.60587
最好	-8.60706
两个	-8.60853
好的	-8.6089
安全感	-8.61132
的感情	-8.61386
缓解	-8.61543
抑郁症	-8.61554
全	-8.61563
掉	-8.61588
有所	-8.61653
提出	-8.61659
人际关系	-8.6169
根据	-8.6173
适应	-8.61855
作	-8.6187
同样	-8.61875
描述	-8.61888
包括	-8.61938
有关	-8.61956
越来越	-8.62193
避免	-8.622
最终	-8.62251
在你	-8.62305
3	-8.62388
失去	-8.62488
行动	-8.62645
计划	-8.62651
内	-8.62745
高中	-8.62817
给予	-8.62997
后来	-8.63264
真正的	-8.63381
信息	-8.63653
就可以	-8.63654
学生	-8.63663
必须	-8.6378
路	-8.63983
因	-8.64026
让我	-8.642
儿	-8.64205
聊天	-8.64236
及时	-8.64408
表现	-8.64543
下来	-8.64606
带来	-8.64813
里面	-8.64846
承担	-8.64983
买	-8.65002
由	-8.65016
同事	-8.65089
什么样的	-8.65325
力量	-8.65343
女性	-8.65536
也要	-8.65857
是个	-8.65925
美好	-8.65926
第二	-8.66087
为自己	-8.66193
很多人	-8.66446
所有	-8.66456
知	-8.66681
回答	-8.66723
因素	-8.66862
也不会	-8.67111
挺	-8.67301
那种	-8.67521
培养	-8.68486
往	-8.68525
换	-8.68541
释放	-8.68698
男生	-8.68869
这种情况	-8.68897
享受	-8.69128
清楚	-8.69733
所以你	-8.6982
些	-8.69964
#	-8.69982
动力	-8.70145
知识	-8.70179
求	-8.70317
达到	-8.70361
活动	-8.70514
叫	-8.70523
稳定	-8.70721
方向	-8.70776
内心的	-8.71141
确定	-8.71144
医生	-8.71205
很多时候	-8.7122
难以	-8.71565
觉察	-8.71583
价值	-8.71653
亲密	-8.71795
爱自己	-8.71839
注意	-8.71844
做的	-8.71869
自由	-8.71914
养	-8.71915
交	-8.71987
孩子的	-8.72089
道	-8.72278
到底	-8.72297
就好	-8.72494
名	-8.72519
一方面	-8.72551
的需求	-8.72557
委屈	-8.7261
跟你	-8.7265
心理咨询师	-8.72784
健康	-8.7289
和他	-8.72899
家里	-8.7302
明	-8.73086
提	-8.73147
不需要	-8.73186
长期	-8.73188
是在	-8.73239
比如说	-8.73406
丈夫	-8.73433
你就	-8.73646
属于	-8.73674
帮	-8.73749
既	-8.73764
哭	-8.738
日	-8.73938
认可	-8.73958
人们	-8.73981
认同	-8.73997
内在	-8.74107
怎么样	-8.74167
有一些	-8.74319
吵架	-8.74353
增加	-8.74363
答案	-8.74397
寻求	-8.74587
心态	-8.74593
第三	-8.74742
正	-8.74869
暂时	-8.74888
你对	-8.74899
实现	-8.75004
一段时间	-8.75047
下去	-8.75345
加	-8.75403
很容易	-8.75492
及	-8.75526
1	-8.75539
评价	-8.75561
教育	-8.75769
变成	-8.7577
也不是	-8.75778
这一点	-8.75886
你想	-8.76087
他们的	-8.7621
不妨	-8.76284
干	-8.76356
的结果	-8.76366
准备	-8.76458
让她	-8.7648
烦恼	-8.76496
进步	-8.76609
书	-8.76624
高考	-8.76644
处于	-8.76753
反而	-8.76761
早	-8.76921
简单	-8.77
应该是	-8.77004
提高	-8.77012
不再	-8.77016
想到	-8.77106
你好呀	-8.77187
判断	-8.77191
管	-8.77514
还要	-8.7758
轻松	-8.77642
远	-8.77777
型	-8.77861
5	-8.77947
尽量	-8.78099
依然	-8.78275
的表现	-8.78314
会不会	-8.78326
女	-8.78398
认真	-8.78435
的性格	-8.785
人的	-8.78596
手机	-8.78642
于是	-8.78672
缺乏	-8.78788
负责	-8.78858
年龄	-8.78864
是有	-8.78985
自责	-8.79009
的情感	-8.79039
们	-8.79071
这个时候	-8.79201
公司	-8.7931
课	-8.7941
入	-8.79429
几	-8.7949
按照	-8.79539
产生了	-8.79695
出去	-8.79803
完	-8.79878
陷入	-8.79889
意	-8.79949
今天	-8.7995
安全	-8.8002
想象	-8.80188
笑	-8.80207
生命	-8.80219
程度	-8.80476
真实	-8.8055
次	-8.80711
突然	-8.80943
在乎	-8.80962
持续	-8.80984
通	-8.8115
安慰	-8.81262
有着	-8.81282
多少	-8.8144
解释	-8.81459
相互	-8.81459
还没有	-8.81481
回到	-8.81493
读书	-8.81497
累	-8.81594
长大	-8.8165
吸引	-8.81768
某些	-8.81789
很好的	-8.81908
光	-8.82068
聊	-8.82204
想想	-8.82217
其他人	-8.82258
不必	-8.82327
这就是	-8.82393
没有办法	-8.824
迷茫	-8.82597
婆婆	-8.8275
进	-8.82878
指责	-8.82927
兴趣	-8.83203
至于	-8.83302
-	-8.83363
至少	-8.83435
更好	-8.83506
应对	-8.83809
包容	-8.84006
保护	-8.84177
空	-8.84274
慢慢的	-8.84389
伤	-8.84416
一旦	-8.84436
永远	-8.84466
女朋友	-8.8447
的角度	-8.84587
对你的	-8.84653
看见	-8.84697
对方的	-8.84727
即	-8.84848
事实	-8.85028
待	-8.85168
说的	-8.85251
明确	-8.85403
。2、	-8.85431
出轨	-8.85512
这个人	-8.85519
意识到	-8.85598
休息	-8.85795
每次	-8.85853
过度	-8.85893
逐渐	-8.8598
负面情绪	-8.85988
回应	-8.86107
眼	-8.8617
实	-8.86329
现在的	-8.86387
严重	-8.86461
态度	-8.8661
面前	-8.86785
也能	-8.86818
体	-8.8686
重视	-8.86962
连	-8.86974
每	-8.87024
"	-8.87027
量	-8.87168
有个	-8.87453
亲	-8.87537
睡	-8.87622
建议你	-8.87879
和别人	-8.87882
规划	-8.87989
近	-8.87993
处	-8.881
不容易	-8.88234
就能	-8.88676
门	-8.88724
带着	-8.88804
的一种	-8.88833
告诉	-8.88906
条件	-8.88935
意义	-8.88957
收获	-8.89039
非	-8.8918
是为了	-8.89188
),	-8.89289
的过程中	-8.89588
过于	-8.89628
靠	-8.90139
否定	-8.90246
流	-8.90253
你已经	-8.90339
活	-8.90362
标准	-8.90386
在这里	-8.90407
做了	-8.90429
性的	-8.90526
在于	-8.90558
做一些	-8.90681
其实是	-8.90716
放在	-8.90856
鼓励	-8.9086
练习	-8.9096
解	-8.91113
女儿	-8.91334
一点点	-8.91476
的确	-8.91639
这份	-8.91729
困惑	-8.9178
言	-8.91946
接纳自己	-8.91972
一天	-8.9211
很大	-8.92126
且	-8.92146
或是	-8.92239
其中	-8.92489
希望你	-8.926
后悔	-8.92631
看到你	-8.92646
我们需要	-8.92684
的机会	-8.92695
时候	-8.92771
睡眠	-8.92773
怀疑	-8.92776
男人	-8.92898
理想	-8.92945
您好	-8.93084
。(	-8.93231
也很	-8.93255
温暖	-8.93294
症状	-8.93491
舒服	-8.93547
探索	-8.93681
外界	-8.937
和父母	-8.93707
的看法	-8.93833
很重要	-8.93837
不同的	-8.93912
所有的	-8.93939
或者说	-8.93961
与你	-8.94074
做什么	-8.94337
也就是	-8.94355
安排	-8.94356
弟弟	-8.94364
的情况下	-8.94614
不安	-8.94657
离	-8.94698
主要	-8.94756
晚	-8.94814
责任	-8.94972
不可	-8.94998
尤其是	-8.95007
攻击	-8.95177
一份	-8.95198
清	-8.95496
常	-8.95588
信	-8.95683
女人	-8.95841
是需要	-8.96001
为你	-8.9634
相对	-8.96469
痛	-8.9659
效果	-8.96683
是可以	-8.96774
接下来	-8.96803
不足	-8.97
我相信	-8.97093
调节	-8.97227
通常	-8.9728
语言	-8.9745
类	-8.97552
还会	-8.97571
提供	-8.97618
完美	-8.9762
失望	-8.97637
办法	-8.97821
不开心	-8.9785
间	-8.97872
从小	-8.97954
是否有	-8.97956
部分	-8.98038
帮助你	-8.98253
担忧	-8.98277
成熟	-8.98358
心中	-8.98412
潜意识	-8.98457
另一方面	-8.985
经济	-8.98608
选	-8.98854
爱你	-8.99435
做事	-8.99452
哪些	-8.99462
都没有	-8.99473
是我们	-8.99485
您的	-8.99714
大脑	-8.99952
和对方	-8.99986
几个	-9.00054
求助	-9.00075
有可能	-9.00078
忙	-9.00121
四	-9.00264
尽	-9.00357
给他	-9.00373
对象	-9.0042
幻想	-9.00539
我就	-9.00546
意识	-9.00768
站在	-9.00826
就算	-9.00904
过程	-9.00951
车	-9.01007
都可以	-9.01186
观念	-9.01245
无助	-9.01271
相信自己	-9.01329
有些人	-9.01433
女友	-9.01477
的帮助	-9.01478
是很	-9.0183
拉	-9.01857
让他们	-9.01859
的一个	-9.01863
告诉你	-9.02193
便	-9.02212
风	-9.02523
理性	-9.02579
亲爱的	-9.02741
游戏	-9.02823
反	-9.02829
教	-9.03039
它们	-9.03082
短	-9.03105
批评	-9.03141
能量	-9.03168
客观	-9.0333
负面	-9.03342
事物	-9.03501
背后	-9.03512
空间	-9.03737
有的人	-9.0375
的痛苦	-9.03761
法	-9.03799
错误	-9.03803
伴侣	-9.03829
使	-9.03841
啦	-9.0388
断	-9.03983
发泄	-9.0402
这也是	-9.0407
女孩	-9.04138
看待	-9.04233
刺激	-9.04242
的样子	-9.04341
妻子	-9.04459
一定的	-9.04561
生活的	-9.04573
观察	-9.04595
主	-9.04627
则	-9.04634
走出	-9.04658
自己的内心	-9.04679
消极	-9.04682
就不会	-9.05115
合	-9.05135
真实的	-9.05227
从你的描述中	-9.05247
的心情	-9.05272
说出来	-9.05308
一定会	-9.05417
还是要	-9.05468
。3.	-9.05471
关爱	-9.05472
思想	-9.05473
说明你	-9.05588
了很多	-9.05737
楼主的	-9.05758
利	-9.05768
看起来	-9.05862
会觉得	-9.05919
有时	-9.05944
而你	-9.0595
哪	-9.06085
抱抱	-9.06171
回来	-9.06205
～。	-9.06231
这个世界	-9.06243
人格	-9.0629
姐姐	-9.0631
带来的	-9.06332
的爱	-9.06601
根本	-9.0662
可以通过	-9.06637
真心	-9.06665
的部分	-9.06682
你能	-9.06797
信心	-9.06958
分开	-9.07048
算	-9.07213
以为	-9.07222
我们要	-9.07345
做自己	-9.07346
精力	-9.07346
和她	-9.07348
正确的	-9.07371
创伤	-9.07496
留	-9.07529
告诉自己	-9.0753
约	-9.07613
晚上	-9.07614
正确	-9.07648
祝	-9.07675
考研	-9.07687
十	-9.07703
不知道你	-9.07705
引起	-9.07735
面临	-9.07771
改	-9.07839
随着	-9.07883
嫉妒	-9.08059
的一些	-9.08126
积累	-9.08229
题	-9.08299
.	-9.08525
活着	-9.08554
个体	-9.08572
男性	-9.08579
来自	-9.08662
的目标	-9.08662
强大	-9.08765
:1、	-9.08801
同时也	-9.0885
儿子	-9.0891
说出	-9.09002
的心态	-9.09076
内向	-9.09117
你有	-9.0918
。3、	-9.09301
而言	-9.0934
还可以	-9.09513
声	-9.09527
位	-9.09587
某	-9.09609
过程中	-9.09726
的人生	-9.09799
经过	-9.09851
上面	-9.09876
楼楼	-9.09939
原谅	-9.09995
不可能	-9.10097
倒	-9.1014
场	-9.10225
推	-9.1023
耐心	-9.10295
每个	-9.10322
吃饭	-9.10374
每个人都	-9.10652
仍然	-9.10717
改变自己	-9.10777
适合	-9.10863
亲人	-9.11068
上的	-9.11207
勇敢	-9.11375
没有什么	-9.11516
维持	-9.1161
落	-9.11728
愿	-9.11762
参加	-9.11804
结束	-9.11864
的认知	-9.11959
懂	-9.12074
克服	-9.12098
帮你	-9.12197
童年	-9.12328
一定是	-9.12356
充满	-9.12476
自己的想法	-9.1267
观	-9.12715
万	-9.12747
的环境	-9.12778
悲伤	-9.12893
机	-9.12904
调	-9.13154
允许	-9.13166
讨论	-9.13255
然而	-9.13295
指	-9.13311
谈恋爱	-9.13405
男	-9.13852
美好的	-9.13873
大家都	-9.13918
相关	-9.13925
种	-9.14015
一年	-9.14051
会让你	-9.14088
梦	-9.1415
角度	-9.14196
记得	-9.14228
过去的	-9.14249
无论是	-9.14253
作用	-9.14256
对他	-9.14523
足够	-9.14584
第一次	-9.14668
挑战	-9.14684
对吗	-9.14715
哪怕	-9.14731
期望	-9.14787
再次	-9.1479
要学会	-9.14847
没办法	-9.14925
接	-9.15082
去面对	-9.15114
都不	-9.15131
职业	-9.15147
也许你	-9.15546
自己的生活	-9.15657
不去	-9.15678
骂	-9.15779
抱怨	-9.15807
拥抱	-9.15879
道德	-9.15914
回避	-9.1595
已	-9.16063
但是你	-9.16114
都要	-9.16163
/	-9.16313
把你	-9.16325
感谢	-9.16333
的选择	-9.16446
物	-9.16636
让孩子	-9.16775
打击	-9.16776
线	-9.16796
进一步	-9.16946
他人的	-9.17083
也需要	-9.17152
热	-9.17216
退	-9.17217
追	-9.17257
哪里	-9.17317
字	-9.17374
适当的	-9.17481
不仅	-9.17615
照	-9.17681
理论	-9.17701
睡觉	-9.17764
方	-9.17775
生理	-9.17838
看到了	-9.17885
步	-9.17928
内容	-9.18219
不到	-9.18395
品	-9.18402
火	-9.18455
在这个	-9.18466
十分	-9.18485
糟糕	-9.18533
)。	-9.18555
一件	-9.18648
体会	-9.18689
听到	-9.1881
安	-9.18875
都在	-9.189
对我	-9.18901
欣赏	-9.18905
很少	-9.1918
送	-9.1926
白	-9.19407
是自己	-9.19526
懂得	-9.19699
跟他	-9.19733
了一个	-9.1974
是非常	-9.19754
数	-9.19853
知道自己	-9.19916
自杀	-9.19944
坏	-9.19949
遇见	-9.20099
被人	-9.20271
某种	-9.20335
也就是说	-9.20343
珍惜	-9.20368
和自己	-9.20476
想着	-9.20499
一生	-9.20518
任务	-9.20559
之间的	-9.20608
为什么会	-9.20619
感觉自己	-9.2065
证明	-9.20701
异性	-9.20793
提问	-9.20815
总结	-9.20987
系统	-9.21114
的要求	-9.21127
引导	-9.2114
。2	-9.21163
五	-9.21185
班	-9.21211
中的	-9.21297
你所	-9.21419
平衡	-9.21429
女孩子	-9.21485
取	-9.21587
没有人	-9.21593
缺点	-9.21633
摆脱	-9.21652
成年人	-9.21669
山	-9.2172
具有	-9.21898
文	-9.21988
自己的感受	-9.22082
技能	-9.22282
1.	-9.22457
回家	-9.22585
外在	-9.22672
合理	-9.22694
师	-9.2271
很多事情	-9.22738
你的感受	-9.22825
刚	-9.23009
做一个	-9.23139
你也可以	-9.23159
见字如面	-9.23212
当初	-9.23267
的力量	-9.23281
按	-9.23302
常常	-9.2338
能不能	-9.23426
很大的	-9.23437
看来	-9.23479
后面	-9.23494
切	-9.23671
找一个	-9.23812
应	-9.23952
层面	-9.24071
毕业	-9.2409
只会	-9.2409
要么	-9.24145
记	-9.24222
学业	-9.24262
。#	-9.24263
目的	-9.24443
乱	-9.24592
过分	-9.24716
道理	-9.24756
然	-9.24767
一直在	-9.2492
利用	-9.24998
地方	-9.25046
不满	-9.25182
经历过	-9.25213
不自信	-9.25233
着急	-9.25273
语	-9.25321
聊聊	-9.2552
脆弱	-9.2555
假	-9.25559
楼主可以	-9.25597
穿	-9.25603
不行	-9.25758
意味着	-9.25841
创造	-9.25847
祝福你	-9.2588
疗愈	-9.25902
一件事	-9.25963
障碍	-9.26063
装	-9.26086
记忆	-9.26113
压	-9.26406
如果我们	-9.26429
身边的人	-9.26508
的家庭	-9.26568
:1.	-9.26714
多了	-9.26735
有一种	-9.26753
得不到	-9.26816
单	-9.26892
做的事情	-9.27028
视	-9.27095
争吵	-9.27164
不对	-9.27166
远离	-9.27208
爱的	-9.27227
在家	-9.27245
距离	-9.27256
尽管	-9.2732
恢复	-9.2737
偶尔	-9.27384
这段感情	-9.27604
回忆	-9.27626
最好的	-9.27771
水平	-9.27849
我认为	-9.27923
阅读	-9.27947
夫妻	-9.27956
这段	-9.28031
状况	-9.28137
就好了	-9.28206
反复	-9.28279
职场	-9.28286
一边	-9.28303
一句话	-9.28315
反思	-9.28385
你的问题	-9.28392
原来	-9.28469
降低	-9.28514
希望能	-9.28592
了解自己	-9.28594
允许自己	-9.28595
让对方	-9.28626
半	-9.28689
20	-9.28779
如果没有	-9.28783
失眠	-9.28928
针对	-9.28951
公	-9.28978
正常的	-9.29045
是怎样的	-9.29052
未	-9.29149
提到	-9.29164
每个人都有	-9.29165
倾听	-9.29381
这些问题	-9.29519
对孩子	-9.29587
互动	-9.29606
大概	-9.29608
陪	-9.29733
关键	-9.29798
认为自己	-9.29887
4	-9.29934
合适的	-9.30003
对你来说	-9.30122
理智	-9.30146
件	-9.30153
报	-9.30334
辛苦	-9.30361
恨	-9.30449
慢	-9.30499
过得	-9.30511
曾	-9.30513
梳理	-9.30589
找不到	-9.30666
边	-9.30728
的学习	-9.30777
现象	-9.30854
冥想	-9.30912
这一	-9.30922
久	-9.30983
青春期	-9.31004
好好的	-9.31083
脾气	-9.31177
和孩子	-9.31266
无奈	-9.3135
心疼	-9.31412
本来	-9.31432
合适	-9.31461
了解到	-9.31462
丰富	-9.31495
百	-9.31525
不然	-9.31556
专业的	-9.31572
想一想	-9.31727
极	-9.3176
大部分	-9.31937
有效	-9.32088
这次	-9.3228
投入	-9.32288
烦躁	-9.3241
精	-9.32526
的存在	-9.32536
可以试着	-9.32558
乐	-9.32668
边界	-9.32714
节	-9.32859
我们会	-9.32902
药	-9.32918
看法	-9.32973
生存	-9.3307
事业	-9.33106
各	-9.33166
讨好	-9.33368
管理	-9.33421
冷静	-9.33511
相信你	-9.33529
何	-9.33563
基本	-9.3359
例如	-9.33602
怪	-9.33668
暴力	-9.33725
评判	-9.33821
关系的	-9.33824
受伤	-9.33902
祝你	-9.33968
将来	-9.34012
否则	-9.34053
不一定	-9.34089
都会有	-9.3409
一句	-9.34221
这样做	-9.34315
无力	-9.34408
排斥	-9.34416
帮忙	-9.34435
时期	-9.3445
依恋	-9.34619
的小	-9.34652
好了	-9.34665
之所以	-9.34672
脑	-9.34736
跑	-9.34776
不断的	-9.34788
条	-9.34804
做不到	-9.34911
选择了	-9.34924
不被	-9.34974
负	-9.3506
物质	-9.35259
重复	-9.35266
文字	-9.35314
饭	-9.354
正是	-9.35443
色	-9.35463
麻烦	-9.35514
和朋友	-9.35538
挫折	-9.35643
保护自己	-9.35663
可以尝试	-9.3571
平	-9.35712
分离	-9.3576
以下	-9.35878
么	-9.35938
结	-9.35968
一件事情	-9.3601
表	-9.362
拖延	-9.36249
如果有	-9.36338
较	-9.364
妹妹	-9.36412
关	-9.36419
你内心	-9.36461
疾病	-9.36471
你会发现	-9.36482
刻意	-9.36509
实际	-9.36536
急	-9.36584
也不要	-9.36585
更容易	-9.36634
别的	-9.36646
弱	-9.36752
所谓的	-9.36836
不应该	-9.36838
有能力	-9.3684
推荐	-9.36888
什么都	-9.36941
不管是	-9.36954
初中	-9.37028
掌握	-9.37028
清晰	-9.37062
其他的	-9.37202
伤心	-9.37279
若	-9.374
时刻	-9.37412
宣泄	-9.37424
每一个	-9.3753
之中	-9.37538
类似	-9.37562
下次	-9.37605
和谐	-9.37715
许多	-9.3772
角色	-9.37791
我们都	-9.37819
结合	-9.37844
出现了	-9.37914
年轻	-9.37996
的责任	-9.38041
如果他	-9.38043
尴尬	-9.38149
过往	-9.382
使用	-9.38221
独处	-9.38252
顺利	-9.38307
喜欢的	-9.38373
冷	-9.38423
总之	-9.38459
积极的	-9.38467
因为我们	-9.38468
小事	-9.38513
群	-9.38542
发生了	-9.38597
但你	-9.38718
的期待	-9.38924
最大的	-9.38932
检查	-9.39005
满	-9.39207
这段关系	-9.39218
血	-9.39245
不知	-9.39268
缺少	-9.39329
擅长	-9.39448
真的是	-9.39563
ta	-9.39668
恶	-9.39687
犯	-9.39926
故事	-9.39998
对她	-9.40002
和他们	-9.40043
表达自己	-9.40064
几乎	-9.40127
你应该	-9.40167
月	-9.40174
说了	-9.40286
室友	-9.4037
另一个	-9.40468
采取	-9.406
只要你	-9.4063
有自己的	-9.40709
仔细	-9.40784
温柔	-9.40788
给我	-9.40825
遗憾	-9.40888
的内容	-9.40977
喝	-9.40993
代表	-9.41037
过来	-9.41146
此	-9.41162
回复	-9.41165
权	-9.41255
就不	-9.41278
命	-9.41303
作业	-9.41308
人类	-9.41314
当成	-9.41343
淡	-9.41384
你可能	-9.41481
真诚	-9.41536
整个	-9.41559
锻炼	-9.4162
一辈子	-9.41756
。3	-9.41833
意见	-9.41944
包	-9.41993
题主说	-9.42031
死亡	-9.4216
声音	-9.42168
处在	-9.42223
心理问题	-9.42278
想办法	-9.42347
慢慢地	-9.42414
你说的	-9.42421
看了	-9.42452
~~~	-9.42551
在生活中	-9.42566
你的内心	-9.4257
有的时候	-9.42946
海	-9.42983
确实是	-9.43055
参与	-9.43096
有过	-9.43169
表示	-9.43178
见面	-9.4336
我们自己	-9.43394
试	-9.43467
找个	-9.43507
借	-9.43652
存	-9.43687
即便	-9.43775
越是	-9.43786
的信息	-9.43886
也是一种	-9.43917
的意义	-9.43974
有机会	-9.44099
发挥	-9.44153
人生的	-9.44161
我会	-9.44213
也许是	-9.4425
承认	-9.44363
情绪的	-9.44618
共	-9.44633
千	-9.44646
打开	-9.44659
良好的	-9.44717
体现	-9.44778
去改变	-9.4483
这时候	-9.44919
给孩子	-9.44929
经	-9.44973
初	-9.44996
依靠	-9.45102
工	-9.45105
这句话	-9.45133
来讲	-9.45178
直	-9.45221
那么就	-9.45287
两人	-9.45374
你还	-9.45455
关系中	-9.45521
基础	-9.4559
婚	-9.45768
词	-9.45795
补	-9.45824
特别是	-9.45827
那里	-9.45954
重要的	-9.45976
理由	-9.45991
抗拒	-9.46011
的焦虑	-9.46083
亲戚	-9.46109
小孩	-9.4612
问问自己	-9.46133
爱人	-9.46237
资源	-9.46259
经营	-9.46269
掌控	-9.46285
子女	-9.46364
并非	-9.46386
网络	-9.46426
实际上	-9.46517
这些事情	-9.46518
失	-9.46519
不确定	-9.4653
提升自己	-9.46647
一位	-9.46658
发现自己	-9.46681
上学	-9.46745
哪个	-9.46767
总会	-9.46786
破	-9.46894
有一定的	-9.469
表达出来	-9.46949
观点	-9.46988
是不	-9.47003
优点	-9.47053
文化	-9.47071
适当	-9.47084
反抗	-9.47133
说说	-9.47264
平静	-9.47292
神	-9.47494
救	-9.47523
善良	-9.47636
偏	-9.47705
你的父母	-9.47797
自己内心	-9.47803
2.	-9.47823
什么时候	-9.47867
简单的	-9.47933
去找	-9.47935
你很	-9.48187
再去	-9.48191
满意	-9.48277
人际交往	-9.48343
好朋友	-9.48376
好奇	-9.48544
羡慕	-9.48709
可以去	-9.48772
失去了	-9.48779
也不能	-9.48926
坚定	-9.48986
脚	-9.49036
那么你	-9.49037
强迫	-9.49177
友情	-9.49181
期间	-9.49188
随	-9.49223
治愈	-9.49318
投射	-9.49445
遇到了	-9.495
...	-9.49514
留下	-9.49521
原	-9.4954
希望你能	-9.49597
强烈	-9.49657
这些都是	-9.49675
正在	-9.49675
不爱	-9.49709
了吗	-9.49782
让别人	-9.49814
全部	-9.49838
身心	-9.49886
世	-9.49954
冲动	-9.49995
##	-9.50028
没有得到	-9.50033
三个	-9.50036
提醒	-9.50056
爱好	-9.50095
希望自己	-9.50125
会出现	-9.50157
来自于	-9.50243
在你的	-9.50267
养成	-9.5028
没什么	-9.50313
负担	-9.50314
的父母	-9.50345
双	-9.50418
怎么办	-9.50446
段	-9.50512
也会有	-9.50515
太大	-9.50582
造成的	-9.50584
让你感到	-9.50585
一开始	-9.50633
很难受	-9.50642
背	-9.50697
并不能	-9.50719
你没有	-9.5074
的目的	-9.50748
这也	-9.50751
尝试着	-9.50797
是指	-9.50859
告诉他	-9.50885
上班	-9.50897
我知道	-9.5094
不懂	-9.50963
代	-9.5098
A	-9.51007
猜测	-9.51032
制	-9.51065
和家人	-9.51135
注意力	-9.51215
了自己	-9.51219
念	-9.51269
我在	-9.51342
奶奶	-9.51364
出来的	-9.51399
平台	-9.51407
原则	-9.51467
与他人	-9.51676
技巧	-9.5171
归	-9.51746
很累	-9.51783
提前	-9.51843
忘记	-9.51877
平等	-9.51967
这是一个	-9.5211
周	-9.52156
还在	-9.52185
忽视	-9.52281
坐	-9.52325
用心	-9.52721
相似	-9.52741
紧	-9.52778
日常	-9.52792
很痛苦	-9.52798
搞	-9.52832
怀	-9.52882
不得不	-9.53015
苦恼	-9.53034
始终	-9.53081
的反应	-9.53137
遭遇	-9.53164
级	-9.53338
犯错	-9.5336
你们之间	-9.53373
足	-9.53411
竞争	-9.53503
之类的	-9.53504
你老公	-9.53504
”“	-9.5355
引发	-9.53568
对我们	-9.53589
在学校	-9.53609
害	-9.53647
勇气	-9.53661
但我	-9.53804
那么多	-9.53834
怎么做	-9.53897
每天都	-9.5396
误会	-9.53965
所以我们	-9.54004
看了你的描述	-9.54025
很想	-9.54048
是怎么	-9.54099
的动力	-9.54113
缺	-9.54138
10	-9.54152
特点	-9.54156
一场	-9.5426
的心	-9.5427
爸妈	-9.54347
学历	-9.54403
明明	-9.54436
消失	-9.54478
能否	-9.54547
的一面	-9.54598
时代	-9.5467
定义	-9.54678
马	-9.54695
会让	-9.54751
举	-9.54867
之外	-9.54867
欲望	-9.54879
不满意	-9.54931
很正常	-9.55028
深入	-9.55037
疫情	-9.5516
为什么要	-9.55184
你就会	-9.55221
还能	-9.55224
说你	-9.55233
句	-9.55235
看着	-9.55266
最重要的	-9.55289
在家里	-9.55344
看书	-9.55407
可以看出	-9.55457
造成了	-9.55521
你认为	-9.55582
你们的	-9.5561
味	-9.55621
可以在	-9.55681
和他人	-9.55816
嘛	-9.55864
有助于	-9.55866
影响到	-9.55881
的经验	-9.55956
融入	-9.55969
前任	-9.56084
都需要	-9.56088
轻	-9.56244
一些事情	-9.5627
一部分	-9.56298
呼吸	-9.56299
突破	-9.56343
容	-9.56377
问问	-9.56377
这种感觉	-9.56381
记住	-9.56403
战	-9.56418
的同时	-9.56448
热情	-9.56488
你提到	-9.56509
づ	-9.56635
疲惫	-9.56718
宝宝	-9.5672
你是否	-9.56728
喜欢你	-9.56737
因为我	-9.56829
规则	-9.56912
现状	-9.56954
不好的	-9.5696
转变	-9.57121
度过	-9.57133
记录	-9.57165
就需要	-9.57314
说过	-9.57318
?”	-9.57389
————	-9.57399
甚至是	-9.57437
复杂	-9.57483
在哪里	-9.57513
老板	-9.57606
被爱	-9.57663
觉得你	-9.5768
果	-9.57737
老人	-9.57789
第	-9.57823
参考	-9.57841
足够的	-9.5791
正面	-9.57912
研究	-9.5793
保证	-9.57943
把自己的	-9.57959
*	-9.58029
训练	-9.58038
想起	-9.58074
那就是	-9.58087
眼里	-9.5811
但是我	-9.5816
优	-9.58175
感受到了	-9.5821
6	-9.58261
信念	-9.58328
我很	-9.58372
走出来	-9.58547
梦想	-9.58601
打算	-9.58643
助	-9.58688
首先要	-9.58731
不清楚	-9.58753
配合	-9.58852
惩罚	-9.58917
被别人	-9.58952
给她	-9.58997
这位	-9.5903
自己喜欢的	-9.5903
画	-9.59065
忽略	-9.59151
男孩	-9.59173
他会	-9.59181
那你	-9.59264
自身的	-9.5927
坚强	-9.59431
现	-9.59441
主观	-9.59467
那是	-9.59476
愉快	-9.59589
之一	-9.59678
有哪些	-9.59755
爸爸妈妈	-9.5976
修	-9.59772
真的很	-9.59877
的做法	-9.59925
熟悉	-9.59963
强烈的	-9.59965
直到	-9.59966
利益	-9.6007
黑	-9.60101
是一件	-9.60112
也好	-9.60155
的方式来	-9.602
为何	-9.60214
都能	-9.60219
形	-9.60267
的评价	-9.60398
反馈	-9.60419
题主可以	-9.60435
回报	-9.60447
可以选择	-9.60467
是什么呢	-9.60593
对话	-9.60621
不理解	-9.60642
闹	-9.60655
绝对	-9.60716
张	-9.60773
危险	-9.60887
规律	-9.60982
聊一聊	-9.61
实在	-9.61008
符合	-9.61017
的同学	-9.6109
样	-9.61184
暗示	-9.61197
办	-9.61281
究竟	-9.61313
还需要	-9.61373
思考一下	-9.61398
脸	-9.61402
左右	-9.61501
厌恶	-9.61586
未来的	-9.61595
欲	-9.61634
养育	-9.61648
各自	-9.61657
有帮助	-9.61776
的意见	-9.61813
恋人	-9.61878
思	-9.61888
表明	-9.6191
余	-9.61948
的观点	-9.61963
着你	-9.6198
让楼主	-9.62002
改变的	-9.62017
出生	-9.62078
视频	-9.62101
在一个	-9.62117
的好	-9.62118
不完美	-9.62125
争取	-9.62149
的内心	-9.62184
还没	-9.62185
循环	-9.62192
查	-9.62273
挽回	-9.62293
题主的	-9.62295
专注	-9.62353
老婆	-9.62378
阳光	-9.62404
存在的	-9.62472
被动	-9.62473
给你带来	-9.62509
去看	-9.62528
恋	-9.62596
闺蜜	-9.62597
重点	-9.62673
邀请	-9.62676
的优点	-9.62701
友谊	-9.62715
分析一下	-9.62722
的婚姻	-9.62737
合理的	-9.62761
世界上	-9.62769
与其	-9.62776
兴趣爱好	-9.62794
会产生	-9.62801
如果对方	-9.62841
认识到	-9.6289
一方	-9.6308
有一天	-9.63093
弥补	-9.63106
相反	-9.63162
人家	-9.63179
。*	-9.63193
不错	-9.63209
几次	-9.63239
逼	-9.63298
谈谈	-9.63357
是如何	-9.63394
意思	-9.63403
成就	-9.63419
自信心	-9.63463
症	-9.63488
忍受	-9.63492
评估	-9.63497
大多数	-9.63568
明显	-9.63594
这样的情况	-9.63725
收	-9.63746
某个	-9.63764
占	-9.63772
贴	-9.63783
行业	-9.63804
这个过程	-9.63831
的伤害	-9.63884
我们在	-9.63896
保	-9.64039
思路	-9.6404
类型	-9.64163
妈妈的	-9.6417
更好地	-9.64171
式	-9.64179
的发展	-9.64211
激情	-9.64212
细节	-9.64322
1、	-9.64336
依旧	-9.64428
事实上	-9.64484
奖励	-9.64517
特殊	-9.64531
太过	-9.6459
片	-9.64612
的理由	-9.64612
是正常的	-9.64614
食	-9.64626
房	-9.64749
你们的关系	-9.64759
更有	-9.6478
与自己	-9.64784
可以多	-9.6496
坦诚	-9.6503
绝	-9.65095
呆	-9.65136
缘	-9.65187
道歉	-9.6526
与人	-9.65268
大人	-9.65276
的价值	-9.65322
国	-9.65381
必然	-9.65439
长大了	-9.6558
排	-9.65587
可能你	-9.65624
善	-9.65688
话题	-9.65693
成长的	-9.65758
价值感	-9.65821
作为一个	-9.6586
好处	-9.65907
发脾气	-9.66058
长辈	-9.6616
是最	-9.66164
姑娘	-9.66192
的权利	-9.66204
散	-9.66225
尽快	-9.66227
这是一种	-9.66287
人际	-9.663
有限	-9.66305
陌生人	-9.66379
两年	-9.66398
心思	-9.66404
自己也	-9.66417
优势	-9.66429
有问题	-9.66433
减轻	-9.66495
的变化	-9.6653
的习惯	-9.66533
把它	-9.66576
是什么样的	-9.66592
生病	-9.66606
消	-9.66649
实践	-9.66705
愉悦	-9.66711
收入	-9.66716
相应的	-9.66737
中国	-9.66756
马上	-9.66763
热爱	-9.66811
不那么	-9.66846
金	-9.66991
更多的是	-9.67053
体会到	-9.67056
每个人的	-9.67082
这不是	-9.67095
对别人	-9.67142
你想要	-9.67154
不代表	-9.67193
顺	-9.67248
烦	-9.6725
的建议	-9.67304
其实你	-9.67317
如果真的	-9.67352
照顾好自己	-9.67445
众	-9.67455
校	-9.67513
可以从	-9.67524
显得	-9.6754
赚钱	-9.67671
的恐惧	-9.6771
的方向	-9.67718
但是我们	-9.67742
你的想法	-9.67772
证	-9.67786
探讨	-9.68116
表白	-9.6821
高三	-9.68302
自尊	-9.68382
我自己	-9.68424
金钱	-9.68481
带给	-9.68511
困	-9.68575
增强	-9.68622
价值观	-9.68697
在这	-9.68761
听听	-9.68767
自己的人生	-9.68781
天天	-9.68864
部	-9.68886
内在的	-9.68902
:1	-9.68965
因为他	-9.68986
孤单	-9.69013
一切都	-9.69103
不错的	-9.69156
你是一个	-9.69201
比你	-9.69209
复习	-9.69266
让你觉得	-9.69268
的困扰	-9.69297
渐渐	-9.69331
就有	-9.69343
勇敢的	-9.69466
会影响	-9.69497
7	-9.69556
不起	-9.69657
对此	-9.69666
找到自己	-9.69708
诊断	-9.69853
静	-9.69927
。1.	-9.69945
层	-9.70044
理解你	-9.70045
母	-9.70052
很棒	-9.70096
同性恋	-9.70099
什么事情	-9.70099
嘴	-9.70131
夜	-9.70202
当下的	-9.70256
有用	-9.70261
患者	-9.70278
底	-9.70312
的世界	-9.70422
预	-9.70592
打破	-9.70609
感兴趣	-9.70643
e	-9.70737
的努力	-9.70748
题主您好	-9.70749
心理医生	-9.70761
想过	-9.70824
确认	-9.70979
礼物	-9.71025
不住	-9.71102
是真的	-9.71115
在自己	-9.71119
隔	-9.71143
争	-9.7115
需要你	-9.71226
方面的	-9.71257
没必要	-9.71334
怀孕	-9.7137
必须要	-9.71405
这就	-9.71413
洗	-9.71511
费	-9.71524
a	-9.71629
B	-9.71667
也可能	-9.71695
制定	-9.71764
技术	-9.71764
情况下	-9.71827
备	-9.71863
给我们	-9.71888
硬	-9.71978
刚开始	-9.71986
可以先	-9.72024
就是你	-9.7214
缺乏安全感	-9.72144
你说你	-9.72176
多大	-9.72209
给出	-9.72239
象	-9.72263
劲	-9.72431
亲近	-9.72467
在心里	-9.72597
30	-9.72604
极端	-9.72658
翻	-9.72661
肯定是	-9.72752
早日	-9.72759
这种状态	-9.72803
与父母	-9.72807
长久	-9.72839
音乐	-9.72842
优秀的	-9.72857
神经	-9.72862
舍友	-9.72897
的一部分	-9.72974
会被	-9.73065
非常的	-9.73137
电影	-9.73153
你的情绪	-9.73162
失落	-9.73206
会更	-9.7324
啥	-9.73252
不合适	-9.73261
年纪	-9.7328
和解	-9.73351
消耗	-9.73438
自律	-9.73445
限制	-9.73469
质	-9.73481
可以找	-9.73502
第四	-9.73525
的成长	-9.73624
等待	-9.73625
几年	-9.73663
暴露	-9.73664
或许是	-9.73702
爆发	-9.73727
不良	-9.73805
吵	-9.73982
给了	-9.73991
知道你	-9.73994
一条	-9.74092
没有任何	-9.74108
只不过	-9.74144
慢慢来	-9.74207
过了	-9.74356
剧	-9.74463
古	-9.74554
经历了	-9.74582
场合	-9.74605
舒适	-9.74637
止	-9.74677
觉	-9.74708
图	-9.74736
什么是	-9.7479
一时	-9.74876
难道	-9.74878
发生了什么	-9.74974
是很正常的	-9.75126
酒	-9.75126
假设	-9.75136
给对方	-9.75144
有趣	-9.75155
不愉快	-9.75168
值	-9.75209
楼主你好呀	-9.75221
的体验	-9.7523
所谓	-9.75232
劝	-9.75247
可以理解	-9.75251
绝望	-9.75252
的知识	-9.75253
把握	-9.75274
成就感	-9.75319
医院	-9.75351
这点	-9.75363
没关系	-9.75412
假如	-9.75415
程	-9.7562
了呢	-9.75781
家庭的	-9.75836
活在	-9.75853
的沟通	-9.75856
帮助自己	-9.75899
忘	-9.75914
尽力	-9.75957
立	-9.76068
促进	-9.76079
要知道	-9.76082
脱	-9.76106
过多	-9.76114
沉	-9.76119
怀疑自己	-9.76157
刷	-9.7618
转移注意力	-9.7619
言语	-9.7619
对比	-9.76214
的状况	-9.76241
小孩子	-9.76253
皮	-9.76263
崩溃	-9.76274
逻辑	-9.76274
和感受	-9.76335
圈子	-9.76358
节奏	-9.76421
同样的	-9.76502
是谁	-9.76549
今年	-9.76577
欺负	-9.76592
过的	-9.76701
奋斗	-9.76752
跳	-9.76774
和妈妈	-9.76817
成了	-9.76825
演	-9.76924
的故事	-9.76954
担心自己	-9.7697
动物	-9.77011
几天	-9.77179
有多	-9.77191
%	-9.77195
任何人	-9.77201
转移	-9.77232
当做	-9.7725
在面对	-9.77251
论	-9.77274
要不要	-9.77388
宿舍	-9.77437
我是	-9.77495
复	-9.77547
乐观	-9.77563
试试	-9.7757
的路	-9.77588
八	-9.77678
商量	-9.7773
询问	-9.77843
做好自己	-9.77925
的呢	-9.77931
分钟	-9.7798
内心深处	-9.78023
去解决	-9.7804
稍微	-9.78041
充实	-9.78051
多年	-9.78103
来的	-9.78116
单位	-9.78163
细	-9.78164
了你的	-9.78169
我觉得你	-9.78185
。1、	-9.78225
站	-9.78294
不适	-9.78312
群体	-9.7833
的思维	-9.78353
变成了	-9.78372
预期	-9.78445
消息	-9.78511
科学	-9.78572
下面	-9.78628
寻求帮助	-9.78636
承诺	-9.78742
看不到	-9.78778
这个事情	-9.78779
有一点	-9.78808
不是很	-9.78816
到你	-9.7892
发生的	-9.78954
呈现	-9.79016
就像是	-9.79034
忍	-9.79083
这是你	-9.79085
私	-9.79087
的声音	-9.791
弄	-9.79201
维护	-9.79211
不太好	-9.79256
又是	-9.79263
:(1)	-9.79284
的错误	-9.7933
后果	-9.79334
感恩	-9.79379
在我们	-9.79385
和行为	-9.79427
为此	-9.79541
共情	-9.79613
或许你	-9.79693
唯一	-9.79743
招	-9.79812
相亲	-9.79874
差异	-9.79924
威胁	-9.79935
不得	-9.79979
所在	-9.8006
有这样的	-9.80108
成人	-9.80153
外向	-9.80243
来源于	-9.80247
这样的人	-9.80259
会让我们	-9.8028
界限	-9.80286
表现出	-9.80289
8	-9.80297
修复	-9.80299
走向	-9.80349
交朋友	-9.80478
母亲的	-9.80683
如果不	-9.80731
多一些	-9.80746
具备	-9.80771
终	-9.80778
诉说	-9.80794
然后再	-9.80819
彻底	-9.80893
周围	-9.80897
去寻找	-9.80931
达成	-9.80935
一步	-9.80958
的作用	-9.80969
业	-9.80982
可能需要	-9.80986
原本	-9.80997
的标准	-9.81
祝福	-9.81021
做得	-9.81033
列	-9.81042
如果说	-9.8105
的意思	-9.81108
嫌弃	-9.81142
心灵	-9.81147
曾经的	-9.81437
加上	-9.81486
令人	-9.81493
领域	-9.81494
望	-9.81494
是因为你	-9.81669
对抗	-9.81681
处理好	-9.81719
可以说	-9.81762
谢谢	-9.81814
做决定	-9.8183
试着去	-9.81854
s	-9.81854
特征	-9.81856
从中	-9.8186
这些都	-9.81938
潜意识里	-9.82026
导致的	-9.82088
高兴	-9.82122
跟她	-9.82165
顾虑	-9.82236
大的	-9.82249
源	-9.82253
率	-9.82315
投	-9.82442
才有	-9.82507
彼此的	-9.82579
目前的	-9.82604
拍	-9.82611
陌生	-9.82624
不够好	-9.82647
去学习	-9.82673
是比较	-9.82713
三年	-9.82741
效率	-9.82779
所说的	-9.82797
但如果	-9.82811
电	-9.82844
放心	-9.82911
菜	-9.82967
失恋	-9.83099
不愿	-9.83103
充分	-9.83125
的相处	-9.83174
面子	-9.83203
元	-9.83205
没有必要	-9.83225
和我	-9.8325
里的	-9.83252
健康的	-9.8328
球	-9.83303
上了	-9.83445
他说	-9.83489
是要	-9.8354
双方都	-9.83579
停止	-9.83595
以至于	-9.83601
平常	-9.83643
家里人	-9.83774
愧疚	-9.83788
错了	-9.8381
杂	-9.84061
怒	-9.84066
轻易	-9.84071
老师的	-9.84095
的日子	-9.8412
也是一个	-9.84212
性别	-9.84335
要有	-9.84367
身边的	-9.84411
这方面	-9.8445
一致	-9.84524
去医院	-9.84558
持	-9.84562
当自己	-9.84576
哥哥	-9.84588
刚刚	-9.84595
回去	-9.84616
取得	-9.84636
看你	-9.84757
说什么	-9.84762
特质	-9.84776
不断地	-9.84782
的话题	-9.8482
停	-9.84834
婴儿	-9.84856
建议楼主	-9.84987
当前	-9.84989
衣服	-9.85178
冲	-9.85195
现在的你	-9.85254
称	-9.85267
的对象	-9.85302
「	-9.85332
」	-9.85335
匹配	-9.85364
不值得	-9.85446
此时	-9.85454
己	-9.85468
问题的	-9.85525
本能	-9.85538
学着	-9.85549
特	-9.85585
普遍	-9.85588
有效的	-9.8559
『	-9.85596
漂亮	-9.856
要是	-9.85647
内疚	-9.85677
也没	-9.85691
安心	-9.85833
需	-9.85833
』	-9.85849
是一个很	-9.85876
喜欢的人	-9.85915
要去	-9.85948
的决定	-9.85958
都不是	-9.85985
一下自己	-9.86018
的支持	-9.86081
幸运	-9.86125
的背后	-9.86133
在这个过程中	-9.86135
我现在	-9.86215
阻碍	-9.86228
折磨	-9.86245
可以考虑	-9.8628
是我	-9.86292
还是会	-9.86334
长时间	-9.86341
所以我	-9.86346
前进	-9.86387
什么呢	-9.8648
但又	-9.86487
痛苦的	-9.86508
的付出	-9.86532
是对的	-9.86543
领	-9.86614
希望能够	-9.86629
我可以	-9.86648
抱抱题主	-9.86721
进去	-9.86791
准	-9.86803
o	-9.86852
辞职	-9.86873
的因素	-9.86924
深呼吸	-9.86931
闲	-9.86975
集体	-9.87007
就没有	-9.87064
很高兴	-9.87097
任	-9.87103
给别人	-9.87116
艰难	-9.87136
愿你	-9.87197
合作	-9.87224
和男友	-9.87237
独自	-9.87321
单纯	-9.87329
一个问题	-9.8734
是对	-9.87401
号	-9.87446
可能是因为	-9.87494
冷漠	-9.87528
疑惑	-9.87528
反感	-9.87566
无法改变	-9.87614
我们每个人	-9.87628
严格	-9.87653
自己的问题	-9.87718
动作	-9.87762
磨合	-9.8786
一个人的	-9.87879
那个时候	-9.87895
纸	-9.87915
很多人都	-9.87976
也在	-9.88005
这段时间	-9.88096
圈	-9.88155
飞	-9.88166
成年	-9.88261
你一定	-9.88287
功能	-9.88349
动机	-9.88354
令	-9.88362
台	-9.88404
我要	-9.88418
脱离	-9.8846
至	-9.88478
消除	-9.88527
你又	-9.88586
去思考	-9.88613
外界的	-9.88622
醒	-9.88631
六	-9.88644
干扰	-9.88696
科	-9.88725
差不多	-9.8873
还有很多	-9.88747
安静	-9.88761
多久	-9.88914
除	-9.88988
有些事情	-9.88988
放大	-9.89048
我感觉	-9.89052
的那种	-9.89067
超过	-9.89076
工资	-9.89103
男女	-9.89115
树	-9.89217
又会	-9.89221
的思想	-9.89324
启发	-9.89356
课程	-9.89455
根	-9.89466
上课	-9.89507
很喜欢	-9.89512
易	-9.89576
红	-9.89605
意识到自己	-9.89621
都很	-9.89653
朋友圈	-9.89787
▁	-9.89877
善于	-9.89935
套	-9.89974
居	-9.89985
相比	-9.89995
摸	-9.89999
会很	-9.90014
我想你	-9.90068
沟通一下	-9.90124
源于	-9.90126
代价	-9.90142
智慧	-9.90149
魅力	-9.90159
~~	-9.90201
能感受到	-9.90219
倾向	-9.90238
都不会	-9.9024
电话	-9.90272
让您	-9.90301
要想	-9.9033
岗位	-9.90357
很有	-9.9038
适	-9.9041
笔	-9.90426
项	-9.90462
主要是	-9.90668
透	-9.90696
非常理解你的心情	-9.90712
药物	-9.90751
一段感情	-9.9077
杀	-9.90777
计	-9.9078
的矛盾	-9.90845
天生	-9.90853
考上	-9.90853
局	-9.90894
强势	-9.90937
工作中	-9.90942
带给你	-9.90958
其它	-9.90975
。4、	-9.91028
这部分	-9.91085
替	-9.91087
不适合	-9.91088
这些情绪	-9.91133
和焦虑	-9.91154
无关	-9.91172
谁都	-9.91191
权威	-9.91205
激发	-9.91249
我们就	-9.91284
职	-9.9129
那么我们	-9.91331
这么多	-9.91435
微信	-9.91444
嗯	-9.91611
进而	-9.91619
的空间	-9.91671
过多的	-9.91702
误解	-9.91758
毫无	-9.91782
我个人	-9.91858
之间的关系	-9.91906
浪费	-9.91927
最重要的是	-9.91971
调整自己	-9.92118
你希望	-9.9213
看重	-9.9214
靠近	-9.92224
形式	-9.92251
给你温暖的抱抱	-9.92294
是他	-9.92296
想要改变	-9.92303
所有人	-9.92349
在这样的	-9.92394
欺骗	-9.92417
妥协	-9.9243
介意	-9.92444
的答案	-9.92453
很快	-9.9251
整	-9.92518
更重要	-9.92531
认识自己	-9.92576
否定自己	-9.92597
】1.	-9.92637
压力大	-9.92667
危机	-9.92689
但也	-9.92824
真实的自己	-9.9286
不知道怎么	-9.92868
生活中的	-9.92909
惊	-9.92953
抱	-9.92971
练	-9.93007
很多的	-9.93014
家庭中	-9.93028
叫做	-9.93046
范围	-9.93081
去尝试	-9.93092
犹豫	-9.93112
表面	-9.93113
试图	-9.93118
破坏	-9.93118
互	-9.93131
中间	-9.93153
完善	-9.93162
注意到	-9.93162
关怀	-9.93234
导致你	-9.93262
同性	-9.93263
卡	-9.93331
工作上	-9.9334
他也	-9.93378
日子	-9.93402
法律	-9.9352
产	-9.93528
是想	-9.93593
之下	-9.93616
罪	-9.93643
的角色	-9.93668
做过	-9.93695
不安全感	-9.93742
学习的	-9.93757
树立	-9.93789
治	-9.93802
。(2)	-9.93812
自私	-9.93847
并不会	-9.93889
斯	-9.93897
不是你	-9.93897
传统	-9.93912
是你的	-9.9404
尤其	-9.94069
不要太	-9.94091
不一样的	-9.9415
给自己一个	-9.94192
等到	-9.94253
前面	-9.94308
的年龄	-9.94314
地位	-9.94327
挑	-9.94339
。4.	-9.94354
的成绩	-9.94414
不适应	-9.94495
房子	-9.9455
风险	-9.9465
不公平	-9.94676
息	-9.94704
多么	-9.94711
影响了	-9.94713
随时	-9.94756
亮	-9.94758
丑	-9.9478
他是	-9.94804
展现	-9.94823
三观	-9.94838
这么做	-9.94846
很久	-9.94994
广	-9.95013
说的话	-9.95052
告诉她	-9.95079
看完	-9.95141
没有那么	-9.95152
和想法	-9.95161
外部	-9.95166
干涉	-9.95178
对你有	-9.9518
而不	-9.95187
了一些	-9.95208
这份工作	-9.9523
男孩子	-9.9526
缺失	-9.95299
够	-9.95313
不在	-9.95344
幸福的	-9.95453
想改变	-9.95518
多次	-9.95526
看到你的	-9.95594
从小到大	-9.95599
输	-9.95618
越来越好	-9.95626
比较大	-9.95661
。)	-9.95709
的理解	-9.95739
极度	-9.95765
周围的人	-9.95792
你的描述	-9.95799
困境	-9.95888
快速	-9.9589
的美好	-9.95979
默默	-9.96024
书籍	-9.96025
对于自己	-9.96068
凭	-9.96077
能做到	-9.96107
出门	-9.96158
会更加	-9.96166
自残	-9.96169
考验	-9.96171
先给楼主一个抱抱	-9.96172
微	-9.96177
异	-9.96233
想要的	-9.96381
形成了	-9.96387
不是吗	-9.96404
引	-9.9643
我能	-9.9643
格	-9.96438
自己的能力	-9.96461
两种	-9.96464
感知	-9.96478
身份	-9.965
玩手机	-9.96503
属于自己的	-9.96507
隐	-9.96509
焦虑和	-9.96511
从你	-9.96524
自主	-9.96629
将自己	-9.96648
本人	-9.9665
去了解	-9.96657
是没有	-9.96665
可以看出你	-9.96675
警	-9.96702
综合	-9.96706
效应	-9.96726
就会有	-9.96762
巨大的	-9.96767
到底是	-9.96785
幸	-9.96803
敢于	-9.9684
就可以了	-9.96904
商	-9.96947
超	-9.96981
类似的	-9.96999
仅仅是	-9.97047
传	-9.97071
抓	-9.97078
了解一下	-9.9708
去想	-9.9712
时光	-9.97132
丧失	-9.97158
的位置	-9.97161
效	-9.97166
不幸	-9.97194
出发	-9.97301
医	-9.97351
敢	-9.97399
友	-9.97411
稳定的	-9.9742
机制	-9.97433
胡思乱想	-9.97439
好好地	-9.97545
往往是	-9.97564
之处	-9.97565
不仅仅是	-9.97597
那时候	-9.97605
懂事	-9.97617
网	-9.97646
自己的价值	-9.97661
恋情	-9.97677
仿佛	-9.97705
你真的	-9.97756
拖	-9.97792
区	-9.97799
放不下	-9.9789
和老公	-9.97901
不能接受	-9.9797
看到自己	-9.98072
相爱	-9.98111
守	-9.98136
如果自己	-9.98191
没法	-9.98206
对于你	-9.98224
每一次	-9.98247
的可能性	-9.98266
这个阶段	-9.98272
满足自己	-9.98279
暧昧	-9.98299
的勇气	-9.984
伤害自己	-9.98428
防御	-9.98438
你目前	-9.98443
独	-9.98486
做的事	-9.98541
头脑	-9.98548
使得	-9.9861
爱他	-9.98613
不论	-9.98646
对他人	-9.98653
客	-9.98663
优秀的人	-9.9868
方案	-9.98689
形象	-9.98761
解决的	-9.9877
造	-9.98799
向你	-9.98819
之前的	-9.98828
的办法	-9.98888
解读	-9.98918
有力量	-9.99022
难度	-9.99023
说不定	-9.99079
这类	-9.9914
花钱	-9.99153
背景	-9.99161
复合	-9.99181
了自己的	-9.99241
找工作	-9.9926
迷	-9.99272
没有安全感	-9.99314
潜	-9.9936
摆	-9.99398
好感	-9.99446
小时	-9.99464
这种情绪	-9.99548
温	-9.99591
隐私	-9.99641
接受自己	-9.99649
说我	-9.99654
故意	-9.99715
不做	-9.99745
化解	-9.99765
这个世界上	-9.99782
自己内心的	-9.99817
从事	-9.99818
可怕	-9.9983
的创伤	-9.99875
出于	-9.99885
因为他们	-9.99921
最大	-9.99935
就是这样	-9.99937
顶	-10.0003
出了	-10.0005
楼主说	-10.0006
正如	-10.001
今后	-10.0011
小学	-10.0013
显然	-10.0031
害怕自己	-10.0032
外面	-10.0033
相关的	-10.0033
印象	-10.004
的模式	-10.004
自己喜欢	-10.0046
希望我的	-10.0052
深深的	-10.0056
比较好	-10.0062
仅	-10.0066
打扰	-10.0066
看似	-10.0067
对他们	-10.0079
哈	-10.008
却是	-10.0087
底线	-10.0087
在他	-10.0094
的一切	-10.0095
最初	-10.0105
衡量	-10.0107
的咨询师	-10.011
的那个	-10.0116
的程度	-10.0119
七	-10.013
跟着	-10.0133
希望题主	-10.0142
服	-10.0146
总有	-10.0152
必要	-10.0154
对您	-10.0155
不上	-10.0158
灵魂	-10.0165
你妈妈	-10.0166
胖	-10.0167
具体的	-10.0167
首	-10.0169
小说	-10.0173
没人	-10.0175
和母亲	-10.0178
请你	-10.0178
重要的是	-10.0178
脏	-10.018
这种想法	-10.018
不说	-10.0181
排解	-10.0184
的女生	-10.0186
就是一个	-10.0195
毒	-10.0196
强迫症	-10.021
也不知道	-10.0213
必	-10.0218
心中的	-10.0222
来了	-10.0222
习惯了	-10.0226
明天	-10.0227
隐藏	-10.023
疗法	-10.0234
省	-10.0237
抱抱你呀	-10.0239
下降	-10.0243
的自我	-10.0246
超越	-10.0246
给你一个	-10.0247
有利于	-10.0261
狗	-10.0269
和人	-10.0275
单身	-10.0277
找出	-10.0279
的关注	-10.0279
你心里	-10.0283
完美的	-10.0293
此刻	-10.0297
识	-10.0298
我不	-10.0301
自然而然	-10.0301
忍不住	-10.0302
会对	-10.0303
的教育	-10.0308
但这	-10.0312
跟别人	-10.0312
聚	-10.0312
得到了	-10.0313
看得出来	-10.0316
执行	-10.0316
开朗	-10.0318
异地	-10.0325
学到	-10.0326
本身就	-10.0327
说到	-10.0333
父亲的	-10.0334
自己去	-10.0335
用来	-10.034
他们会	-10.0343
心理学家	-10.0344
真相	-10.0351
的专业	-10.0354
这种行为	-10.0356
对未来	-10.0366
人在	-10.0366
自己想要的	-10.037
而感到	-10.0371
一个月	-10.0375
喜	-10.0381
l	-10.0389
坚持下去	-10.0389
能理解	-10.0392
前男友	-10.0395
回归	-10.0396
自恋	-10.0401
想清楚	-10.0401
减	-10.0402
不要因为	-10.0402
受到了	-10.0408
跑步	-10.0409
根据你的描述	-10.041
使你	-10.041
未必	-10.0417
我不知道	-10.0422
青春	-10.0424
不清	-10.0433
明确的	-10.0436
生命的	-10.044
心理上	-10.044
同意	-10.0441
如今	-10.0443
不知道如何	-10.0445
做些什么	-10.0446
自己的优点	-10.0449
就越	-10.0449
不信任	-10.0453
混	-10.0453
带孩子	-10.0457
义	-10.0461
击	-10.0462
了解你	-10.0464
顾	-10.0466
的爱情	-10.0467
遭受	-10.0467
旧	-10.0483
就开始	-10.0484
你的朋友	-10.0488
直面	-10.0493
作息	-10.0501
的困惑	-10.0515
但是如果	-10.0516
述	-10.0516
减肥	-10.0516
很高	-10.0518
该如何	-10.0525
碰到	-10.0526
自慰	-10.0527
在此	-10.0533
无聊	-10.0533
导致了	-10.0534
和情绪	-10.0539
不要去	-10.0541
仅仅	-10.0541
妈	-10.0544
你不	-10.0547
良好	-10.0557
和理解	-10.0559
也无法	-10.056
可以把	-10.0561
支撑	-10.0561
安抚	-10.0561
抛弃	-10.0563
第一个	-10.0566
可以用	-10.0566
会感到	-10.0568
就业	-10.0568
但我们	-10.0569
的阶段	-10.0573
旅游	-10.0577
的是什么	-10.0578
写下来	-10.058
现实中	-10.058
强化	-10.0581
体验到	-10.0582
哪些是	-10.0583
因为自己	-10.0588
。**	-10.0592
答应	-10.0594
做法	-10.0596
的烦恼	-10.0596
需要去	-10.061
所有人都	-10.0614
再加上	-10.0621
各方面	-10.0621
意外	-10.0622
俩	-10.0622
了什么	-10.0623
交际	-10.0625
区别	-10.0626
熟	-10.0637
哪怕是	-10.0638
取决于	-10.064
理解和	-10.0641
致	-10.0643
辈	-10.0644
怎样的	-10.0649
好多	-10.065
支	-10.0652
所以在	-10.066
情绪低落	-10.066
的期望	-10.0661
反而会	-10.0663
好好学习	-10.0667
自然会	-10.0671
接近	-10.0673
觉得很	-10.0674
看看自己	-10.068
没有错	-10.0681
做事情	-10.0683
份	-10.0686
如果你觉得	-10.0687
温暖的	-10.0687
什么样	-10.0688
贬低	-10.0689
做不好	-10.0689
才能够	-10.0691
跟自己	-10.0692
3.	-10.0698
你内心的	-10.0701
质疑	-10.0702
差距	-10.0704
周围人	-10.0706
年轻人	-10.0706
还是有	-10.0721
借口	-10.0722
为人	-10.0724
你的生活	-10.0728
你想要的	-10.0734
由此	-10.0735
国家	-10.0737
不重要	-10.0738
这里面	-10.0739
该怎么办	-10.0739
楼	-10.074
胜	-10.0747
很有可能	-10.0755
很可能	-10.0757
归因	-10.0763
你的情况	-10.0764
的任务	-10.0767
的缺点	-10.0768
改正	-10.077
正视	-10.0776
情侣	-10.0781
但其实	-10.0784
连接	-10.0789
真是	-10.0791
i	-10.0792
能做的	-10.0795
的注意力	-10.0796
顺其自然	-10.0798
嘲笑	-10.0798
看到的	-10.0801
普通	-10.0805
的交流	-10.0814
伤害到	-10.0819
人生中	-10.0821
另	-10.0823
能接受	-10.0824
抱着	-10.0825
防	-10.0826
获取	-10.0828
束缚	-10.0828
专	-10.0829
过后	-10.0831
交给	-10.0834
会因为	-10.0837
成为一个	-10.0841
很开心	-10.0844
这一切	-10.0846
义务	-10.0849
也可能是	-10.0857
念头	-10.0875
一颗	-10.0878
考虑到	-10.0884
白天	-10.0888
静下心来	-10.0892
患	-10.0895
变好	-10.0898
会导致	-10.09
自己在	-10.0905
是你自己	-10.0907
聪明	-10.0908
哄	-10.0908
去看看	-10.0909
随便	-10.0911
完全可以	-10.0919
赶	-10.0926
各种各样的	-10.0927
这只是	-10.0928
会让人	-10.093
网上	-10.0933
太多的	-10.0936
过好	-10.0937
‘	-10.0938
多多	-10.094
一些问题	-10.094
蛮	-10.0941
没那么	-10.0941
给题主	-10.0964
影	-10.0967
不要把	-10.0969
走下去	-10.0972
巴	-10.0972
产生的	-10.0973
总是会	-10.0976
估计	-10.0976
除非	-10.0983
’	-10.0986
藏	-10.0987
呼	-10.0987
希望对你有所帮助	-10.0995
你都	-10.0995
星	-10.0997
暗	-10.0998
员	-10.1004
奔	-10.1004
饮食	-10.1005
不知道题主	-10.1008
的错	-10.1014
楼主您好	-10.1015
证明自己	-10.1018
娱乐	-10.1019
骗	-10.102
体谅	-10.1021
阴影	-10.1024
不要再	-10.1029
贵	-10.1031
干预	-10.1032
餐	-10.1035
黑暗	-10.1039
忽略了	-10.1041
可见	-10.1048
逆	-10.1053
熬夜	-10.1056
城市	-10.1057
店	-10.1069
性行为	-10.1072
是很难	-10.1075
爱护	-10.1078
那个人	-10.1078
更高	-10.1083
我想说	-10.1086
替代	-10.1087
在我看来	-10.1088
低落	-10.1091
千万不要	-10.1097
抵触	-10.1101
正念	-10.1102
或多或少	-10.1103
可以说是	-10.1105
岁的	-10.1107
整理	-10.1107
个月	-10.1108
些什么	-10.1112
设定	-10.112
对自己有	-10.1125
的认可	-10.113
也许会	-10.1132
友好	-10.1133
很难过	-10.1146
克	-10.1149
一个小	-10.1151
重大	-10.1151
背叛	-10.1152
鱼	-10.1152
交友	-10.1154
方便	-10.1161
经常会	-10.1167
宝贝	-10.1168
本身就是	-10.1169
平和	-10.1175
损失	-10.1176
这都是	-10.1176
露	-10.118
抚养	-10.1185
疼	-10.1186
关心你	-10.1188
玩游戏	-10.1192
做朋友	-10.1194
不受	-10.1197
抑郁情绪	-10.1201
自己身上	-10.1204
相同	-10.1205
的念头	-10.1206
半年	-10.121
耳	-10.1216
悲观	-10.1219
这时	-10.122
上进	-10.1223
喜欢他	-10.1227
不算	-10.123
情境	-10.1236
爱和	-10.1245
换位思考	-10.1251
的观念	-10.1252
形成的	-10.1256
建议题主	-10.1264
的改变	-10.1266
更大	-10.1269
逃	-10.1272
缓	-10.1276
每个人都是	-10.128
会发现	-10.128
对题主	-10.128
云	-10.1284
变得更好	-10.1284
不允许	-10.1285
是否可以	-10.1288
往往会	-10.1288
给人	-10.1291
成为了	-10.1291
的身体	-10.1296
做个	-10.1296
!(^_-)	-10.1302
梳理一下	-10.1304
好吗	-10.1309
作出	-10.1311
许	-10.1313
排除	-10.132
疑问	-10.132
自卑感	-10.1333
自己的行为	-10.1337
确	-10.1337
只是一个	-10.1339
途径	-10.1339
更大的	-10.1339
面试	-10.134
找到一个	-10.1348
我们也	-10.1349
肯定会	-10.1351
精彩	-10.1352
0	-10.1354
客观的	-10.1356
外人	-10.1361
并不代表	-10.1363
搭	-10.1367
会在	-10.1372
会遇到	-10.1374
强迫自己	-10.1377
心意	-10.1377
找回	-10.1379
亲情	-10.138
的处境	-10.1381
衣	-10.1382
挣扎	-10.1385
的现象	-10.1386
冷静下来	-10.1388
好坏	-10.1392
·	-10.1399
一段关系	-10.14
存在着	-10.1402
而非	-10.1404
情商	-10.1407
总觉得	-10.1409
跟父母	-10.1415
食物	-10.1423
达	-10.1424
质量	-10.1429
▲	-10.1432
努力的	-10.1432
抽	-10.1434
咱们	-10.1435
沉默	-10.1435
可能性	-10.1436
对对方	-10.1447
端	-10.1452
告知	-10.1454
就已经	-10.1457
对错	-10.1463
只是你	-10.1466
好友	-10.1467
介绍	-10.1469
本来就	-10.1469
命运	-10.147
什么样的人	-10.1472
暴躁	-10.1476
链接	-10.1485
牺牲	-10.1486
姐	-10.1487
随意	-10.149
眼睛	-10.1494
态	-10.1497
的原生家庭	-10.1497
是不一样的	-10.1501
乖	-10.1501
要注意	-10.1509
给楼主	-10.1511
你觉得自己	-10.1513
不易	-10.1516
说自己	-10.1518
不知道自己	-10.1518
微笑	-10.152
。——	-10.1522
眼中	-10.1525
攻击性	-10.1525
有多少	-10.1534
额	-10.1536
从你的	-10.1537
是一样的	-10.1537
画画	-10.1537
说不	-10.1541
反对	-10.1542
劳	-10.1552
牌	-10.1552
大胆	-10.1552
我们每个人都	-10.1557
局限	-10.1557
遍	-10.1559
不大	-10.1564
看一下	-10.1566
理解自己	-10.1566
示	-10.1567
采用	-10.1569
同情	-10.1579
自我成长	-10.158
逃离	-10.158
想去	-10.1582
激励	-10.1587
告	-10.1588
手段	-10.1593
护	-10.1594
是好的	-10.1596
严重的	-10.1597
曲	-10.1605
普通人	-10.1605
学习和	-10.1606
的女孩	-10.1606
也只是	-10.161
只有自己	-10.1613
基于	-10.1615
的未来	-10.1621
心动	-10.1622
如果楼主	-10.1625
走了	-10.1626
我们应该	-10.1629
见到	-10.1629
自在	-10.1631
需要我们	-10.1635
点赞	-10.1638
锁	-10.164
学习成绩	-10.1643
设置	-10.1655
资	-10.1656
奇怪	-10.1656
还是需要	-10.1658
否认	-10.1659
再来	-10.1659
嫁	-10.1666
向往	-10.167
虚	-10.167
无限	-10.1671
这样的状态	-10.1672
含	-10.1672
感同身受	-10.1675
可以做	-10.1676
从描述中可以了解到	-10.1676
TA	-10.1676
定位	-10.1678
我相信你	-10.1681
适合自己的	-10.1683
懒	-10.1683
德	-10.1689
注重	-10.1694
二是	-10.1695
不出	-10.1696
未知	-10.1697
出口	-10.1697
却又	-10.1699
只是在	-10.1699
放手	-10.1701
会让自己	-10.1702
靠自己	-10.1705
悲	-10.1706
焦虑不安	-10.1706
换一个	-10.1711
更是	-10.1712
人群	-10.1722
看过	-10.1724
焦虑情绪	-10.1726
员工	-10.1727
请求	-10.1735
的愿望	-10.1736
板	-10.1741
赚	-10.1742
我都	-10.1743
王	-10.1745
非常重要	-10.1746
是吗	-10.1749
是否是	-10.1756
是会	-10.1758
缩	-10.1759
告诉他们	-10.176
一点点分析和建议	-10.1762
善意	-10.1764
收到	-10.1772
加强	-10.1775
可能就是	-10.1776
表达自己的	-10.1776
卖	-10.1776
认真的	-10.1776
不好意思	-10.1777
自己的需求	-10.178
奇	-10.1782
偷	-10.1783
其实也	-10.1785
安全的	-10.1786
习	-10.1787
却没有	-10.1788
一项	-10.1791
划	-10.1794
到现在	-10.1796
的欲望	-10.1798
描述中	-10.1802
的事件	-10.1806
过去了	-10.1808
无需	-10.1812
草	-10.1814
这样的事情	-10.1815
大多数人	-10.1824
身边人	-10.1824
我也是	-10.1827
一般来说	-10.1828
表现出来	-10.1832
的眼光	-10.1832
我们不能	-10.1833
要看	-10.184
置	-10.1846
心结	-10.1852
在关系中	-10.1854
这样一个	-10.1855
发生的事情	-10.1856
让父母	-10.1856
你知道	-10.1858
性取向	-10.186
去看待	-10.1866
室	-10.1871
看的	-10.1871
可能在	-10.1872
雨	-10.1883
机构	-10.1884
冰	-10.1884
你的人生	-10.1889
大多	-10.1889
松	-10.1889
另一种	-10.1891
开放	-10.1892
准备好	-10.1893
儿童	-10.19
和你一样	-10.19
踏实	-10.1902
克制	-10.1903
个人的	-10.1904
勇敢地	-10.191
比如你	-10.1915
不了解	-10.1917
一系列	-10.1919
可以感受到你	-10.1925
这样的话	-10.1937
牵	-10.1938
坏事	-10.1943
家暴	-10.1945
不希望	-10.1946
转移到	-10.1951
沉浸在	-10.1952
当时的	-10.1954
爱的人	-10.1957
有更多的	-10.1965
有所帮助	-10.1965
相处的	-10.1965
情结	-10.1968
对生活	-10.1971
是不会	-10.1971
躲	-10.1971
目	-10.1979
好起来	-10.198
器	-10.1982
依	-10.1982
2、	-10.1987
氛围	-10.1989
一些建议	-10.1993
有价值	-10.1997
十年	-10.1998
的语言	-10.1999
忘了	-10.2003
忧	-10.2008
封闭	-10.2009
有些时候	-10.201
在工作中	-10.2011
被拒绝	-10.2011
对他的	-10.2011
给你一个温暖的抱抱	-10.2012
00	-10.202
走到	-10.2021
尽可能	-10.2032
给您	-10.2034
一遍	-10.2039
有可能是	-10.2045
心理上的	-10.2048
问自己	-10.2051
如果题主	-10.2054
你男朋友	-10.2054
来源	-10.2058
走进	-10.2058
只想	-10.2065
每一天	-10.2071
自己的目标	-10.2073
强调	-10.2076
感情的	-10.208
猫	-10.208
为难	-10.2083
的重要	-10.2086
的时候就	-10.2088
父	-10.2088
运用	-10.2093
主义	-10.2103
会越来越	-10.2113
所以楼主	-10.2124
你看	-10.2125
小的时候	-10.2128
羞耻	-10.2131
为什么不	-10.2135
所以才会	-10.2135
的真实	-10.214
显	-10.2146
顾及	-10.2156
反过来	-10.2157
的年纪	-10.2157
他就	-10.2161
功	-10.2161
也知道	-10.2161
使自己	-10.2164
深刻	-10.2169
基本上	-10.2176
我建议你	-10.2177
**	-10.2179
现在你	-10.218
要明白	-10.2182
有意义	-10.2183
算是	-10.2187
恶性循环	-10.2188
心理学上	-10.219
纠缠	-10.219
刀	-10.2191
比较多	-10.2198
饱	-10.2207
挂	-10.2207
看出	-10.2209
的书	-10.2209
听话	-10.2212
。4	-10.2216
你才	-10.2218
给你一些	-10.2218
题主现在	-10.2218
肉	-10.2219
清晰的	-10.2221
展示	-10.2227
实验	-10.2228
小目标	-10.2229
聊聊天	-10.2231
和老师	-10.2231
是由	-10.2235
健身	-10.2238
指导	-10.2241
的基础上	-10.2242
的后果	-10.2245
多去	-10.2249
抗	-10.225
你喜欢	-10.2256
知道了	-10.2256
这可能	-10.2276
自己的选择	-10.2276
数学	-10.2276
可以试试	-10.2279
做出改变	-10.2281
责备	-10.2282
牙	-10.2282
即使是	-10.2282
早上	-10.2283
活出	-10.2287
刻	-10.2289
也不想	-10.229
温和	-10.2291
能感受到你	-10.2292
身体的	-10.2292
一个好的	-10.2292
充满了	-10.2296
尔	-10.2297
英语	-10.2299
不止	-10.2302
太过于	-10.2304
就不要	-10.2304
你对自己	-10.2306
一下子	-10.2307
题主的描述	-10.2309
把他	-10.2309
不如意	-10.2314
设	-10.2314
措施	-10.2318
结论	-10.2321
的症状	-10.2325
关注自己	-10.2327
入睡	-10.2328
充	-10.2328
工作的	-10.2328
折	-10.2328
第一步	-10.2331
实力	-10.2333
般	-10.234
和男朋友	-10.2342
希望对你有帮助	-10.2344
沮丧	-10.2354
不来	-10.2356
才可以	-10.2356
那时	-10.2362
一面	-10.2372
意愿	-10.2374
找到了	-10.238
概念	-10.2382
创	-10.2383
我说	-10.2385
恋爱关系	-10.2386
对吧	-10.2392
的意愿	-10.2396
确实会	-10.2397
抓住	-10.2401
t	-10.2401
床	-10.2404
发现了	-10.2406
棒	-10.2406
恐慌	-10.2409
如果她	-10.2411
自我保护	-10.2417
题目	-10.2417
楼主现在	-10.242
宽容	-10.2431
刺	-10.2431
对孩子的	-10.2435
看一看	-10.2436
就好像	-10.244
希望我的回答	-10.2446
看清	-10.2446
逐步	-10.2448
吃药	-10.245
研究生	-10.245
前行	-10.2456
朋友的	-10.246
势	-10.2462
@	-10.2468
回头	-10.2471
陷	-10.2474
家人的	-10.2474
补充	-10.2474
受到伤害	-10.2475
越多	-10.2476
的相处模式	-10.2477
加重	-10.2479
仍	-10.2483
和痛苦	-10.2484
不配	-10.2485
约束	-10.2486
背后的	-10.2488
不堪	-10.2488
即可	-10.2492
有必要	-10.2496
当年	-10.2499
等你	-10.2501
服务	-10.2503
就应该	-10.2504
但是在	-10.2505
免	-10.2506
配	-10.2514
核心	-10.2519
可能也	-10.2522
现实的	-10.2525
常见的	-10.2527
关心和	-10.2527
是这样吗	-10.2529
会比较	-10.253
可能有	-10.2534
块	-10.2534
以外	-10.2541
即将	-10.2545
因为她	-10.2546
的描述	-10.2547
跟他们	-10.2556
场景	-10.256
坎	-10.2561
越来越多	-10.2564
可爱	-10.2576
另一半	-10.2577
会把	-10.258
的事物	-10.2591
习惯性	-10.2593
时常	-10.2599
你和你	-10.2602
赞美	-10.2605
自己一个人	-10.2605
赢	-10.2606
涉及到	-10.2607
如果可以	-10.2609
工具	-10.2611
自我否定	-10.2614
快乐的	-10.2618
组织	-10.2618
很小	-10.2622
喜欢一个人	-10.2622
的陪伴	-10.2623
歌	-10.2627
的发生	-10.2631
自己的事情	-10.2636
傻	-10.2638
把注意力	-10.2639
的学生	-10.2642
两次	-10.2646
属	-10.2653
释怀	-10.2656
当事人	-10.2657
误	-10.2657
在我	-10.2658
您可以	-10.2658
有种	-10.2661
才会有	-10.2669
详细	-10.2669
其实我们	-10.267
乎	-10.2672
的人际关系	-10.2674
起到	-10.2676
自我的	-10.2677
与否	-10.2677
倾	-10.268
出错	-10.268
稳	-10.2681
不甘心	-10.2681
的信念	-10.2681
的信任	-10.2685
换个	-10.2688
题主好	-10.2695
赋予	-10.2696
的事实	-10.2697
消化	-10.2699
给他们	-10.2701
也能够	-10.2708
地去	-10.2708
完美主义	-10.271
到最后	-10.2711
什么都不	-10.2712
如何去	-10.2721
停下来	-10.2727
的负面情绪	-10.2728
前提是	-10.2729
被抛弃	-10.273
正向	-10.2731
不存在	-10.2732
换个角度	-10.2734
当我	-10.2734
它的	-10.2734
不理	-10.2738
睡不着	-10.2752
位置	-10.2752
房间	-10.2754
报复	-10.2754
觉察到	-10.2757
一是	-10.2757
画面	-10.2758
希望你可以	-10.2758
久了	-10.2763
还不	-10.2765
企业	-10.2771
专业人士	-10.2774
压抑自己	-10.2778
当作	-10.2781
祝愿	-10.2783
对楼主	-10.2785
活得	-10.2785
策略	-10.279
疑	-10.2796
迫	-10.2797
寻求专业	-10.2806
不出来	-10.2809
也就会	-10.2812
控制欲	-10.2816
公平	-10.2817
发育	-10.2819
把这些	-10.282
的基础	-10.282
我看到	-10.2821
他们也	-10.2821
哥	-10.2831
风格	-10.2831
这本书	-10.2837
非要	-10.2839
深度	-10.2844
爱我	-10.2846
很辛苦	-10.2847
去理解	-10.2849
素质	-10.2849
抱抱楼主	-10.285
每当	-10.2854
很简单	-10.2863
下一次	-10.2864
几点	-10.2864
。(3)	-10.2867
疏远	-10.2869
秘密	-10.2869
甜蜜	-10.287
空虚	-10.287
自己的孩子	-10.2873
偏差	-10.2874
保留	-10.2878
自己的身体	-10.2878
心情不好	-10.2878
堂	-10.2886
在学习	-10.289
感性	-10.2892
成功的	-10.2895
也是有	-10.2904
禁	-10.2907
保护好自己	-10.291
就是在	-10.2911
着自己	-10.2914
生孩子	-10.2914
帮助我们	-10.2919
罢了	-10.2921
希望楼主	-10.2923
队	-10.2928
的需要	-10.293
当前的	-10.2931
还是很	-10.2934
可不可以	-10.2935
区分	-10.2936
失控	-10.2939
的男生	-10.294
走过	-10.2942
饿	-10.2947
自我怀疑	-10.2948
性生活	-10.2953
出现的	-10.2954
楼主好	-10.2957
可以让自己	-10.2957
家庭关系	-10.2957
爱上	-10.2959
的时刻	-10.2966
喊	-10.2967
匮乏	-10.2967
哪种	-10.2973
帮助到	-10.2973
与别人	-10.2974
遇到的	-10.2978
最重要	-10.2979
不要害怕	-10.298
培训	-10.2984
哭泣	-10.2985
暖	-10.2986
艺术	-10.2986
欢迎	-10.2987
以前的	-10.2988
没事	-10.2992
这种方式	-10.2992
事后	-10.2993
与他	-10.2999
成长过程中	-10.3004
民	-10.3004
浅	-10.3005
西	-10.3007
凡事	-10.3009
如果不是	-10.3014
故	-10.3016
交谈	-10.3017
这样子	-10.3017
他对你	-10.3037
施	-10.3042
激烈	-10.3043
有一定	-10.305
而我们	-10.306
自己是	-10.3062
的能量	-10.3064
久而久之	-10.3065
适度	-10.3067
规定	-10.3067
决	-10.307
解答	-10.3073
可以尝试着	-10.3075
无力感	-10.3077
变得更加	-10.3078
损	-10.3078
分为	-10.3079
以往	-10.308
彩	-10.3083
煎熬	-10.3085
良	-10.3086
他在	-10.3088
想做	-10.3088
心境	-10.3092
这两个	-10.3092
可以做到	-10.3094
缘分	-10.3095
想知道	-10.3096
希望我的回答能	-10.3098
一次次	-10.3103
发出	-10.3104
的快乐	-10.3111
其实就是	-10.3111
全面	-10.3125
看到你的描述	-10.3126
考虑一下	-10.3136
很长	-10.3137
可能就	-10.314
疏导	-10.3147
很优秀	-10.3151
不少	-10.3153
人性	-10.3154
没能	-10.3156
资料	-10.3164
魔	-10.3166
惹	-10.3167
你还是	-10.3173
无法接受	-10.3182
谨慎	-10.3186
在一定程度上	-10.3186
是什么原因	-10.3189
碰	-10.319
察觉	-10.3192
你父母	-10.3194
家里的	-10.3194
是出于	-10.3194
议	-10.3203
宽	-10.3203
官	-10.3204
真诚的	-10.3209
的本质	-10.3209
打电话	-10.3212
身体健康	-10.3213
我们来	-10.322
当他	-10.3221
混乱	-10.3227
自己的事	-10.323
朝	-10.3231
这些想法	-10.3232
答	-10.3233
品质	-10.3234
夫	-10.3236
了吧	-10.324
礼	-10.3244
催	-10.3246
秒	-10.3247
灯	-10.3247
那我们	-10.3261
是可以理解的	-10.3264
呵护	-10.3266
不在乎	-10.3266
希望得到	-10.3269
的愤怒	-10.327
的生命	-10.3273
心底	-10.3277
愿望	-10.3279
还有就是	-10.3283
胸	-10.3288
写日记	-10.3294
厉害	-10.3297
不是说	-10.3298
的钱	-10.3303
男方	-10.3303
每个人都有自己的	-10.3305
兴奋	-10.3305
自动	-10.331
消费	-10.331
不接受	-10.3313
标签	-10.3314
落差	-10.3315
先生	-10.3316
一起去	-10.3317
就去	-10.3318
少了	-10.3322
牢	-10.3326
解决办法	-10.3327
你可以试着	-10.3329
会有一些	-10.333
不一定是	-10.3336
好看	-10.3339
人是	-10.3342
软	-10.3347
=	-10.335
给自己带来	-10.3352
难题	-10.3355
的回答	-10.3358
听起来	-10.3361
和同学	-10.3363
分歧	-10.3368
在外	-10.3369
的计划	-10.3373
根源	-10.3383
同学们	-10.3389
陪你	-10.339
错误的	-10.3391
一步步	-10.3393
存在感	-10.3395
就是要	-10.34
建	-10.3404
太阳	-10.3408
富	-10.3408
人员	-10.341
闪光点	-10.3411
特定	-10.3412
提到的	-10.3414
似	-10.3416
阅历	-10.3416
但是又	-10.3423
素	-10.3423
的形象	-10.3426
也有可能	-10.3429
强大的	-10.3431
自己想要	-10.3433
坦	-10.344
只是因为	-10.3442
。●	-10.3443
只会让	-10.3444
在这种情况下	-10.3444
每个人都会有	-10.3447
供	-10.3448
题主你好呀	-10.3448
吐	-10.3449
忙碌	-10.3452
腿	-10.3452
可以帮助你	-10.3454
班级	-10.3455
帮助别人	-10.3457
想一下	-10.3457
没有关系	-10.3457
打压	-10.3462
支持你	-10.3462
的表达	-10.3463
亲子关系	-10.3466
打游戏	-10.3466
两者	-10.3469
莫	-10.347
这才是	-10.347
的判断	-10.3471
挺好的	-10.3471
特别的	-10.3473
组	-10.3476
是最好的	-10.3482
事儿	-10.3485
表情	-10.3486
去做一些	-10.3486
责怪	-10.3488
创业	-10.3492
木	-10.3493
看得	-10.3496
的那些	-10.3501
上大学	-10.3504
会影响到	-10.3508
感动	-10.351
紧急	-10.3514
状态下	-10.3515
自己所	-10.3515
代替	-10.3518
让自己变得	-10.3522
认真地	-10.3523
社会上	-10.353
～～	-10.3534
遇	-10.3534
正是因为	-10.3538
上来	-10.355
气质	-10.3551
表现的	-10.3554
穷	-10.3554
干什么	-10.3556
不合	-10.3561
其实也是	-10.3561
的社会	-10.3563
独立的	-10.3567
欠	-10.357
婚姻中	-10.3575
频繁	-10.3576
对人	-10.3576
缺陷	-10.3578
常态	-10.3587
你可以选择	-10.3588
清醒	-10.3589
眼前	-10.359
恩	-10.3592
诉	-10.3592
途	-10.3593
你也会	-10.3594
从前	-10.3597
篇	-10.3597
比自己	-10.3598
其他方面	-10.3598
孤	-10.3599
是他们	-10.3599
范围内	-10.36
此外	-10.3604
的亲密关系	-10.3606
生活在	-10.3612
内部	-10.3612
传递	-10.3616
+	-10.3619
证据	-10.3619
但是却	-10.362
临	-10.362
来到	-10.3622
不懂得	-10.3623
一些小	-10.3623
不稳定	-10.3631
吸引力	-10.3635
非常好	-10.3638
爬	-10.3639
希望对楼主有所帮助	-10.364
睡前	-10.3643
觉得他	-10.365
标	-10.3653
评	-10.3658
自我价值	-10.3658
的老师	-10.366
层次	-10.366
怨恨	-10.3662
集中	-10.3665
现在的状态	-10.3668
是这样的	-10.3669
你不是	-10.3671
初恋	-10.3671
对你有帮助	-10.3676
是一件很	-10.3677
协调	-10.368
委屈自己	-10.3682
毁	-10.3683
认	-10.3686
尚	-10.3687
帮到你	-10.3698
完整	-10.3698
包含	-10.3702
影响到了	-10.3704
升	-10.3705
处事	-10.3705
的点	-10.3705
起床	-10.3707
不知道楼主	-10.3709
你能够	-10.371
做些	-10.3718
很强	-10.372
零	-10.3722
迎合	-10.3724
表扬	-10.3724
是由于	-10.3725
辅导	-10.3729
小小的	-10.373
所以题主	-10.373
或许会	-10.3736
楼主在	-10.3737
导	-10.3739
解决了	-10.3739
挫败	-10.3744
谈一谈	-10.3744
糟	-10.3744
意志	-10.3745
战胜	-10.3746
好一点	-10.3747
好转	-10.3747
磨	-10.3748
所以说	-10.3749
夫妻关系	-10.3754
的精力	-10.3759
漫	-10.3759
本质上	-10.376
这种感受	-10.3761
佛	-10.3767
希望能够帮助到你	-10.3769
的边界	-10.3769
家务	-10.3773
分数	-10.3777
建立起	-10.3778
我妈	-10.3782
毛	-10.3786
自己对	-10.3787
出现问题	-10.3794
令你	-10.3798
无所谓	-10.3805
编	-10.3807
模仿	-10.3809
河	-10.3809
舒缓	-10.3809
批判	-10.3809
爱着	-10.3809
希望可以	-10.381
滋养	-10.381
相遇	-10.381
甚至会	-10.3811
慎重	-10.3811
的困难	-10.3812
高度	-10.3814
就很	-10.3817
的回应	-10.382
彼此之间	-10.382
能够理解	-10.3823
的距离	-10.3823
你不想	-10.3824
游	-10.3831
的妈妈	-10.3833
更何况	-10.3837
必要的	-10.3837
早期	-10.3839
很在意	-10.3843
休	-10.3844
伙伴	-10.3844
的优势	-10.3844
在网上	-10.3845
和爱	-10.3847
一把	-10.3851
不相信	-10.3855
中心	-10.3858
对父母	-10.386
感到很	-10.3864
选择的	-10.3866
就会觉得	-10.3868
有勇气	-10.3869
的活动	-10.3869
路上	-10.387
叛逆	-10.387
巧	-10.3871
单纯的	-10.3871
说服	-10.3872
违背	-10.3874
美丽	-10.3876
新闻	-10.3876
对你有所帮助	-10.3877
动手	-10.3884
理想的	-10.3885
她说	-10.3888
不该	-10.3894
让你感觉	-10.3894
比起	-10.3899
另外一个	-10.3901
环境中	-10.3903
我真的	-10.3903
这么多年	-10.3904
变的	-10.3904
”、“	-10.3904
事情的	-10.3907
一本书	-10.391
长大后	-10.3916
孝顺	-10.3916
得了	-10.3918
的效果	-10.3918
你所说的	-10.3919
开玩笑	-10.392
让它	-10.3924
流动	-10.3926
改进	-10.3929
可以看到	-10.393
每个人都会	-10.3933
一味的	-10.3935
长远	-10.394
担	-10.3945
复杂的	-10.3948
的生活中	-10.395
自己没有	-10.3954
在工作	-10.3955
但是他	-10.3955
的确是	-10.3956
女方	-10.3957
权利	-10.3957
长期的	-10.3958
测试	-10.3961
甜	-10.3961
抱有	-10.3962
评论	-10.3962
今	-10.3964
留言	-10.3965
精神分析	-10.3968
只需要	-10.3972
限	-10.3976
我们也可以	-10.3977
感受不到	-10.3977
去探索	-10.3977
去世	-10.3979
的场景	-10.3982
退缩	-10.3983
结局	-10.3984
眼神	-10.3986
超我	-10.3986
的男人	-10.3986
执着	-10.3988
要做	-10.3989
在这种	-10.3991
就这样	-10.3992
凡	-10.3995
解决不了	-10.3997
跟我	-10.4001
欢	-10.4003
插	-10.4004
明显的	-10.4006
暴	-10.4008
做完	-10.4017
你只是	-10.4018
这么说	-10.402
很不容易	-10.4023
博	-10.4025
你对他	-10.4035
积	-10.4038
把事情	-10.4039
3、	-10.4039
如果我	-10.4041
有两个	-10.4041
志	-10.4041
缺爱	-10.4042
比别人	-10.4046
喝酒	-10.4048
身材	-10.4048
焦虑症	-10.4048
️️️	-10.4049
没用	-10.4053
心疼你	-10.406
小朋友	-10.4062
入手	-10.4064
喜悦	-10.407
榜样	-10.407
团体	-10.4075
不多	-10.4079
100	-10.4082
楼主内心	-10.4082
很清楚	-10.4086
时间和精力	-10.4089
滑	-10.409
●	-10.4092
敬	-10.4093
侵犯	-10.41
对不起	-10.4104
操	-10.4106
冷暴力	-10.4106
物品	-10.4108
都说	-10.4111
m	-10.4112
自己要	-10.4112
C	-10.4113
好好爱自己	-10.4113
的关心	-10.4117
不至于	-10.4118
控制不住	-10.4122
的印象	-10.4123
一类	-10.4125
大事	-10.4126
这说明	-10.4128
但却	-10.4129
你似乎	-10.4136
更能	-10.4137
关键是	-10.4137
可以让	-10.4137
有好感	-10.4141
分散	-10.4145
都是在	-10.4146
吸	-10.4149
视角	-10.415
控	-10.4152
她会	-10.4154
弃	-10.4155
也有很多	-10.4156
文章	-10.4157
昨天	-10.416
心理压力	-10.4161
停留在	-10.4168
个性	-10.4169
提醒自己	-10.4174
音	-10.4176
桌	-10.4177
不同的人	-10.4177
帮助他	-10.4178
范	-10.4179
卫生	-10.418
种种	-10.418
是很重要的	-10.4181
每一个人	-10.4184
时机	-10.4186
如下	-10.4188
怎么说	-10.4189
你的文字	-10.419
索	-10.4198
不管你	-10.42
从你的描述来看	-10.4204
终究	-10.4204
的价值观	-10.4209
所说	-10.4214
情感的	-10.4215
躯体	-10.4219
转换	-10.422
c	-10.4222
病情	-10.4222
什么原因	-10.4224
补偿	-10.4224
酸	-10.4225
的本能	-10.4226
的遭遇	-10.4227
恶意	-10.4229
团	-10.4232
都没	-10.4234
一丝	-10.4234
是人	-10.4236
写作	-10.424
放弃了	-10.4242
或者其他	-10.4243
的某些	-10.4243
心理疾病	-10.4244
复读	-10.4248
做起	-10.4248
仅供参考	-10.4248
那一刻	-10.4255
你是不是	-10.4257
再说	-10.4259
以此	-10.427
的咨询	-10.4272
一定有	-10.4272
那份	-10.4273
不能够	-10.4274
看不起	-10.4274
异地恋	-10.4276
已经有了	-10.4282
很能理解你	-10.4287
就会产生	-10.4288
的各种	-10.429
希望可以帮到你	-10.4296
认清	-10.4298
日记	-10.4299
就意味着	-10.43
发火	-10.4305
肯定自己	-10.4312
自己可以	-10.4312
阻止	-10.4315
负能量	-10.4317
所以才	-10.4317
努力去	-10.4327
早点	-10.4327
貌	-10.4328
在他们	-10.433
和其他	-10.4331
思维模式	-10.4331
伤害你	-10.4331
在大学	-10.4331
成为你	-10.4334
的记忆	-10.4334
有足够的	-10.4336
告诉对方	-10.4338
◆	-10.4338
是怎样	-10.4341
更重要的是	-10.4341
独一无二的	-10.4343
无意识	-10.4347
的担忧	-10.4353
布	-10.4358
催眠	-10.436
夸奖	-10.436
骄傲	-10.436
我的建议是	-10.4362
恶心	-10.4363
一块	-10.4363
能让你	-10.4374
另一	-10.4375
遇到问题	-10.4381
渠道	-10.4382
加入	-10.4384
表达方式	-10.4388
的母亲	-10.4392
外貌	-10.4393
放到	-10.4393
防御机制	-10.4404
寝室	-10.4404
借助	-10.4408
想必	-10.4408
难免会	-10.4408
整体	-10.4414
已经是	-10.4414
自己想	-10.4419
镜	-10.4423
还有一个	-10.4425
是被	-10.4425
不知所措	-10.4428
感觉很	-10.4431
世上	-10.4431
去接受	-10.4434
的互动	-10.4438
意味着什么	-10.4439
带有	-10.4442
给到	-10.4444
境	-10.4444
一直都	-10.4446
难免	-10.4449
胃	-10.445
心理治疗	-10.4452
你的男朋友	-10.4454
有压力	-10.4455
我有	-10.4456
留意	-10.4457
胎	-10.4464
你们之间的	-10.4466
联	-10.4467
向前	-10.4467
据	-10.4467
S	-10.447
9	-10.4473
摔	-10.4473
反正	-10.4474
资格	-10.4475
索取	-10.4476
带来了	-10.4478
暂时的	-10.448
测	-10.4483
灵	-10.4485
解开	-10.4486
辞	-10.4493
控制自己	-10.4493
你愿意	-10.4496
扮演	-10.4496
如果只是	-10.4496
我发现	-10.4496
可能就会	-10.4499
提升自己的	-10.4501
一周	-10.4508
加深	-10.451
可能只是	-10.4517
是从	-10.4519
香	-10.4519
固定	-10.4519
花费	-10.4524
旅行	-10.4525
有信心	-10.4527
不可以	-10.4527
吓	-10.4529
满满	-10.4536
制造	-10.4537
(2)	-10.4538
的精神	-10.4539
专注于	-10.4542
洞	-10.4542
的不满	-10.4544
平淡	-10.4546
会慢慢	-10.4546
就想	-10.4549
不利于	-10.4552
环境下	-10.4555
多一点	-10.4563
愈	-10.4564
舍不得	-10.4566
正好	-10.4568
一直以来	-10.4571
时间去	-10.4572
年级	-10.4575
的路上	-10.4575
想要什么	-10.4575
涉及	-10.4579
它是	-10.4579
单独	-10.4585
寻	-10.4587
分泌	-10.4589
畏	-10.4589
一些人	-10.459
平复	-10.4591
第二个	-10.4594
大声	-10.4595
演讲	-10.4596
增	-10.4598
我们对	-10.4603
朋友们	-10.4604
这样的行为	-10.4606
牛	-10.4609
永	-10.461
说是	-10.4611
浓	-10.4612
寄托	-10.4612
无能为力	-10.4613
礼貌	-10.4613
家庭环境	-10.4613
接着	-10.4613
去努力	-10.4614
强求	-10.4617
分担	-10.462
隔离	-10.4624
结交	-10.4624
想哭	-10.4629
关系里	-10.463
跨	-10.4631
!”	-10.4634
繁	-10.4635
监督	-10.4635
东	-10.4635
的成长经历	-10.4637
有关系	-10.4643
成本	-10.4647
的安全感	-10.4648
压力很大	-10.4648
问一下	-10.465
的身份	-10.4651
付出的	-10.4651
的冲突	-10.4654
也不用	-10.4654
就行	-10.4659
前提	-10.4659
h	-10.4659
有情绪	-10.4662
本科	-10.4663
能力和	-10.4665
后的	-10.4666
开口	-10.4673
华	-10.4674
中考	-10.4677
沟通交流	-10.4679
准确	-10.468
心平气和	-10.4682
也希望	-10.4682
碎	-10.4682
追求完美	-10.4683
灰	-10.4683
异常	-10.4683
迎接	-10.4685
更为	-10.4685
见过	-10.4685
无条件	-10.4686
很明显	-10.4687
借钱	-10.469
发展的	-10.4696
需要的是	-10.4698
的渴望	-10.4698
这方面的	-10.4702
的心理状态	-10.4702
无论如何	-10.4705
一代	-10.4705
累了	-10.4708
表述	-10.4709
扩大	-10.4709
就觉得	-10.4713
被父母	-10.4722
体系	-10.4723
第二天	-10.4726
外表	-10.4727
你母亲	-10.4731
在她	-10.4738
如果您	-10.4744
消极情绪	-10.4744
回想	-10.4749
刚好	-10.4751
是无法	-10.4752
立刻	-10.4752
阳	-10.4753
非暴力沟通	-10.4754
毛病	-10.4755
变得更	-10.4759
不下去	-10.4761
的方式去	-10.4762
问题是	-10.4764
解决这个问题	-10.4765
去完成	-10.4765
一个孩子	-10.4765
婚后	-10.4766
解决方法	-10.4766
离不开	-10.4768
基	-10.4769
这样想	-10.477
从来没有	-10.4772
埋怨	-10.4776
的准备	-10.4777
干嘛	-10.4781
分手了	-10.4781
的幸福	-10.4782
写作业	-10.4783
给予你	-10.4783
也不必	-10.4785
听从	-10.4786
到自己	-10.4791
?(	-10.4792
也都	-10.4794
受不了	-10.4795
我还	-10.4798
陷入了	-10.4798
幼稚	-10.4798
自己的心	-10.4799
校园	-10.4799
′	-10.48
在自己的	-10.4801
看到你的问题	-10.4801
给到你	-10.4803
到一个	-10.4803
希望他	-10.4804
下班	-10.4809
你们的感情	-10.4811
在孩子	-10.4813
努力学习	-10.4821
收拾	-10.4821
怎么办呢	-10.4822
想想自己	-10.4824
例	-10.4826
适合你	-10.4833
早年	-10.4833
有时间	-10.4833
我曾经	-10.4834
要求自己	-10.4835
对我们的	-10.4836
电视剧	-10.4836
厚	-10.4838
留在	-10.4843
鲜	-10.4844
九	-10.4845
你不能	-10.4848
无意	-10.4852
学校的	-10.4855
一片	-10.4857
避	-10.4862
有条件	-10.4862
另一个人	-10.4862
才知道	-10.4863
经历的	-10.4867
岁了	-10.487
一本	-10.4874
你会觉得	-10.4877
值得被爱	-10.488
像是	-10.4881
喜爱	-10.4884
都不能	-10.4884
讲话	-10.489
会有很多	-10.4891
喜欢自己	-10.4898
你就可以	-10.4898
前女友	-10.4905
不开	-10.4907
世间	-10.4908
院	-10.4913
你的母亲	-10.4913
的人格	-10.4914
和丈夫	-10.4916
弟	-10.492
两点	-10.4926
不像	-10.4926
是一个非常	-10.4927
理解你的	-10.493
分别	-10.4932
耐	-10.4933
反映	-10.4936
说法	-10.4937
讨	-10.4938
伤害了	-10.4938
改变不了	-10.494
著	-10.4941
谋	-10.4942
财富	-10.4942
保障	-10.4942
戴	-10.4943
你可以尝试	-10.4948
操作	-10.495
如果觉得	-10.4951
的形式	-10.4952
更需要	-10.4953
很爱	-10.4955
我们是	-10.4957
可行	-10.4959
说一下	-10.496
的恋爱	-10.496
向外	-10.4961
怨	-10.4963
丧	-10.4965
活在当下	-10.4965
打交道	-10.4967
没有被	-10.4968
的职业	-10.4972
解脱	-10.4973
终于	-10.4974
那你就	-10.4977
侵	-10.4978
不怕	-10.498
不接纳	-10.4984
要考虑	-10.4986
过度的	-10.4987
她也	-10.4991
的根源	-10.4991
简	-10.4993
一份工作	-10.4993
病人	-10.4998
想说	-10.4999
不必要的	-10.4999
不会因为	-10.5002
得知	-10.5002
孕	-10.5006
在外面	-10.5007
请教	-10.5009
搬	-10.5013
p	-10.5013
爱你的人	-10.5013
一会儿	-10.5016
天赋	-10.5016
也应该	-10.5018
当一个人	-10.5019
想要的是什么	-10.502
书中	-10.5022
盘	-10.5023
还是因为	-10.5024
决定的	-10.5026
下意识	-10.5026
做了什么	-10.5027
无法控制	-10.5029
亦	-10.5038
有很大的	-10.5039
糖	-10.5039
告诉我们	-10.504
小心翼翼	-10.504
宝	-10.5041
沙	-10.5041
的书籍	-10.5047
还想	-10.5052
我不知道你	-10.5055
为之	-10.5057
没有了	-10.5057
给我们带来	-10.5061
塞	-10.5061
告诉我	-10.5062
鼓	-10.5062
完整的	-10.5067
在做	-10.5069
付出了	-10.5069
对不对	-10.5071
明白了	-10.5071
于此	-10.5072
只是想	-10.5073
打骂	-10.5077
换一种	-10.508
的特点	-10.5084
b	-10.5084
和支持	-10.5085
价	-10.5085
靠谱	-10.5088
公婆	-10.5089
哪一种	-10.5091
去感受	-10.51
油	-10.51
的原因是什么	-10.5102
策	-10.511
销售	-10.5111
面对自己	-10.5112
割	-10.5112
差别	-10.5114
后续	-10.5114
我猜	-10.5118
偏见	-10.5119
是自己的	-10.5119
和自己的	-10.5124
同龄人	-10.5125
你要知道	-10.5126
18	-10.5129
的关键	-10.513
找到自己的	-10.5134
去处理	-10.5134
齐	-10.5135
受害者	-10.5136
衷	-10.5137
封	-10.5137
姥姥	-10.514
倍	-10.5141
能找到	-10.5142
做错了	-10.5153
感受到你	-10.5154
是否真的	-10.5155
导师	-10.5159
理性的	-10.516
忧虑	-10.5161
打招呼	-10.5161
不过是	-10.5164
你好题主	-10.5166
如果不能	-10.5168
亲爱的题主	-10.517
—	-10.5176
瞬间	-10.5177
我们一起来	-10.5178
总会有	-10.518
不好的事情	-10.5183
不是你的错	-10.5184
表达出	-10.5185
鬼	-10.5185
灭	-10.5187
还是说	-10.5189
要面对	-10.5191
生物	-10.5192
以上是我	-10.5194
他可能	-10.5198
你的家人	-10.52
审视	-10.5208
你可能会	-10.5209
耽误	-10.521
清楚自己	-10.521
是值得	-10.5211
如果能	-10.5213
不要让	-10.5213
俗	-10.522
离开了	-10.5221
伴	-10.5224
勉强	-10.5225
股	-10.5229
自己是否	-10.5234
激动	-10.5236
原因是	-10.5237
不只是	-10.524
有意	-10.5241
️️	-10.5241
的主要	-10.5245
乐趣	-10.5246
更优秀	-10.5246
这样说	-10.5246
千万	-10.5246
内化	-10.5247
又有	-10.525
拼	-10.5253
的不同	-10.5254
托	-10.5257
希望我的回答能够	-10.5258
想做的事情	-10.5258
围	-10.5258
计较	-10.5258
拔	-10.5259
绝对的	-10.5259
埋	-10.526
巨大	-10.5262
生理上	-10.5262
激素	-10.5263
盲目	-10.5263
可能是你	-10.5263
也是如此	-10.5267
你有没有	-10.5271
也不一定	-10.5274
波动	-10.5278
错过	-10.5279
新鲜	-10.528
P	-10.5283
干净	-10.5285
▽`)	-10.5286
孤立	-10.529
本质	-10.5296
遇到困难	-10.5303
意识到了	-10.5308
爱着你	-10.5308
逝	-10.5309
纯粹	-10.5309
汗	-10.531
趁	-10.5311
人品	-10.5314
爱她	-10.5314
教师	-10.5315
万一	-10.5315
这个想法	-10.5317
先从	-10.5318
心理健康	-10.5319
样子	-10.5321
不合理	-10.5321
得出	-10.5325
满足你	-10.5331
接受不了	-10.5333
着想	-10.5333
回顾	-10.5338
改变了	-10.5339
也是很	-10.5343
怎么去	-10.5343
是否能	-10.5347
相当于	-10.5349
不成熟	-10.5351
一门	-10.5351
术	-10.5353
看到自己的	-10.5354
自我价值感	-10.5354
参加一些	-10.5354
没错	-10.5354
行动起来	-10.5356
独特的	-10.5356
例子	-10.5356
中走出来	-10.5357
来进行	-10.5358
勤	-10.5359
■	-10.5359
两个人在一起	-10.5364
该怎么	-10.5364
这么大	-10.5364
扬	-10.5367
实际情况	-10.5374
畅	-10.5376
有时候我们	-10.5381
料	-10.5384
肚子	-10.5384
所以会	-10.5385
坦然	-10.5386
集	-10.5387
4、	-10.5389
研	-10.5389
很不舒服	-10.5393
感受到你的	-10.5394
到底是什么	-10.5394
这样的想法	-10.54
会发生	-10.54
以来	-10.5402
的定义	-10.5408
太在意	-10.5409
进行沟通	-10.5412
负责任	-10.5416
营养	-10.5422
做为	-10.5424
换了	-10.5425
彼此都	-10.5429
对你好	-10.543
你是个	-10.5432
诱惑	-10.5433
很多时候我们	-10.5439
整天	-10.5441
一方面是	-10.5441
则是	-10.5443
各自的	-10.5447
那段	-10.545
都无法	-10.545
您的描述	-10.5453
征	-10.5456
才有可能	-10.5457
有意义的	-10.5461
顺从	-10.5463
”,“	-10.5463
写下	-10.5464
题主提到	-10.5469
感到焦虑	-10.5473
在身边	-10.5474
不确定性	-10.5475
并不一定	-10.5476
还有其他	-10.5478
未知的	-10.5479
闭	-10.548
也想	-10.548
可以是	-10.548
r	-10.5481
d	-10.5481
戒	-10.5481
理解接纳认可	-10.5481
的第一步	-10.5483
青	-10.5483
唠叨	-10.5484
抢	-10.5485
订	-10.5485
是不同的	-10.5486
不舍	-10.549
建议您	-10.5491
?#	-10.5495
如果你想	-10.5497
弱小	-10.5498
的现状	-10.55
引起的	-10.5501
让题主	-10.5502
的前提下	-10.5503
什么问题	-10.5509
从题主的描述中	-10.5512
归属感	-10.5513
如果想	-10.5514
增长	-10.5514
来解决	-10.5518
的真实想法	-10.5521
的伴侣	-10.5531
团队	-10.5536
扎	-10.5536
如果你真的	-10.5536
多做	-10.5538
的举动	-10.5538
专业的心理咨询师	-10.5539
表现得	-10.554
很焦虑	-10.5541
虽然你	-10.5542
说清楚	-10.5544
相当	-10.5548
你喜欢的	-10.5551
波	-10.5553
自己感兴趣的	-10.5557
满足感	-10.556
接纳自己的	-10.556
撑	-10.556
完了	-10.5561
软件	-10.5564
盯着	-10.5567
弄清楚	-10.5579
家族	-10.558
惊喜	-10.5587
为主	-10.5588
妇	-10.5593
的话语	-10.5595
我看到了	-10.5596
你的困惑	-10.5603
很理解你	-10.5607
去发现	-10.5611
米	-10.5611
不喜欢你	-10.5612
情绪和	-10.5614
局面	-10.5619
一套	-10.5619
自尊心	-10.562
得好	-10.5623
你的提问	-10.5625
你的心情	-10.5628
对应	-10.5629
好好沟通	-10.563
也很难	-10.5632
第五	-10.5633
帮到	-10.5635
楼主的描述	-10.5637
阴	-10.5637
抉择	-10.5639
还好	-10.564
羞耻感	-10.564
注定	-10.5642
把这个	-10.5643
可惜	-10.5644
15	-10.5653
你不喜欢	-10.5656
拿出	-10.5657
告别	-10.5659
角	-10.566
剂	-10.5664
熟悉的	-10.5665
扔	-10.5665
一步一步	-10.5666
和父亲	-10.5666
不要轻易	-10.5667
因此我们	-10.567
也是这样	-10.5671
有许多	-10.5671
底气	-10.5672
而这些	-10.5672
的那个人	-10.5674
确诊	-10.5675
你的焦虑	-10.5677
的说法	-10.5677
在意别人	-10.5677
现实生活中	-10.5679
的道路	-10.5685
移	-10.5686
这边	-10.5686
权力	-10.5687
有很大	-10.5687
无论你	-10.5687
[	-10.5688
也是需要	-10.5688
堵	-10.5689
自己的优势	-10.569
幼儿园	-10.569
寒	-10.569
害怕别人	-10.5691
可私信	-10.5692
做主	-10.5692
私人	-10.5693
或许可以	-10.5694
在那里	-10.5697
就是说	-10.57
始	-10.5712
都是有	-10.5713
的友谊	-10.5713
]	-10.5714
闪	-10.5716
某种程度上	-10.5717
实习	-10.5719
一大	-10.5731
陪伴你	-10.5731
要先	-10.5733
这些人	-10.5734
系	-10.5737
维系	-10.5741
说实话	-10.5742
的意识	-10.5745
就容易	-10.5755
课题	-10.576
起码	-10.5764
不成	-10.5767
依据	-10.5767
这样的问题	-10.5768
客户	-10.5768
定期	-10.5771
和异性	-10.5772
谈论	-10.5772
太高	-10.5772
可以改变	-10.5776
。1	-10.5778
与孩子	-10.5779
会一直	-10.5781
想到了	-10.5781
又能	-10.5785
不见	-10.5788
比较好的	-10.5791
班主任	-10.5794
联结	-10.5795
比赛	-10.5797
不明白	-10.58
对待你	-10.5804
看上去	-10.5804
是属于	-10.5806
因为这	-10.5811
没有能力	-10.5815
这样的方式	-10.5815
组成	-10.5816
我们无法	-10.5816
笨	-10.5819
扛	-10.5821
觉察自己	-10.5821
冷淡	-10.5822
拼命	-10.5822
就像你	-10.5822
有钱	-10.5822
药物治疗	-10.5823
!️	-10.5824
从来不	-10.5828
触	-10.583
坦白	-10.5831
自我觉察	-10.5836
伤痛	-10.5837
的立场	-10.5839
搞清楚	-10.5839
别人的评价	-10.584
来做	-10.5841
需要时间	-10.5842
虽	-10.5845
想要去	-10.5846
不符合	-10.5852
把我	-10.5853
结束语	-10.5854
他自己	-10.5856
正常生活	-10.5857
对自我	-10.5857
现在已经	-10.5858
诸多	-10.5859
这个社会	-10.5859
没有意义	-10.5859
夸	-10.586
道路	-10.5862
对于孩子	-10.5862
漫长	-10.5862
的时光	-10.5865
他没有	-10.5866
指出	-10.5866
反省	-10.5875
体贴	-10.5879
可以适当	-10.588
座	-10.5881
约定	-10.5882
找一些	-10.5883
自己的兴趣爱好	-10.5883
书写	-10.5883
别人说	-10.5885
猜	-10.5889
福	-10.5896
不尊重	-10.5896
但在	-10.5899
珍贵	-10.5899
能理解你	-10.59
身心健康	-10.5901
妹	-10.5901
挫败感	-10.5903
的条件	-10.5908
对于你来说	-10.5911
称为	-10.5911
每一个人都	-10.5912
专心	-10.5914
一个是	-10.5915
你和他	-10.5916
迈出	-10.5921
旁观者	-10.5926
寄	-10.5926
疼痛	-10.5927
恐怕	-10.5927
亲近的人	-10.5927
爷爷	-10.5927
挣钱	-10.5928
去表达	-10.5929
周末	-10.5937
删	-10.5938
做饭	-10.5939
的内在	-10.5941
情景	-10.5942
自己的父母	-10.5944
的重要性	-10.5949
融	-10.595
轮	-10.5951
希望你能够	-10.5952
孩子们	-10.5953
内向的人	-10.5955
的资源	-10.5956
相同的	-10.5958
放松下来	-10.5969
12	-10.5972
青少年	-10.5976
倾向于	-10.5976
保持距离	-10.5976
胆	-10.5977
很害怕	-10.5978
物理	-10.5979
了解对方	-10.598
迟	-10.5993
更加的	-10.5996
大学生	-10.5998
有人说	-10.6004
患得患失	-10.6006
俗话说	-10.6006
荡	-10.6006
一半	-10.6009
的兴趣	-10.6013
是否会	-10.6014
打工	-10.6017
不利	-10.6019
是什么样子	-10.6019
人与人之间	-10.602
项目	-10.6025
特别好	-10.6025
给自己一些	-10.6031
的好处	-10.6031
爷爷奶奶	-10.6032
短期	-10.6032
委婉	-10.6033
隐瞒	-10.6034
其实我	-10.6037
不平衡	-10.6045
情绪波动	-10.6046
趣	-10.6047
学习上	-10.6048
比较容易	-10.6049
交换	-10.6049
压力太大	-10.6054
50	-10.6056
镜子	-10.6057
戏	-10.6058
就是我们	-10.6058
这并不是	-10.606
生活习惯	-10.6062
和成长	-10.6062
的动机	-10.6062
用自己的	-10.6063
生命中	-10.6066
话说	-10.6077
阻	-10.6081
信任的	-10.6082
成熟的	-10.6083
没有意识到	-10.6083
贪	-10.6085
服药	-10.6086
撞	-10.6087
如果实在	-10.609
试试看	-10.6095
对自我的	-10.6098
个人成长	-10.6101
时间久了	-10.6101
为他	-10.6104
心理状态	-10.6105
的困境	-10.6107
但他	-10.6107
军	-10.6112
试探	-10.6114
去了	-10.6121
一名	-10.613
过高	-10.613
整个人	-10.6131
延	-10.6137
如果你们	-10.6138
皆	-10.6139
对你们	-10.614
智	-10.614
浪漫	-10.6141
铁	-10.6141
出去玩	-10.6142
结婚了	-10.6143
婚前	-10.6151
夫妻之间	-10.6151
习得	-10.6154
的女孩子	-10.6155
承认自己	-10.6158
识别	-10.6163
严厉	-10.6166
庆幸	-10.6167
逼迫	-10.6167
挑剔	-10.6168
噢	-10.6168
正念冥想	-10.6171
感冒	-10.6172
最好是	-10.6175
本来就是	-10.6177
给了你	-10.6178
性欲	-10.6183
就算是	-10.6183
玩笑	-10.6187
悟	-10.6191
模糊	-10.6194
两个人之间	-10.6195
提醒你	-10.6195
渣男	-10.6196
不用太	-10.6197
有些事	-10.62
跟对方	-10.62
只有你	-10.6204
孤独感	-10.6205
你可以去	-10.6209
强度	-10.621
题主在	-10.6212
历史	-10.6214
做出选择	-10.6214
薪	-10.6218
孝	-10.6221
林	-10.6221
烧	-10.6221
会认为	-10.6224
的委屈	-10.6227
别人的事	-10.6231
很不错	-10.6232
很重要的	-10.6232
关联	-10.6233
付	-10.6234
有不同的	-10.6238
的人和事	-10.624
朋友之间	-10.6241
朝着	-10.6243
剩	-10.6244
的身上	-10.6245
印	-10.6246
才不会	-10.6246
要相信	-10.6248
骨	-10.625
被看见	-10.6254
是这样	-10.6256
平凡	-10.6257
得多	-10.6261
统	-10.6267
幼	-10.6268
做出一些	-10.6268
信号	-10.627
是不好的	-10.6274
销	-10.6276
融洽	-10.6276
兼职	-10.6277
锅	-10.6277
面具	-10.6284
经历了什么	-10.6285
如何看待	-10.6286
被他人	-10.6289
你害怕	-10.6292
有爱	-10.6293
丢	-10.6294
脑子	-10.6294
掌	-10.6298
幸福快乐	-10.63
耗	-10.63
很多问题	-10.6302
案例	-10.6304
暖暖	-10.6305
加班	-10.6306
真实感受	-10.6306
需要考虑	-10.6311
达不到	-10.6316
是非常正常的	-10.6316
方式来	-10.632
沉迷	-10.632
很好地	-10.6321
大致	-10.6321
认为是	-10.6321
好的一面	-10.6325
此时此刻	-10.6332
离职	-10.6335
你父亲	-10.6338
这一次	-10.6338
情形	-10.6339
主动去	-10.6344
遗	-10.6347
活的	-10.6348
正式	-10.6348
什么事	-10.6357
打扮	-10.6358
脑子里	-10.636
敌	-10.636
初心	-10.636
塑造	-10.6362
理念	-10.6367
自己的不足	-10.6369
听了	-10.637
及时的	-10.6373
走的	-10.6373
发生过	-10.6373
拒绝了	-10.6376
讲述	-10.6378
卷	-10.6385
细腻	-10.6387
活泼	-10.6387
目光	-10.6388
听过	-10.6395
调整一下	-10.6402
一下自己的	-10.6405
说明他	-10.6407
让你感觉到	-10.6409
亏	-10.6411
担当	-10.6414
脑海里	-10.6414
被忽视	-10.6418
多数	-10.6424
的核心	-10.6426
也不需要	-10.6429
满意的	-10.6431
会造成	-10.6433
严	-10.6435
喜欢上	-10.6435
感激	-10.6438
信任的人	-10.6442
思绪	-10.6442
鞋	-10.6442
不要给自己	-10.6443
实施	-10.6443
教训	-10.6443
学习方法	-10.6443
从小就	-10.6447
同一	-10.6447
感受到的	-10.645
一家	-10.6456
弹	-10.6456
这些事	-10.6458
婚姻关系	-10.6458
也一样	-10.6461
是因为我们	-10.6462
思维方式	-10.6464
发作	-10.6466
咬	-10.6469
掌控感	-10.6469
独立的个体	-10.6471
答主	-10.6474
这其中	-10.6474
感染	-10.6474
现在的自己	-10.6475
不快乐	-10.6475
假装	-10.6476
坐下来	-10.6476
两天	-10.6476
爸	-10.6476
益	-10.6476
长处	-10.6477
什么的	-10.6479
主见	-10.6484
的出现	-10.6491
你好啊	-10.6496
的好朋友	-10.6497
。————————————————	-10.6498
固	-10.6502
的一种方式	-10.6502
遵从	-10.6502
会更好	-10.6504
的小孩	-10.6504
的一句话	-10.6504
不爱你	-10.6508
这是很正常的	-10.6515
如果一个人	-10.6519
这些行为	-10.6523
要做的就是	-10.6526
瘦	-10.6526
反驳	-10.6528
理清	-10.6532
不同意	-10.6532
希望对方	-10.6532
可以接受	-10.6534
面对面	-10.6535
尝试去	-10.6537
有其他	-10.654
还不够	-10.6543
活力	-10.6546
想通过	-10.6546
公公	-10.6552
你还可以	-10.6555
记录下来	-10.656
胆小	-10.6562
放松一下	-10.6564
平台上	-10.6567
放弃自己	-10.6567
可能会有	-10.6568
关注和	-10.6569
很努力	-10.6569
纯	-10.657
具	-10.6574
不听	-10.6575
?2.	-10.6576
细心	-10.6577
提到了	-10.6579
自我接纳	-10.6581
略	-10.6582
客体	-10.6583
生活方式	-10.6585
太多了	-10.659
也是可以	-10.659
不可避免	-10.6593
也有可能是	-10.6594
四年	-10.6596
降	-10.6597
一只	-10.6599
有多大	-10.6599
败	-10.6603
就是一种	-10.6607
你的身体	-10.6608
的诉求	-10.6609
心理暗示	-10.6609
康复	-10.6609
后天	-10.661
深层	-10.661
希望可以帮到楼主	-10.6611
不是一个	-10.6612
窗	-10.6612
意志力	-10.6614
也比较	-10.6617
友善	-10.6621
深入的	-10.6626
偷偷	-10.6627
几点建议	-10.663
在平时	-10.6633
自己的缺点	-10.6633
。■	-10.6637
抵抗	-10.6639
能够感受到	-10.6643
了解他	-10.6645
会成为	-10.6646
生长	-10.6651
快感	-10.6652
表达自己的感受	-10.6655
罗	-10.6656
的行动	-10.6656
不高	-10.6657
提高自己的	-10.6658
4.	-10.6662
泡	-10.6667
自己的心情	-10.6667
内心里	-10.6669
网络上	-10.6669
增进	-10.667
意义上	-10.6671
影响着	-10.6671
自我认知	-10.6672
我们所	-10.6674
我们就会	-10.6674
不一致	-10.6679
助人	-10.6683
士	-10.6685
但是也	-10.6687
每一	-10.6687
而在	-10.6688
是怎么样的	-10.6689
所以他	-10.669
不停的	-10.6692
忌	-10.6693
开学	-10.6693
市	-10.6694
举个例子	-10.6696
是因为什么	-10.6698
得到的	-10.6702
。5、	-10.6703
问你	-10.6705
何必	-10.6711
有几个	-10.6714
请问	-10.6719
一家人	-10.672
人物	-10.672
几个问题	-10.672
抵	-10.6723
僵	-10.6724
黄	-10.6724
茶	-10.6725
怼	-10.6725
这个词	-10.6727
害羞	-10.6727
懦弱	-10.6727
照顾孩子	-10.6729
早就	-10.673
说的是	-10.6731
尽可能的	-10.6731
分配	-10.6731
迈	-10.6732
美国	-10.6732
的文字	-10.6736
才是最重要的	-10.6737
不是为了	-10.6737
医学	-10.6739
一开始就	-10.6741
既然你	-10.6743
心理老师	-10.6746
成长经历	-10.6748
中年	-10.675
遵守	-10.6752
敞开心扉	-10.6755
城	-10.6755
会变得	-10.6756
恰恰	-10.6756
人都是	-10.6758
一些东西	-10.6761
外婆	-10.6762
钟	-10.6763
感兴趣的	-10.6763
这需要	-10.6765
比较敏感	-10.6768
自己到底	-10.6773
注	-10.6773
是非常重要的	-10.6773
休息一下	-10.6773
的反馈	-10.6777
你最	-10.6781
延续	-10.6781
赌	-10.6781
走路	-10.6781
寂	-10.6784
的亲人	-10.6785
冷战	-10.6785
祝你早日	-10.6786
去关注	-10.6786
五年	-10.679
负面影响	-10.679
信赖	-10.6792
如何处理	-10.6793
25	-10.6793
忘记了	-10.6795
家庭里	-10.6797
受挫	-10.6797
的同事	-10.6802
不顾	-10.6803
的来源	-10.6804
只是为了	-10.6807
进来	-10.6808
照顾好	-10.6809
操心	-10.681
与人交往	-10.6811
可怜	-10.6818
被伤害	-10.6826
容易被	-10.6827
单方面	-10.6829
有益	-10.6832
对自己说	-10.6836
爱别人	-10.6839
是我的分析和建议	-10.6841
撕	-10.6841
绕	-10.6841
的目光	-10.6843
密	-10.6845
你怎么	-10.6846
就在	-10.6847
几种	-10.6847
依恋关系	-10.6848
楼主提到	-10.6851
你的父亲	-10.6855
伴随着	-10.6855
想象的	-10.6859
死了	-10.6863
决定了	-10.6865
因而	-10.6866
的例子	-10.6868
我想说的是	-10.6868
脑海中	-10.6869
陪着	-10.687
蓝	-10.6871
部门	-10.6873
一味	-10.6873
等于	-10.6874
的一些想法	-10.6874
前途	-10.6875
上司	-10.688
不擅长	-10.6885
坏的	-10.6886
更多地	-10.6887
换成	-10.6888
步骤	-10.689
理解你的感受	-10.6891
向他	-10.6896
被理解	-10.6897
胜任	-10.6899
移情	-10.69
积压	-10.69
很生气	-10.6903
伤人	-10.6903
心理准备	-10.6904
会受到	-10.6911
果断	-10.6914
做好准备	-10.6915
圆	-10.6916
留恋	-10.692
不要放弃	-10.6923
不认可	-10.6925
根本不	-10.6926
石	-10.6926
想象中的	-10.6927
因此而	-10.693
非常理解	-10.6936
的身心	-10.694
把她	-10.6945
手里	-10.6946
短暂的	-10.6947
架	-10.6952
害怕失去	-10.6953
和能力	-10.6953
u	-10.6954
变了	-10.6957
应付	-10.6957
莫名其妙	-10.6957
北	-10.6958
唯一的	-10.6958
得很	-10.6965
很多东西	-10.6969
讲道理	-10.697
承	-10.697
我一直	-10.6971
后来我	-10.6978
有什么样的	-10.698
你们可以	-10.698
出了问题	-10.6982
的世界里	-10.6987
遗传	-10.6987
投入到	-10.6995
之路	-10.6996
被满足	-10.6998
有权利	-10.7001
有没有想过	-10.7008
的利益	-10.7009
律	-10.7009
运	-10.7011
比较高	-10.7014
本我	-10.7014
看一些	-10.7015
害怕被	-10.7016
缓和	-10.7018
又或者	-10.7019
照片	-10.7019
照顾自己	-10.7021
怎么会	-10.7022
叙述	-10.7024
强迫性	-10.7025
按时	-10.703
出发点	-10.703
焦虑感	-10.7034
较大	-10.7034
体重	-10.7044
找找	-10.7049
人士	-10.7051
你的描述我了解到	-10.7053
指的是	-10.7058
把所有的	-10.7066
有很多人	-10.7067
激	-10.7067
逛	-10.7074
恐怖	-10.7074
土	-10.7074
派	-10.7075
录	-10.7077
迷失	-10.7079
时间长了	-10.7079
去追求	-10.708
投资	-10.7082
大部分人	-10.7082
来看待	-10.7083
源头	-10.7083
传达	-10.7088
看得出	-10.7089
读了	-10.7091
让你们	-10.7092
备考	-10.7093
当别人	-10.7095
能看到	-10.7095
虎	-10.7102
善待	-10.7103
也一定	-10.7103
帮助她	-10.7103
伪装	-10.7104
→	-10.7106
不安全	-10.7112
解决方案	-10.7115
?)	-10.7115
受过	-10.7116
一定可以	-10.7116
建立关系	-10.7117
和恐惧	-10.7117
遗忘	-10.7118
怎么想	-10.7124
鼓励自己	-10.7128
闷	-10.7131
决心	-10.7135
越大	-10.7136
屋	-10.7136
很差	-10.7136
上升	-10.7138
周围的	-10.7138
狂	-10.7141
远远	-10.7142
很在乎	-10.7143
最多	-10.7144
与他们	-10.7148
这个男生	-10.7152
祝福题主	-10.7152
还是比较	-10.7154
不仅仅	-10.7157
规	-10.7158
图书馆	-10.7166
小心	-10.7166
ω	-10.7166
从现在开始	-10.7167
开启	-10.7167
再多	-10.7169
设想	-10.717
是很好的	-10.7172
住了	-10.7173
重要的事情	-10.7175
不在意	-10.7182
这样才能	-10.7185
一刻	-10.7192
分析了解问题	-10.7192
扯	-10.7194
姿态	-10.7195
留给	-10.7195
更快	-10.7199
沉重	-10.7202
统一	-10.7204
转化	-10.7204
似乎是	-10.7209
和生活	-10.7211
常常会	-10.7215
尊重你	-10.7215
自己的工作	-10.7217
与对方	-10.7217
裂	-10.722
这让你	-10.7221
我们的情绪	-10.7221
设计	-10.7225
不知不觉	-10.7226
上述	-10.7227
做错	-10.723
不认同	-10.723
是不对的	-10.7232
只是我们	-10.7234
你的需求	-10.724
责	-10.7242
永远都	-10.7246
责任感	-10.7246
好事	-10.7246
无数	-10.7248
改变现状	-10.7254
瑜伽	-10.7254
持久	-10.7257
来表达	-10.7259
的想法和感受	-10.726
唯有	-10.726
不是那么	-10.726
哪一个	-10.726
一点一点	-10.7261
这份感情	-10.7264
心事	-10.7265
就能够	-10.7268
看问题	-10.7269
不良情绪	-10.727
也许你可以	-10.7271
速	-10.7271
成长中	-10.7274
不是很好	-10.728
界	-10.728
之间的感情	-10.728
一个人在	-10.7281
你也要	-10.7284
对未来的	-10.7288
生活上	-10.7291
小可爱	-10.7291
所以当	-10.7292
会带来	-10.7301
和压力	-10.7302
的心灵	-10.7306
每次都	-10.7308
】【	-10.7308
大自然	-10.7309
我们一起	-10.7311
不想做	-10.7318
的氛围	-10.7318
才发现	-10.7322
将会	-10.7324
科目	-10.7326
几个月	-10.7326
回想一下	-10.7331
比较少	-10.7333
职位	-10.7336
码	-10.7341
很心疼	-10.7344
导致自己	-10.7345
滴	-10.7346
坚决	-10.7348
专门	-10.7349
但同时	-10.7349
说明了	-10.7351
育	-10.7354
这种事情	-10.7368
的标签	-10.7369
无能	-10.7375
纷	-10.7377
循序渐进	-10.7378
碗	-10.7378
新环境	-10.738
希望能帮到你	-10.738
不怎么	-10.738
的倾向	-10.7381
较为	-10.7381
真实的想法	-10.7381
我的建议	-10.7382
是非	-10.7387
历	-10.7394
在自己身上	-10.7397
之心	-10.7398
监	-10.7406
天下	-10.7406
惨	-10.7407
有困惑	-10.7408
原始	-10.7409
墙	-10.7409
眼光	-10.7414
不要着急	-10.7415
更像是	-10.7422
一会	-10.7427
爱一个人	-10.7429
。2)	-10.7433
后者	-10.7434
我们可以先	-10.7435
要做的	-10.7441
自己喜欢的事情	-10.7441
看到了你的	-10.7443
真爱	-10.7443
没有达到	-10.7445
家庭成员	-10.7446
幸福感	-10.7452
建立在	-10.7453
多种	-10.7454
国外	-10.7457
下一步	-10.746
自己的认知	-10.746
怎么看	-10.7461
得到满足	-10.7462
跟你说	-10.7465
T	-10.7466
这个家	-10.7467
不小心	-10.7468
模	-10.7468
能得到	-10.7469
劣势	-10.7469
你们两个	-10.7469
还不如	-10.747
厌烦	-10.7471
压制	-10.7473
可怕的	-10.7473
给你一个抱抱	-10.7476
生育	-10.7476
多关注	-10.748
对待自己	-10.7481
看到别人	-10.7483
时间段	-10.7484
拿到	-10.7485
如果父母	-10.7487
事情发生	-10.749
清楚的	-10.7492
朋友倾诉	-10.7492
先把	-10.7493
出来了	-10.7494
等着你	-10.7495
社团	-10.7499
这个行为	-10.75
跳出	-10.75
触碰	-10.7503
认定	-10.7504
的界限	-10.7504
一定能	-10.7505
给自己定	-10.7506
头疼	-10.7506
你们彼此	-10.7507
通过你的描述	-10.751
结构	-10.7511
发生关系	-10.7518
做做	-10.7522
如果想要	-10.7523
也非常	-10.7528
(1)	-10.753
贴标签	-10.7532
电脑	-10.7533
容忍	-10.7533
负性	-10.7535
大于	-10.7535
与母亲	-10.7542
若是	-10.7544
我已经	-10.7545
长时间的	-10.7545
爽	-10.7547
频率	-10.7548
调整心态	-10.7553
功课	-10.7554
那么重要	-10.7559
需要帮助	-10.7559
射	-10.7562
和同事	-10.7563
形容	-10.7564
阿德勒	-10.7564
旁边	-10.7565
占有欲	-10.7565
也是正常的	-10.7565
感谢你的问题	-10.7569
日常生活	-10.7573
自我意识	-10.7577
面临着	-10.7583
一番	-10.7585
你的叙述	-10.7586
最佳	-10.7586
诚	-10.7588
避开	-10.7589
内心的感受	-10.7592
协商	-10.7593
老是	-10.7594
谈话	-10.7595
列出	-10.7599
觉知	-10.7599
可以让你	-10.7602
和我们	-10.7603
处理问题	-10.7604
年代	-10.7605
的言语	-10.7606
自己心里	-10.7606
而导致	-10.7608
投射到	-10.7609
有一次	-10.7609
的自由	-10.7609
静下来	-10.7609
完成了	-10.761
就是因为	-10.761
理解你的心情	-10.762
这可能是	-10.762
19	-10.7622
你并没有	-10.7623
漏	-10.7625
步入	-10.7628
失利	-10.7629
性质	-10.7642
性教育	-10.7643
不高兴	-10.7644
存在的问题	-10.7645
现阶段	-10.7645
厌	-10.7647
不甘	-10.7648
又觉得	-10.7649
情绪化	-10.7651
不要让自己	-10.7653
别人的看法	-10.7655
给你带来了	-10.7656
本能的	-10.7656
遭到	-10.7656
小建议	-10.7657
坑	-10.7657
拆	-10.7657
需要注意	-10.7661
会感觉到	-10.7662
在不断	-10.7664
将自己的	-10.7666
不通	-10.7668
掉了	-10.7671
那边	-10.7673
那位	-10.7683
只是一种	-10.7687
之分	-10.7689
重男轻女	-10.7689
人无完人	-10.7689
的种种	-10.769
议论	-10.7691
失败了	-10.7692
教学	-10.7694
宠	-10.7694
对你说	-10.7695
安好	-10.77
伤口	-10.7704
主导	-10.771
展	-10.7715
填	-10.7717
一定会有	-10.7721
固然	-10.7721
学习一些	-10.7726
但是现在	-10.7733
分清	-10.7734
驾	-10.7749
很大程度上	-10.7751
证书	-10.7751
的女人	-10.7752
正因为	-10.7752
还不错	-10.7753
累积	-10.7753
提出来	-10.7755
忍耐	-10.776
联想	-10.7762
开了	-10.7764
这是我们	-10.7766
促使	-10.7768
你的困扰	-10.7769
只有你自己	-10.7772
扰	-10.7777
泄	-10.7779
束	-10.778
给楼主一个拥抱	-10.7783
正规	-10.7785
祝你幸福快乐	-10.7787
对自己的评价	-10.779
证明你	-10.779
很心疼你	-10.779
美满	-10.7793
最好的办法	-10.7802
代表着	-10.7803
我们也要	-10.7805
向上	-10.7805
维	-10.7809
不知道该怎么	-10.7811
麻	-10.7812
协助	-10.7815
尖	-10.7815
遵循	-10.7815
并没有什么	-10.7816
ノ	-10.7817
流泪	-10.7817
哲学	-10.7819
愿意为	-10.7822
我们内心	-10.7823
我们要学会	-10.7825
的环境中	-10.7826
的所有	-10.7828
和平	-10.7832
型人格	-10.7833
很严重	-10.7833
被认可	-10.7836
帮他	-10.7839
在内心	-10.7843
渣	-10.7845
也是在	-10.7846
乡	-10.7846
换句话说	-10.7846
你对他的	-10.7847
做的不好	-10.7847
一个新的	-10.785
周边	-10.785
触发	-10.7851
有一句话	-10.7851
极大的	-10.7853
被压抑	-10.7854
二胎	-10.7859
帮助孩子	-10.7864
活下去	-10.7867
你的妈妈	-10.7872
根据自己的	-10.7873
学会了	-10.7873
做家务	-10.7876
督导	-10.7876
其他事情	-10.7877
亚	-10.7878
显示	-10.788
抬	-10.788
怎么看待	-10.7881
就一定	-10.7881
笑话	-10.7883
离异	-10.7883
和他在一起	-10.7887
速度	-10.7888
到达	-10.7889
和改变	-10.7889
的视角	-10.7892
小伙伴	-10.7892
一时的	-10.7897
这两种	-10.7901
责任心	-10.7901
只要我们	-10.7904
响	-10.791
这样的感觉	-10.7911
辅助	-10.7911
唱歌	-10.7911
逛街	-10.7911
指向	-10.7913
便是	-10.7917
明白自己	-10.7923
一顿	-10.7926
而是你	-10.7927
那么你就	-10.794
下一个	-10.7941
这个情况	-10.7941
款	-10.7942
手术	-10.7943
奋	-10.7943
ε	-10.7946
不会再	-10.7952
这种心理	-10.7956
舍	-10.7957
可能也会	-10.796
越好	-10.7962
慌	-10.7964
的途径	-10.7965
何况	-10.7966
现在的生活	-10.7974
自己的心态	-10.7974
盖	-10.7976
起伏	-10.7978
力所能及	-10.7978
试一试	-10.7978
蛋	-10.7978
继续下去	-10.7981
做出了	-10.7981
放松自己	-10.7981
终身	-10.7985
信任感	-10.7985
我的理解	-10.7987
处女	-10.7988
交到	-10.799
的冲动	-10.7992
如果可以的话	-10.7993
一切都是	-10.7997
你才会	-10.8001
偶	-10.8002
句话	-10.8002
急于	-10.8003
当地	-10.8003
充分的	-10.8006
对她的	-10.8007
抛	-10.8007
卑微	-10.801
灵活	-10.8013
现任	-10.8013
如果他们	-10.8016
建议你可以	-10.8016
无疑	-10.8016
在里面	-10.8021
我也会	-10.8025
如果你是	-10.8027
心智	-10.8032
想太多	-10.8033
估	-10.8036
行为上	-10.8036
其实都是	-10.8038
边界感	-10.8039
迅速	-10.804
夺	-10.804
理所当然	-10.8041
诗	-10.8041
成果	-10.8042
边缘	-10.8042
资本	-10.8048
作品	-10.8048
如果你愿意	-10.8049
极其	-10.805
在哪	-10.805
表现为	-10.8051
待遇	-10.8053
放轻松	-10.8058
你描述的	-10.8059
它会	-10.8061
深处	-10.8064
思考和	-10.8064
尝	-10.8069
斗	-10.8069
表面上	-10.8071
肯	-10.8071
自己给自己	-10.8072
看得出来你	-10.8073
叶	-10.8074
_	-10.8077
拉黑	-10.808
的一方	-10.8081
发生在	-10.8082
爆	-10.8083
初三	-10.8085
的大脑	-10.8091
一味地	-10.8093
到这里	-10.8097
景	-10.8097
对立	-10.8098
是一个比较	-10.8101
基因	-10.8103
某一个	-10.8105
重心	-10.8105
附	-10.8105
砸	-10.8106
兄弟	-10.8107
g	-10.8107
吼	-10.8107
只要不	-10.8107
邻居	-10.8108
陪着你	-10.8108
解决的问题	-10.8109
觉得自己很	-10.8112
满足了	-10.8113
也同样	-10.8114
会给你	-10.8115
是因为自己	-10.8118
这个年纪	-10.812
谢谢你	-10.8126
诊	-10.813
察觉到	-10.8132
】!	-10.8134
现代	-10.8137
变得越来越	-10.8138
的差异	-10.814
甲	-10.814
载	-10.814
争执	-10.814
择	-10.814
软弱	-10.814
甘	-10.8141
纠正	-10.8141
薄	-10.8145
你们之间的关系	-10.8155
你对自己的	-10.816
承担责任	-10.8162
在日常生活中	-10.8164
的风险	-10.8164
构	-10.8165
你男友	-10.8168
一道	-10.8169
即使你	-10.8171
琐事	-10.8171
郁闷	-10.8173
隔阂	-10.8174
督促	-10.8174
你的男友	-10.8174
问他	-10.8177
藏在	-10.818
乐意	-10.8184
对彼此	-10.8186
悔	-10.8186
最开始	-10.819
也没什么	-10.8191
舒	-10.8192
的区别	-10.8193
长相	-10.8195
兴	-10.8196
四个	-10.8203
情感上	-10.8204
聚会	-10.8204
y	-10.8205
荣	-10.8205
挡	-10.8206
夹	-10.8206
艺	-10.8206
自然就	-10.8207
挖掘	-10.8208
经历中	-10.821
内心深处的	-10.8217
如果你能	-10.8217
了解了	-10.8218
眼中的	-10.8218
是多么	-10.8228
总是在	-10.8236
再者	-10.8238
介	-10.8238
描	-10.8239
趋	-10.8239
雷	-10.824
账	-10.824
一层	-10.8241
出去走走	-10.8241
带给你的	-10.8241
流派	-10.8242
同伴	-10.8242
优越感	-10.8242
足以	-10.8243
鸟	-10.8244
吃东西	-10.8246
经济上	-10.8249
某一	-10.8249
空闲	-10.8249
尝试一下	-10.8253
可以直接	-10.8255
营	-10.8256
的言行	-10.826
的人来说	-10.826
是错的	-10.8261
作者	-10.8263
另一方	-10.8265
我们都知道	-10.8267
得罪	-10.8273
内耗	-10.8274
眼泪	-10.8275
的城市	-10.8281
新的环境	-10.8284
不自觉地	-10.8287
具体情况	-10.8288
频	-10.8296
务	-10.8296
是否能够	-10.8297
光明	-10.8298
被骗	-10.8299
目前的状态	-10.83
这其实是	-10.8307
给你一个大大的拥抱	-10.8307
干脆	-10.8307
吹	-10.8307
破裂	-10.8308
愁	-10.8308
最主要的	-10.8308
抹	-10.831
感觉到你	-10.831
在现实生活中	-10.8311
恋爱中	-10.8311
在亲密关系中	-10.8311
我们的生活	-10.8316
文字中	-10.8318
教会	-10.8319
可靠	-10.8321
你最近	-10.8322
看他	-10.8324
明星	-10.8331
一些时间	-10.8334
来缓解	-10.8335
也没有什么	-10.8335
学习中	-10.8336
生活里	-10.8337
你不需要	-10.8339
奶	-10.8339
能够感受到你	-10.8339
危害	-10.834
也不可能	-10.834
换来	-10.834
少年	-10.8341
心目中	-10.8341
睡着	-10.8342
契机	-10.8344
深深地	-10.835
也许他	-10.8352
!!!	-10.8353
是不是真的	-10.8354
伴随	-10.8359
赞	-10.8361
找到适合自己的	-10.8362
核	-10.8365
工作和生活	-10.8366
尾	-10.8374
羞愧	-10.8375
要相信自己	-10.8376
静静	-10.8377
16	-10.8378
名字	-10.8383
三种	-10.8385
立场	-10.8385
暴力倾向	-10.8389
渴望被	-10.839
和态度	-10.8391
偏向	-10.8393
不正常	-10.8397
尽量不要	-10.8397
替你	-10.8398
从此	-10.8403
躺	-10.8408
支配	-10.8408
都觉得	-10.8409
这位朋友	-10.8409
竟然	-10.8409
而产生的	-10.8411
在未来	-10.8413
我看到你	-10.8421
日后	-10.8421
都不一样	-10.8426
是有限的	-10.8427
我想告诉你	-10.8428
辛苦了	-10.8429
只不过是	-10.843
的品质	-10.8432
然后就	-10.8432
当面	-10.8433
值得被	-10.8439
娃	-10.8439
以下几点	-10.8441
章	-10.8441
撒	-10.8442
吐槽	-10.8443
做一下	-10.8445
勇于	-10.8445
我的想法	-10.8452
的课程	-10.8452
不用担心	-10.8453
重新开始	-10.8454
身体上的	-10.8455
你的心里	-10.8459
的爱好	-10.8459
大城市	-10.8462
还有一些	-10.8463
的生活方式	-10.8465
难得	-10.8468
杯	-10.8469
拖延症	-10.847
唱	-10.8475
的圈子	-10.8476
大概率	-10.8479
针对你	-10.848
运气	-10.8481
这个年龄	-10.8482
养育者	-10.8489
好不好	-10.8494
顿	-10.8497
给你提供	-10.8506
这种状况	-10.8509
枯燥	-10.851
我当时	-10.8512
也不愿意	-10.8514
讨好型人格	-10.8514
让彼此	-10.8514
没有人会	-10.8514
让自己更	-10.8515
社交恐惧	-10.8516
愿意去	-10.8518
自我评价	-10.8519
分手后	-10.8524
的底线	-10.8527
完成任务	-10.8532
透过	-10.8539
即便是	-10.8539
选择权	-10.854
也可以选择	-10.8542
闻	-10.8542
威	-10.8543
被关注	-10.8543
和你在一起	-10.8546
无处	-10.8547
开心的事情	-10.8549
太久	-10.8549
躲避	-10.855
但是她	-10.855
恐惧感	-10.855
并不意味着	-10.8552
温暖和	-10.8552
平静下来	-10.8552
集中注意力	-10.8557
你的老公	-10.8558
诸	-10.8559
更喜欢	-10.8561
典型的	-10.8561
多想	-10.8561
自我调节	-10.8564
使我们	-10.8565
迁就	-10.8566
等着	-10.8568
给彼此	-10.857
大众	-10.8571
我们都是	-10.8572
验证	-10.8572
独特	-10.8576
这些东西	-10.8578
充实自己	-10.8579
你要相信	-10.858
听音乐	-10.858
散步	-10.8581
做心理咨询	-10.8581
的时期	-10.8585
吃亏	-10.8586
到时候	-10.8587
实在是	-10.8587
没有谁	-10.859
您的问题	-10.8591
24	-10.8592
近期	-10.8594
加以	-10.8598
才能更好的	-10.8598
当孩子	-10.8599
向内	-10.8599
不能改变	-10.8602
很糟糕	-10.861
没有问题	-10.8611
李	-10.8611
只能说	-10.8611
D	-10.8612
40	-10.8612
储	-10.8614
肩	-10.8614
压迫	-10.8616
阵	-10.8616
但实际上	-10.8617
ง	-10.8617
面对生活	-10.8617
大一	-10.862
都已经	-10.862
通过自己的努力	-10.8621
便会	-10.8621
背后的原因	-10.8621
很大的压力	-10.8622
的道理	-10.8623
?2、	-10.8627
迁	-10.8628
可以感受到	-10.8628
不爽	-10.8632
有很多种	-10.8633
不再是	-10.8637
大方	-10.8637
应激	-10.8638
看出来	-10.864
的差距	-10.8643
亲密关系中	-10.8644
阿	-10.8645
蒙	-10.8647
时不时	-10.8647
泪	-10.8647
零食	-10.865
想念	-10.8654
几十年	-10.8655
能给你	-10.8657
只要自己	-10.8658
21	-10.8658
还有一种	-10.8662
就会出现	-10.8663
的诊断	-10.8665
很多事	-10.8666
离世	-10.8668
也许在	-10.8672
出现在	-10.8672
喜欢什么	-10.8673
我以前	-10.8675
催促	-10.8684
浪	-10.8684
你们俩	-10.8689
法则	-10.8689
剩下的	-10.8691
自己的努力	-10.8691
父母之间	-10.8692
孩子身上	-10.8694
健	-10.8694
回答你的问题	-10.8694
长久的	-10.8697
情绪状态	-10.8697
作为家长	-10.8697
少数	-10.8703
并不是说	-10.8703
在你身上	-10.8704
被迫	-10.8704
与人交流	-10.8705
感觉到了	-10.8705
稍	-10.8714
掩盖	-10.8719
撒谎	-10.8719
遇到过	-10.8721
玩具	-10.8721
的前提	-10.8726
责怪自己	-10.8728
不要怕	-10.8731
善良的	-10.8735
对性	-10.8741
与人相处	-10.8741
就像一个	-10.8743
坚定的	-10.8747
责骂	-10.875
摩擦	-10.8753
烟	-10.8753
冲击	-10.8755
排挤	-10.8756
永远是	-10.8757
就会被	-10.876
事事	-10.8764
猜想	-10.8765
大概是	-10.877
向对方	-10.8771
没问题	-10.8772
与她	-10.8773
向他们	-10.8776
你的心	-10.8781
对母亲	-10.8787
珍	-10.8788
债	-10.8789
的是你	-10.879
觉得对方	-10.8792
时时刻刻	-10.8792
来获得	-10.8792
背负	-10.8793
的情绪状态	-10.8795
一直没有	-10.8798
在心理学上	-10.8802
勉强自己	-10.8805
不要被	-10.8807
面对问题	-10.8808
想要的东西	-10.8809
会比	-10.8809
浮	-10.8811
认识到自己	-10.8817
遇到的问题	-10.8818
建立亲密关系	-10.8821
可以让我们	-10.8822
你身上	-10.8827
和情感	-10.8827
那么大	-10.8828
同一个	-10.8829
任性	-10.8831
的缺失	-10.8832
心里有	-10.8833
常见	-10.8833
内心的想法	-10.8837
相处模式	-10.8844
怕自己	-10.8847
怎么能	-10.8848
构成	-10.8857
武	-10.8858
从未	-10.8858
俱	-10.8859
搜	-10.886
嫌	-10.886
左	-10.886
择偶	-10.886
页	-10.886
本就	-10.8861
诉求	-10.8862
一般人	-10.8862
是为了什么	-10.8862
这是正常的	-10.8862
不喜欢自己	-10.8864
像个	-10.8865
我们不妨	-10.887
是爱你的	-10.8871
这样的情绪	-10.8874
任何事情	-10.8875
敞开	-10.8877
想得到	-10.8878
。※	-10.8879
三个月	-10.888
受伤害	-10.8883
安静的	-10.8887
意识自我	-10.8892
比方说	-10.8892
看不见	-10.8893
你们两个人	-10.8893
正处于	-10.8894
总想	-10.8894
赶紧	-10.8895
潜移默化	-10.8896
推测	-10.8896
从你的描述	-10.8898
过渡	-10.8901
尤其是在	-10.8911
跟人	-10.8916
更好的自己	-10.8918
的衣服	-10.8918
整合	-10.8919
这种情况下	-10.8919
潜意识中	-10.8923
写出来	-10.8926
对你的影响	-10.8929
还得	-10.8931
妙	-10.8931
差劲	-10.8931
歇	-10.8931
不能理解	-10.8932
鸡	-10.8932
不幸福	-10.8932
低谷	-10.8933
没有动力	-10.8939
跟孩子	-10.8942
和咨询师	-10.8943
恭喜你	-10.8944
不知道该如何	-10.8948
我之前	-10.8949
处处	-10.8951
和家庭	-10.8955
可爱的	-10.8961
国内	-10.8965
伯	-10.8965
决策	-10.8966
是否愿意	-10.8967
怎么样呢	-10.8967
尘	-10.8969
占据	-10.8969
丢人	-10.8971
是最重要的	-10.898
这种现象	-10.8983
徒	-10.8984
复盘	-10.8987
更应该	-10.8987
普通的	-10.8989
的生活状态	-10.899
性爱	-10.8991
都应该	-10.8994
11	-10.8994
会对你	-10.8995
安稳	-10.8997
属于你的	-10.8998
劳动	-10.8999
得以	-10.8999
出路	-10.9001
攻	-10.9003
春	-10.9003
长得	-10.9003
成瘾	-10.9004
圣	-10.9004
深层次	-10.9004
晕	-10.9004
角落	-10.9005
为什么会这样	-10.9007
对学习	-10.9007
集中在	-10.9007
锻炼自己	-10.9007
的特质	-10.9008
这是我	-10.9012
专家	-10.9012
惯	-10.9017
和父母沟通	-10.9029
比我	-10.9031
不自觉	-10.9032
发泄出来	-10.9035
熊	-10.9038
营造	-10.9038
烂	-10.9039
和睦	-10.9045
又要	-10.9049
之所以会	-10.9052
是一位	-10.9056
抑郁症患者	-10.9056
学科	-10.906
而且还	-10.9062
你可以先	-10.9063
产后	-10.9063
有这样的想法	-10.9073
与家人	-10.9073
全世界	-10.9073
市场	-10.9076
是个很	-10.9077
探	-10.9078
类型的	-10.9082
史	-10.9085
就得	-10.9086
潜意识自我	-10.9086
我的回答	-10.909
很强的	-10.9091
的情景	-10.9091
跟随	-10.9092
心理负担	-10.9098
交往中	-10.9099
午	-10.91
的课题	-10.9101
和你一起	-10.9102
新的生活	-10.9103
和矛盾	-10.9106
做到了	-10.9106
过不去	-10.9108
特长	-10.9111
畏惧	-10.9113
街	-10.9113
疏离	-10.9114
无人	-10.9114
的女儿	-10.9115
有一部分	-10.9119
针	-10.9123
自爱	-10.9126
可能存在	-10.9126
第二次	-10.9128
题主的问题	-10.9128
案	-10.9132
符	-10.9135
描述来看	-10.9138
从来都	-10.9138
看到题主	-10.9142
舞	-10.9145
纳	-10.9146
记忆力	-10.9146
擦	-10.9147
祸	-10.9148
和现实	-10.9149
从楼主的描述中	-10.9149
缓解焦虑	-10.915
因此我们可以	-10.915
取舍	-10.9151
同桌	-10.9156
许多人	-10.9157
学会爱自己	-10.9159
为别人	-10.9162
爱意	-10.9164
看到您	-10.9165
良性	-10.9166
拒绝别人	-10.9167
两个方面	-10.917
去适应	-10.9171
有意思	-10.9173
大量	-10.9174
伸	-10.9184
呐	-10.9185
脉	-10.9187
分辨	-10.9187
在这个世界上	-10.9192
的个性	-10.9192
?*	-10.9192
负面评价	-10.9196
笔记	-10.9197
强制	-10.9198
说得	-10.9199
大量的	-10.9199
在其中	-10.921
二十	-10.9218
都是正常的	-10.9219
和需求	-10.922
右	-10.9221
现实生活	-10.9221
废	-10.9221
孙	-10.9222
骑	-10.9222
发掘	-10.9222
拓展	-10.9224
打人	-10.9224
之上	-10.9227
发表	-10.9228
一个目标	-10.923
丝	-10.923
不仅是	-10.9232
毕业后	-10.9236
暗恋	-10.9236
想做的事	-10.9237
租	-10.9239
大多数人都	-10.9241
努力地	-10.9245
知道他	-10.925
迎	-10.9253
我不想	-10.9254
两个人都	-10.9255
介入	-10.9258
递	-10.9259
会使	-10.9261
免费	-10.9261
反思自己	-10.9262
相识	-10.9267
以下几个	-10.9268
话语	-10.9269
得到别人的	-10.9271
不如别人	-10.9276
去体验	-10.928
并不知道	-10.9282
要好	-10.9284
不顺	-10.9288
你可以把	-10.929
财	-10.9292
就不能	-10.9293
柔	-10.9295
不耐烦	-10.9296
疫情期间	-10.9297
舒适圈	-10.9298
你说自己	-10.9298
风雨	-10.9298
赞同	-10.9299
抛开	-10.93
清单	-10.93
以此来	-10.9302
否	-10.9306
新鲜感	-10.9307
有好处	-10.9307
什么东西	-10.9308
和鼓励	-10.9311
某些事情	-10.9315
开心快乐	-10.9319
深刻的	-10.932
调整好	-10.9322
结束了	-10.9324
发言	-10.9325
去考虑	-10.9327
予	-10.9327
一起玩	-10.9328
才是最	-10.9328
偿	-10.9332
负罪感	-10.9332
摄	-10.9333
及时止损	-10.9334
一无是处	-10.9335
手淫	-10.9335
容易产生	-10.9336
有更好的	-10.9337
来这里	-10.9338
他对你的	-10.9339
优缺点	-10.934
是怎么想的	-10.9347
详细的	-10.9349
思考问题	-10.935
异性朋友	-10.9352
一些方法	-10.9354
发泄情绪	-10.9355
成员	-10.9356
生日	-10.9358
感到非常	-10.9363
本性	-10.9364
生病了	-10.9365
抽离	-10.937
希望我的回答能够帮助到你	-10.9371
后期	-10.9371
帅	-10.9372
如期而至	-10.9372
的地步	-10.9376
看了你的	-10.9378
在意他人	-10.9379
感情中	-10.9381
内在小孩	-10.9384
有所改变	-10.9386
急着	-10.9386
对婚姻	-10.9394
不自在	-10.9395
处境	-10.9396
更适合	-10.9397
要做的是	-10.9399
受到影响	-10.9401
也不好	-10.9403
或者说是	-10.9403
觉得别人	-10.9404
好像是	-10.9405
愤	-10.9405
这么想	-10.9407
瓶	-10.9407
涵	-10.9408
坐在	-10.9408
的模样	-10.941
提示	-10.9412
大学生活	-10.9413
接触到	-10.9413
这些话	-10.9414
和无助	-10.9414
知识点	-10.9414
释放压力	-10.9419
被尊重	-10.942
在现实中	-10.9424
做着	-10.9426
看电影	-10.9426
惯性	-10.9432
握	-10.9432
。○	-10.9434
放松心情	-10.9434
际	-10.9437
祝您	-10.9438
我记得	-10.9438
身边的朋友	-10.9441
>	-10.9443
挤	-10.9443
野	-10.9445
共鸣	-10.9446
着手	-10.9448
有一点点	-10.945
大哭	-10.9457
这个家庭	-10.9461
等方面	-10.9462
多方面	-10.9465
一个过程	-10.9467
学习心理学	-10.9471
全面的	-10.9472
相处时	-10.9473
鼓励和	-10.9473
某个人	-10.9474
的概念	-10.9476
的语气	-10.9478
虐	-10.9479
看得出你	-10.9482
公务员	-10.9483
他的行为	-10.9486
无条件的	-10.9487
给予自己	-10.9492
玩耍	-10.9494
在恋爱	-10.9495
其他的事情	-10.9496
的阴影	-10.9499
岁月	-10.95
专业的心理咨询	-10.9502
很常见	-10.9504
过错	-10.9506
假期	-10.9506
这个时期	-10.9506
难以接受	-10.9509
能够接受	-10.951
自觉	-10.951
两个月	-10.9512
判	-10.9516
工作能力	-10.9517
买了	-10.9518
倦怠	-10.9518
懒惰	-10.9519
规范	-10.952
肌肉	-10.952
闯	-10.952
有时候会	-10.952
。)2、	-10.952
。5.	-10.9521
媳妇	-10.9521
使人	-10.9521
南	-10.9521
借鉴	-10.9522
业务	-10.9523
老家	-10.9525
的角度去	-10.9525
想成为	-10.9531
公开	-10.9532
应当	-10.9534
之后再	-10.9535
意思是	-10.9537
教育孩子	-10.9539
看待问题	-10.9542
会引起	-10.9545
非常大的	-10.9545
赢得	-10.9545
焦虑恐惧	-10.9549
有安全感	-10.955
看成	-10.955
冒	-10.9551
多看	-10.9552
能帮助你	-10.9553
正能量	-10.9554
既然是	-10.9555
狠	-10.9559
强加	-10.9559
升级	-10.9559
哟	-10.956
表演	-10.956
在意别人的看法	-10.9561
正常人	-10.9562
假如你	-10.9562
都会遇到	-10.9564
线上	-10.9565
反映出	-10.9566
甚	-10.9566
积极地	-10.9568
就说明	-10.9569
欠缺	-10.9569
式的	-10.957
辩	-10.9577
见解	-10.9577
就像我们	-10.9589
峰	-10.9596
在这个时候	-10.9596
如你所说	-10.9596
F	-10.9597
•	-10.9597
季	-10.9598
敷衍	-10.9599
心里面	-10.9599
怀念	-10.9601
不想要	-10.9601
花时间	-10.9602
为对方	-10.9604
调整自己的心态	-10.9604
得起	-10.9606
有太多的	-10.9614
喜欢她	-10.9614
职业规划	-10.9615
没有人可以	-10.9618
的感受和想法	-10.9619
比较强	-10.9623
坚	-10.9626
要怎么	-10.9628
手中	-10.963
单一	-10.963
挣	-10.9631
的概率	-10.9632
某件事	-10.9632
材	-10.9632
皮肤	-10.9635
防止	-10.9636
凶	-10.9637
愿世间美好与你	-10.9637
一部	-10.9638
但我想	-10.9638
失误	-10.9639
就医	-10.964
也可以通过	-10.9641
交流一下	-10.9647
遇事	-10.9648
到自己身上	-10.9651
挺好	-10.9656
经济独立	-10.9658
很敏感	-10.966
建设	-10.966
做咨询	-10.9662
还小	-10.9663
你的丈夫	-10.9666
情绪问题	-10.9666
卫	-10.9668
这个话题	-10.967
既然已经	-10.9671
奢	-10.9674
忠诚	-10.9674
幽默	-10.9675
放开	-10.9676
报警	-10.9677
断了	-10.9678
反而是	-10.9679
所带来的	-10.968
顺畅	-10.9688
就有了	-10.969
不顺心	-10.9692
做好了	-10.9695
删除	-10.9697
看到你说	-10.9697
与之	-10.97
感受到了你的	-10.9701
情绪不稳定	-10.9702
无用	-10.9706
宜	-10.971
罚	-10.9711
糊	-10.9712
呗	-10.9712
字里行间	-10.9712
一路	-10.9713
无可厚非	-10.9714
产品	-10.9714
立马	-10.9715
讨好别人	-10.9716
这个状态	-10.9717
无趣	-10.972
不带	-10.9723
无比	-10.9724
心灵的	-10.9732
14	-10.9732
联想到	-10.9735
摇	-10.9737
真诚地	-10.974
善良的人	-10.9743
就行了	-10.9743
粗	-10.9743
缓解压力	-10.9743
感受一下	-10.9744
别人对你的	-10.9745
对父母的	-10.9745
说一说	-10.9748
力气	-10.9748
做一件事	-10.9748
纵	-10.9749
恰恰是	-10.975
添	-10.9751
凉	-10.9751
想要得到	-10.9752
不要过于	-10.9752
眼前的	-10.9753
利弊	-10.9753
的内心世界	-10.9753
举动	-10.9754
就是为了	-10.9756
同理心	-10.9758
对方身上	-10.9759
找心理咨询师	-10.9759
很担心	-10.9759
可以寻求	-10.9761
也就不会	-10.9762
早起	-10.9764
影子	-10.9766
不久	-10.9772
你只需要	-10.9772
有意识的	-10.9776
人人都	-10.978
不定	-10.9782
不够自信	-10.9787
究	-10.9788
---	-10.9789
恒	-10.979
兵	-10.979
胡	-10.9791
吻	-10.9791
紧绷	-10.9791
生意	-10.9793
疼爱	-10.9794
相信你一定	-10.9798
楚	-10.9801
也并不是	-10.9806
手上	-10.9807
这是个	-10.9813
这段婚姻	-10.9814
浪费时间	-10.9816
小女孩	-10.9819
前者	-10.9819
喜欢的东西	-10.982
把你当	-10.9822
高级	-10.9825
的次数	-10.9827
哪些事情	-10.9829
是否要	-10.9829
无缘无故	-10.983
保守	-10.9831
一个个	-10.9834
这种人	-10.9837
不论是	-10.9841
合适的人	-10.9844
减压	-10.9852
买房	-10.9853
发生什么	-10.9854
也只能	-10.9864
坏人	-10.9865
心理学中	-10.9866
的原则	-10.9867
严肃	-10.9867
视野	-10.9869
压力过大	-10.987
失业	-10.9871
的功课	-10.9872
少一些	-10.9872
有两种	-10.9873
动态	-10.9874
最坏	-10.9877
接收	-10.9884
过激	-10.9887
如何面对	-10.9896
无视	-10.9897
而是要	-10.9899
反倒	-10.9902
M	-10.9905
优先	-10.9906
强行	-10.9906
称之为	-10.9906
漠	-10.9906
副	-10.9906
渴求	-10.9907
在成长过程中	-10.9908
以上是我的一点建议	-10.9909
弗洛伊德	-10.9909
扣	-10.991
从容	-10.9911
偶然	-10.9911
成长起来	-10.9915
个小时	-10.9918
很低	-10.9919
不佳	-10.9923
到位	-10.9929
为止	-10.9932
忽视了	-10.9934
惜	-10.9938
很多次	-10.9938
间接	-10.994
深深	-10.9941
综	-10.9944
疲劳	-10.9945
推动	-10.9946
这是因为	-10.9946
劳逸结合	-10.9946
制定一个	-10.9947
能够得到	-10.9947
搜索	-10.9947
振	-10.9948
残酷	-10.9948
养活自己	-10.9948
申请	-10.9948
村	-10.9948
换工作	-10.9949
很爱你	-10.9949
况且	-10.995
就够了	-10.995
已经开始	-10.9951
积极向上	-10.9952
哪些方面	-10.9954
渴望得到	-10.9957
行事	-10.9959
楼主的内心	-10.9963
会有什么	-10.9966
社	-10.9966
喜欢的事情	-10.9969
在感情中	-10.997
都是为了	-10.9972
你仍然	-10.9974
实质	-10.9978
自己的未来	-10.9979
起点	-10.9981
这个目标	-10.9983
中学	-10.9984
能给你带来	-10.9986
涌	-10.9986
登	-10.9987
汉	-10.9987
目前的情况	-10.9988
不经意	-10.9988
对事情	-10.9988
现在的情况	-10.9989
在我们的	-10.9991
成年后	-10.9993
过去的事情	-11.0001
随之	-11.0003
的决心	-11.0003
;2、	-11.0005
伤害别人	-11.0013
检	-11.0014
轨	-11.0014
有什么问题	-11.0016
旁人	-11.0016
?1.	-11.0017
走出去	-11.0018
并不想	-11.0026
卸	-11.0026
对症下药	-11.0026
激活	-11.0027
鼓起勇气	-11.0027
宁愿	-11.0028
对对方的	-11.0029
逼着	-11.003
会觉得自己	-11.0031
一切安好	-11.0031
有以下	-11.0035
可以帮助我们	-11.0037
迟到	-11.0037
精神科	-11.004
就如	-11.0049
完全没有	-11.0052
每周	-11.0052
未完成	-11.0054
这一步	-11.0054
该不该	-11.0054
儿女	-11.0054
就很容易	-11.0055
17	-11.0059
转化为	-11.0061
还会有	-11.0063
约会	-11.0064
赞赏	-11.0066
阶	-11.0066
潮	-11.0066
不由自主	-11.0066
竭	-11.0066
社恐	-11.0067
检验	-11.0068
化妆	-11.0069
太少	-11.0071
上天	-11.0071
已婚	-11.0075
感觉到自己	-11.0075
无效	-11.0081
合群	-11.0082
对一个人	-11.0083
同时又	-11.0084
一个阶段	-11.0084
有多么	-11.0086
待人	-11.0096
纪	-11.0101
超出	-11.0101
清理	-11.0102
一张	-11.0106
缠	-11.0108
你妈	-11.011
网友	-11.011
伟大	-11.0111
青年	-11.0111
旁	-11.0118
情节	-11.0118
很深的	-11.0119
恰好	-11.012
管教	-11.0122
烈	-11.0122
夸大	-11.0126
凭什么	-11.0127
人情	-11.0127
我猜想	-11.0128
出问题	-11.0129
希望别人	-11.013
是人类	-11.0135
问题所在	-11.0135
?3.	-11.0136
想象中	-11.0138
抖	-11.0144
家庭氛围	-11.0145
在这方面	-11.0146
焦躁	-11.0146
污	-11.0147
醉	-11.0147
帮她	-11.0148
色彩	-11.0148
咋	-11.0148
袭	-11.0148
脑袋	-11.0148
苛刻	-11.0149
这样的关系	-11.0151
自己的家庭	-11.0152
多疑	-11.0152
很抱歉	-11.0153
关照	-11.0161
外出	-11.0164
上瘾	-11.017
不动	-11.017
的伤痛	-11.0172
最难	-11.0175
身处	-11.0181
这并不	-11.0181
泛化	-11.0183
无意识的	-11.0185
全新的	-11.0186
收益	-11.0187
晒	-11.0187
无形中	-11.0188
粘	-11.0188
陈	-11.019
一起努力	-11.0191
维度	-11.0192
独立自主	-11.0193
不知道该怎么办	-11.0194
不感兴趣	-11.02
是一个很好的	-11.0202
平常心	-11.0204
尝试过	-11.0204
感觉不到	-11.0208
发生了什么事情	-11.0211
踏	-11.0214
所能	-11.0215
并没有那么	-11.0215
是件	-11.0219
被孤立	-11.0224
:1)	-11.0224
直觉	-11.0226
迹	-11.0227
进行心理咨询	-11.0227
苦难	-11.0228
X	-11.0228
叹	-11.0229
除此之外	-11.0229
两方面	-11.0233
离家	-11.0233
男女朋友	-11.025
最需要	-11.0254
朋友关系	-11.0255
又如何	-11.0257
这很正常	-11.0261
固有	-11.0262
均	-11.0267
返	-11.0267
勾	-11.0268
人间	-11.0268
政	-11.0268
的基本	-11.0269
围绕	-11.027
是人之常情	-11.027
活跃	-11.027
从这个角度	-11.027
睡眠质量	-11.027
词语	-11.0272
来临	-11.0273
重建	-11.0276
想象的那么	-11.0277
共处	-11.0277
不负责任	-11.0284
行为背后	-11.0287
上进心	-11.0291
被重视	-11.0295
发生变化	-11.0295
成为自己	-11.0298
那段时间	-11.0298
一分	-11.0304
些许	-11.0306
相信你会	-11.0308
前期	-11.031
抑制	-11.031
泥	-11.031
短时间内	-11.031
苛责自己	-11.0311
含义	-11.0312
祝您生活愉快	-11.0312
丰	-11.0312
了许多	-11.0317
表达自己的想法	-11.0318
希望能帮助到你	-11.0319
宁	-11.0321
控制不了	-11.0321
那么我们可以	-11.0324
把注意力放在	-11.0326
的相处方式	-11.0329
和看法	-11.0329
享	-11.0335
喜好	-11.0335
以免	-11.0339
觉察一下	-11.034
做自己喜欢的事情	-11.034
作为父母	-11.0341
表示理解	-11.0342
遇到事情	-11.0345
环	-11.0347
颜	-11.0349
总比	-11.0349
哀	-11.0351
遮	-11.0351
至今	-11.0352
连续	-11.0352
展开	-11.0353
换一个角度	-11.0354
情感上的	-11.0356
也有一些	-11.0358
沟通方式	-11.0359
对外界	-11.036
看电视	-11.0365
临床	-11.0365
自己的力量	-11.0369
真实的感受	-11.0371
放空	-11.0371
自己的看法	-11.0376
不太会	-11.038
能够做到	-11.038
往后	-11.0381
熟悉的人	-11.0382
也是可以的	-11.0385
苛责	-11.039
港	-11.0392
拜	-11.0392
能够感觉到	-11.0392
如果是这样	-11.0393
忠	-11.0393
简短	-11.0395
都有可能	-11.0395
心里话	-11.0399
业余	-11.04
条件允许	-11.04
成为更好的自己	-11.0401
面对现实	-11.0405
就知道	-11.0407
如何解决	-11.0411
有那么多	-11.0413
跟朋友	-11.0417
出现了问题	-11.0418
没有对错	-11.0419
宝贵的	-11.0422
对感情	-11.0429
兼	-11.0431
进展	-11.0435
应有的	-11.0436
纠结于	-11.0438
你可以通过	-11.0443
交集	-11.0443
这条路	-11.0445
突出	-11.0447
愧疚感	-11.0449
在学习上	-11.0451
往前走	-11.0451
行为模式	-11.0455
的眼睛	-11.0456
驱	-11.0456
也没关系	-11.0458
文中	-11.0459
考量	-11.0459
语气	-11.0459
人的一生	-11.0465
你必须	-11.0465
先给你一个温暖的抱抱	-11.0471
所做的	-11.0472
局限性	-11.0474
尼	-11.0475
这事	-11.0477
冥想星球	-11.0477
紧密	-11.0478
为什么呢	-11.0485
也罢	-11.0489
的角度来看	-11.049
心理建设	-11.0491
了很久	-11.0492
情绪管理	-11.0502
还有什么	-11.0507
无法理解	-11.0508
自行	-11.0511
委	-11.0516
细致	-11.0516
罩	-11.0517
猛	-11.0517
笼	-11.0518
经典	-11.0518
肤	-11.0518
融合	-11.052
准确的	-11.052
家人朋友	-11.0525
行动力	-11.053
特性	-11.0531
早日走出	-11.0535
释放出来	-11.0536
好奇心	-11.0538
两个孩子	-11.0539
哈哈	-11.0541
非常理解你	-11.0543
的全部	-11.0552
费用	-11.0552
眠	-11.0555
肢体	-11.0556
乏	-11.0557
的处理方式	-11.0557
疗	-11.0559
贡献	-11.056
去行动	-11.0561
不好受	-11.0561
给题主一个温暖的抱抱	-11.0561
不肯	-11.0561
。)3、	-11.0561
平稳	-11.0561
权益	-11.0562
无意义	-11.0563
又或者是	-11.057
首要	-11.0574
走得	-11.0576
双向	-11.0577
他身上	-11.058
能够理解你	-11.0581
精神状态	-11.0581
只看到	-11.0588
什么事情都	-11.0595
言行	-11.0599
播	-11.06
尊严	-11.0601
厌倦	-11.0601
权衡	-11.0602
损害	-11.0602
拘	-11.0603
填补	-11.0604
严重影响	-11.0604
诚实	-11.0605
电视	-11.0606
做一些事情	-11.0606
体力	-11.0611
熟人	-11.0612
这些情况	-11.0616
随着时间	-11.0618
聚焦	-11.0619
焦虑的情绪	-11.0619
哪方面	-11.0622
自己的内在	-11.0624
的沟通方式	-11.063
忍让	-11.063
疏	-11.0632
弊	-11.0642
摩	-11.0644
尿	-11.0644
敌意	-11.0645
大可不必	-11.0646
做什么事情	-11.0646
几句	-11.0648
从题主的	-11.0651
自已	-11.0653
调动	-11.0658
难关	-11.066
发自内心的	-11.0662
爱不爱	-11.0677
在你心里	-11.0677
的一点是	-11.0677
负面的情绪	-11.0679
是好事	-11.0679
不停	-11.0682
大胆的	-11.0687
扭曲	-11.0687
麻木	-11.0687
毅力	-11.0688
对爱情	-11.0688
森	-11.0689
让妈妈	-11.0691
反击	-11.0692
谈到	-11.0694
很像	-11.0695
自助	-11.0697
很能理解	-11.0697
就不会那么	-11.0698
无可	-11.07
这个东西	-11.0709
很大的影响	-11.0718
继	-11.0718
理想中的	-11.072
为自己负责	-11.0723
做选择	-11.0724
多多少少	-11.0729
版	-11.073
君	-11.073
屏蔽	-11.0731
嗨	-11.0731
比较难	-11.0731
攀比	-11.0733
希望可以帮助到你	-11.0734
影响到你的	-11.0734
伦理	-11.0735
谎言	-11.0736
你的选择	-11.0739
拉近	-11.0741
访	-11.0741
为你好	-11.0745
生出	-11.0747
情绪失控	-11.0749
很长时间	-11.0751
熟练	-11.0755
主角	-11.0756
不熟悉	-11.0758
就像你说的	-11.0759
憋	-11.0761
不想再	-11.0761
玉	-11.0771
购物	-11.0771
人生的意义	-11.0771
概括	-11.0772
萌	-11.0772
票	-11.0772
追寻	-11.0775
都是一种	-11.0777
为了避免	-11.0778
孩子的成长	-11.0781
向别人	-11.0781
也很重要	-11.0781
我身边	-11.0782
莫名的	-11.0783
你们在一起	-11.0785
基础上	-11.0787
病症	-11.0787
很美好	-11.0788
激起	-11.079
给父母	-11.0793
回忆一下	-11.0795
不妥	-11.0801
留下了	-11.0802
现有的	-11.0803
的喜好	-11.0809
龄	-11.081
N	-11.0814
公共	-11.0814
以下是我的分析	-11.0815
多个	-11.0815
的教育方式	-11.0816
贷	-11.0816
劝说	-11.0821
家庭条件	-11.0822
新的朋友	-11.0824
才可能	-11.0829
毫不	-11.083
一直都在	-11.0835
论文	-11.0836
锻炼身体	-11.0837
老实	-11.0837
焦点	-11.0841
会有不同的	-11.0842
任何时候	-11.0843
错过了	-11.085
更多的人	-11.0852
经济条件	-11.0855
耻	-11.0855
忽然	-11.086
食欲	-11.0861
怪圈	-11.0863
制度	-11.0867
关键在于	-11.0867
在你面前	-11.0868
不停地	-11.0872
也可以尝试	-11.0875
多长时间	-11.0877
机器	-11.0877
我的看法	-11.0878
相处的过程中	-11.0882
恰当的	-11.0884
默	-11.0887
***	-11.0887
以便	-11.0894
这个专业	-11.0896
我个人觉得	-11.0899
扇	-11.0902
我们先来	-11.0902
自然就会	-11.0902
阴暗	-11.0902
的唯一	-11.0903
设立	-11.0904
心甘情愿	-11.0904
思念	-11.0907
对朋友	-11.0914
体育	-11.0915
看了你的问题	-11.0925
体内	-11.0927
提出了	-11.0927
分成	-11.0933
过日子	-11.094
志同道合	-11.0943
仇	-11.0945
荒	-11.0945
敏锐	-11.0946
腹	-11.0946
踩	-11.0947
祖	-11.0947
服从	-11.0947
赏	-11.0948
性格内向	-11.0949
祝安好	-11.0949
读研	-11.0949
身为	-11.095
并未	-11.095
各个	-11.0963
的天性	-11.0963
也愿意	-11.0964
的乐趣	-11.0969
自如	-11.0971
看待对待	-11.0975
这个样子	-11.0976
?3、	-11.0977
都有自己的	-11.0981
染	-11.0983
赛	-11.0986
傲	-11.0989
职责	-11.099
灾难	-11.0991
盈	-11.0992
该怎么做	-11.0992
网课	-11.0992
放在心上	-11.0992
讲究	-11.0993
全职	-11.0993
对父亲	-11.0993
自己的兴趣	-11.0993
触动	-11.0994
结婚后	-11.0994
亲子	-11.0994
告诉父母	-11.0996
美食	-11.0998
类似于	-11.1
就会发现	-11.1008
状	-11.101
有自己的想法	-11.1011
敏感的人	-11.1022
再一次	-11.1025
被接纳	-11.1026
一切都会	-11.1027
有时会	-11.1028
真的很难	-11.1032
货	-11.1034
飘	-11.1035
被否定	-11.1037
三次	-11.1038
例外	-11.1039
1)	-11.1039
冷落	-11.104
我个人认为	-11.1041
这样的感受	-11.1046
天使	-11.1048
得很好	-11.1049
总有一天	-11.1049
学习效率	-11.1049
很难做到	-11.105
做点什么	-11.1052
大宝	-11.106
就只能	-11.107
自己的生命	-11.1071
&	-11.1071
对自己的要求	-11.1072
让步	-11.1074
壮	-11.1078
在你的描述中	-11.108
的初衷	-11.108
教导	-11.1081
执念	-11.1081
固定的	-11.1082
在你身边	-11.1083
有所不同	-11.1087
自己喜欢的人	-11.109
的另一半	-11.1091
我们的人生	-11.1092
过去的经历	-11.1095
这个男人	-11.1096
这个事实	-11.1098
育儿	-11.1104
更好的生活	-11.1104
技	-11.1106
空气	-11.1107
的频率	-11.1108
不知道你有没有	-11.1112
你的潜意识	-11.1114
实际上是	-11.1115
充足的	-11.1117
预测	-11.1122
公益	-11.1123
湾	-11.1123
措	-11.1124
慕	-11.1125
迫切	-11.1125
虚假	-11.1126
对身体	-11.1127
脚步	-11.1128
早已	-11.1129
精神病	-11.113
提及	-11.1137
或许你可以	-11.1137
就会慢慢	-11.1139
家庭教育	-11.114
坏话	-11.1141
要做的事情	-11.1143
倾听者	-11.1145
巨	-11.1146
更愿意	-11.1147
你对她的	-11.1149
的主人	-11.115
很苦恼	-11.1153
进度	-11.1153
必要的时候	-11.1154
星期	-11.1154
那种感觉	-11.1164
自己内心的想法	-11.1165
相对来说	-11.1165
没有足够的	-11.1165
勤奋	-11.1166
阿姨	-11.1167
做一件事情	-11.1167
并不需要	-11.1169
哈喽	-11.1169
生活和工作	-11.1169
突发	-11.1169
契合	-11.117
放纵	-11.117
有类似	-11.1171
他人的评价	-11.1172
高效	-11.1174
打架	-11.1174
感悟	-11.1176
表达你的	-11.1178
口中	-11.1179
能做的就是	-11.1187
的成长环境	-11.1189
改掉	-11.1199
是一件好事	-11.12
跟妈妈	-11.1206
顺着	-11.1207
就在于	-11.1209
户	-11.1209
凑	-11.121
控制不住自己	-11.121
反思一下	-11.1211
很委屈	-11.1211
羞	-11.1212
斗争	-11.1213
颓废	-11.1213
言论	-11.1217
概率	-11.1218
面临的问题	-11.1223
加油哦	-11.1223
你所描述的	-11.1224
最好的方式	-11.1224
大二	-11.1224
得失	-11.1232
再继续	-11.1234
能帮助到你	-11.1235
觉醒	-11.1236
希望通过	-11.1242
的信号	-11.1244
低自尊	-11.1246
请不要	-11.1246
会有不一样的	-11.1249
丽	-11.1254
财产	-11.1255
秋	-11.1256
思虑	-11.1258
我们的大脑	-11.1258
转移自己的注意力	-11.1258
才好	-11.1258
在这段关系中	-11.126
忘掉	-11.1261
单词	-11.1262
个人建议	-11.1262
势必	-11.1263
一般情况下	-11.1267
工作环境	-11.1269
堆	-11.127
专注力	-11.1271
等方式	-11.1271
最起码	-11.1272
个案	-11.1275
坏处	-11.1275
找咨询师	-11.1282
虐待	-11.1285
收回	-11.1286
能感觉到	-11.1286
会怎样	-11.1286
新人	-11.1291
找寻	-11.1295
不知道该	-11.1296
的风景	-11.1299
炎	-11.1301
博士	-11.1301
下定决心	-11.1302
开诚布公	-11.1302
滋味	-11.1302
厕所	-11.1303
先抱抱你	-11.1304
适当地	-11.1305
告诉孩子	-11.1306
胜利	-11.1308
不合理的	-11.1309
这不是你的错	-11.1311
探讨一下	-11.1317
双重	-11.1318
不可控	-11.1318
会好很多	-11.132
尽量避免	-11.1321
对你的态度	-11.1322
生活在一起	-11.1328
习惯于	-11.1328
自己的意愿	-11.1329
提起	-11.1332
非常非常	-11.1333
安排好	-11.1333
那件事	-11.1336
活成	-11.1336
90	-11.1337
应用	-11.134
成为朋友	-11.134
正常现象	-11.1344
幅	-11.1347
不知道您	-11.1347
肠	-11.1348
必定	-11.1348
多巴胺	-11.1348
哇	-11.1348
敲	-11.1348
耗费	-11.1349
确保	-11.1349
^	-11.135
划分	-11.1351
别扭	-11.1353
心理学知识	-11.1357
专科	-11.1361
楼主说自己	-11.1363
全身心	-11.1364
之余	-11.1365
尽情	-11.1371
成长的过程	-11.1372
一个男人	-11.1383
两面	-11.1389
加油吧	-11.139
一点时间	-11.1392
垮	-11.1393
剥夺	-11.1393
办公室	-11.1394
从什么时候开始	-11.1394
喜怒哀乐	-11.1395
盛	-11.1395
在描述中	-11.1398
幻	-11.1399
休学	-11.14
绝不	-11.1402
不知道为什么	-11.1404
尽早	-11.1407
轻松自然	-11.1418
想象一下	-11.1421
来访	-11.1421
。3)	-11.1423
舒适区	-11.1427
如同	-11.1427
分解	-11.1429
不排除	-11.1431
瓜	-11.1438
疲	-11.1438
挨	-11.1439
炮	-11.1441
程序	-11.1444
一定程度的	-11.1445
找到合适的	-11.1447
醒来	-11.1448
精神上	-11.1449
总要	-11.1449
正常的现象	-11.1449
成绩好	-11.1452
婆媳关系	-11.1452
学习任务	-11.1454
不顺利	-11.1458
必然会	-11.1459
逐	-11.1465
咨询室	-11.1467
反之	-11.1468
高二	-11.1476
了不少	-11.1479
一定程度上	-11.1482
我们的内心	-11.1485
绿	-11.1485
隐忍	-11.1487
列举	-11.1487
在某个	-11.1487
凭借	-11.1488
自闭	-11.1492
希望以上	-11.1493
一条路	-11.1499
心慌	-11.15
保证自己	-11.1502
妻	-11.1504
痛快	-11.1508
没想到	-11.1511
是基于	-11.1511
进入社会	-11.1512
体验过	-11.1518
倒是	-11.152
心痛	-11.1532
撒娇	-11.1532
的行为模式	-11.1532
疏解	-11.1532
咱	-11.1532
对你而言	-11.1534
流程	-11.1535
部位	-11.1535
维护自己的	-11.1539
处于一个	-11.1542
短暂	-11.1544
精力去	-11.1545
你可以尝试着	-11.1548
供参考	-11.1548
确立	-11.1548
发生冲突	-11.155
值得拥有	-11.1553
是完美的	-11.1555
天气	-11.1558
发展出	-11.1562
三十	-11.1568
这件事上	-11.1571
宠爱	-11.1573
送给你	-11.1576
恰当	-11.1577
耿耿于怀	-11.1578
绘画	-11.1578
构建	-11.1579
智商	-11.1579
便宜	-11.1579
必经	-11.158
彩礼	-11.158
才能真正	-11.1581
是建立在	-11.1581
施加	-11.1582
无法解决	-11.1582
太好	-11.1583
可以不用	-11.1584
见识	-11.1587
未成年	-11.1588
n	-11.1588
互相理解	-11.159
学习计划	-11.1591
百度	-11.1605
任何事情都	-11.1609
回到家	-11.1614
可以问问	-11.1615
与异性	-11.1616
受欢迎	-11.1616
自我探索	-11.1618
任何一个	-11.1618
前后	-11.1619
对你产生	-11.1619
塑	-11.162
我们也需要	-11.1624
截	-11.1624
因人而异	-11.1626
配不上	-11.1626
一帆风顺	-11.1627
有意识地	-11.1628
吃醋	-11.1629
气愤	-11.163
痘	-11.1631
主意	-11.1633
你就会发现	-11.1635
全然	-11.1637
找个时间	-11.1637
大学毕业	-11.1639
相应	-11.165
对异性	-11.1651
也是个	-11.1654
本书	-11.1658
很幸福	-11.1662
走入	-11.1668
恼	-11.1668
贫	-11.1672
信仰	-11.1673
表露	-11.1673
我们的身体	-11.1675
成长环境	-11.1676
偏执	-11.1677
或其他	-11.1679
很显然	-11.168
是平等的	-11.1681
潜力	-11.1682
合格	-11.1683
很烦	-11.1684
第二种	-11.1684
看作	-11.1689
在心理上	-11.1691
我爸	-11.1696
能看出	-11.17
获	-11.1703
性冲动	-11.1713
会发生什么	-11.1716
洋	-11.1716
自学	-11.1716
觉察到自己	-11.1717
朵	-11.1718
秘	-11.1719
灌输	-11.172
嘲讽	-11.172
坚信	-11.1722
标题	-11.1723
错觉	-11.1723
自我实现	-11.1723
课堂	-11.1723
复发	-11.1725
好意	-11.1725
在人际交往中	-11.1726
哭闹	-11.1726
所处的	-11.1727
分享一下	-11.1728
初期	-11.1728
关注到	-11.1729
没有太大	-11.1734
过来人	-11.1736
也很正常	-11.1737
以后的生活	-11.1746
楼主可以尝试	-11.1746
多半	-11.1746
很纠结	-11.1749
处于一种	-11.1749
了这么多	-11.1754
岁的孩子	-11.1761
器官	-11.1762
要素	-11.1763
坏情绪	-11.1764
洁	-11.1764
歉	-11.1765
横	-11.1765
承担起	-11.1767
饮	-11.1768
炫耀	-11.1768
严苛	-11.1768
从描述中	-11.1768
还未	-11.177
就会变得	-11.1771
预约	-11.1771
仪式感	-11.1771
打卡	-11.1778
不等于	-11.1779
第一时间	-11.1781
对自身	-11.1784
考前	-11.1784
去实现	-11.1785
释	-11.179
未婚	-11.179
终点	-11.1793
离去	-11.1794
自愿	-11.1794
份工作	-11.1798
读完	-11.18
怎么做呢	-11.18
抱抱您	-11.18
自己的观点	-11.1806
◎	-11.1814
聆听	-11.1815
头发	-11.1819
--	-11.1821
自我认同	-11.1821
不知如何	-11.1821
让你感受到	-11.1828
缺乏自信	-11.1829
就不再	-11.1833
很压抑	-11.1836
大专	-11.1841
父母对你的	-11.1841
学期	-11.1843
线下	-11.1845
・	-11.185
姐妹	-11.1852
一个小小的	-11.1857
可以看出楼主	-11.1857
很忙	-11.1858
喂	-11.1858
奖	-11.186
净	-11.1861
一根	-11.1862
可以参考	-11.1862
邀答	-11.1863
精神上的	-11.1864
心仪的	-11.1865
最简单的	-11.1865
吸收	-11.1875
不见得	-11.1877
最关键的	-11.1879
看手机	-11.188
年龄段	-11.1885
无意中	-11.1898
为啥	-11.1898
出国	-11.1898
序	-11.1902
你说到	-11.1904
阿凉	-11.1909
新生	-11.191
吖	-11.191
崇拜	-11.191
适得其反	-11.1911
放过自己	-11.1911
发光	-11.1911
社交恐惧症	-11.1912
到处	-11.1912
越界	-11.1916
认错	-11.192
讲到	-11.1922
心生	-11.1924
行为表现	-11.1927
我们常说	-11.1928
深厚	-11.1928
需要做的是	-11.1941
新朋友	-11.1943
可以根据	-11.1944
修正	-11.1944
开车	-11.1947
心理方面	-11.1948
就不会再	-11.1949
在恋爱中	-11.1952
宿	-11.1957
屡	-11.1957
菲尔	-11.1957
农村	-11.1958
姆	-11.1958
掩饰	-11.1958
没有那么多	-11.1959
主题	-11.1959
挖	-11.1959
佩服	-11.1959
操控	-11.1959
桶	-11.196
该做的	-11.1961
志愿	-11.1963
会有这样的	-11.1963
受益	-11.1965
就此	-11.1967
打拼	-11.1967
该怎样	-11.1967
想做什么	-11.1968
自己不够好	-11.1975
一个很好的	-11.1977
轨迹	-11.1999
疯狂	-11.2005
兰	-11.2006
与此同时	-11.2007
腾	-11.2007
屁	-11.2007
强硬	-11.2009
生活当中	-11.2009
貌似	-11.201
80	-11.2016
一股	-11.2017
拿出来	-11.2022
观察到	-11.2023
还有一点	-11.2025
浮现	-11.2026
不去想	-11.2026
人与人	-11.2027
很紧张	-11.2027
的一些行为	-11.2034
租房	-11.2035
没有及时	-11.2035
:*	-11.2043
尝试着去	-11.2043
针对性	-11.2044
这也是一种	-11.2045
自我暗示	-11.205
坚持下来	-11.2051
扭	-11.2052
辱	-11.2054
咨访关系	-11.2055
脱敏	-11.2055
筋	-11.2056
嫂	-11.2056
捋	-11.2056
丢了	-11.2056
希望我的回答能对你有所帮助	-11.2056
抽烟	-11.2056
取悦	-11.2057
网恋	-11.2058
预防	-11.2058
想明白	-11.2059
个人认为	-11.2062
很快就	-11.2064
不被理解	-11.2068
次数	-11.207
女主	-11.2071
精神疾病	-11.2071
如何应对	-11.2072
动摇	-11.2073
给不了	-11.2084
人格障碍	-11.2089
感到痛苦	-11.2097
之道	-11.2098
越来越大	-11.2102
须	-11.2104
豆	-11.2104
慈	-11.2104
贯	-11.2104
象征	-11.2105
散散步	-11.2105
审美	-11.2107
颜值	-11.2107
分寸	-11.2107
晚上好	-11.211
不足以	-11.211
开导	-11.2111
数据	-11.2114
短短	-11.2114
指望	-11.2114
相伴	-11.2114
发生改变	-11.2117
在你看来	-11.2118
不曾	-11.2125
在路上	-11.2132
退让	-11.2132
转向	-11.2147
就成了	-11.2147
曾经有过	-11.2148
下属	-11.2149
第一种	-11.2149
炸	-11.2151
拒	-11.2153
燃	-11.2153
看不惯	-11.2155
采	-11.2155
童	-11.2155
结婚生子	-11.2155
虚荣	-11.2156
警察	-11.2156
固执	-11.2156
眼界	-11.2157
透露	-11.2157
~※	-11.2159
的命运	-11.2159
可控	-11.2159
熬	-11.2169
遇上	-11.2169
做出决定	-11.2173
平时多	-11.2176
更进一步	-11.2181
进化	-11.2182
原有的	-11.2184
用力	-11.2188
计算	-11.2202
雪	-11.2203
呵	-11.2203
修炼	-11.2204
急躁	-11.2204
无法自拔	-11.2204
购买	-11.2207
私下	-11.2212
坦诚地	-11.2213
父母的爱	-11.2219
做梦	-11.222
很迷茫	-11.222
执	-11.2233
不完	-11.2236
引导孩子	-11.2237
充电	-11.2237
去争取	-11.2241
不管怎样	-11.2244
多看看	-11.2246
调整好自己	-11.2248
考虑问题	-11.2248
骚	-11.2253
尺	-11.2253
昏	-11.2254
喔	-11.2254
;2.	-11.2254
摸索	-11.2255
普通朋友	-11.2255
供你参考	-11.2256
去医院检查	-11.2257
都放在	-11.2259
有不少	-11.226
偶像	-11.2261
块钱	-11.2264
把握好	-11.2265
住在一起	-11.2266
占有	-11.2266
三善	-11.2272
更强	-11.2272
这两者	-11.2273
穿着	-11.2275
也是很正常的	-11.2279
更远	-11.2279
对你的爱	-11.228
理解和支持	-11.2281
学习和生活	-11.2285
老大	-11.2288
实际行动	-11.2292
心理咨询师的帮助	-11.23
拼搏	-11.2304
壁	-11.2304
噩梦	-11.2305
有道理	-11.2307
能够帮助你	-11.2313
族	-11.2316
人与人之间的	-11.2323
走神	-11.2324
解除	-11.2325
对楼主的	-11.2337
佳	-11.2343
控制自己的情绪	-11.2347
规矩	-11.2352
娶	-11.2353
北京	-11.2353
给您一个温暖的抱抱	-11.2355
祝你好运	-11.2355
我和世界爱着你	-11.2355
也算是	-11.2356
条路	-11.2357
丢脸	-11.2357
厌学	-11.236
※	-11.2363
学生时代	-11.2369
早晚	-11.2369
需要做的	-11.2369
拿着	-11.2369
不和谐	-11.2369
一瞬间	-11.2375
道德感	-11.238
共情能力	-11.2381
个人感觉	-11.2391
最基本的	-11.2395
苏	-11.24
做什么都	-11.24
一生中	-11.2401
羞辱	-11.2402
龙	-11.2403
密切	-11.2404
疯	-11.2405
坚守	-11.2405
开开心心	-11.2405
无论怎样	-11.2406
教练	-11.2406
篮	-11.2406
缓冲	-11.2407
有能力去	-11.2407
收费	-11.2408
鉴于	-11.2408
交心	-11.2415
绝对化	-11.2419
同居	-11.2424
观察一下	-11.2441
选项	-11.2444
已经发生了	-11.2452
竞	-11.2453
延伸	-11.2453
签	-11.2453
乳	-11.2454
捉	-11.2454
O	-11.2455
或许是因为	-11.2455
平安	-11.2455
陈述	-11.2456
无数次	-11.2457
迟早	-11.2458
弱势	-11.2458
打败	-11.2461
可以帮到你	-11.2462
比较严重	-11.2467
这条	-11.2467
重度抑郁	-11.2473
世俗	-11.2482
心理障碍	-11.2498
无常	-11.2499
斥	-11.2504
谴责	-11.2504
琐碎	-11.2505
叔叔	-11.2505
雅	-11.2506
谅解	-11.2507
游泳	-11.2507
分裂	-11.2511
亲生	-11.2513
家境	-11.2514
内疚感	-11.2526
做错事	-11.2528
心理层面	-11.2531
成绩不好	-11.2534
经历有关	-11.254
就是最好的	-11.2543
多余的	-11.2547
那是因为	-11.2548
脸上	-11.2548
付出了很多	-11.2551
和他一起	-11.2555
更难	-11.2555
甩	-11.2556
稀	-11.2557
夏	-11.2557
抖音	-11.2557
摊	-11.2557
狼	-11.2557
升华	-11.2558
短板	-11.2562
是有原因的	-11.2562
指引	-11.2564
周期	-11.2567
如意	-11.2574
让大家	-11.2576
患有	-11.2578
越容易	-11.2581
送给	-11.2582
理想化	-11.2583
压抑的情绪	-11.2583
自体	-11.259
行动上	-11.2591
多数人	-11.2595
自我攻击	-11.2596
输出	-11.26
非常能理解	-11.2607
k	-11.2608
柔软	-11.2609
旅程	-11.2609
倾述	-11.2611
开阔	-11.2613
前景	-11.2615
沉浸	-11.2618
往前	-11.2618
节目	-11.2619
缓慢	-11.2624
心力	-11.263
高低	-11.2634
头脑中	-11.2638
很伤心	-11.2638
这就需要	-11.2643
要不然	-11.2644
处理事情	-11.2644
敌人	-11.2656
震	-11.2656
那么我们就	-11.2657
讯	-11.2657
暑假	-11.2658
刘	-11.2659
懊悔	-11.266
壳	-11.2662
发达	-11.2665
看清楚	-11.2668
是否存在	-11.2669
说教	-11.2673
踏出	-11.2678
说服自己	-11.2679
有成就感	-11.2681
解决的办法	-11.2684
现在的工作	-11.2686
中午	-11.2686
没有人能	-11.2687
分离焦虑	-11.2692
床上	-11.2692
打乱	-11.2694
这背后	-11.2701
互补	-11.2705
怎么处理	-11.2708
从你描述	-11.2709
抄	-11.271
泛	-11.271
心理疏导	-11.2711
艰辛	-11.2712
岛	-11.2713
简历	-11.2713
随着时间的推移	-11.2713
缝	-11.2714
碰撞	-11.2715
婚恋	-11.2718
社会支持	-11.2719
走出困境	-11.2723
提升自我	-11.2725
原理	-11.2726
敏	-11.2728
心理创伤	-11.2738
很厉害	-11.2739
最亲近的人	-11.2747
看到的是	-11.2752
工作内容	-11.2754
60	-11.2755
谈谈心	-11.276
心理能量	-11.2762
蓄	-11.2763
状态不好	-11.2764
扶	-11.2764
过程当中	-11.2764
领悟	-11.2766
笃定	-11.2766
防备	-11.2767
每日	-11.2767
挂科	-11.2767
第六	-11.2768
半夜	-11.277
已经过去了	-11.2773
考证	-11.2777
想的那么	-11.2782
那句话	-11.2784
.........	-11.2785
对自己的看法	-11.2789
这么久	-11.279
看看书	-11.2793
是不可能的	-11.2802
你的女朋友	-11.2803
认真思考	-11.2805
打个	-11.2806
怜	-11.2808
在同一个	-11.2808
你知道吗	-11.2809
种子	-11.2811
协	-11.2813
能感觉到你	-11.2815
孔	-11.2815
三天	-11.2816
塌	-11.2817
境界	-11.2819
婚姻里	-11.282
立即	-11.2822
几个小建议	-11.2823
幼年	-11.2824
视为	-11.2824
修养	-11.2827
哪儿	-11.2828
说了算	-11.2832
一眼	-11.2836
这一生	-11.2841
片面	-11.2845
相处过程中	-11.2849
场所	-11.2852
超出了	-11.2858
必有	-11.2859
考虑清楚	-11.2864
让他知道	-11.2869
奥	-11.2869
拳	-11.2869
癖	-11.287
涩	-11.2871
自暴自弃	-11.2871
惧怕	-11.2873
侧面	-11.2875
早日摆脱	-11.2881
瘾	-11.2887
考不上	-11.2892
可能还会	-11.2893
是一件非常	-11.29
可以思考一下	-11.2901
觉得自己不够好	-11.2902
上级	-11.2907
跟我说	-11.2908
躁	-11.2917
不小的	-11.292
也未必	-11.292
可想而知	-11.2921
虚伪	-11.2921
涉	-11.2921
绘	-11.2922
铺	-11.2923
钻	-11.2923
淋	-11.2924
弱点	-11.2924
悄悄	-11.2924
络	-11.2925
窒息	-11.2925
迷恋	-11.2925
答复	-11.2926
守护	-11.2927
一点都不	-11.2928
不可否认	-11.2928
顺应	-11.2931
风景	-11.2931
听听音乐	-11.2932
最好的选择	-11.2934
不能完全	-11.2937
这一部分	-11.2937
一直处于	-11.294
可以尝试一下	-11.2941
没有信心	-11.2942
参	-11.2946
买东西	-11.2946
期望值	-11.2947
境遇	-11.2952
情绪上的	-11.2952
学会拒绝	-11.2955
很舒服	-11.2958
母爱	-11.2965
自己想要什么	-11.2969
探究	-11.2971
自己的爱好	-11.2973
饰	-11.2975
绝大多数	-11.2975
取向	-11.2976
批	-11.2976
衰	-11.2977
愿不愿意	-11.2977
职业生涯	-11.2977
夸赞	-11.2977
29	-11.2978
点个赞	-11.2978
粉	-11.2978
在成长的过程中	-11.2979
牢固	-11.2979
逢	-11.2979
船	-11.298
方式方法	-11.2983
变故	-11.2983
放宽心	-11.2983
把精力	-11.2984
每一步	-11.2985
每件事	-11.2986
更严重	-11.2987
最适合	-11.2988
亲亲	-11.2993
专业的咨询师	-11.2993
下午	-11.3
文学	-11.3002
书本	-11.3006
适时	-11.3012
此事	-11.3012
耍	-11.3014
任何一个人	-11.3015
原生家庭的影响	-11.302
做成	-11.3025
祝题主	-11.3025
服用	-11.3026
两难	-11.3029
旋	-11.3029
矫情	-11.303
剥	-11.303
捡	-11.3031
不太清楚	-11.3032
裸	-11.3032
功夫	-11.3032
户外	-11.3033
期盼	-11.3033
争论	-11.3034
相亲对象	-11.3036
热闹	-11.3039
根本原因	-11.3039
每一种	-11.304
做的很好	-11.3044
其他同学	-11.3048
问答	-11.3054
找到原因	-11.3063
一座	-11.3063
妨碍	-11.3066
好好想想	-11.3069
小事情	-11.307
自卑心理	-11.3075
多多地	-11.3078
郁	-11.3081
冠	-11.3083
姑	-11.3084
喘	-11.3084
<<	-11.3084
做自己喜欢的事	-11.3085
环节	-11.3085
保密	-11.3086
心扉	-11.3088
犯罪	-11.3088
症结	-11.3089
的角度来说	-11.3096
根本就不	-11.3096
身高	-11.3097
与外界	-11.3099
非常能够理解	-11.3099
自己的底线	-11.3105
到医院	-11.3105
控制感	-11.3108
机遇	-11.3113
———	-11.3119
类似的情况	-11.312
日常生活中	-11.3122
存在于	-11.3122
任何人都	-11.3122
不太喜欢	-11.3126
仪	-11.3135
孤僻	-11.3139
屈	-11.3139
兼顾	-11.314
顺序	-11.314
延迟	-11.3145
居然	-11.3146
活着的意义	-11.3147
万物	-11.3147
把它们	-11.3149
天空	-11.3152
生活费	-11.3153
这几年	-11.3155
生命的意义	-11.3156
一体	-11.3158
罗列	-11.3159
专业知识	-11.316
社交圈	-11.3161
沟通和交流	-11.3163
什么事都	-11.3164
自己的长处	-11.3166
已经成年	-11.3175
第一反应	-11.3181
自己的身上	-11.3182
单单	-11.3183
颗	-11.3188
陪伴着	-11.3191
训	-11.3191
陆	-11.3191
授	-11.3192
映	-11.3192
炼	-11.3193
席	-11.3193
侮辱	-11.3193
丁	-11.3194
鸡汤	-11.3194
是有价值的	-11.3195
欣慰	-11.3195
英雄	-11.3195
筛选	-11.3196
腰	-11.3196
适应环境	-11.3196
断绝	-11.32
与其说	-11.3202
数字	-11.3203
看你的描述	-11.3204
可以理解为	-11.321
好吃的	-11.3212
非常棒	-11.3216
的境地	-11.3218
强迫行为	-11.322
落后	-11.3237
妄想	-11.3239
扫	-11.3241
R	-11.3242
本事	-11.3244
夜晚	-11.3245
晨	-11.3246
赌博	-11.3247
发生性关系	-11.3247
受影响	-11.3248
从您的描述中	-11.3249
失衡	-11.325
百分之	-11.325
跳舞	-11.3251
有观察到楼主	-11.3253
应该怎么做	-11.3255
格外	-11.3258
想想看	-11.3263
不得不说	-11.3264
淡化	-11.3268
主动权	-11.3271
嫁给	-11.3271
头痛	-11.3277
冒犯	-11.3292
什么样子	-11.3297
不敢表达	-11.33
涨	-11.3303
憋在心里	-11.3304
丢失	-11.3305
希望我的回答可以帮助到你	-11.3305
Karen	-11.3306
偏激	-11.3306
副作用	-11.3306
三件事	-11.3308
亲密的关系	-11.331
不会轻易	-11.3313
这件	-11.3316
时间和空间	-11.3321
足够的安全感	-11.3322
生命力	-11.3323
总感觉	-11.3323
生涯	-11.3325
突	-11.3334
明智	-11.3335
造成伤害	-11.3337
赖	-11.3341
这段经历	-11.3345
有很强的	-11.335
不要太过	-11.335
意味	-11.3352
治疗师	-11.3357
温馨	-11.3359
覆	-11.336
应该做的	-11.336
有句话说	-11.336
做真实的自己	-11.336
惠	-11.3361
减弱	-11.3361
羊	-11.3361
诚意	-11.3363
挑选	-11.3365
无形的	-11.3367
分享给你	-11.3368
简直	-11.3369
没有勇气	-11.3378
所需要的	-11.3379
打球	-11.3381
心累	-11.3384
----	-11.3387
的难处	-11.3395
几十	-11.3401
很多人都会有	-11.3406
熬过	-11.3408
偏偏	-11.3413
对你的评价	-11.3414
内心的声音	-11.3415
撩	-11.3415
湖	-11.3416
方方面面	-11.3417
共勉	-11.3417
苦闷	-11.3419
刚才	-11.342
正当	-11.3421
准则	-11.3424
还记得	-11.3424
麻烦别人	-11.3427
就好比	-11.3428
上帝	-11.3431
试过	-11.3432
七年	-11.3437
潜能	-11.3438
联系方式	-11.3441
刚毕业	-11.3448
亲密感	-11.345
知己	-11.3461
就诊	-11.3462
in	-11.3469
劣	-11.347
耳朵	-11.347
乏味	-11.3472
的几率	-11.3473
试想一下	-11.3473
欢乐	-11.3473
回过头	-11.3473
亏欠	-11.3474
网站	-11.3475
给你一个拥抱	-11.3478
父爱	-11.3478
娘家	-11.3487
住校	-11.3488
并不可怕	-11.3493
积极主动	-11.3496
另外一方面	-11.35
存在的意义	-11.3505
很遗憾	-11.3509
抱歉	-11.352
苗	-11.3522
银	-11.3527
暴饮暴食	-11.3528
历程	-11.3528
漂	-11.3528
迈出第一步	-11.3529
结识	-11.3532
开展	-11.3533
推荐一本书	-11.3534
晋升	-11.3538
恰	-11.3539
可贵	-11.355
六年	-11.3551
回想起	-11.3553
圆满	-11.3554
增添	-11.3557
常说	-11.3563
受损	-11.3571
越发	-11.3571
已经成为	-11.3576
所经历的	-11.3577
加之	-11.3582
姨	-11.3584
战斗	-11.3584
专升本	-11.3585
捏	-11.3585
唤起	-11.3586
懊恼	-11.3588
报告	-11.3588
超级	-11.3589
无情	-11.3589
退一步	-11.3589
功利	-11.3589
梦境	-11.359
是一名	-11.3594
解压	-11.3595
无条件的爱	-11.3599
过得好	-11.361
青春期的孩子	-11.3612
信任的朋友	-11.3615
不管怎么样	-11.3615
分清楚	-11.3617
阅	-11.3617
抚	-11.3633
唤	-11.3638
残	-11.3639
深入了解	-11.364
自制力	-11.364
恐	-11.364
粗暴	-11.3641
跳槽	-11.3642
瓶颈	-11.3642
至关重要	-11.3643
虫	-11.3643
叨	-11.3643
舍弃	-11.3644
收集	-11.3644
箱	-11.3644
罪恶感	-11.3645
搬出去	-11.3646
任由	-11.3649
说谎	-11.3661
候	-11.3666
最好的方法	-11.3667
深陷	-11.367
藏着	-11.3676
不知道怎么办	-11.3676
问题的根源	-11.3676
我也有过	-11.3684
第三者	-11.3691
厅	-11.3697
跌	-11.3698
瞒	-11.3698
内心的需求	-11.3699
认真看完你的倾诉	-11.3699
积攒	-11.3699
分享一下我	-11.37
胆怯	-11.37
传播	-11.3701
制止	-11.3703
志同道合的朋友	-11.3703
足够好	-11.3704
比例	-11.371
调解	-11.3711
是很正常的事情	-11.3711
对他来说	-11.3712
意识不到	-11.3712
试错	-11.3713
升学	-11.372
被欺负	-11.372
能改变的	-11.3723
脾气暴躁	-11.3723
对自己负责	-11.3724
写信	-11.3728
看看是否	-11.3731
底层	-11.3733
居住	-11.3739
启	-11.3746
虚拟	-11.3756
痴	-11.3757
滚	-11.3757
谦虚	-11.3757
沉淀	-11.3758
组建	-11.3758
讳	-11.3758
挣脱	-11.3759
诱发	-11.3761
烦心事	-11.3761
心理因素	-11.3762
教养	-11.3767
较少	-11.3768
二者	-11.3769
数量	-11.3774
很大一部分	-11.3777
跟不上	-11.3782
提升自己的能力	-11.3797
一件小事	-11.3799
这个行业	-11.3804
仔细想想	-11.3809
时间内	-11.3814
E	-11.3816
耀	-11.3816
仰	-11.3816
参照	-11.3816
源泉	-11.3817
欢喜	-11.3818
问候	-11.3819
几分钟	-11.3821
乃至	-11.3822
和别人交流	-11.3823
强迫思维	-11.3826
仅仅只是	-11.3833
热心	-11.3837
自己的自信心	-11.3839
流行	-11.3845
生产	-11.3846
带入	-11.3853
一堆	-11.3854
以致	-11.3856
入职	-11.3858
班里	-11.3862
22	-11.3869
是相互的	-11.387
是值得被爱的	-11.387
渺	-11.3871
掩	-11.3872
一朝一夕	-11.3873
媒体	-11.3873
一下子就	-11.3873
奶茶	-11.3873
荷尔蒙	-11.3873
拨	-11.3874
隔着屏幕	-11.3875
听取	-11.3876
财务	-11.3876
去看看心理医生	-11.3878
调查	-11.3879
流露	-11.388
放在自己身上	-11.388
越来越少	-11.389
文字描述	-11.3892
开头	-11.3895
妥	-11.3896
竞争力	-11.3899
这一切都	-11.3901
自己想要的生活	-11.391
喜不喜欢	-11.3916
互相尊重	-11.3921
普	-11.3923
认真对待	-11.3923
为中心	-11.3929
危	-11.393
彼	-11.393
早恋	-11.3931
大大的拥抱	-11.3932
I	-11.3933
窝	-11.3933
纯洁	-11.3934
看完了你的叙述	-11.3934
剖析	-11.3934
绳	-11.3935
研究表明	-11.3937
某件事情	-11.3937
表象	-11.3938
命令	-11.3941
进取	-11.3945
一起探讨	-11.3954
太累了	-11.3955
自救	-11.3957
推开	-11.396
宁静	-11.396
很受伤	-11.398
只要你愿意	-11.3982
很多人都会	-11.3983
没啥	-11.3985
侧	-11.3986
万事	-11.3987
井	-11.3991
肺	-11.3991
摘	-11.3991
癌症	-11.3991
腔	-11.3993
悬	-11.3993
祝你生活愉快	-11.3994
迎刃而解	-11.3994
一见钟情	-11.3994
从根本上	-11.3995
安定	-11.3995
别人的眼光	-11.3995
噪音	-11.4
智力	-11.4001
正确认识	-11.4002
促	-11.4006
请相信	-11.4007
怎么回事	-11.4007
某一天	-11.4012
渐	-11.4013
从业	-11.402
经济能力	-11.4026
司	-11.4028
生怕	-11.4029
26	-11.4034
细细	-11.4047
v	-11.4049
馆	-11.405
回避型依恋	-11.4051
迷惑	-11.4051
兄弟姐妹	-11.4051
臭	-11.4053
🤩	-11.4056
以上是我的分析和建议	-11.4057
温度	-11.4071
是两个人的事	-11.4072
什么地方	-11.4077
天然	-11.4078
那我们就	-11.4079
学姐	-11.409
鼻	-11.4107
伏	-11.4108
润	-11.411
辱骂	-11.4111
桥	-11.4112
欺凌	-11.4112
堆积	-11.4113
优点和缺点	-11.4114
全盘	-11.4118
隐藏着	-11.4119
闹矛盾	-11.4131
伤心难过	-11.4132
提出分手	-11.4137
空白	-11.414
唯	-11.4141
把控	-11.4155
很复杂	-11.4156
事务	-11.4157
》《	-11.4157
莫名	-11.4161
夫妻双方	-11.4161
小组	-11.4165
调理	-11.4167
er	-11.4169
婴	-11.417
江	-11.4172
揭	-11.4172
鸭	-11.4172
称赞	-11.4173
希望我的回答对你有帮助	-11.4173
▶	-11.4174
年少	-11.4174
接收到	-11.4176
出色	-11.4176
归属	-11.418
・)	-11.4181
冥想练习	-11.4181
在咨询中	-11.4183
每个月	-11.4185
轻度	-11.4186
继而	-11.4192
干活	-11.42
被忽略	-11.4203
才是最好的	-11.4212
心理科	-11.4215
为了满足	-11.4215
期末	-11.4218
尚未	-11.4219
遭	-11.4227
宣	-11.423
恶劣	-11.4231
踢	-11.4231
社区	-11.4232
叠	-11.4233
瞎	-11.4233
挽留	-11.4233
传染	-11.4234
携手	-11.4234
揣测	-11.4234
神奇	-11.4235
跳出来	-11.4236
那个男生	-11.4242
注意力集中	-11.4245
恐惧症	-11.425
一切顺利	-11.4251
行为习惯	-11.4252
举例	-11.4255
丝毫	-11.4256
异性恋	-11.4261
影响了你的	-11.4262
社交活动	-11.427
躁狂	-11.4276
娘	-11.4278
勇敢面对	-11.4279
留学	-11.428
更有利于	-11.428
姐夫	-11.4285
仪式	-11.429
田	-11.429
冒险	-11.4291
阐述	-11.4292
滞	-11.4292
晴	-11.4293
蔽	-11.4293
的一种表现	-11.4294
娇	-11.4294
哒	-11.4294
歪	-11.4294
标志	-11.4294
被讨厌的勇气	-11.4295
减退	-11.4295
预料	-11.4295
希望我的回答对你有所帮助	-11.4295
语音	-11.4296
最坏的结果	-11.4298
量表	-11.4305
社会功能	-11.4316
所有事情	-11.4319
婆家	-11.432
轻轻	-11.4327
益处	-11.433
疑虑	-11.4333
溺	-11.4334
从你的描述里	-11.4335
人和事	-11.4337
抗争	-11.4343
不恰当	-11.4346
节点	-11.4347
伦	-11.4347
幻觉	-11.4352
仍旧	-11.4353
兽	-11.4354
⇨⇨	-11.4355
拖着	-11.4356
愧	-11.4356
憋屈	-11.4356
挟	-11.4356
齿	-11.4357
塔	-11.4357
石头	-11.436
重新审视	-11.4362
13	-11.4365
建议题主可以	-11.4366
广泛	-11.4366
感情基础	-11.4369
番	-11.437
粗心	-11.437
请假	-11.4375
生理需求	-11.438
自然也就	-11.4388
无知	-11.4395
身体状况	-11.4395
坦然面对	-11.4397
辅导员	-11.4414
闹钟	-11.4417
规避	-11.4417
捆绑	-11.4417
(3)	-11.4418
易怒	-11.4418
轻微	-11.4418
废物	-11.4418
折腾	-11.4418
唤醒	-11.4418
。)4、	-11.442
问一问	-11.4424
几句话	-11.4426
交代	-11.4429
会引发	-11.443
犯错误	-11.4434
宝贵	-11.4435
不舍得	-11.4435
十几年	-11.4437
摆正	-11.444
刚刚开始	-11.4458
职业发展	-11.446
就如同	-11.4467
贬	-11.4467
更倾向于	-11.447
滋	-11.4474
睁	-11.4475
成立	-11.4476
爷	-11.4476
运转	-11.4476
吸烟	-11.4477
的方向发展	-11.4478
鲁	-11.4478
歧视	-11.4478
悠	-11.4479
赤	-11.4479
追逐	-11.448
秀	-11.448
意想不到的	-11.448
嘴巴	-11.448
为自己而活	-11.4482
三角	-11.4486
学霸	-11.4491
心理阴影	-11.4494
如果是这样的话	-11.4499
终生	-11.4499
十岁	-11.4502
的心声	-11.4506
需要做的就是	-11.4509
听歌	-11.451
同理	-11.452
更合适	-11.4522
一个小时	-11.4528
谓	-11.4529
大部分人都	-11.453
L	-11.4537
锋	-11.4538
做更好的自己	-11.4538
材料	-11.4538
凌	-11.4539
英	-11.4539
拦	-11.4539
认真看完了你的提问	-11.454
提倡	-11.454
洗澡	-11.454
阻抗	-11.4541
说错话	-11.4543
叛逆期	-11.4543
谦	-11.4543
发生了什么事	-11.4546
变态	-11.4547
戒掉	-11.4549
距离感	-11.4549
已然	-11.455
热线	-11.4551
(・	-11.4552
积极乐观	-11.4556
祝你幸福	-11.4562
给自己一些时间	-11.4563
溺爱	-11.4565
轻生	-11.457
哪些地方	-11.458
商量一下	-11.4584
等级	-11.4588
下心来	-11.459
回忆起	-11.4595
时间管理	-11.4599
剧烈	-11.4603
吞	-11.4604
揪	-11.4604
琢磨	-11.4605
谨	-11.4605
一次又一次	-11.4606
光芒	-11.4607
同行	-11.4607
女士	-11.4608
较高	-11.4609
放任	-11.461
共同话题	-11.4617
客气	-11.4617
跨越	-11.4619
一面镜子	-11.4619
工作岗位	-11.4623
所致	-11.4625
全身	-11.4627
合理化	-11.4629
一笔	-11.4632
主体	-11.4637
周围环境	-11.4637
心跳	-11.4639
好的方面	-11.4655
隐隐	-11.4663
口头	-11.4665
曼	-11.4666
加剧	-11.4666
拙	-11.4666
铃	-11.4666
臆	-11.4668
随着年龄的增长	-11.4668
夸夸	-11.4668
给你一个大大的抱抱	-11.4669
颜色	-11.4669
牵扯	-11.4669
问心无愧	-11.4669
咒	-11.4669
消磨	-11.467
阻力	-11.4674
美好的回忆	-11.4678
能力不足	-11.4678
所言	-11.4682
买单	-11.4684
推进	-11.4688
用这种方式	-11.4689
碍	-11.4692
有效的方法	-11.4704
鼠	-11.4715
有效的沟通	-11.4718
上了大学	-11.4719
控制住	-11.4723
意识层面	-11.4723
之内	-11.4724
疲倦	-11.4728
H	-11.4728
反刍	-11.473
长此以往	-11.4731
f	-11.4731
牵挂	-11.4731
元素	-11.4731
生活节奏	-11.4732
奉献	-11.4732
让我想起了	-11.4734
视觉	-11.4735
进食	-11.4736
尽可能地	-11.4739
何种	-11.4739
母女	-11.4739
住院	-11.474
哭出来	-11.475
可以回想一下	-11.4753
沉迷于	-11.4753
之间的矛盾	-11.4754
较好的	-11.4755
保持良好的	-11.4763
医疗	-11.4772
本该	-11.4774
一些小建议	-11.4777
薄弱	-11.4789
这个年龄段	-11.479
违	-11.4793
险	-11.4794
从以下几个方面	-11.4794
闭上眼睛	-11.4794
喘不过气	-11.4795
散散心	-11.4795
丰富多彩	-11.4796
自控力	-11.4796
外面的世界	-11.4798
空洞	-11.4799
临近	-11.48
会遇到很多	-11.4802
反弹	-11.4805
让自己变得更好	-11.4805
可以先从	-11.4805
名词	-11.4807
喝水	-11.481
放假	-11.4816
做得更好	-11.4827
写完	-11.4832
知觉	-11.4833
相差	-11.4838
习得性无助	-11.4857
肥	-11.4858
崩	-11.4858
捕	-11.4858
猜疑	-11.4859
庆	-11.4859
臂	-11.4859
割舍	-11.4859
扑	-11.486
欧	-11.486
稳固	-11.486
沿	-11.4861
班长	-11.4861
给楼主一个温暖的抱抱	-11.4862
性侵	-11.4863
浑身	-11.4863
通俗	-11.4864
受委屈	-11.4866
三四	-11.4867
切记	-11.4869
制定计划	-11.487
修行	-11.4876
说出自己的想法	-11.4878
每个阶段	-11.488
下午好	-11.4881
意图	-11.4883
集中精力	-11.4885
找个咨询师	-11.4889
回国	-11.4891
续	-11.4911
感兴趣的事	-11.4914
农	-11.4919
路径	-11.492
迟钝	-11.4923
白白	-11.4923
棘	-11.4924
浑浑噩噩	-11.4924
痒	-11.4924
祟	-11.4924
亲朋好友	-11.4925
康	-11.4925
弯路	-11.4926
茫然	-11.4931
几个方面	-11.4933
童年时期	-11.4933
冬天	-11.4934
做的更好	-11.4941
;3、	-11.495
像你一样	-11.4955
难堪	-11.4962
学费	-11.4967
很有意思	-11.4968
初步	-11.4971
末	-11.4974
二宝	-11.4976
猎	-11.4979
属性	-11.498
明明知道	-11.4982
明知道	-11.4985
犹	-11.4988
等同于	-11.4989
乌	-11.4989
伙	-11.4989
硕士	-11.4989
厨	-11.499
°	-11.499
积极的心理暗示	-11.499
单亲家庭	-11.4991
说白了	-11.4992
光环	-11.4993
半小时	-11.4993
吸取	-11.4994
验	-11.4994
台词	-11.4995
前妻	-11.501
归于	-11.5016
得不到满足	-11.5026
暂停	-11.5026
跟他在一起	-11.5031
精神分裂症	-11.5041
需要一个过程	-11.5048
w	-11.5053
吾	-11.5054
扶持	-11.5055
辣	-11.5055
颇	-11.5056
从您的描述看	-11.5057
从你的文字中	-11.5057
残忍	-11.5059
舞蹈	-11.5059
从心理学的角度	-11.506
放松训练	-11.5071
丢掉	-11.5072
洗手	-11.5074
看的出来	-11.5074
每一段	-11.5085
好好珍惜	-11.5094
多少钱	-11.5101
很强烈	-11.5106
给你的建议	-11.5109
做得很好	-11.511
吵闹	-11.5114
源自于	-11.5118
宇宙	-11.512
懈怠	-11.5121
诚恳	-11.5122
OK	-11.5122
双性恋	-11.5122
深深地理解你的痛苦	-11.5122
搭讪	-11.5122
积蓄	-11.5123
慌张	-11.5124
触及	-11.5124
归宿	-11.5124
填满	-11.5125
来得及	-11.5125
有同感	-11.5126
亦或是	-11.5126
取代	-11.5129
知晓	-11.513
搞得	-11.513
充足	-11.5132
失落感	-11.514
期限	-11.5146
明确的目标	-11.5155
这段话	-11.5156
自动化	-11.5166
找到属于自己的	-11.5176
走的路	-11.518
肝	-11.5183
欺	-11.5187
异样	-11.5189
卧	-11.5189
姑姑	-11.5189
宠物	-11.5189
十全十美	-11.519
伤痕	-11.519
广阔	-11.519
怯	-11.519
告白	-11.5192
年龄阶段	-11.5194
证实	-11.5195
水果	-11.5199
决定权	-11.52
给自己一点时间	-11.5206
一杯	-11.5207
欢迎关注我	-11.5207
遇到挫折	-11.5212
坦然接受	-11.5219
表达自己的需求	-11.5235
成为什么样的人	-11.5242
人生观	-11.5244
在想什么	-11.5246
总体	-11.5246
内心的冲突	-11.525
辛	-11.5252
勿	-11.5254
腻	-11.5254
测评	-11.5254
依附	-11.5254
毁灭	-11.5254
岗	-11.5255
Ta	-11.5255
屏	-11.5255
校园暴力	-11.5255
骚扰	-11.5255
一副	-11.5255
币	-11.5256
滤	-11.5256
无时无刻	-11.5256
启动	-11.5257
希望我的回答可以帮到您	-11.5257
深渊	-11.5257
释然	-11.5257
解析	-11.5258
为你点赞	-11.5259
预言	-11.5264
公正	-11.5264
感触	-11.5268
劳累	-11.5269
报名	-11.5275
做什么事	-11.5276
注意力放在	-11.528
受虐	-11.5283
一段亲密关系	-11.5287
是非常好的	-11.5288
问题的关键	-11.5312
各种各样	-11.5314
寄宿	-11.532
有很大的关系	-11.5321
窄	-11.5321
改造	-11.5322
非黑即白	-11.5324
采纳	-11.5324
深思熟虑	-11.5324
幼儿	-11.5325
老好人	-11.5326
这辈子	-11.5326
英国	-11.5326
判定	-11.5326
违法	-11.5326
不适感	-11.5327
帖子	-11.5328
病态	-11.5329
传递给	-11.533
家乡	-11.5331
文明	-11.5343
驱使	-11.5347
小小的建议	-11.5352
弄得	-11.5355
吓到	-11.5357
详	-11.5384
体质	-11.5387
惑	-11.5389
价格	-11.5389
不情愿	-11.539
昂	-11.539
微博	-11.539
互联网	-11.539
逗	-11.5391
十几岁	-11.5391
按部就班	-11.5391
得不偿失	-11.5391
堕落	-11.5392
预设	-11.5392
招聘	-11.5392
处女情结	-11.5393
律师	-11.5393
道德绑架	-11.5394
狗狗	-11.5395
限度	-11.5396
如果是后者	-11.5397
步入社会	-11.5401
所有的事情都	-11.5408
负向	-11.5418
无私	-11.5421
亲密接触	-11.5429
迫于	-11.5445
疾	-11.5453
跃	-11.5455
审	-11.5457
驱动	-11.5457
尽全力	-11.5458
弯	-11.5459
绑	-11.546
代沟	-11.5461
鼻子	-11.5461
嘻	-11.5462
渴	-11.5462
比喻	-11.5462
聚餐	-11.5462
》、《	-11.5463
误区	-11.5463
立足	-11.5465
教室	-11.5466
感谢邀请	-11.5467
顾忌	-11.5468
年华	-11.547
可以感受到你对	-11.5473
自省	-11.5475
肉体	-11.5484
合理安排	-11.5491
偷懒	-11.5491
辅	-11.5497
谢	-11.5513
保存	-11.5521
遥	-11.5527
模拟	-11.5527
矫正	-11.5528
辨	-11.559
夕	-11.5598
狱	-11.5599
朗	-11.5664
筹	-11.5666
丈	-11.5667
涡	-11.5668
膜	-11.5668
赘	-11.5669
─	-11.5673
园	-11.5735
档	-11.5736
悦	-11.5736
诀	-11.5737
佩	-11.5738
谣	-11.5738
邪	-11.574
亡	-11.5806
贱	-11.5808
诺	-11.5808
池	-11.5809
弥	-11.5809
酷	-11.5811
削	-11.5878
织	-11.5879
绊	-11.5881
顽	-11.5882
亵	-11.5947
枕	-11.5953
宅	-11.5953
沦	-11.5954
妄	-11.5969
盲	-11.6013
雾	-11.6025
捧	-11.6026
毕	-11.6026
蠢	-11.6099
镇	-11.6169
耽	-11.6172
伐	-11.6247
贺	-11.6248
虑	-11.6269
艰	-11.6317
履	-11.6322
黏	-11.6322
绵	-11.6323
鉴	-11.6389
挥	-11.639
盐	-11.6393
溢	-11.6394
眉	-11.6395
棵	-11.6395
勇	-11.6463
绪	-11.6464
晓	-11.6465
怎	-11.6468
艳	-11.6472
旗	-11.6473
裤	-11.6473
杆	-11.6546
剪	-11.6546
|	-11.6547
攒	-11.655
奉	-11.6625
矮	-11.6627
谊	-11.663
○	-11.6641
尊	-11.6694
鞭	-11.6699
挠	-11.6702
―	-11.6703
届	-11.6704
吉	-11.6704
诱	-11.677
稿	-11.678
饥	-11.6781
溜	-11.6781
赔	-11.6781
践	-11.6781
岸	-11.6857
梁	-11.6857
吊	-11.6859
宫	-11.6859
隙	-11.686
揣	-11.686
扩	-11.6908
弛	-11.6934
赴	-11.6938
沾	-11.6938
袋	-11.7011
衡	-11.7012
囊	-11.7017
窥	-11.7017
唐	-11.7019
姓	-11.702
搁	-11.702
况	-11.705
崇	-11.7097
妆	-11.7098
爹	-11.7098
兄	-11.7098
俭	-11.7098
册	-11.7099
仗	-11.7099
咽	-11.7177
帽	-11.7181
凝	-11.7182
艾	-11.7183
邀	-11.7221
仙	-11.7258
荷	-11.7261
抑	-11.7261
柜	-11.7262
裁	-11.7263
揽	-11.7263
蝶	-11.7264
滥	-11.7266
霸	-11.7331
幕	-11.7342
盼	-11.7343
睹	-11.7343
琴	-11.7344
钩	-11.7344
酱	-11.7345
革	-11.7345
亿	-11.7345
乘	-11.7429
捷	-11.7429
纠	-11.7507
谱	-11.7509
洛	-11.7511
掐	-11.7511
憾	-11.7512
殊	-11.7512
哎	-11.7514
斤	-11.7514
询	-11.7558
嚼	-11.7596
耕	-11.7597
杜	-11.7597
昧	-11.7598
植	-11.7598
埃	-11.7598
猪	-11.7599
豪	-11.7677
皇	-11.7681
瑕	-11.7681
箭	-11.7684
挚	-11.7766
厘	-11.7766
狭	-11.7767
颠	-11.7767
梯	-11.7769
赠	-11.777
奸	-11.7772
购	-11.7845
灾	-11.7853
宰	-11.7855
勒	-11.7855
盟	-11.7856
彷	-11.7856
枝	-11.794
戳	-11.7944
舌	-11.7945
渡	-11.7992
察	-11.8024
屑	-11.803
惧	-11.803
垫	-11.8031
叙	-11.8031
秉	-11.8032
喷	-11.8034
尤	-11.811
阔	-11.8115
媳	-11.8117
芽	-11.8119
盆	-11.8122
寥	-11.8122
忽	-11.8122
趟	-11.8122
杰	-11.8209
掺	-11.8211
串	-11.8211
澡	-11.8211
筑	-11.8212
液	-11.8213
诈	-11.8214
旅	-11.8279
魄	-11.8302
裹	-11.8302
纽	-11.8302
杠	-11.8303
妨	-11.8337
攀	-11.8388
坡	-11.839
谷	-11.8391
循	-11.8393
仁	-11.8394
啃	-11.8394
腐	-11.8395
党	-11.8481
擅	-11.8481
寸	-11.8482
杨	-11.8485
浇	-11.8487
州	-11.8488
茫	-11.857
链	-11.8575
勃	-11.8577
懵	-11.8578
遣	-11.8579
献	-11.8579
贸	-11.858
卓	-11.8581
蜜	-11.8581
淫	-11.867
瓦	-11.8673
航	-11.8674
辆	-11.8674
诞	-11.8674
⊙	-11.8675
焉	-11.8676
馁	-11.8676
陶	-11.8677
Q	-11.8677
禅	-11.8679
驶	-11.8766
怂	-11.877
癌	-11.8866
苍	-11.8866
炒	-11.8867
嗜	-11.8868
罐	-11.8869
婶	-11.887
疫	-11.89
腺	-11.8955
叔	-11.896
援	-11.8961
坠	-11.8961
洪	-11.8961
伞	-11.8968
婆	-11.9029
庸	-11.9058
誓	-11.906
彻	-11.906
呕	-11.906
济	-11.906
〰	-11.906
恕	-11.9062
钉	-11.9063
卑	-11.9155
刹	-11.9158
府	-11.9158
暇	-11.9159
腕	-11.9159
踪	-11.9159
懈	-11.9159
誉	-11.9159
酬	-11.9253
挽	-11.9255
仿	-11.9259
脂	-11.9259
驻	-11.926
译	-11.9261
泼	-11.9263
拓	-11.9357
典	-11.9357
哺	-11.9359
๑	-11.936
庄	-11.9361
姿	-11.9362
磁	-11.9362
蹭	-11.946
媒	-11.946
韧	-11.9461
弗	-11.9465
慎	-11.9561
衬	-11.9566
<	-11.9566
拐	-11.9568
x	-11.9663
雄	-11.9669
搏	-11.9669
刑	-11.967
兑	-11.9671
陋	-11.9671
嘿	-11.9672
晰	-11.9761
V	-11.9771
衍	-11.9773
汤	-11.9773
棍	-11.9774
泰	-11.9775
斩	-11.9776
́	-11.9777
绷	-11.9875
企	-11.9876
肾	-11.9877
這	-11.9877
廉	-11.9878
蛇	-11.9879
饼	-11.9879
栏	-11.9879
窍	-11.988
猴	-11.9881
肿	-11.9882
咨	-11.9883
竹	-11.9883
〔	-11.9885
〕	-11.9886
沟	-11.9913
竟	-11.9978
朋	-11.998
烙	-11.9986
浴	-11.9986
斜	-11.9988
颤	-11.9989
库	-11.999
津	-11.999
宾	-11.999
陀	-11.9992
冬	-12.0081
⏩	-12.009
溯	-12.0097
煮	-12.0098
丛	-12.0098
咳	-12.0099
淌	-12.01
愛	-12.02
肆	-12.0206
枪	-12.0206
兆	-12.0206
睬	-12.0208
晶	-12.0208
希	-12.0209
驴	-12.021
祈	-12.021
挫	-12.031
摒	-12.0317
淘	-12.0318
涂	-12.0319
孰	-12.0322
罢	-12.0333
剑	-12.0429
膀	-12.0429
蕴	-12.0429
棋	-12.043
墨	-12.0431
辉	-12.0432
霍	-12.0432
溃	-12.0432
咸	-12.0432
撤	-12.0433
芒	-12.0541
瞧	-12.0543
烫	-12.0544
酌	-12.0544
鸣	-12.0545
麦	-12.0545
迪	-12.0545
柏	-12.0546
奏	-12.0632
喉	-12.0656
咯	-12.0656
翅	-12.0658
窘	-12.0658
唉	-12.0662
悯	-12.0662
疤	-12.0664
域	-12.0739
沼	-12.0775
蹦	-12.0776
螺	-12.0777
欣	-12.0777
岳	-12.0777
伪	-12.0778
狐	-12.0883
昨	-12.0888
携	-12.089
宏	-12.0891
嘱	-12.0891
胀	-12.0894
兜	-12.0895
Z	-12.0896
捅	-12.0897
赋	-12.1002
申	-12.101
疮	-12.1011
磕	-12.1013
拢	-12.1014
岔	-12.1014
伍	-12.1014
肋	-12.1015
汁	-12.1016
伊	-12.1129
蔓	-12.1132
裙	-12.1133
逾	-12.1133
贤	-12.1135
舔	-12.1135
湿	-12.1254
掰	-12.1255
觅	-12.1255
拽	-12.1255
豁	-12.1256
唬	-12.1257
劈	-12.1258
糕	-12.1308
拥	-12.1375
掏	-12.1375
贞	-12.1376
凤	-12.1377
梅	-12.1377
扼	-12.1378
丫	-12.1378
灌	-12.1378
乞	-12.1378
朱	-12.1379
蒂	-12.138
腆	-12.1381
琐	-12.1391
葩	-12.1502
宗	-12.1503
钮	-12.1503
悸	-12.1503
粮	-12.1503
恳	-12.1503
魅	-12.1503
`	-12.1505
饶	-12.1506
矣	-12.1506
概	-12.1619
愚	-12.1627
摧	-12.1628
框	-12.1629
茧	-12.163
苟	-12.1631
叉	-12.1631
菌	-12.1632
柴	-12.1634
玄	-12.1635
贝	-12.175
稻	-12.1754
钓	-12.1757
嘲	-12.1758
障	-12.1761
堡	-12.1761
裕	-12.1886
穴	-12.1887
乙	-12.1887
為	-12.1887
寡	-12.1888
褪	-12.1888
枯	-12.1889
曰	-12.189
驰	-12.189
粒	-12.189
唠	-12.189
邻	-12.1891
痕	-12.1893
醋	-12.2014
茄	-12.2015
驳	-12.2017
蔬	-12.2019
娩	-12.2019
诫	-12.202
筒	-12.2021
汽	-12.2022
跪	-12.2022
眷	-12.2022
肚	-12.2146
梗	-12.2152
酗	-12.2152
韩	-12.2153
悖	-12.2154
翔	-12.2155
驼	-12.2155
洒	-12.2156
汇	-12.2281
蹲	-12.2284
婉	-12.2286
盗	-12.2286
氧	-12.2288
冻	-12.2288
彰	-12.2289
叮	-12.2289
恍	-12.2289
钢	-12.2289
惶	-12.229
庞	-12.2291
盒	-12.2292
個	-12.2415
什	-12.2423
钝	-12.2424
邋	-12.2425
缕	-12.2426
驭	-12.2426
咪	-12.2426
墓	-12.2427
逊	-12.2428
径	-12.2438
來	-12.2556
朦	-12.2563
悉	-12.2563
颈	-12.2563
卜	-12.2564
囤	-12.2565
柳	-12.2566
芬	-12.2566
凸	-12.2566
刁	-12.2566
跤	-12.2566
庭	-12.2672
培	-12.2673
盯	-12.2684
弦	-12.2703
弈	-12.2703
仓	-12.2703
玲	-12.2704
虹	-12.2704
契	-12.2704
芳	-12.2705
羽	-12.2706
锤	-12.2706
孩	-12.2814
兮	-12.2842
肢	-12.2843
會	-12.2843
妮	-12.2845
‍	-12.2845
键	-12.2847
侄	-12.2847
遢	-12.2847
翁	-12.2847
窃	-12.2848
川	-12.2849
殆	-12.285
帝	-12.2953
揉	-12.2991
垂	-12.2993
榜	-12.2993
葬	-12.2994
锐	-12.2994
惭	-12.2994
們	-12.3136
飙	-12.3139
咎	-12.3139
萎	-12.3139
舟	-12.314
橡	-12.314
砖	-12.3141
祥	-12.3141
🤗	-12.3142
晦	-12.3285
q	-12.3287
拾	-12.3288
茬	-12.3288
纲	-12.3289
寿	-12.329
桃	-12.329
谧	-12.329
臣	-12.3291
淑	-12.3294
j	-12.3433
蔑	-12.3436
召	-12.3437
逸	-12.3438
坟	-12.3439
撼	-12.344
迅	-12.3441
嚷	-12.3442
恬	-12.3442
'	-12.3442
慧	-12.3443
砍	-12.3444
屎	-12.359
驯	-12.359
庇	-12.3592
侠	-12.3594
凯	-12.3595
赐	-12.3596
甄	-12.3597
骄	-12.3598
县	-12.3598
熏	-12.3599
谎	-12.3679
籍	-12.3704
肌	-12.3745
喻	-12.3747
宵	-12.3748
朴	-12.3749
泽	-12.3749
殴	-12.3749
珠	-12.3751
瞬	-12.3752
撇	-12.3753
劫	-12.3753
剖	-12.3754
悄	-12.3754
晃	-12.3754
柱	-12.3905
鹿	-12.3905
毅	-12.3905
倦	-12.3909
婿	-12.3909
郎	-12.391
拧	-12.3913
哲	-12.4056
瑟	-12.4063
巅	-12.407
枚	-12.4071
K	-12.4071
榨	-12.4072
倔	-12.4072
亢	-12.4072
U	-12.4074
慰	-12.4228
椅	-12.4231
胶	-12.4232
披	-12.4233
🤔	-12.4235
曝	-12.4236
膊	-12.4238
岂	-12.4274
呈	-12.4347
厂	-12.4389
麼	-12.4395
莱	-12.4397
G	-12.4397
脖	-12.4399
妖	-12.44
葛	-12.44
Y	-12.44
棉	-12.44
纹	-12.4401
壤	-12.4401
鲸	-12.4401
嗓	-12.4402
怦	-12.4402
栽	-12.4402
雌	-12.4402
伟	-12.4555
媽	-12.4561
{	-12.4566
J	-12.4568
硕	-12.4569
媚	-12.457
耶	-12.4571
惘	-12.4571
寝	-12.4572
卵	-12.4572
瑾	-12.4573
铭	-12.4574
乒	-12.4574
暮	-12.4574
乃	-12.4725
殖	-12.4741
谬	-12.4742
翼	-12.4742
辙	-12.4743
矜	-12.4745
碑	-12.4745
懦	-12.4745
菲	-12.4745
▽	-12.4747
嫖	-12.4747
冥	-12.4869
婷	-12.491
疚	-12.4913
晾	-12.4916
斑	-12.4916
袜	-12.4917
恭	-12.4919
蜷	-12.4919
崖	-12.4919
搅	-12.492
芝	-12.492
漆	-12.492
扮	-12.492
芸	-12.4921
罕	-12.4921
吝	-12.4921
帖	-12.5092
闺	-12.5095
锦	-12.5096
≠	-12.5096
丹	-12.5096
绎	-12.5096
膝	-12.5096
肖	-12.5098
酵	-12.5098
滔	-12.5098
嚣	-12.5099
睐	-12.51
慨	-12.5256
绩	-12.5259
碌	-12.5264
Ю	-12.5274
躯	-12.5275
旷	-12.5276
莽	-12.5277
胁	-12.5277
巾	-12.5278
粥	-12.5278
抠	-12.5278
兔	-12.5278
洲	-12.5279
沐	-12.5279
W	-12.5279
逞	-12.5279
桑	-12.5279
帘	-12.5279
匿	-12.5281
睿	-12.5281
讷	-12.5281
唾	-12.5284
說	-12.5454
乍	-12.5458
勉	-12.5459
秽	-12.546
浸	-12.546
瘤	-12.5462
隆	-12.5463
皱	-12.5463
酿	-12.5464
壶	-12.5464
靡	-12.5464
桎	-12.5465
砺	-12.5465
椎	-12.5465
喧	-12.5465
雇	-12.5466
崭	-12.5466
浩	-12.5469
晋	-12.562
矢	-12.5651
竖	-12.5652
焕	-12.5652
帐	-12.5652
糙	-12.5653
鄙	-12.5653
筷	-12.5653
伺	-12.5653
冤	-12.5654
萨	-12.5654
尬	-12.5654
膨	-12.5655
烤	-12.5656
搓	-12.5657
鸿	-12.5657
叛	-12.5837
z	-12.5843
殷	-12.5844
佐	-12.5845
袖	-12.5845
聪	-12.5846
荆	-12.5847
犬	-12.5847
揍	-12.5848
蚊	-12.5849
遵	-12.6028
話	-12.6034
陌	-12.6038
蚀	-12.6039
🤝	-12.6039
搪	-12.6041
渗	-12.6041
沌	-12.6041
憎	-12.6042
骆	-12.6043
腥	-12.6044
嫩	-12.6045
央	-12.6045
沒	-12.6238
狡	-12.6238
戈	-12.6238
努	-12.6239
沸	-12.6241
淤	-12.6241
倚	-12.6241
奴	-12.6241
糗	-12.6241
迂	-12.6242
郑	-12.6245
撸	-12.6246
沃	-12.644
魂	-12.6444
奠	-12.6444
钦	-12.6444
囚	-12.6445
犒	-12.6446
佬	-12.6446
碳	-12.6448
怡	-12.6449
ヾ	-12.645
堪	-12.6499
暂	-12.6512
涯	-12.655
對	-12.6645
邦	-12.665
痔	-12.6651
泊	-12.6651
吟	-12.6651
戾	-12.6652
孟	-12.6652
茨	-12.6652
棚	-12.6652
實	-12.6653
漱	-12.6653
俯	-12.6653
燥	-12.6654
邮	-12.6654
俊	-12.6655
夷	-12.6655
拗	-12.6655
叭	-12.6656
嘉	-12.6656
哑	-12.6656
狮	-12.6657
殿	-12.6658
匹	-12.6849
曹	-12.6852
醇	-12.6857
析	-12.6861
¶	-12.6863
拟	-12.6863
桩	-12.6864
昵	-12.6865
轰	-12.6865
枉	-12.6866
捂	-12.6868
谛	-12.6868
柄	-12.6869
秦	-12.6872
乔	-12.6872
過	-12.7074
忆	-12.7078
匪	-12.708
昔	-12.7082
堕	-12.7083
衔	-12.7083
捣	-12.7083
萝	-12.7083
蚁	-12.7083
渲	-12.7084
茅	-12.7084
拎	-12.7087
玛	-12.7088
△	-12.7089
徐	-12.7301
瑞	-12.7303
鲍	-12.7303
允	-12.7304
窦	-12.7304
煌	-12.7305
瞻	-12.7307
僧	-12.7307
忡	-12.7307
刨	-12.7307
枫	-12.7307
郊	-12.7307
纱	-12.7308
矩	-12.7308
蛙	-12.7308
舅	-12.731
§	-12.7528
褒	-12.7532
茂	-12.7533
呦	-12.7533
谜	-12.7533
嗅	-12.7534
涕	-12.7534
韵	-12.7535
霜	-12.7537
噪	-12.7725
呃	-12.7759
堤	-12.7761
翩	-12.7762
歧	-12.7763
宴	-12.7764
萍	-12.7765
拮	-12.7766
咕	-12.7766
挪	-12.7766
杭	-12.7768
蜂	-12.7769
泉	-12.7769
跷	-12.7772
姻	-12.7985
毫	-12.7986
幽	-12.8003
凳	-12.8004
辑	-12.8004
刮	-12.8005
喽	-12.8005
鹅	-12.8006
捶	-12.8007
🦄	-12.8008
脾	-12.8244
瘫	-12.8244
掂	-12.8247
蹈	-12.8247
寓	-12.8248
阀	-12.8248
猝	-12.8248
烹	-12.8249
尸	-12.825
缸	-12.8251
∇	-12.8251
祷	-12.8252
轴	-12.8495
岭	-12.8495
阈	-12.8496
倡	-12.8497
筛	-12.8497
阐	-12.8498
袒	-12.8499
洽	-12.8501
蔡	-12.8502
覺	-12.8746
▷	-12.8747
遂	-12.875
厉	-12.8752
掀	-12.8753
蚂	-12.8753
嗑	-12.8754
雀	-12.8754
絮	-12.8754
啪	-12.8754
坛	-12.8755
旨	-12.8755
棱	-12.8755
帕	-12.8758
捐	-12.8759
矿	-12.876
浑	-12.8998
⏫	-12.9002
⋯	-12.9005
奕	-12.9012
碾	-12.9015
雕	-12.9017
迭	-12.9017
茁	-12.9017
涟	-12.9017
绒	-12.9018
役	-12.9018
犀	-12.9019
恃	-12.902
遏	-12.9022
京	-12.9281
盔	-12.9284
拴	-12.9285
贼	-12.9286
烘	-12.9287
蒸	-12.9288
坍	-12.9288
钙	-12.9288
媛	-12.9289
丘	-12.9289
紫	-12.929
贩	-12.929
萦	-12.929
渊	-12.9291
稚	-12.9291
燕	-12.9292
橘	-12.9292
峙	-12.9557
別	-12.9558
}	-12.956
售	-12.9561
瑜	-12.9562
傍	-12.9563
卿	-12.9563
汹	-12.9563
稽	-12.9563
哮	-12.9564
捆	-12.9564
诧	-12.9565
秤	-12.9565
杞	-12.9565
咖	-12.9565
哗	-12.9567
惚	-12.9567
葱	-12.9567
颂	-12.9568
娼	-12.9573
汀	-12.9841
ㄓ	-12.9842
樣	-12.9844
览	-12.9847
弓	-12.9848
泻	-12.9848
剔	-12.9849
嫉	-12.985
诶	-12.9851
黎	-12.9851
嘘	-12.9851
址	-12.9851
佣	-12.9851
梳	-12.9852
匀	-12.9852
憨	-12.9852
僻	-12.9852
凰	-12.9853
垒	-12.9853
￼	-12.9853
渔	-12.9854
暑	-12.9855
肛	-12.9856
煤	-12.9856
蜗	-12.9857
仔	-13.0133
問	-13.014
铛	-13.0141
缈	-13.0143
熄	-13.0143
膏	-13.0143
屠	-13.0143
扁	-13.0144
歹	-13.0144
溪	-13.0144
偎	-13.0144
丸	-13.0145
靓	-13.0146
涣	-13.0146
侯	-13.0147
澈	-13.0147
噩	-13.0147
辟	-13.0148
×	-13.0149
叽	-13.0153
旦	-13.0438
還	-13.0442
庙	-13.0445
吴	-13.0446
嗦	-13.0447
怠	-13.0448
坊	-13.0448
趴	-13.045
吭	-13.045
赵	-13.045
峻	-13.0451
斧	-13.0451
唇	-13.0453
彤	-13.0454
骤	-13.052
抒	-13.0748
咐	-13.0754
梨	-13.0756
聘	-13.0756
焦	-13.0757
腊	-13.0758
甸	-13.0759
鼾	-13.0759
柯	-13.0759
呜	-13.0759
摹	-13.0761
遛	-13.0761
怅	-13.0762
愣	-13.0762
盏	-13.0762
簧	-13.0762
董	-13.0763
樊	-13.0763
莲	-13.0763
嘟	-13.0764
矛	-13.0764
槽	-13.0765
迥	-13.0766
時	-13.1072
孽	-13.1074
澳	-13.1077
沓	-13.1077
藤	-13.1078
奈	-13.1081
禀	-13.1081
莉	-13.1081
寐	-13.1082
嗷	-13.1083
珊	-13.1083
佑	-13.1083
咧	-13.1083
蓬	-13.1084
〗	-13.1085
趾	-13.1085
〖	-13.1085
馅	-13.1085
哼	-13.1086
讥	-13.1087
篱	-13.1087
厢	-13.1088
豫	-13.1088
馋	-13.1089
題	-13.1411
濒	-13.1412
胺	-13.1413
仆	-13.1413
儒	-13.1414
纾	-13.1415
涛	-13.1415
嬉	-13.1416
癔	-13.1416
內	-13.1417
秃	-13.1417
🧡	-13.1417
淀	-13.1418
沧	-13.1418
瓣	-13.1418
杖	-13.1418
帆	-13.1419
毋	-13.1419
孜	-13.142
蛾	-13.142
蝇	-13.142
岩	-13.1421
於	-13.1757
讓	-13.1759
呛	-13.1759
枢	-13.1759
烛	-13.1761
捞	-13.1762
敷	-13.1762
锚	-13.1763
炉	-13.1763
滨	-13.1763
冶	-13.1763
毯	-13.1764
翰	-13.1764
焰	-13.1765
嗤	-13.1765
畜	-13.1766
羡	-13.177
督	-13.1793
掠	-13.2109
赦	-13.211
愉	-13.211
宇	-13.2111
谤	-13.2113
惩	-13.2116
琪	-13.2117
鸦	-13.2118
ᴗ	-13.2118
嵌	-13.2119
亘	-13.2119
喃	-13.2119
祭	-13.2119
淇	-13.212
丨	-13.212
◇	-13.2121
芹	-13.2122
凄	-13.2122
搂	-13.2123
颖	-13.2124
ぴ	-13.2471
妒	-13.2478
诽	-13.2482
绞	-13.2485
瞩	-13.2486
恪	-13.2487
蕾	-13.2487
涅	-13.2488
厮	-13.2488
ㄛ	-13.2488
亟	-13.2489
汪	-13.2489
鸩	-13.249
娜	-13.249
魁	-13.249
沫	-13.2491
爪	-13.2491
莹	-13.2493
迸	-13.2493
郭	-13.2494
卢	-13.2495
敞	-13.2682
鹰	-13.2859
赫	-13.2865
親	-13.2866
睫	-13.2869
扒	-13.2871
栋	-13.2872
俏	-13.2872
關	-13.2874
靶	-13.2874
遐	-13.2874
诡	-13.2874
潭	-13.2874
啼	-13.2874
韦	-13.2875
灸	-13.2875
蔚	-13.2876
掷	-13.2876
氏	-13.2876
娱	-13.2877
凿	-13.2879
梭	-13.2879
眨	-13.2879
绰	-13.288
栗	-13.288
痣	-13.288
仲	-13.3266
撮	-13.327
勺	-13.3271
崎	-13.3271
翘	-13.3271
瞅	-13.3272
拂	-13.3272
铸	-13.3272
颓	-13.3273
鳞	-13.3274
躬	-13.3274
踮	-13.3275
囧	-13.3275
鸽	-13.3275
纬	-13.3275
龟	-13.3276
霆	-13.3276
悍	-13.3277
🥰	-13.3278
哔	-13.3278
宕	-13.3279
炫	-13.3282
Ш	-13.3672
距	-13.3679
矫	-13.3685
押	-13.3687
憩	-13.3687
嗡	-13.3689
哆	-13.369
慑	-13.3691
∀	-13.3694
拣	-13.3697
喳	-13.3698
谅	-13.4122
藉	-13.4123
耿	-13.4128
澜	-13.4569
盾	-13.4571
旺	-13.4576
粹	-13.4579
械	-13.4579
诵	-13.5053
讽	-13.5059
睦	-13.5489
竿	-13.5555
汰	-13.5556
励	-13.5558
噜	-13.5559
刃	-13.6083
⇨	-13.6627
菇	-13.6633
噬	-13.6633
琢	-13.6635
卦	-13.6641
啰	-13.7227
霾	-13.7227
泳	-13.7231
蛛	-13.7233
锻	-13.785
淹	-13.8507
戚	-13.8509
泣	-13.8513
括	-13.8515
脆	-13.8517
玫	-13.9232
惮	-13.9232
缚	-13.9236
杏	-13.9996
霉	-13.9998
荐	-14.0002
侮	-14.0835
缪	-14.0838
肽	-14.0847
谐	-14.167
煎	-14.1728
赎	-14.173
沛	-14.1745
俄	-14.1745
灼	-14.1749
槛	-14.1749
绽	-14.273
偕	-14.2743
芥	-14.2745
堑	-14.3853
渠	-14.3854
̀	-14.3856
啡	-14.3856
羁	-14.3859
泌	-14.5095
檐	-14.5098
御	-14.5109
厕	-14.6514
蒜	-14.6532
悼	-14.6533
睛	-14.6533
潇	-14.6535
灿	-14.6536
苛	-14.6541
惰	-14.817
侣	-14.8176
笃	-14.8196
瑶	-14.8202
尴	-14.8205
瑰	-14.8209
隶	-15.0188
贡	-15.0188
肃	-15.0198
讶	-15.0201
牲	-15.2674
侃	-15.2695
恢	-15.2698
掘	-15.2701
狄	-15.2704
扉	-15.586
惫	-15.6026
馨	-15.603
伽	-15.6035
绍	-15.6037
藕	-15.6037
绸	-16.1
浏	-16.1019
逻	-16.1024
讪	-16.1028
倘	-16.103
怖	-16.103
敛	-16.103
谴	-16.1032
汲	-16.1033
浦	-16.1034
疙	-16.1034
懊	-16.1036
诅	-16.1041
舆	-16.106
蜕	-17.0655
宙	-17.0883
髅	-17.0913
骷	-17.0914
酝	-17.0915
蛔	-17.0916
缜	-17.0917
筝	-17.0918
瘠	-17.0919
膳	-17.092
澎	-17.0921
湃	-17.0922
慷	-17.0923
辕	-17.0924
蹉	-17.0925
踵	-17.0926
跎	-17.0927
绛	-17.0928
瘁	-17.0929
痿	-17.093
崛	-17.0931
◾	-17.0932
讼	-17.0933
瞌	-17.0934
拇	-17.0935
幌	-17.0936
‿	-17.0937
憔	-17.0938
悴	-17.0939
彬	-17.094
呱	-17.0941
◕	-17.0942
鸵	-17.0943
蔼	-17.0944
滕	-17.0945
邂	-17.0946
逅	-17.0947
抨	-17.0948
黯	-17.0949
躇	-17.095
踌	-17.0951
葡	-17.0952
萄	-17.0953
缥	-17.0954
氓	-17.0955
馒	-17.0956
阉	-17.0957
砝	-17.0958
岌	-17.0959
兀	-17.096
镳	-17.0961
辄	-17.0962
狈	-17.0963
漪	-17.0964
゙	-17.0965
饪	-17.0966
暄	-17.0967
畸	-17.0968
惺	-17.0969
辗	-17.097
绚	-17.0971
熠	-17.0972
咙	-17.0973
呻	-17.0974
̆	-17.0975
婪	-17.0976
忏	-17.0977
铠	-17.0978
扪	-17.0979
丐	-17.098
髓	-17.0981
肪	-17.0982
懑	-17.0983
┈	-17.0984
圳	-17.0985
侬	-17.0986
惬	-17.0987
喋	-17.0988
耘	-17.0989
鼹	-17.099
蜚	-17.0991
啬	-17.0992
佼	-17.0993
梏	-17.0994
缤	-17.0995
猬	-17.0996
咀	-17.0997
狸	-17.0998
乓	-17.0999
衅	-17.1
斟	-17.1001
胳	-17.1002
惴	-17.1003
骛	-17.1004
嗽	-17.1005
咄	-17.1006
▪	-17.1007
嘈	-17.1008
胧	-17.1009
辍	-17.101
蹶	-17.1011
◍	-17.1012
谩	-17.1013
痹	-17.1014
诠	-17.1015
腼	-17.1016
愫	-17.1017
侥	-17.1018
疵	-17.1019
淆	-17.102
锢	-17.1021
赡	-17.1022
徨	-17.1023
聆	-17.1024
譬	-17.1024
阱	-17.1025
刍	-17.1026
┅	-17.1026
瘩	-17.1027
侈	-17.1027
兢	-17.1028
漩	-17.1029
惦	-17.103
钥	-17.1031
̅	-17.1031
蝴	-17.1032
窒	-17.1033
捍	-17.1033
痊	-17.1034
匙	-17.1035
傅	-17.1035
姥	-17.1036
诋	-17.1036
蘑	-17.1037
猥	-17.1038
肮	-17.1039
紊	-17.104
漓	-17.1041
畴	-17.1042
徘	-17.1043
徊	-17.1044
袱	-17.1045
忑	-17.1046
巩	-17.1047
忐	-17.1047
濡	-17.1047
璃	-17.1048
玻	-17.1049
蹴	-17.105
阂	-17.1051
秩	-17.1051
苹	-17.1051
坷	-17.1052
胞	-17.1053
憬	-17.1054
憧	-17.1055
枷	-17.1056
匆	-17.1057
澄	-17.1058
̄	-17.1059
拯	-17.106
ᨐ	-17.1061
惕	-17.1062
寞	-17.1063
抉	-17.1064
垃	-17.1065
圾	-17.1066
辜	-17.1067
隘	-17.1067
匮	-17.1068
沮	-17.1069
⃣	-17.107
牺	-17.1071
暧	-17.1072
氛	-17.1073
馈	-17.1074
惋	-17.1075
础	-17.1075
