<unk>	0
<s>	0
</s>	0
,	-2.17609
。	-3.29981
的	-3.92641
你	-4.69125
了	-5.06253
?	-5.11002
和	-5.11281
是	-5.13709
自己	-5.21797
在	-5.26508
我	-5.39884
、	-5.54936
有	-5.57636
我们	-5.70524
不	-5.71766
他	-5.73856
“	-5.77153
!	-5.82767
也	-5.84027
去	-5.94918
就	-5.97315
可以	-5.99449
”	-6.05437
而	-6.06214
会	-6.08178
所以	-6.11464
呢	-6.18114
的时候	-6.1961
她	-6.19623
没有	-6.23199
因为	-6.25841
但是	-6.25961
对	-6.27345
如果	-6.28249
:	-6.28634
但	-6.29302
要	-6.32832
人	-6.33565
来	-6.34096
都	-6.35028
的人	-6.3577
可能	-6.37884
一个	-6.38794
楼主	-6.39444
就是	-6.41773
他们	-6.42401
或者	-6.43917
需要	-6.45374
这	-6.45425
好	-6.49406
一些	-6.49992
中	-6.50482
题主	-6.50872
还是	-6.51066
孩子	-6.51485
从	-6.53415
这个	-6.5381
说	-6.5426
想	-6.54857
时	-6.56548
父母	-6.57185
这样	-6.57961
其实	-6.58238
那么	-6.5828
上	-6.58737
被	-6.62055
别人	-6.62094
与	-6.63437
很	-6.63962
能	-6.68305
对方	-6.69231
学习	-6.72929
你的	-6.73733
问题	-6.75773
多	-6.7728
现在	-6.77908
吗	-6.78182
一	-6.7829
到	-6.79208
做	-6.81374
情绪	-6.82377
那	-6.83021
用	-6.83594
自己的	-6.84584
地	-6.84906
工作	-6.84967
】	-6.85585
对于	-6.88476
不是	-6.89016
把	-6.8996
这种	-6.90772
这些	-6.91282
生活	-6.92567
吧	-6.9468
更	-6.95371
的事情	-6.95466
选择	-6.95703
过	-6.95934
爱	-6.96661
都是	-6.9676
只是	-6.97178
您	-6.97433
比如	-6.98071
能够	-7.0018
又	-7.01753
;	-7.02467
让自己	-7.02932
再	-7.04548
性	-7.05703
也是	-7.06596
觉得	-7.06732
【	-7.07365
你好	-7.07377
还	-7.07578
看	-7.08839
大	-7.09353
什么	-7.09431
的话	-7.09692
比较	-7.12136
关系	-7.12625
改变	-7.13371
后	-7.141
感觉	-7.14174
为	-7.14964
着	-7.15184
不要	-7.1559
下	-7.15666
很多	-7.16832
里	-7.16862
你们	-7.18999
祝好	-7.19792
(	-7.1992
先	-7.20338
想要	-7.20743
然后	-7.20999
朋友	-7.21163
它	-7.22181
让你	-7.22786
沟通	-7.22817
喜欢	-7.23611
当	-7.24134
已经	-7.25527
开始	-7.26273
面对	-7.27283
就会	-7.27357
内心	-7.28007
自我	-7.2931
的问题	-7.30614
让	-7.30732
也会	-7.30754
等	-7.31152
一下	-7.31482
之后	-7.32011
心	-7.32139
首先	-7.32199
不能	-7.33487
或	-7.33685
也许	-7.34654
焦虑	-7.36483
妈妈	-7.36507
最后	-7.36762
看到	-7.37638
无法	-7.38019
通过	-7.38144
希望	-7.38196
努力	-7.38369
而且	-7.39315
真的	-7.39322
得	-7.39486
一个人	-7.39502
甚至	-7.40824
小	-7.41266
或许	-7.41312
当然	-7.4337
进行	-7.44215
应该	-7.45102
非常	-7.45182
时间	-7.4535
出	-7.46845
不好	-7.47173
如何	-7.47195
影响	-7.47382
害怕	-7.47796
却	-7.47859
心理	-7.48237
是否	-7.48448
一点	-7.4847
没	-7.48776
点	-7.49795
最	-7.5025
这是	-7.50536
并	-7.51502
以	-7.5163
并且	-7.52134
跟	-7.52501
～	-7.52692
你可以	-7.53481
”,	-7.53687
有些	-7.54999
一样	-7.55365
不会	-7.5623
一直	-7.56406
)	-7.56463
当你	-7.58083
以后	-7.58174
还有	-7.59326
我想	-7.59477
压力	-7.5959
虽然	-7.60032
如果你	-7.61144
接受	-7.61458
痛苦	-7.61584
理解	-7.62091
担心	-7.62851
建议	-7.63993
帮助	-7.641
给	-7.65345
是不是	-7.65353
表达	-7.65721
老师	-7.65923
也可以	-7.66128
家庭	-7.66239
他人	-7.66528
等等	-7.6659
总是	-7.66815
只有	-7.67034
事情	-7.67087
找到	-7.6755
对你	-7.68178
对自己	-7.68869
成长	-7.68901
之前	-7.69012
能力	-7.69328
感情	-7.7021
的方式	-7.70292
一种	-7.70356
所	-7.71055
感受	-7.71997
了解	-7.72341
因此	-7.72495
来说	-7.72534
那些	-7.72855
知道	-7.73177
以及	-7.73317
这样的	-7.74073
事	-7.74161
太	-7.74211
啊	-7.7458
为什么	-7.74704
人生	-7.74808
产生	-7.74819
学	-7.75915
特别	-7.7615
可	-7.76977
解决	-7.77274
的感觉	-7.77644
才	-7.77732
同时	-7.78151
思考	-7.78278
行为	-7.78807
的事	-7.78857
个	-7.79105
学会	-7.79199
不同	-7.7928
相处	-7.7949
感到	-7.79612
母亲	-7.79694
一起	-7.79859
比	-7.80697
并不是	-7.80849
将	-7.82015
都会	-7.82092
给你	-7.82235
更加	-7.82314
于	-7.82664
出现	-7.82822
无	-7.82869
感	-7.82975
的情绪	-7.83095
方式	-7.83429
家	-7.83627
那个	-7.83657
才能	-7.83917
不想	-7.84015
我觉得	-7.84127
高	-7.8431
而不是	-7.84622
给自己	-7.84765
状态	-7.8517
而是	-7.85299
像	-7.8607
得到	-7.86217
找	-7.86353
原因	-7.86533
慢慢	-7.86639
发现	-7.86676
子	-7.86788
认为	-7.87473
身体	-7.88185
题主你好	-7.88322
的原因	-7.8839
心里	-7.88479
获得	-7.88655
确实	-7.88753
交流	-7.89455
是一个	-7.89893
打	-7.9001
~	-7.90014
的关系	-7.91009
关注	-7.91067
目标	-7.91629
相信	-7.91904
怎么	-7.92189
社会	-7.92515
似乎	-7.92524
的想法	-7.92606
听	-7.92643
经历	-7.92836
为了	-7.93106
只	-7.93268
的状态	-7.93967
是什么	-7.93979
不知道	-7.94079
继续	-7.95685
生	-7.96241
过去	-7.9626
结果	-7.96407
楼主你好	-7.96886
情况	-7.96997
有时候	-7.9724
关于	-7.97788
存在	-7.98056
方法	-7.98116
尝试	-7.98344
未来	-7.9876
坚持	-7.98884
的地方	-7.99146
家人	-7.99245
在一起	-7.99535
......	-7.99711
发展	-7.9976
每天	-7.99908
走	-8.00198
毕竟	-8.01049
一定	-8.01151
世界和我爱着你	-8.01162
肯定	-8.01445
的行为	-8.01847
真正	-8.029
彼此	-8.03816
越	-8.04075
呀	-8.04123
前	-8.0421
起来	-8.04822
的感受	-8.0492
者	-8.04935
遇到	-8.05038
可是	-8.05299
接纳	-8.05373
去做	-8.05528
看看	-8.05717
伤害	-8.05901
咨询师	-8.063
快乐	-8.06357
主动	-8.06813
自信	-8.06874
要求	-8.0704
谁	-8.07508
经常	-8.07752
处理	-8.07873
情感	-8.08012
抱抱你	-8.08059
作为	-8.08213
方面	-8.08711
可能会	-8.0897
这么	-8.09184
吃	-8.09196
好好	-8.09284
自卑	-8.09643
其他	-8.09703
岁	-8.09871
他的	-8.09944
之	-8.10427
拒绝	-8.10631
只要	-8.10852
的生活	-8.1098
的是	-8.11
保持	-8.11048
分	-8.1142
这件事	-8.11643
家长	-8.11708
向	-8.11777
不过	-8.12001
恐惧	-8.12188
发	-8.12312
控制	-8.12614
分析	-8.12695
这个问题	-8.12712
性格	-8.12953
哦	-8.13059
很难	-8.13542
付出	-8.13794
有点	-8.14056
发生	-8.14122
也有	-8.14198
爱情	-8.14218
咨询	-8.14599
想法	-8.14674
的时间	-8.15038
的东西	-8.15756
长	-8.16066
积极	-8.16348
”。	-8.16651
钱	-8.16665
父亲	-8.16966
世界	-8.17041
结婚	-8.17293
愿意	-8.17745
我们可以	-8.17759
出来	-8.17927
加油	-8.17949
老公	-8.18186
觉得自己	-8.18448
恋爱	-8.18611
一次	-8.18699
紧张	-8.18818
你会	-8.18828
可能是	-8.18857
一定要	-8.18941
的情况	-8.19179
同学	-8.1929
考虑	-8.19364
各种	-8.19456
是因为	-8.19479
成为	-8.19678
就像	-8.19746
不喜欢	-8.1976
容易	-8.19769
是一种	-8.20335
个人	-8.20533
曾经	-8.20542
期待	-8.20712
你现在	-8.20973
即使	-8.21641
那就	-8.21675
目前	-8.21872
离开	-8.22001
决定	-8.22561
更多的	-8.22929
别	-8.22959
导致	-8.23141
环境	-8.23149
完全	-8.23227
完成	-8.23761
专业	-8.23855
如	-8.23874
你自己	-8.24138
好像	-8.24508
直接	-8.2463
问	-8.25037
调整	-8.25294
满足	-8.2536
男友	-8.25363
幸福	-8.25512
并没有	-8.25607
才会	-8.25738
婚姻	-8.26115
困扰	-8.26247
矛盾	-8.26467
。【	-8.26473
和你	-8.26599
本身	-8.26781
年	-8.27084
——	-8.2796
两个人	-8.28237
并不	-8.28356
尊重	-8.28537
分手	-8.28649
有没有	-8.29423
做出	-8.29595
天	-8.29951
开	-8.3003
更多	-8.30144
话	-8.30206
对待	-8.30342
回	-8.30512
会有	-8.30771
说话	-8.30836
建立	-8.30927
怕	-8.31011
把自己	-8.31178
运动	-8.31303
学校	-8.31348
成	-8.31566
压抑	-8.31696
抑郁	-8.31836
变得	-8.31847
以上	-8.32217
纠结	-8.32259
如此	-8.32264
自	-8.32564
放松	-8.32759
新	-8.3279
需求	-8.32802
支持	-8.32826
现实	-8.32838
起	-8.32912
气	-8.33095
有一个	-8.33162
认知	-8.33243
力	-8.33313
习惯	-8.33645
当我们	-8.33711
我也	-8.33821
请	-8.3389
失败	-8.34072
有人	-8.34173
认识	-8.34272
有很多	-8.34805
其次	-8.34832
男朋友	-8.3503
的态度	-8.35166
重	-8.35277
困难	-8.35328
放下	-8.35393
每个人	-8.35417
寻找	-8.35482
三	-8.35705
另外	-8.35905
关心	-8.35938
拥有	-8.35967
成功	-8.36074
》	-8.36333
无论	-8.36717
明白	-8.36819
一般	-8.37182
你也	-8.37211
怎样	-8.37398
逃避	-8.37444
既然	-8.37648
《	-8.37796
具体	-8.37944
试着	-8.38098
有什么	-8.38144
社交	-8.38197
不断	-8.38244
考试	-8.38377
除了	-8.38479
独立	-8.38682
你要	-8.38706
写	-8.38809
大家	-8.38888
之间	-8.39489
不管	-8.39835
让他	-8.40037
一切	-8.40048
手	-8.40407
说明	-8.40498
讲	-8.4074
冲突	-8.41069
也不	-8.41302
头	-8.41359
事件	-8.41579
接触	-8.4165
不敢	-8.41903
照顾	-8.42263
女生	-8.42409
难	-8.42441
难受	-8.42535
带	-8.42628
平时	-8.42742
有了	-8.42854
在意	-8.4304
受	-8.43173
体验	-8.43319
身上	-8.43518
。2.	-8.4376
二	-8.44073
你需要	-8.44444
少	-8.44834
到了	-8.44997
大学	-8.45165
感受到	-8.45321
不太	-8.45486
该	-8.45518
当下	-8.45545
很好	-8.4572
渴望	-8.45947
放弃	-8.46065
自然	-8.46193
花	-8.46238
联系	-8.46326
的心理	-8.4643
都有	-8.4655
的能力	-8.4658
当时	-8.46781
的方法	-8.47014
度	-8.47089
面	-8.47135
以前	-8.47229
反应	-8.47406
追求	-8.47486
不愿意	-8.47678
最近	-8.47727
重新	-8.47739
化	-8.47802
开心	-8.47814
的孩子	-8.48043
的工作	-8.48116
外	-8.48281
变	-8.48418
依赖	-8.48476
或者是	-8.48935
你说	-8.48967
难过	-8.48991
那样	-8.49018
只能	-8.49103
心情	-8.49204
愤怒	-8.49228
才是	-8.49369
我们的	-8.49372
如果是	-8.49765
的过程	-8.50056
由于	-8.50083
的影响	-8.50108
对自己的	-8.50133
:“	-8.50156
她们	-8.50195
身边	-8.5069
分享	-8.50788
不如	-8.50889
你是	-8.5092
心理咨询	-8.51046
心理学	-8.51151
从而	-8.51339
情	-8.51349
。️	-8.51403
领导	-8.51517
也就	-8.51555
总	-8.51716
做好	-8.51999
正常	-8.52043
让我们	-8.52237
生活中	-8.52331
的压力	-8.52445
这件事情	-8.52544
减少	-8.52934
让人	-8.52945
更好的	-8.52958
爸爸	-8.53027
陪伴	-8.53027
玩	-8.53085
不一样	-8.53092
感觉到	-8.53154
这里	-8.53329
往往	-8.53415
来看	-8.53758
经验	-8.53985
她的	-8.53993
敏感	-8.5429
病	-8.54304
第一	-8.54514
治疗	-8.54563
阶段	-8.54659
~。	-8.54855
而已	-8.55285
也没有	-8.5567
两	-8.55734
生气	-8.5576
交往	-8.55765
成绩	-8.55818
行	-8.5602
其	-8.56072
差	-8.56262
双方	-8.56331
来访者	-8.5637
任何	-8.56382
水	-8.565
小时候	-8.56666
因为你	-8.56685
不用	-8.56818
期	-8.56902
见	-8.56922
你在	-8.57047
是你	-8.5719
互相	-8.57216
离婚	-8.57365
的感情	-8.57397
自身	-8.57435
提升	-8.57457
别人的	-8.57479
有关	-8.57487
共同	-8.57522
相	-8.57624
原生家庭	-8.57822
适应	-8.57952
老	-8.5801
当中	-8.58152
同样	-8.58298
我的	-8.58381
新的	-8.58447
改善	-8.5864
根据	-8.58713
包括	-8.58926
死	-8.59114
后来	-8.59146
本	-8.59259
做到	-8.59323
拿	-8.59561
学生	-8.59879
重要	-8.5995
真	-8.60149
表现	-8.60183
住	-8.60209
聊天	-8.60368
不够	-8.60408
强	-8.60931
的朋友	-8.61173
孤独	-8.61228
值得	-8.61325
信任	-8.616
就可以	-8.61674
造成	-8.61744
计划	-8.61744
父母的	-8.62034
因素	-8.62053
失去	-8.62143
力量	-8.62393
很多人	-8.62453
描述	-8.62513
受到	-8.62809
东西	-8.63205
思维	-8.63244
那种	-8.63443
模式	-8.63659
好的	-8.63796
️	-8.6393
倾诉	-8.6421
安全感	-8.64471
口	-8.64482
什么样的	-8.64905
掉	-8.6502
低	-8.65238
一段	-8.65292
解决问题	-8.65439
的经历	-8.65476
避免	-8.65522
考	-8.65618
快	-8.65678
给予	-8.65707
同	-8.65717
#	-8.65818
就要	-8.66029
是个	-8.66073
你觉得	-8.66119
在你	-8.66254
让我	-8.6628
买	-8.66309
达到	-8.66507
方向	-8.66564
太多	-8.6676
很多时候	-8.66939
及时	-8.67066
和他	-8.67428
注意	-8.67516
信息	-8.67645
不了	-8.67801
放	-8.68231
最终	-8.68287
家里	-8.68309
最好	-8.68425
自己的情绪	-8.6845
美好	-8.68552
机会	-8.68707
的需求	-8.68716
也要	-8.68799
越来越	-8.68807
心理咨询师	-8.68961
谈	-8.6897
行动	-8.69128
人际关系	-8.69311
丈夫	-8.6933
不需要	-8.69418
比如说	-8.69506
所有	-8.69511
3	-8.69554
读	-8.69704
由	-8.69947
有一些	-8.6996
叫	-8.6999
人们	-8.70001
承受	-8.70178
缓解	-8.70401
精神	-8.70512
享受	-8.70608
爱自己	-8.70657
定	-8.70716
动	-8.70809
暂时	-8.71061
实现	-8.71072
也不会	-8.71162
反而	-8.71231
书	-8.71311
健康	-8.71342
因	-8.71446
男生	-8.71676
教育	-8.71704
内在	-8.71981
第二	-8.72009
亲密关系	-8.72087
1	-8.72095
同事	-8.72111
属于	-8.72155
抑郁症	-8.72203
变化	-8.72265
形成	-8.72431
有所	-8.72646
不再	-8.72799
真正的	-8.73144
你好呀	-8.7335
就好	-8.73446
知识	-8.73453
难以	-8.73482
烦恼	-8.73689
也不是	-8.73903
讨厌	-8.74039
应该是	-8.74083
一方面	-8.74106
不舒服	-8.74182
于是	-8.74206
生命	-8.74518
作	-8.74617
这一点	-8.74716
会不会	-8.74851
的表现	-8.74914
内心的	-8.74947
内	-8.75069
自责	-8.75116
这个时候	-8.75234
还要	-8.7525
跟你	-8.75266
两个	-8.7539
你就	-8.7556
吵架	-8.75708
美	-8.75721
有着	-8.75729
回答	-8.75798
释放	-8.75965
错	-8.76035
些	-8.7607
里面	-8.76113
答案	-8.76132
长期	-8.76191
认真	-8.76197
你想	-8.76257
程度	-8.76307
是在	-8.76426
医生	-8.76628
深	-8.76714
高考	-8.76721
安全	-8.76894
突然	-8.77063
回到	-8.77113
高中	-8.77199
负责	-8.77307
带来	-8.77421
必须	-8.77432
养	-8.77465
解释	-8.77561
处于	-8.77685
这种情况	-8.77729
寻求	-8.77765
所以你	-8.77814
他们的	-8.77968
心态	-8.78174
活动	-8.78314
多少	-8.78527
哭	-8.78665
准备	-8.78686
怎么样	-8.78797
尽量	-8.78835
换	-8.78855
委屈	-8.78893
指责	-8.79027
进步	-8.79135
认同	-8.79156
至于	-8.79365
女性	-8.79545
下去	-8.79545
缺乏	-8.79547
至少	-8.79549
觉察	-8.79783
稳定	-8.79935
包容	-8.80122
让她	-8.80188
很容易	-8.80214
优秀	-8.80242
一旦	-8.80536
2	-8.80555
判断	-8.8064
身	-8.80655
年龄	-8.80725
干	-8.80784
真实	-8.80793
为自己	-8.81129
明确	-8.81139
提出	-8.81258
路	-8.81294
慢慢的	-8.81336
孩子的	-8.81403
回应	-8.81424
意识到	-8.8149
。2、	-8.81521
这个人	-8.81603
简单	-8.81775
负面情绪	-8.81787
每次	-8.8186
逐渐	-8.82096
的一种	-8.82221
提高	-8.82271
确定	-8.82568
态度	-8.82901
到底	-8.82915
承担	-8.82986
重视	-8.82991
和别人	-8.83011
进入	-8.83143
"	-8.83145
建议你	-8.83422
培养	-8.83673
意义	-8.83798
转	-8.83961
出去	-8.83979
也能	-8.84099
处	-8.84274
想想	-8.84345
产生了	-8.84585
),	-8.84743
动力	-8.84786
带着	-8.84839
读书	-8.84966
迷茫	-8.84986
帮	-8.85203
手机	-8.85453
是有	-8.8577
第三	-8.85785
下来	-8.85816
的机会	-8.86094
自由	-8.86111
否定	-8.86193
标准	-8.86257
鼓励	-8.86263
你对	-8.86503
没有办法	-8.86757
增加	-8.86761
评价	-8.86821
次	-8.87065
提	-8.87116
女	-8.87252
光	-8.87255
女儿	-8.87482
其实是	-8.8757
更好	-8.8771
有个	-8.87775
这份	-8.87844
连	-8.88152
看到你	-8.8823
出轨	-8.88249
今天	-8.88348
或是	-8.88356
事实	-8.88416
这就是	-8.88534
接纳自己	-8.88669
男人	-8.88722
其他人	-8.88729
应对	-8.88881
很重要	-8.88914
睡眠	-8.88919
永远	-8.89213
即	-8.89335
您好	-8.89359
做了	-8.89484
门	-8.89763
兴趣	-8.89788
也就是	-8.89857
规划	-8.89867
公司	-8.89929
想象	-8.90043
或者说	-8.90073
做的	-8.90081
想到	-8.90195
-	-8.90333
保护	-8.90594
人的	-8.90688
陷入	-8.90704
在乎	-8.90723
主要	-8.90725
及	-8.90771
不安	-8.90923
的过程中	-8.9093
对方的	-8.90942
尤其是	-8.90994
收获	-8.91076
5	-8.91182
长大	-8.91221
靠	-8.91295
远	-8.9133
一天	-8.91587
现在的	-8.91613
交	-8.91693
的情况下	-8.92021
练习	-8.92383
。(	-8.92451
们	-8.92474
我们需要	-8.92526
效果	-8.9288
儿	-8.9302
你已经	-8.93141
条件	-8.93295
婆婆	-8.93383
挺	-8.93401
往	-8.93622
还没有	-8.93699
亲密	-8.93721
严重	-8.93844
变成	-8.93956
就能	-8.94018
休息	-8.94096
加	-8.94154
说的	-8.94162
理	-8.94243
办法	-8.94255
相互	-8.94576
另一方面	-8.94635
我相信	-8.94635
是为了	-8.94644
入	-8.94665
面前	-8.94685
聊	-8.94758
从小	-8.94803
清楚	-8.94821
所有的	-8.94906
按照	-8.94965
哪些	-8.95062
做事	-8.95096
对你的	-8.95158
型	-8.95298
接下来	-8.95303
的确	-8.95455
提供	-8.95456
很大	-8.95564
过于	-8.95605
价值	-8.95692
怀疑	-8.95733
的看法	-8.95765
过度	-8.95871
后悔	-8.95876
的情感	-8.95892
求	-8.95901
相对	-8.95939
在这里	-8.96025
轻松	-8.96076
为你	-8.96145
笑	-8.96396
一段时间	-8.96498
活	-8.96542
是否有	-8.96652
安慰	-8.96683
意识	-8.9669
和父母	-8.96851
性的	-8.96855
告诉	-8.96894
四	-8.96896
且	-8.96979
每	-8.9711
有些人	-8.97139
的结果	-8.9719
进	-8.97218
一份	-8.97258
持续	-8.97471
您的	-8.97887
希望你	-8.97956
便	-8.97992
某些	-8.98108
大脑	-8.98137
苦	-8.98172
与你	-8.98194
明	-8.98201
能量	-8.98389
外界	-8.98411
温暖	-8.98636
都可以	-8.98639
意	-8.98658
客观	-8.98733
看见	-8.98754
游戏	-8.98957
它们	-8.99296
管	-8.99359
女人	-8.99691
伴侣	-8.99694
成熟	-8.99813
法	-8.99936
吸引	-8.99986
发泄	-9.00147
是需要	-9.00176
认可	-9.00228
量	-9.00309
的心情	-9.00358
失望	-9.00366
的角度	-9.004
名	-9.0055
妻子	-9.00575
自己的内心	-9.00704
走出	-9.00717
不开心	-9.009
的样子	-9.00977
人格	-9.01041
有时	-9.01149
说出来	-9.01262
都没有	-9.01265
近	-9.01291
。3.	-9.01352
攻击	-9.0156
依然	-9.01603
痛	-9.01666
看起来	-9.01782
言	-9.01822
的性格	-9.01878
女朋友	-9.01917
累	-9.01987
理性	-9.02215
症状	-9.02268
安排	-9.02386
早	-9.02452
给他	-9.02595
也很	-9.02724
很好的	-9.02794
～。	-9.0282
空	-9.02844
的部分	-9.02885
求助	-9.02906
放在	-9.031
选	-9.03119
背后	-9.03191
对象	-9.03261
你能	-9.03307
创伤	-9.03425
告诉自己	-9.03514
风	-9.0352
一点点	-9.03632
引起	-9.0367
考研	-9.03792
清	-9.03798
我就	-9.03836
困惑	-9.03838
随着	-9.03923
课	-9.0407
嫉妒	-9.04145
相信自己	-9.04306
时候	-9.04331
还会	-9.04521
男性	-9.04628
站在	-9.04642
不妨	-9.04666
的目标	-9.0472
不可	-9.04751
的一个	-9.04788
不可能	-9.04856
幻想	-9.04899
:1、	-9.04917
个体	-9.04968
儿子	-9.05001
爱你	-9.0516
。3、	-9.0539
而言	-9.05397
还是要	-9.05687
探索	-9.05906
的爱	-9.05962
错误	-9.06112
说明你	-9.06127
让他们	-9.06137
眼	-9.06258
空间	-9.06318
完美	-9.0636
日	-9.06372
一定的	-9.06391
帮助你	-9.06392
每个	-9.06443
不容易	-9.0662
弟弟	-9.06627
担忧	-9.06676
理想	-9.06765
楼楼	-9.06894
责任	-9.06896
是我们	-9.0693
潜意识	-9.06936
调节	-9.06937
有的人	-9.07146
观念	-9.07176
从你的描述中	-9.07195
告诉你	-9.07281
来自	-9.0731
说出	-9.07316
啦	-9.07511
亲爱的	-9.0766
维持	-9.07725
完	-9.07924
车	-9.07952
结束	-9.08023
做一些	-9.08281
哪	-9.0839
你有	-9.08408
离	-9.08414
不必	-9.0849
流	-9.08514
就算	-9.08553
不同的	-9.08611
对他	-9.08907
和对方	-9.08994
允许	-9.09007
悲伤	-9.09022
还可以	-9.09122
正确	-9.09247
心中	-9.0925
的认知	-9.09267
真心	-9.09279
批评	-9.09291
女友	-9.09368
观察	-9.09375
经济	-9.0939
然而	-9.09451
正	-9.09453
教	-9.09458
谈恋爱	-9.09536
而你	-9.09626
部分	-9.09931
的帮助	-9.10024
的一些	-9.10071
的人生	-9.10113
事物	-9.10149
经过	-9.10312
期望	-9.10319
一定是	-9.10366
对吗	-9.10642
有可能	-9.10678
第一次	-9.10778
挑战	-9.10802
再次	-9.10924
没办法	-9.11048
精力	-9.11189
改变自己	-9.11226
这也是	-9.11313
我们要	-9.1137
做自己	-9.11652
道	-9.11669
无论是	-9.11672
积累	-9.11747
过程	-9.11753
活着	-9.11814
.	-9.1189
抱怨	-9.11924
道德	-9.11976
姐姐	-9.12039
和自己	-9.12276
楼主的	-9.12349
是很	-9.12395
/	-9.1241
做什么	-9.12412
可以通过	-9.12768
让孩子	-9.1285
打击	-9.12904
是可以	-9.12927
带来的	-9.12934
使	-9.12939
适合	-9.12979
其中	-9.13015
不足	-9.13021
女孩	-9.13042
回来	-9.13043
每个人都	-9.13071
通	-9.13175
的心态	-9.13219
哪里	-9.13233
内容	-9.13283
亲人	-9.13487
待	-9.13613
去面对	-9.1366
吃饭	-9.13709
非	-9.13757
不仅	-9.13759
思想	-9.13777
过程中	-9.13794
的选择	-9.13806
则	-9.13821
分开	-9.13843
哪怕	-9.14072
抱抱	-9.14135
通常	-9.14416
倒	-9.14498
十分	-9.14577
听到	-9.14632
)。	-9.1466
不去	-9.14699
糟糕	-9.14821
生活的	-9.15068
任务	-9.15179
真实的	-9.15235
被人	-9.15265
声	-9.153
也需要	-9.15569
在于	-9.15658
关爱	-9.15671
克服	-9.15706
了很多	-9.15788
数	-9.15994
遇见	-9.16254
帮你	-9.16262
刺激	-9.16376
也就是说	-9.16395
不知道你	-9.16402
职业	-9.16406
勇敢	-9.16481
会觉得	-9.16835
仍然	-9.16859
异性	-9.1692
体	-9.16926
引导	-9.17275
这个世界	-9.1728
的要求	-9.17295
上的	-9.17385
都要	-9.17393
忙	-9.17521
感觉自己	-9.17542
原谅	-9.17596
舒服	-9.1773
摆脱	-9.17775
女孩子	-9.17812
晚上	-9.17832
耐心	-9.18056
充满	-9.18163
晚	-9.18202
合理	-9.18214
具有	-9.18321
缺点	-9.18338
1.	-9.18439
以为	-9.18465
珍惜	-9.18723
记得	-9.18765
已	-9.18828
回家	-9.18831
知	-9.18848
会让你	-9.1902
无助	-9.19045
相关	-9.1907
刚	-9.19117
作用	-9.19145
几	-9.19148
尽	-9.19151
不到	-9.19165
看来	-9.19343
当初	-9.19345
一件	-9.19353
推	-9.19544
后面	-9.19558
的环境	-9.19576
但是你	-9.19598
万	-9.19701
找一个	-9.19726
的力量	-9.19747
伤	-9.19993
没有什么	-9.20074
睡	-9.20158
做一个	-9.20332
你也可以	-9.20368
题	-9.20443
见字如面	-9.20505
类	-9.20515
留	-9.20621
和她	-9.20641
接	-9.20792
不行	-9.20854
回避	-9.20868
自己的想法	-9.2089
想着	-9.20929
。#	-9.2101
睡觉	-9.2102
在这个	-9.21171
内向	-9.2119
适当的	-9.21195
不自信	-9.21214
是自己	-9.21279
的痛苦	-9.21338
你的感受	-9.21356
不满	-9.21408
脆弱	-9.21644
他人的	-9.21663
穿	-9.21685
上面	-9.21838
理论	-9.21858
生理	-9.21869
既	-9.21966
技能	-9.22022
祝福你	-9.22035
角度	-9.22055
毕业	-9.22062
记忆	-9.22369
改	-9.22484
经历过	-9.22723
身边的人	-9.22761
:1.	-9.22853
强大	-9.22867
得不到	-9.22911
障碍	-9.2293
一定会	-9.22989
懂	-9.23191
语言	-9.23245
负面	-9.23258
争吵	-9.23264
短	-9.2329
一件事	-9.2331
一直在	-9.2332
远离	-9.23346
尽管	-9.23414
偶尔	-9.23501
某种	-9.23624
种	-9.23753
很少	-9.23932
算	-9.23934
意味着	-9.23964
夫妻	-9.24113
拉	-9.24121
过分	-9.24136
亲	-9.2414
一句话	-9.24147
知道自己	-9.24166
反思	-9.24207
就好了	-9.24227
你的问题	-9.24251
如果我们	-9.24252
一边	-9.24257
反复	-9.24373
我认为	-9.24397
合	-9.24445
全	-9.24446
降低	-9.24625
自己的生活	-9.24688
讨论	-9.24753
愿	-9.24812
对我	-9.24823
提问	-9.24967
几个	-9.25039
失眠	-9.25064
针对	-9.25075
自己的感受	-9.25122
聊聊	-9.25152
足够	-9.25191
就不会	-9.25205
约	-9.25354
没有人	-9.2538
证明	-9.25412
了一个	-9.2544
倾听	-9.25511
这些问题	-9.25536
如果没有	-9.25553
合适	-9.25729
应	-9.25809
只会	-9.2592
常	-9.25924
4	-9.26224
十	-9.26236
也许你	-9.2627
间	-9.26387
跟他	-9.26603
找不到	-9.26754
认为自己	-9.26977
好好的	-9.26994
青春期	-9.27125
平衡	-9.27151
正确的	-9.27181
大家都	-9.2722
把你	-9.27255
物	-9.27301
距离	-9.27321
本来	-9.27342
看到了	-9.27511
丰富	-9.27623
信心	-9.27641
是非常	-9.27647
一生	-9.27666
不然	-9.2768
合适的	-9.27694
目的	-9.27793
职场	-9.27851
想一想	-9.27854
在家	-9.27962
多了	-9.28099
这次	-9.28324
乱	-9.28345
投入	-9.28428
中的	-9.28521
祝你	-9.28886
状况	-9.28958
都在	-9.29019
生存	-9.29119
了解自己	-9.29323
能不能	-9.29431
同时也	-9.29494
讨好	-9.29517
边	-9.29611
字	-9.29671
例如	-9.29673
自杀	-9.29691
过去的	-9.29712
消极	-9.29902
评判	-9.29927
水平	-9.30021
参加	-9.30025
将来	-9.30052
常常	-9.30137
否则	-9.30166
指	-9.30176
创造	-9.30227
无力	-9.3032
选择了	-9.30338
时期	-9.30391
这样做	-9.30464
排斥	-9.30546
帮忙	-9.30553
火	-9.30575
恢复	-9.30622
冥想	-9.30634
跑	-9.30894
做不到	-9.31006
好了	-9.31087
每个人都有	-9.31279
阅读	-9.31473
我们会	-9.31539
实	-9.3158
麻烦	-9.31589
有能力	-9.31686
挫折	-9.31742
都不	-9.31757
解	-9.31761
一年	-9.31773
白	-9.31779
懂得	-9.31787
心疼	-9.31818
互动	-9.3183
对孩子	-9.31851
童年	-9.31884
做的事情	-9.31953
么	-9.32069
希望能	-9.32128
可以尝试	-9.32324
拖延	-9.32391
不应该	-9.32513
关	-9.32516
有一种	-9.32518
要学会	-9.32582
疾病	-9.32608
实际	-9.32667
更容易	-9.32877
你会发现	-9.32889
许多	-9.32928
为什么会	-9.32963
道理	-9.32975
利用	-9.33029
最好的	-9.33084
所谓的	-9.3309
文	-9.33099
初中	-9.33112
掌握	-9.33144
对你来说	-9.33285
不管是	-9.33324
伤心	-9.3338
之中	-9.33483
若	-9.33523
边界	-9.3365
时刻	-9.33672
每一个	-9.33788
这一	-9.33872
事业	-9.3404
管理	-9.34078
角色	-9.34128
使用	-9.34493
楼主可以	-9.34537
总之	-9.34582
顺利	-9.34602
很大的	-9.34659
让对方	-9.34769
恨	-9.34906
梳理	-9.35072
学业	-9.35107
这段关系	-9.35246
真的是	-9.35296
缺少	-9.35439
理智	-9.35488
的家庭	-9.35531
和孩子	-9.35619
记	-9.35764
追	-9.35772
的存在	-9.35846
和他们	-9.35927
面临	-9.35946
只要你	-9.36245
都会有	-9.36258
不断的	-9.36277
你内心	-9.36291
ta	-9.36348
坏	-9.36374
看待	-9.36411
某	-9.36417
山	-9.3649
专业的	-9.36537
的期待	-9.36581
未	-9.36682
大部分	-9.36776
别的	-9.36789
大概	-9.36804
骂	-9.3686
另一个	-9.36892
人类	-9.36913
你应该	-9.3703
遗憾	-9.37063
如果有	-9.37161
真诚	-9.37286
位	-9.37362
急	-9.37471
锻炼	-9.37515
因为我们	-9.37538
相信你	-9.37567
结合	-9.37617
烦躁	-9.37638
的学习	-9.37643
拥抱	-9.377
药	-9.37737
声音	-9.378
总结	-9.37802
你说的	-9.3804
给我	-9.38049
不被	-9.38065
很多事情	-9.3807
落	-9.38166
心理问题	-9.38244
死亡	-9.38285
的内容	-9.3835
你所	-9.3837
送	-9.38454
以下	-9.38495
你的内心	-9.3852
慢慢地	-9.38546
师	-9.38562
分离	-9.38618
意见	-9.38649
~~~	-9.38759
成年人	-9.38855
在生活中	-9.38861
有的时候	-9.38871
最大的	-9.39017
物质	-9.39072
参与	-9.39205
表示	-9.39255
。2	-9.39266
正常的	-9.3927
地方	-9.39283
关键	-9.39304
和朋友	-9.39406
见面	-9.39452
按	-9.39509
过得	-9.3963
也是一种	-9.39696
班	-9.39715
梦	-9.39769
安	-9.39773
借	-9.39781
刻意	-9.39859
你可能	-9.39863
是怎样的	-9.39866
即便	-9.39895
然	-9.40079
小孩	-9.4018
利	-9.40211
发挥	-9.40268
外在	-9.40311
欣赏	-9.40319
方	-9.4037
仔细	-9.40385
也不要	-9.40431
一件事情	-9.40451
资源	-9.40471
五	-9.40528
退	-9.40706
依恋	-9.40747
现象	-9.4083
这时候	-9.40963
但你	-9.41095
特别是	-9.41139
基础	-9.412
依靠	-9.41201
这句话	-9.41215
越是	-9.41256
冷静	-9.41289
两人	-9.41316
步	-9.41321
之间的	-9.41342
重复	-9.41368
来讲	-9.41449
主	-9.41474
爱的	-9.41535
美好的	-9.41539
问问自己	-9.41594
断	-9.41606
不一定	-9.41621
可以试着	-9.41657
适当	-9.41708
去改变	-9.41716
确实是	-9.41731
满	-9.4189
优点	-9.41925
20	-9.41986
装	-9.41994
那么就	-9.42024
人生的	-9.42037
说了	-9.42044
抗拒	-9.42129
当成	-9.42177
出现了	-9.4222
理由	-9.42227
祝	-9.42248
喝	-9.42265
这段感情	-9.42348
掌控	-9.42375
实际上	-9.42387
经营	-9.4241
辛苦	-9.42425
上学	-9.42435
网络	-9.42558
场	-9.42574
积极的	-9.42594
妹妹	-9.42622
总会	-9.42651
看了	-9.42675
这些事情	-9.4273
哪个	-9.42867
系统	-9.43009
重要的	-9.43023
表达自己	-9.43032
不确定	-9.43043
发生了	-9.43059
爱人	-9.43075
好朋友	-9.43187
反抗	-9.43214
说说	-9.43235
保护自己	-9.43302
感谢	-9.43368
允许自己	-9.43372
平静	-9.43477
观	-9.4349
表达出来	-9.43747
线	-9.43767
2.	-9.43805
一句	-9.43905
什么时候	-9.43915
要么	-9.43965
信	-9.44008
你的父母	-9.44021
满意	-9.44058
我会	-9.44108
爱好	-9.44159
强烈	-9.44189
独处	-9.44217
正是	-9.4427
结	-9.44393
人际交往	-9.44458
...	-9.44526
失去了	-9.4455
如果他	-9.44555
原来	-9.44591
看法	-9.44662
简单的	-9.44838
此	-9.44874
的信息	-9.44913
强迫	-9.44987
进一步	-9.45007
检查	-9.45037
不知	-9.45105
血	-9.45139
有一定的	-9.45185
宣泄	-9.45204
关系的	-9.45255
代表	-9.45319
友情	-9.45326
随	-9.45344
下次	-9.45412
治愈	-9.45432
权	-9.45634
造成的	-9.4566
发现自己	-9.45745
尴尬	-9.4577
文字	-9.45777
机	-9.45806
采取	-9.45834
半	-9.45899
神	-9.4604
希望你能	-9.46171
尝试着	-9.46192
提醒	-9.46207
情绪的	-9.4623
是指	-9.463
一开始	-9.46334
来自于	-9.46338
全部	-9.46398
让别人	-9.46497
反	-9.46565
在你的	-9.46602
也许是	-9.46667
月	-9.46813
冷	-9.46843
没什么	-9.46844
给孩子	-9.46903
很难受	-9.46926
了吗	-9.46939
上班	-9.46955
和家人	-9.4697
层面	-9.4704
回忆	-9.47052
A	-9.47088
怪	-9.47094
的小	-9.47123
对她	-9.4724
几乎	-9.47271
承认	-9.47301
奶奶	-9.47465
与他人	-9.47502
语	-9.47545
类似	-9.47558
根本	-9.47652
再去	-9.47673
不对	-9.47916
提前	-9.47938
温柔	-9.47986
忘记	-9.4806
也会有	-9.48064
我在	-9.4808
那么多	-9.48134
找个	-9.48244
你没有	-9.48286
饭	-9.48308
基本	-9.48358
没有得到	-9.48437
这些都是	-9.48473
其他的	-9.48486
取	-9.48503
疗愈	-9.48518
忽视	-9.48526
告诉他	-9.48528
的目的	-9.48545
很痛苦	-9.48609
不得不	-9.48669
品	-9.4871
很累	-9.48807
调	-9.4884
这是一个	-9.48917
极	-9.48983
有效	-9.48988
也不能	-9.49111
的反应	-9.49126
一辈子	-9.49153
你们之间	-9.4918
始终	-9.49196
久	-9.49402
犯错	-9.49449
的心	-9.49507
我们都	-9.4954
竞争	-9.49628
我们自己	-9.49662
深入	-9.49739
脚	-9.49831
自己内心	-9.49884
题主说	-9.49909
但我	-9.4993
误会	-9.50034
报	-9.5009
”“	-9.50091
暴力	-9.5019
看了你的描述	-9.50214
10	-9.50409
什么都	-9.50446
的意义	-9.50462
学历	-9.5049
明明	-9.50528
欲望	-9.50574
能否	-9.50635
弱	-9.50646
怎么做	-9.50718
原则	-9.50903
之外	-9.50933
不满意	-9.50933
色	-9.5096
了解到	-9.50969
还在	-9.51033
有自己的	-9.51103
这段	-9.51108
破	-9.51319
想办法	-9.51349
可以去	-9.51366
看着	-9.51403
你认为	-9.51485
看书	-9.51503
脑	-9.51588
提升自己	-9.51596
出来的	-9.51623
就不	-9.51693
为什么要	-9.5172
室友	-9.51866
子女	-9.51964
嘛	-9.51968
文化	-9.51983
你就会	-9.52013
照	-9.52086
融入	-9.52096
观点	-9.52341
那里	-9.5236
这也	-9.52455
记住	-9.52513
热	-9.52529
受伤	-9.52559
这种感觉	-9.52625
故事	-9.52775
づ	-9.52827
宝宝	-9.5284
让你感到	-9.52872
精	-9.52906
的同时	-9.52956
清晰	-9.53023
规则	-9.53027
说你	-9.53183
记录	-9.53257
一些事情	-9.53286
回复	-9.53341
反馈	-9.53455
的焦虑	-9.5352
去找	-9.5367
老板	-9.53681
复杂	-9.53689
的责任	-9.53702
还能	-9.53717
你老公	-9.53748
在哪里	-9.53878
*	-9.53888
喜欢的	-9.53916
有过	-9.54045
研究	-9.54045
条	-9.54049
着急	-9.5412
良好的	-9.54122
保证	-9.54135
那就是	-9.5415
训练	-9.54173
脾气	-9.54233
平	-9.543
?”	-9.54302
走出来	-9.54469
那么你	-9.5447
甚至是	-9.54583
单	-9.54597
怎么办	-9.54662
命	-9.54679
的做法	-9.54706
被别人	-9.54784
之类的	-9.54872
也好	-9.54923
遇到了	-9.55034
慢	-9.55123
男孩	-9.55294
善良	-9.55313
忽略	-9.55319
会让	-9.55328
熟悉	-9.55362
利益	-9.55366
恶	-9.55406
但是我	-9.55525
主观	-9.55549
坚强	-9.55561
很正常	-9.55769
期间	-9.55789
身心	-9.55812
都需要	-9.55838
亲戚	-9.55846
直到	-9.55865
有哪些	-9.55908
首先要	-9.55922
给她	-9.56046
那是	-9.5605
爸爸妈妈	-9.56075
各自	-9.56101
就需要	-9.56268
擅长	-9.56288
实在	-9.56292
信念	-9.56298
体会	-9.56325
冲动	-9.56428
因为我	-9.5643
男	-9.56486
对话	-9.5659
为何	-9.56612
闹	-9.56771
太大	-9.56947
危险	-9.57
并不能	-9.57048
之所以	-9.57062
的意见	-9.57076
都能	-9.57094
规律	-9.57108
聊一聊	-9.57141
的同学	-9.57173
符合	-9.57256
想起	-9.57354
你们的	-9.57681
厌恶	-9.57693
让楼主	-9.57794
一位	-9.57843
提到	-9.57909
在家里	-9.58062
羡慕	-9.58108
认识到	-9.58139
恋人	-9.58162
把自己的	-9.58183
强烈的	-9.58216
喜欢你	-9.58241
并非	-9.58242
视频	-9.58304
与其	-9.58336
正在	-9.58363
自己喜欢的	-9.58414
视	-9.58419
老婆	-9.58469
被动	-9.58496
如果对方	-9.58497
专注	-9.58504
一场	-9.58506
阳光	-9.58551
出生	-9.5858
现状	-9.58623
重点	-9.58713
闺蜜	-9.58716
陪	-9.58814
一方	-9.58839
原	-9.58901
的好	-9.58975
友谊	-9.58996
失	-9.59014
坚定	-9.5919
有机会	-9.59274
你还	-9.59307
。*	-9.59332
了自己	-9.59484
收	-9.59502
不懂	-9.59556
评估	-9.59613
的建议	-9.59647
举	-9.59653
大多数	-9.59656
他会	-9.59683
坐	-9.59727
还需要	-9.59758
行业	-9.59908
某个	-9.59925
处在	-9.59961
几次	-9.60044
是正常的	-9.60055
假	-9.60099
背	-9.60174
激情	-9.60299
大人	-9.60379
细节	-9.60434
作业	-9.60483
依旧	-9.60559
养成	-9.60587
查	-9.60628
特殊	-9.60646
的理由	-9.60651
奖励	-9.60652
救	-9.60705
过来	-9.6076
明显	-9.60784
海	-9.60843
的习惯	-9.60908
合理的	-9.61111
话题	-9.61122
留下	-9.61126
你是否	-9.61137
好处	-9.61188
何	-9.61197
的动力	-9.61307
道歉	-9.61345
题主的	-9.61389
6	-9.61417
度过	-9.61485
是如何	-9.61597
回报	-9.61698
可以在	-9.61825
有问题	-9.61918
这样的情况	-9.61918
的父母	-9.61955
世	-9.62037
发脾气	-9.62147
所以我们	-9.62176
长辈	-9.6227
猜测	-9.62332
的权利	-9.62352
尽快	-9.62371
价值感	-9.62389
的变化	-9.62413
你们的关系	-9.6242
第	-9.62428
这是一种	-9.6243
陌生人	-9.62464
把它	-9.62569
是什么呢	-9.62625
减轻	-9.6263
自身的	-9.62646
生病	-9.62677
不那么	-9.62697
我们在	-9.62786
马上	-9.628
负	-9.62816
实践	-9.62818
收入	-9.62833
更多的是	-9.62851
画	-9.62966
人家	-9.63061
我自己	-9.63074
足够的	-9.63147
相应的	-9.63197
平等	-9.6324
这位	-9.63294
婚	-9.63297
年轻	-9.63477
对我们	-9.63503
你的想法	-9.63627
的评价	-9.63659
赚钱	-9.63799
乐	-9.63891
这不是	-9.63939
两年	-9.63961
的发展	-9.63984
平台	-9.64019
日常	-9.64095
打开	-9.64102
配合	-9.64266
高三	-9.6442
眼里	-9.64427
可能你	-9.64446
参考	-9.64524
成长的	-9.6456
老人	-9.64586
金钱	-9.64607
你想要	-9.64628
定义	-9.64675
觉得你	-9.64687
关系中	-9.64711
的方向	-9.6472
增强	-9.64732
体会到	-9.64744
级	-9.64814
用心	-9.6483
听听	-9.64911
妈妈的	-9.65003
会产生	-9.65008
:1	-9.65041
真的很	-9.6505
孤单	-9.65092
左右	-9.65103
诊断	-9.65114
负担	-9.65198
天天	-9.65199
勇敢的	-9.65224
比你	-9.6525
表白	-9.65279
如果真的	-9.65301
我知道	-9.65341
很想	-9.65351
复习	-9.65388
价值观	-9.65403
会出现	-9.65452
和谐	-9.6547
优势	-9.65473
在一个	-9.65539
周	-9.65552
与人	-9.65677
包	-9.65725
一部分	-9.65851
对此	-9.65919
。3	-9.65926
这个过程	-9.66069
那你	-9.66199
探讨	-9.66239
同性恋	-9.66248
题主可以	-9.66288
。1.	-9.66299
着你	-9.66306
的经验	-9.66386
患者	-9.66396
其实你	-9.66453
可以看出	-9.66514
战	-9.66519
不住	-9.6658
是怎么	-9.66622
脸	-9.66627
的婚姻	-9.6668
还没	-9.66694
勇气	-9.66746
打破	-9.66824
作为一个	-9.66937
念	-9.67008
题主您好	-9.67043
确认	-9.67074
的观点	-9.67078
让你觉得	-9.67084
疫情	-9.67122
是什么样的	-9.67176
相反	-9.67184
曾	-9.67212
的一面	-9.67231
每个人的	-9.6727
欲	-9.67402
技巧	-9.6744
怀孕	-9.67467
每天都	-9.67605
是不	-9.67691
思考一下	-9.6776
技术	-9.67871
和他人	-9.67881
在学校	-9.67915
影响到	-9.68042
争取	-9.68059
刚开始	-9.68097
排	-9.68112
这就	-9.68209
缺乏安全感	-9.68247
可以选择	-9.68251
呼吸	-9.68255
的价值	-9.6829
非常的	-9.68302
30	-9.68398
未来的	-9.68432
这种状态	-9.68444
思	-9.68458
黑	-9.6852
亲近	-9.68552
的一部分	-9.68559
之一	-9.68576
你很	-9.68579
遭遇	-9.687
搞	-9.68761
极端	-9.68762
不合适	-9.68784
犯	-9.68899
说过	-9.68957
找到自己	-9.68967
舍友	-9.69015
投射	-9.69056
分析一下	-9.6911
的方式来	-9.69125
绝对	-9.69274
失落	-9.69302
过了	-9.69322
啥	-9.69361
限制	-9.69433
你说你	-9.69438
去看	-9.69499
自律	-9.69543
消耗	-9.69557
前任	-9.69558
第四	-9.69584
长久	-9.69592
不好的	-9.69724
等待	-9.69727
自己的人生	-9.6973
一条	-9.69747
经历了	-9.6975
不良	-9.69766
整个	-9.69834
时代	-9.69839
爆发	-9.69841
在心里	-9.69864
当下的	-9.69896
可以先	-9.69933
有一天	-9.69949
金	-9.69963
的恐惧	-9.69984
吵	-9.70095
或许是	-9.70101
优秀的	-9.70185
肯定是	-9.70218
只不过	-9.70222
消失	-9.70223
压	-9.70223
推荐	-9.70329
不完美	-9.70347
在自己	-9.70411
好奇	-9.70457
慢慢来	-9.70601
挽回	-9.70663
舒适	-9.70696
层	-9.70726
房	-9.70776
想过	-9.7079
不理解	-9.7079
苦恼	-9.70911
难道	-9.7092
代	-9.70936
这点	-9.70942
不愉快	-9.71044
最重要的	-9.71076
什么是	-9.71091
长大了	-9.71099
假如	-9.71132
所谓	-9.71152
有多	-9.71181
假设	-9.71247
几年	-9.71274
绝望	-9.71357
医院	-9.71395
把握	-9.71404
与自己	-9.71405
楼主你好呀	-9.71407
缺	-9.71412
必须要	-9.71479
改变的	-9.71679
小孩子	-9.71736
弥补	-9.71773
的困扰	-9.71826
谈谈	-9.71856
感受到了	-9.71868
成就感	-9.71954
言语	-9.71964
人际	-9.72032
小事	-9.72156
要知道	-9.72175
和妈妈	-9.722
当做	-9.72256
给出	-9.72269
促进	-9.72295
转移注意力	-9.72344
怀疑自己	-9.72345
的体验	-9.7235
逻辑	-9.72381
要不要	-9.72396
崩溃	-9.72408
热情	-9.72418
对比	-9.72433
有助于	-9.72451
转变	-9.72506
欺负	-9.72671
今年	-9.72691
B	-9.7271
没有任何	-9.72799
底	-9.72825
现	-9.72923
给我们	-9.72993
任何人	-9.73041
给对方	-9.73078
愉快	-9.73091
会被	-9.73091
分钟	-9.73315
内心深处	-9.73333
的优点	-9.7338
在面对	-9.73423
就是你	-9.73504
宿舍	-9.73587
太过	-9.73609
乐观	-9.73644
存	-9.7365
做好自己	-9.73664
。1、	-9.73815
商量	-9.73856
是最	-9.73883
维护	-9.7391
所在	-9.73949
初	-9.7396
询问	-9.73972
在我们	-9.74012
更好地	-9.74092
这是你	-9.74132
必然	-9.74139
稍微	-9.74173
存在的	-9.7424
单位	-9.74256
惩罚	-9.74272
情况下	-9.74312
可以理解	-9.74319
是真的	-9.74339
群体	-9.74401
可以多	-9.74441
愉悦	-9.74502
我是	-9.74619
疲惫	-9.7462
的意思	-9.74622
科学	-9.74769
共情	-9.74833
承诺	-9.74836
看不到	-9.74842
百	-9.74895
下面	-9.74908
去解决	-9.74922
寻求帮助	-9.7493
有一点	-9.75018
唯一	-9.75036
不爱	-9.75186
理解你	-9.75215
这个事情	-9.75222
成人	-9.75304
这些都	-9.75336
就像是	-9.75338
归	-9.75431
:(1)	-9.75462
感恩	-9.75487
的世界	-9.75679
不太好	-9.75691
多一些	-9.75711
自己也	-9.75829
差异	-9.75863
也可能	-9.7592
招	-9.7592
的声音	-9.75922
相亲	-9.75962
周围	-9.75997
威胁	-9.76019
爸妈	-9.76035
你的情绪	-9.7604
式	-9.76079
的呢	-9.76096
过的	-9.76103
硬	-9.76116
的努力	-9.76128
和行为	-9.76303
心灵	-9.76351
走向	-9.76366
照顾好自己	-9.76368
来源于	-9.76383
的作用	-9.76393
表现出	-9.76407
自信心	-9.76452
占	-9.76506
交朋友	-9.76507
过往	-9.76542
试	-9.76554
造成了	-9.76597
如果说	-9.76611
不是很	-9.76613
的沟通	-9.76672
可以说	-9.76739
翻	-9.76763
可以从	-9.76768
诉说	-9.76777
又是	-9.7684
会让我们	-9.76849
了呢	-9.76859
一步	-9.76891
各	-9.76899
成了	-9.76907
同样的	-9.76962
注意力	-9.76979
希望自己	-9.76996
彻底	-9.77
食	-9.77011
不错的	-9.77033
达成	-9.77041
担心自己	-9.77079
原本	-9.77105
保	-9.7711
你是一个	-9.77177
切	-9.77198
词	-9.772
不错	-9.77202
嫌弃	-9.77228
祝福	-9.77264
早日	-9.77294
事实上	-9.77377
在这	-9.77441
会更	-9.77452
较	-9.77505
但是我们	-9.77515
令人	-9.7753
领域	-9.77562
工	-9.77619
就有	-9.77636
正面	-9.77663
的标准	-9.77673
对抗	-9.77755
处理好	-9.77759
去学习	-9.77825
这样的人	-9.77838
表	-9.77878
因为他	-9.77907
缘	-9.77921
加上	-9.77933
去寻找	-9.77941
节	-9.7795
特征	-9.77952
马	-9.77993
相似	-9.78024
跟她	-9.78027
要是	-9.78158
你提到	-9.78231
紧	-9.7826
不代表	-9.78305
潜意识里	-9.78356
没有必要	-9.78472
给你带来	-9.78582
不愿	-9.7861
无奈	-9.78715
然后再	-9.78781
a	-9.78867
表明	-9.78871
面子	-9.78886
但如果	-9.78941
害	-9.78955
直	-9.79059
充分	-9.79143
错了	-9.79148
这方面	-9.79173
显得	-9.7922
失恋	-9.79226
热爱	-9.79228
句	-9.79259
转移	-9.79322
双	-9.79473
制定	-9.79528
暗示	-9.79585
停止	-9.79704
以至于	-9.79709
对别人	-9.7971
烦	-9.79731
当自己	-9.7974
年纪	-9.79741
家里人	-9.79768
平常	-9.79788
论	-9.79822
愧疚	-9.79883
三年	-9.79891
夜	-9.7993
轻易	-9.79946
电影	-9.79967
样	-9.80024
7	-9.80029
和解	-9.8004
是谁	-9.80063
看你	-9.80159
是一件	-9.80244
1、	-9.80252
导致的	-9.80257
性别	-9.80319
##	-9.80367
打算	-9.80379
内在的	-9.80389
段	-9.80454
逼	-9.80475
当前	-9.805
校	-9.80515
曾经的	-9.80557
一致	-9.80573
现在的你	-9.80649
症	-9.80652
不断地	-9.80676
哥哥	-9.80691
取得	-9.80699
刚刚	-9.80776
与父母	-9.80881
婴儿	-9.80886
本能	-9.80889
是对的	-9.80892
我很	-9.809
说什么	-9.80972
养育	-9.80979
世界上	-9.81025
发生的	-9.81041
件	-9.81094
成就	-9.81117
学着	-9.81292
或许你	-9.81306
的对象	-9.81333
足	-9.81424
「	-9.81429
称	-9.81429
沉	-9.8143
」	-9.81433
修复	-9.81466
此时	-9.81475
问问	-9.8149
突破	-9.8163
的话题	-9.81691
漂亮	-9.81693
普遍	-9.81721
『	-9.81734
的背后	-9.81746
内疚	-9.81778
试着去	-9.81855
安心	-9.81858
母亲的	-9.81971
我们每个人	-9.81987
』	-9.81989
的内心	-9.82095
神经	-9.82113
剧	-9.82129
需要你	-9.82165
什么事情	-9.82199
的路	-9.82225
我现在	-9.82257
公	-9.82271
折磨	-9.82342
阻碍	-9.8236
办	-9.82426
在这个过程中	-9.82441
方面的	-9.8252
前进	-9.82543
发生了什么	-9.82556
双方都	-9.82562
任	-9.8266
进去	-9.82737
的决定	-9.82786
愿你	-9.82843
身边的	-9.82923
辞职	-9.82985
抱抱题主	-9.82986
和男友	-9.83007
如果不	-9.83021
深呼吸	-9.83049
的伤害	-9.83155
合作	-9.83175
圈子	-9.83179
可以考虑	-9.83254
更有	-9.8326
感兴趣	-9.83407
兴趣爱好	-9.83417
也没	-9.83448
一时	-9.83484
尽力	-9.83499
暴露	-9.83527
部	-9.83585
反感	-9.83614
冷漠	-9.83638
特点	-9.83678
单纯	-9.83679
动作	-9.83825
那个时候	-9.83979
磨合	-9.83996
动机	-9.84084
偏	-9.84105
三个	-9.84137
母	-9.84303
不值得	-9.84377
功能	-9.84428
消除	-9.84586
去思考	-9.84709
男女	-9.8474
干扰	-9.84806
彼此的	-9.84811
思路	-9.84823
差不多	-9.84848
课程	-9.84914
循环	-9.8505
有些事情	-9.85071
除	-9.85122
多久	-9.85136
工资	-9.85192
我觉得你	-9.85267
他说	-9.85322
的成长	-9.85339
我可以	-9.85367
都不是	-9.85385
没必要	-9.8542
一个问题	-9.85508
还是会	-9.85518
张	-9.85582
上课	-9.85752
自己的问题	-9.85781
的那种	-9.85782
这段时间	-9.85983
的知识	-9.86013
▁	-9.86024
从中	-9.86095
试试	-9.86099
倾向	-9.86161
的支持	-9.86179
源于	-9.86217
的因素	-9.86234
智慧	-9.86268
让您	-9.86279
我们就	-9.86335
岗位	-9.86345
电话	-9.86373
~~	-9.86382
笔	-9.86397
所以我	-9.864
奋斗	-9.86432
善于	-9.86457
喜欢的人	-9.86502
到你	-9.86516
可能是因为	-9.86562
演	-9.86579
我要	-9.86643
还有很多	-9.86676
要有	-9.867
过多的	-9.86715
的理解	-9.86726
给了	-9.8674
主要是	-9.86745
自尊	-9.86809
意思	-9.8683
那么我们	-9.86838
给别人	-9.86878
非常理解你的心情	-9.86906
药物	-9.86908
很喜欢	-9.86948
强势	-9.87006
忍受	-9.87028
是要	-9.87062
才有	-9.87087
这部分	-9.87122
。4、	-9.87127
其它	-9.87264
权威	-9.87313
要想	-9.87328
微信	-9.87398
刷	-9.87426
的空间	-9.8749
激发	-9.875
号	-9.87528
姑娘	-9.87578
是很正常的	-9.87659
片	-9.87679
工作中	-9.87685
最重要的是	-9.87715
形	-9.87717
嗯	-9.87725
误解	-9.87856
是因为你	-9.87857
很快	-9.87869
群	-9.8789
毫无	-9.87914
有帮助	-9.87945
图	-9.87948
弄	-9.87953
形式	-9.87955
一段感情	-9.87981
进而	-9.88085
轻	-9.88105
的答案	-9.88128
看重	-9.88188
所有人	-9.88251
静	-9.88263
更重要	-9.88285
靠近	-9.88328
和焦虑	-9.88366
活在	-9.8841
疑惑	-9.8844
值	-9.88476
和我	-9.88496
给你温暖的抱抱	-9.88506
影响了	-9.88519
散	-9.88521
妥协	-9.88522
欺骗	-9.88532
要去	-9.88537
一切都	-9.88546
不清楚	-9.88561
介意	-9.88564
也在	-9.88569
又会	-9.88607
想要改变	-9.8861
这些情绪	-9.88683
我想你	-9.88737
谁都	-9.88783
】1.	-9.88837
否定自己	-9.88851
老师的	-9.88903
特	-9.89056
表面	-9.891
的年龄	-9.89101
练	-9.89129
不在	-9.89159
同性	-9.89177
试图	-9.89212
风险	-9.89239
破坏	-9.89265
中间	-9.893
衣服	-9.89312
日子	-9.89313
为此	-9.89329
的角色	-9.89335
关怀	-9.89344
不适	-9.8935
带给你	-9.8936
的故事	-9.89466
目前的	-9.89576
法律	-9.89642
都不会	-9.89761
做过	-9.89762
界限	-9.89861
树立	-9.89908
自私	-9.8993
痛苦的	-9.8994
等到	-9.89962
帮助自己	-9.89964
计	-9.90001
。(2)	-9.90046
困境	-9.90056
大的	-9.90313
什么呢	-9.90317
前面	-9.90344
外界的	-9.90363
几天	-9.90429
挑	-9.90429
共	-9.90446
。4.	-9.90488
劝	-9.90489
列	-9.90644
不是你	-9.90664
心理医生	-9.90672
多么	-9.90676
认识自己	-9.90678
生活中的	-9.90726
善	-9.9073
止	-9.90735
去尝试	-9.90767
脱离	-9.90788
不适应	-9.9079
随时	-9.90825
源	-9.90834
跳	-9.90847
够	-9.90903
的成绩	-9.90987
之间的关系	-9.91004
和想法	-9.91027
但也	-9.91074
一个人的	-9.91121
看完	-9.91123
不知道怎么	-9.9113
修	-9.91138
男孩子	-9.91149
有这样的	-9.91167
是比较	-9.91197
千	-9.9122
他是	-9.91227
充实	-9.91244
过多	-9.91252
冲	-9.91268
干涉	-9.91277
叫做	-9.91294
很久	-9.91323
这份工作	-9.9134
压力大	-9.91357
缺失	-9.91357
多次	-9.91362
回去	-9.91431
的美好	-9.91447
呈现	-9.91518
望	-9.91666
房子	-9.91667
但又	-9.9168
这么做	-9.91691
从小到大	-9.91707
家庭的	-9.9171
形成了	-9.9178
的思维	-9.91835
极度	-9.91836
e	-9.9187
8	-9.91892
做决定	-9.91927
是他	-9.91931
你一定	-9.91987
也是一个	-9.92026
周围的人	-9.92091
业	-9.92095
皮	-9.92109
告诉她	-9.92197
类型	-9.92234
了你的	-9.92236
考验	-9.9228
快速	-9.92294
你的描述	-9.92298
自残	-9.92317
出门	-9.92358
不是吗	-9.92361
尤其	-9.92371
先给楼主一个抱抱	-9.92386
酒	-9.92404
o	-9.92463
两种	-9.92511
顺	-9.92511
玩手机	-9.92619
说的话	-9.92679
自主	-9.92693
没有那么	-9.92702
将自己	-9.92744
并不会	-9.92744
越来越好	-9.92776
很棒	-9.92836
综合	-9.92838
调整自己	-9.92844
他也	-9.92846
就可以了	-9.92859
身份	-9.92867
敢于	-9.92888
从你	-9.929
后果	-9.92983
己	-9.92992
犹豫	-9.92997
传	-9.93156
很高兴	-9.93164
不幸	-9.93196
时光	-9.93212
看到自己	-9.93222
补	-9.93224
丧失	-9.93259
如果自己	-9.93261
本人	-9.93319
想改变	-9.93323
和老公	-9.93325
淡	-9.9334
里的	-9.93342
的矛盾	-9.93352
巨大的	-9.93375
仅仅是	-9.93397
导致你	-9.9351
你希望	-9.93524
机制	-9.93536
胡思乱想	-9.93571
会更加	-9.93591
好好地	-9.93612
爱他	-9.93652
向你	-9.93653
那时候	-9.93659
能做到	-9.93668
仿佛	-9.93835
是我	-9.93874
长时间	-9.93955
放不下	-9.94019
属于自己的	-9.94058
往往是	-9.94073
是对	-9.94115
敢	-9.94129
的模式	-9.94134
困	-9.94156
知道你	-9.94252
隔	-9.94261
出于	-9.94352
没法	-9.94355
每一次	-9.94396
暧昧	-9.94403
不说	-9.94443
不仅仅是	-9.94473
防御	-9.9453
使得	-9.94575
形象	-9.94584
果	-9.94619
头脑	-9.94663
伤害自己	-9.94682
不论	-9.94683
的可能性	-9.947
不能接受	-9.94714
陌生	-9.94731
找工作	-9.94865
自己的价值	-9.94897
证	-9.94955
解读	-9.94972
所说的	-9.95033
变成了	-9.95068
去医院	-9.95089
难度	-9.95105
说不定	-9.95184
接受自己	-9.95215
最大	-9.95215
经	-9.95215
背景	-9.95251
花钱	-9.95253
一下自己	-9.9529
相关的	-9.95296
复合	-9.95299
楼主说	-9.95299
从事	-9.95321
没有安全感	-9.95335
外向	-9.95418
多年	-9.95489
究竟	-9.95532
都很	-9.95576
小学	-9.95591
而不	-9.95617
对他们	-9.95642
和感受	-9.95647
六	-9.95666
梦想	-9.95732
化解	-9.95813
故意	-9.95916
拍	-9.95952
你又	-9.96
动物	-9.96021
之前的	-9.9605
特质	-9.96065
本身就	-9.96078
投	-9.96097
今后	-9.96208
给自己一个	-9.96224
放心	-9.9628
这个世界上	-9.96371
沟通一下	-9.96379
的困惑	-9.96385
就没有	-9.96398
显然	-9.96407
比较好	-9.96429
到底是	-9.96452
高兴	-9.96584
看似	-9.96705
树	-9.96742
严格	-9.96903
哈	-9.96933
学习的	-9.96964
不起	-9.97124
和母亲	-9.97155
圈	-9.97163
效应	-9.97279
费	-9.97367
建议楼主	-9.97375
预	-9.97409
这种情绪	-9.97411
找出	-9.97417
跟着	-9.97421
坦诚	-9.97527
具备	-9.97552
的勇气	-9.97587
深深的	-9.97619
得到了	-9.97674
没人	-9.97703
的一切	-9.97718
就会有	-9.9773
重要的是	-9.97731
和人	-9.97771
中国	-9.97805
看得出来	-9.97849
易	-9.97849
却是	-9.97869
心思	-9.97877
上了	-9.97947
排解	-9.97969
请你	-9.97991
可以找	-9.97992
有用	-9.97999
习惯了	-9.9803
真实的自己	-9.98033
整	-9.98057
准	-9.98075
效率	-9.98076
的程度	-9.98116
可能需要	-9.98139
对未来	-9.98145
害怕自己	-9.98152
局	-9.9817
你妈妈	-9.98198
因为他们	-9.98216
总有	-9.9822
有限	-9.98221
强迫症	-9.9824
你目前	-9.98283
出了	-9.98301
隐藏	-9.98372
明天	-9.98386
邀请	-9.98416
疗法	-9.98417
恋	-9.98442
希望能够	-9.98445
去想	-9.98562
超越	-9.98564
抱抱你呀	-9.98617
异	-9.98652
古	-9.98809
独自	-9.9887
单身	-9.98875
想清楚	-9.98922
健康的	-9.98926
跟别人	-9.9893
的办法	-9.9895
很多的	-9.99039
是你的	-9.9906
的思想	-9.99102
此刻	-9.99104
忍不住	-9.99127
相爱	-9.9915
透	-9.99172
替	-9.99225
体现	-9.99225
聚	-9.99235
异地	-9.99376
就是这样	-9.99425
有利于	-9.99476
程	-9.99489
的付出	-9.99543
具体的	-9.99548
学到	-9.99571
受到了	-9.99654
心理上	-9.99699
你的朋友	-9.99772
这种行为	-9.99774
一个月	-9.998
不适合	-9.99801
味	-9.9981
洗	-9.9984
无法改变	-9.99846
可以看出你	-9.99898
他们会	-10
代价	-10.0001
坚持下去	-10.0003
集体	-10.0004
了一些	-10.0005
前男友	-10.0005
使你	-10.0006
自恋	-10.0006
去了解	-10.0006
率	-10.0012
觉	-10.0015
国	-10.002
跑步	-10.0023
未必	-10.0026
根据你的描述	-10.0027
带孩子	-10.0028
不信任	-10.0031
成年	-10.0032
好多	-10.0033
青春	-10.0038
之下	-10.0039
良好	-10.0041
正如	-10.0047
细	-10.0055
同意	-10.0056
优秀的人	-10.0059
就开始	-10.0061
s	-10.0065
引发	-10.0068
击	-10.007
说我	-10.008
不知道如何	-10.0081
不要太	-10.0081
遭受	-10.0083
没关系	-10.0088
安静	-10.0092
我个人	-10.0104
的是什么	-10.0109
不要因为	-10.011
仅仅	-10.0119
的错误	-10.0123
有效的	-10.0124
减肥	-10.0128
就是一个	-10.0128
我不知道	-10.0129
的专业	-10.0134
争	-10.0135
无聊	-10.0137
自慰	-10.0141
的日子	-10.0142
能理解	-10.0143
碰到	-10.0144
你都	-10.0144
你心里	-10.0147
很有	-10.0156
。**	-10.0162
该如何	-10.0168
艰难	-10.0169
安抚	-10.017
支撑	-10.017
优	-10.0172
和情绪	-10.0173
明确的	-10.0173
就业	-10.0174
抛弃	-10.0175
体验到	-10.0176
和理解	-10.0178
产生的	-10.0181
根	-10.0181
强化	-10.0182
怀	-10.0182
写下来	-10.0185
幸福的	-10.0185
制	-10.0189
至	-10.0197
无关	-10.0198
看到你的	-10.0199
顶	-10.0201
对于你	-10.0202
答应	-10.0203
启发	-10.0203
用来	-10.0206
意识到自己	-10.0211
备	-10.0216
再加上	-10.0229
意外	-10.023
自然会	-10.0237
不一样的	-10.0241
谢谢	-10.0242
熟	-10.0249
哪怕是	-10.0251
不做	-10.0251
幸	-10.0271
情绪低落	-10.0272
的创伤	-10.0272
做事情	-10.0274
狗	-10.0279
什么样	-10.0279
接近	-10.0282
是想	-10.0282
我能	-10.0284
份	-10.029
自己身上	-10.0291
红	-10.0293
所有人都	-10.0294
年轻人	-10.0299
你真的	-10.0307
才能够	-10.0307
书籍	-10.0308
质疑	-10.0312
真是	-10.0313
抱	-10.0313
不公平	-10.0315
正视	-10.0323
跟自己	-10.0324
的相处	-10.0329
多大	-10.033
复	-10.0335
周围人	-10.0336
哪些是	-10.0337
国家	-10.0342
普通	-10.0344
的阶段	-10.0345
由此	-10.0348
因为自己	-10.035
但是如果	-10.0357
好好学习	-10.036
就越	-10.0363
套	-10.0365
超	-10.0368
这里面	-10.0369
交给	-10.0373
差距	-10.0375
顾虑	-10.0379
改正	-10.038
念头	-10.0384
人在	-10.0385
人生中	-10.039
混	-10.0391
如果你觉得	-10.0393
会很	-10.0396
连接	-10.0403
嘲笑	-10.0407
顺其自然	-10.041
预期	-10.0413
三观	-10.0415
也可能是	-10.0417
的期望	-10.042
自己想要的	-10.0427
考虑到	-10.0428
范围	-10.0429
心中的	-10.0431
抱着	-10.0434
获取	-10.0437
束缚	-10.0439
看看自己	-10.044
说到	-10.0444
这一切	-10.0447
很多人都	-10.0448
立	-10.0449
注意到	-10.0451
很有可能	-10.0458
。)	-10.0463
助	-10.0466
菜	-10.0474
变好	-10.0478
卡	-10.0483
一颗	-10.0488
朋友圈	-10.0489
去看看	-10.0489
父亲的	-10.049
过后	-10.0492
底线	-10.0496
白天	-10.0497
旧	-10.0501
静下心来	-10.0504
自己的能力	-10.0508
做的事	-10.0513
聪明	-10.0516
外面	-10.0519
亮	-10.0519
哄	-10.052
很开心	-10.052
随便	-10.0522
网上	-10.0534
外部	-10.0543
‘	-10.0545
蛮	-10.0553
仅	-10.0553
那个人	-10.0575
生命的	-10.058
估计	-10.0583
能接受	-10.0583
员	-10.0588
城市	-10.059
’	-10.0593
这么多	-10.0594
有趣	-10.0607
希望对你有所帮助	-10.0612
饮食	-10.0617
不算	-10.0626
体谅	-10.0631
娱乐	-10.0632
的爱情	-10.0632
楼主您好	-10.0632
这只是	-10.0632
贵	-10.0641
但其实	-10.0643
会对	-10.0645
放大	-10.0647
黑暗	-10.0648
来了	-10.0649
可见	-10.065
的女生	-10.0654
科	-10.0663
可以用	-10.0663
熬夜	-10.0666
各种各样的	-10.0677
纸	-10.0678
店	-10.0678
不要再	-10.0682
的改变	-10.0683
但这	-10.069
质	-10.0691
超过	-10.0692
形成的	-10.0694
阴影	-10.0695
替代	-10.0698
千万不要	-10.0698
在我看来	-10.0699
的自我	-10.07
不知道题主	-10.07
来的	-10.0701
的观念	-10.0703
经常会	-10.0706
做朋友	-10.0708
抵触	-10.0714
站	-10.0715
低落	-10.0717
我想说	-10.0719
个月	-10.0728
整理	-10.0731
凭	-10.0731
友好	-10.0741
还是有	-10.0742
飞	-10.0746
我感觉	-10.0746
的任务	-10.075
匹配	-10.0753
平和	-10.0753
没有错	-10.0756
重大	-10.0758
背叛	-10.076
之处	-10.0761
治	-10.0763
罪	-10.0763
交友	-10.0764
这时	-10.0773
稳定的	-10.0773
疼	-10.078
宝贝	-10.0781
损失	-10.0787
独	-10.079
成为一个	-10.0792
玩游戏	-10.0804
电	-10.0806
带给	-10.0808
不够好	-10.0811
很难过	-10.0811
更大	-10.0819
喜	-10.0823
抑郁情绪	-10.0823
上进	-10.0823
是一个很	-10.0823
不大	-10.0828
悲观	-10.0829
不重要	-10.0836
容	-10.0843
对你有	-10.0844
球	-10.0845
建议题主	-10.0848
的交流	-10.0861
被爱	-10.0869
广	-10.0874
反而会	-10.0875
只是一个	-10.0875
了解你	-10.0876
成为了	-10.0876
导致了	-10.0877
的那个	-10.088
半年	-10.0886
很高	-10.0887
途径	-10.0892
变得更好	-10.0896
对对方	-10.0899
也许会	-10.0899
渐渐	-10.0905
另	-10.0914
梳理一下	-10.0914
!(^_-)	-10.0923
你想要的	-10.0925
你内心的	-10.0939
也无法	-10.094
排除	-10.094
所以在	-10.0943
自卑感	-10.0944
面试	-10.0945
没那么	-10.0953
找回	-10.0957
正念	-10.0964
精彩	-10.0968
的身体	-10.0969
作出	-10.0971
嘴	-10.0973
了解一下	-10.0973
完美的	-10.0974
浪费	-10.0976
强迫自己	-10.0978
的缺点	-10.0978
存在着	-10.0982
理解和	-10.0982
但我们	-10.0985
亲情	-10.0986
喜欢他	-10.0991
是否可以	-10.0996
挣扎	-10.0997
焦虑和	-10.0999
冷静下来	-10.0999
找到一个	-10.1004
·	-10.1007
需要去	-10.1011
而非	-10.1013
本来就	-10.1013
胖	-10.1013
岁的	-10.1017
本身就是	-10.1023
更大的	-10.1036
考上	-10.1037
食物	-10.1037
可能性	-10.1038
沉默	-10.1044
好吗	-10.1046
的处境	-10.1048
咱们	-10.1049
是很难	-10.105
对错	-10.105
会导致	-10.1053
会让人	-10.1056
职	-10.1057
反对	-10.1058
跟父母	-10.1064
眼中	-10.1065
告知	-10.1066
会因为	-10.1072
你知道	-10.1072
好友	-10.1074
介绍	-10.1079
你的情况	-10.1079
暴躁	-10.1088
守	-10.1091
你觉得自己	-10.1095
牺牲	-10.1096
链接	-10.1097
随意	-10.1102
总是会	-10.1103
绝	-10.1107
看一下	-10.1111
攻击性	-10.1113
醒	-10.1121
我不	-10.1121
的现象	-10.1129
走了	-10.1133
微笑	-10.1134
。——	-10.1138
眼睛	-10.1143
额	-10.1146
命运	-10.1147
同情	-10.1149
画画	-10.115
元	-10.1155
基于	-10.1155
的注意力	-10.1157
是你自己	-10.1161
多多	-10.1162
自己内心的	-10.1165
需要我们	-10.1171
会影响	-10.1176
好感	-10.1178
的错	-10.1179
拖	-10.1179
余	-10.1181
如果楼主	-10.1185
0	-10.1187
减	-10.1194
关心你	-10.1196
严重的	-10.1197
的位置	-10.1201
激励	-10.1201
见到	-10.1203
也只是	-10.1205
只有自己	-10.1206
抓	-10.1206
心动	-10.121
普通人	-10.1221
理解自己	-10.1222
区别	-10.1223
印象	-10.1227
想要的	-10.1238
自我成长	-10.1241
适合自己的	-10.1243
类似的	-10.1246
要注意	-10.1248
点赞	-10.1256
就已经	-10.1257
自己在	-10.1259
是好的	-10.1259
未知	-10.1267
设置	-10.1268
是吗	-10.1271
二是	-10.1272
嫁	-10.1273
向往	-10.1278
定位	-10.1279
TA	-10.1283
感同身受	-10.129
的愿望	-10.1293
否认	-10.1294
对题主	-10.1295
从描述中可以了解到	-10.1297
人群	-10.1299
看过	-10.1303
对于自己	-10.1303
注重	-10.1304
开朗	-10.1305
是没有	-10.1306
这样的状态	-10.1308
放手	-10.1314
一项	-10.133
引	-10.1334
员工	-10.1339
请求	-10.1339
非常重要	-10.1341
打扰	-10.1348
赚	-10.1352
王	-10.1354
不了解	-10.1355
大多数人	-10.1359
在他	-10.1361
加强	-10.1365
摆	-10.1366
学习和	-10.1374
善意	-10.1376
问题的	-10.1379
焦虑不安	-10.1382
收到	-10.1383
一点点分析和建议	-10.1384
对您	-10.1385
我也是	-10.1385
做个	-10.1386
卖	-10.1387
不好意思	-10.1387
偷	-10.1391
大多	-10.1403
认真的	-10.1404
无需	-10.1417
你的生活	-10.1419
身边人	-10.1425
过去了	-10.1426
不希望	-10.1427
看到的	-10.1428
自己的行为	-10.1429
在关系中	-10.1429
心理学家	-10.1433
只是你	-10.1434
怎样的	-10.1437
努力的	-10.1441
的真实	-10.1446
一般来说	-10.1446
的眼光	-10.1449
到现在	-10.1451
毒	-10.1454
我都	-10.1454
这都是	-10.1455
也不知道	-10.1459
工作上	-10.146
我们也	-10.1464
室	-10.1467
忍	-10.147
换一个	-10.1471
可以把	-10.1473
省	-10.1474
的欲望	-10.1481
衣	-10.1492
机构	-10.1498
开放	-10.1499
另一种	-10.1504
去看待	-10.1505
却又	-10.1507
不要去	-10.1509
勇敢地	-10.1509
往往会	-10.151
和你一样	-10.1511
踏实	-10.1512
儿童	-10.1513
的女孩	-10.1516
一个小	-10.1524
更是	-10.1524
一系列	-10.153
从你的	-10.1534
的意愿	-10.1539
是否是	-10.1543
2、	-10.1547
可能就是	-10.1547
下降	-10.1551
这样的话	-10.1555
家暴	-10.1557
氛围	-10.1558
有力量	-10.1559
让父母	-10.1559
能感受到	-10.1559
达	-10.156
斯	-10.1563
被拒绝	-10.1572
情结	-10.1573
很可能	-10.1575
躲	-10.1579
会在	-10.158
有价值	-10.1588
只是在	-10.159
可怕	-10.1597
一些问题	-10.1599
德	-10.16
焦虑情绪	-10.1604
劲	-10.1615
有些时候	-10.162
幸运	-10.1623
你不	-10.1625
的关注	-10.1629
给你一个温暖的抱抱	-10.1631
却没有	-10.1636
一遍	-10.1637
的年纪	-10.1639
如果题主	-10.1642
一是	-10.1643
尽可能	-10.1644
在工作中	-10.1646
说自己	-10.1648
爱和	-10.165
你男朋友	-10.165
感知	-10.1653
妈	-10.1656
相同	-10.1659
相比	-10.1672
对他的	-10.1676
走进	-10.1677
个人的	-10.1682
你的人生	-10.1682
完善	-10.1689
强调	-10.1693
发生的事情	-10.1695
运用	-10.1703
身体的	-10.1706
闲	-10.1717
温暖的	-10.1719
还是需要	-10.1723
友	-10.1724
要看	-10.1727
是不会	-10.1738
羞耻	-10.174
使自己	-10.1742
学习成绩	-10.1749
心理上的	-10.1752
比较多	-10.1756
的咨询师	-10.176
反过来	-10.1764
如今	-10.1765
所以才会	-10.1766
顾及	-10.1774
基本上	-10.1777
这样一个	-10.1781
八	-10.1789
小时	-10.1792
靠自己	-10.1794
影	-10.1797
十年	-10.1799
恶性循环	-10.18
纠缠	-10.1801
不允许	-10.1807
衡量	-10.1811
危机	-10.1813
刻	-10.1819
我们应该	-10.1821
这样的事情	-10.1824
小的时候	-10.1832
传统	-10.1833
实验	-10.1834
心理学上	-10.1837
我建议你	-10.184
聊聊天	-10.1842
这个阶段	-10.1843
而感到	-10.1846
找到了	-10.1849
我相信你	-10.1853
指导	-10.1853
健身	-10.1853
消息	-10.1854
小说	-10.1856
只想	-10.1857
是会	-10.1858
给你一些	-10.186
骗	-10.1862
划	-10.1862
沉浸在	-10.1863
一下子	-10.1865
自己的目标	-10.187
的状况	-10.1872
充满了	-10.1877
不清	-10.1881
不止	-10.1882
温和	-10.1884
数学	-10.1886
早上	-10.1886
旅游	-10.1888
描述中	-10.1889
交际	-10.1892
做出改变	-10.1892
自己的需求	-10.1894
的基础上	-10.1894
即使是	-10.1895
脱	-10.1897
在此	-10.1903
把他	-10.1904
i	-10.1909
英语	-10.1909
第一步	-10.1919
暗	-10.1923
和男朋友	-10.1927
不如意	-10.1927
居	-10.1928
措施	-10.1929
执行	-10.193
入睡	-10.1933
实力	-10.1934
题主现在	-10.1935
小目标	-10.1936
解决的	-10.1938
楼	-10.1939
的重要	-10.194
那时	-10.1945
是由	-10.1946
猫	-10.1946
般	-10.1952
自己喜欢	-10.1954
有必要	-10.1958
恋爱关系	-10.1958
对吧	-10.196
希望对你有帮助	-10.1962
沮丧	-10.1966
令	-10.1979
会遇到	-10.1982
会感到	-10.1983
可能在	-10.1986
概念	-10.1991
转移到	-10.1993
丑	-10.1997
干预	-10.1998
的教育	-10.1999
楼主现在	-10.2002
感情的	-10.2002
需	-10.2004
抓住	-10.2012
第一个	-10.2013
你喜欢	-10.2013
恐慌	-10.2021
格	-10.2021
一些建议	-10.2023
做些什么	-10.2023
场景	-10.2024
自我保护	-10.2025
才可以	-10.2025
等你	-10.2029
的事件	-10.203
服	-10.2031
题目	-10.2032
就不要	-10.2032
意愿	-10.2036
这可能	-10.2039
宽容	-10.2041
商	-10.2041
在这样的	-10.2042
棒	-10.2044
越多	-10.2044
网	-10.2046
看一看	-10.2048
的症状	-10.2049
所以楼主	-10.205
可能有	-10.2056
相处的	-10.2059
不配	-10.206
吃药	-10.206
研究生	-10.206
逐步	-10.2061
做不好	-10.2067
前行	-10.2071
核心	-10.2073
就好像	-10.2073
赶	-10.2074
受到伤害	-10.2079
和老师	-10.2085
的描述	-10.2087
补充	-10.2087
和痛苦	-10.2087
我们不能	-10.209
回头	-10.2091
领	-10.2091
性行为	-10.2091
仍	-10.2094
约束	-10.2097
不堪	-10.2099
即可	-10.2102
不知道自己	-10.2103
知道了	-10.2106
如果她	-10.211
家庭中	-10.2113
服务	-10.2115
一段关系	-10.2115
当年	-10.2116
自己的选择	-10.2117
这类	-10.2121
你才	-10.2125
的相处模式	-10.213
克	-10.2131
就应该	-10.2132
的书	-10.2134
的事实	-10.2136
回归	-10.214
比如你	-10.2141
如果可以	-10.2142
是这样吗	-10.2144
其实也	-10.2147
刀	-10.2152
好起来	-10.2154
跟他们	-10.2156
也不想	-10.2158
您可以	-10.2161
当时的	-10.2163
爱护	-10.2164
有可能是	-10.2167
以外	-10.2168
对自己有	-10.217
坎	-10.2173
父	-10.2179
贴	-10.2183
题主好	-10.2183
当我	-10.219
七	-10.2191
的语言	-10.2199
时常	-10.2201
有种	-10.2206
赞美	-10.2208
太多的	-10.221
台	-10.2211
工具	-10.2212
起到	-10.2215
涉及到	-10.2217
另一半	-10.2219
赢	-10.222
息	-10.2222
你对自己	-10.2226
的学生	-10.2226
组织	-10.2229
自我否定	-10.223
的发生	-10.2246
傻	-10.2249
很小	-10.2249
详细	-10.225
两次	-10.2256
的信念	-10.2267
不易	-10.2268
当事人	-10.2268
出错	-10.2271
音乐	-10.2275
换个	-10.2282
越来越多	-10.2284
久了	-10.2284
给你一个	-10.2287
与否	-10.2288
不甘心	-10.2291
自我的	-10.2301
自己的事情	-10.2302
天生	-10.2302
关注自己	-10.2304
赋予	-10.2306
消化	-10.2309
我看到	-10.2314
完美主义	-10.2316
发现了	-10.2329
出发	-10.233
默默	-10.2331
的时候就	-10.2333
被抛弃	-10.2335
区分	-10.2336
场合	-10.2337
当作	-10.2339
再来	-10.234
停下来	-10.2344
会让自己	-10.2349
现在你	-10.2353
过好	-10.2354
问自己	-10.236
报复	-10.2363
房间	-10.2367
爱的人	-10.2367
专业人士	-10.2369
睡不着	-10.2371
企业	-10.2376
杂	-10.2379
作息	-10.238
觉察到	-10.238
确实会	-10.2385
活得	-10.2385
位置	-10.2389
策略	-10.2399
l	-10.2399
义	-10.241
不安全感	-10.2413
的陪伴	-10.2413
地位	-10.2413
因为她	-10.2415
对他人	-10.2416
给他们	-10.2417
呆	-10.2418
爱上	-10.2418
巴	-10.2419
很简单	-10.242
控制欲	-10.2427
这种想法	-10.2429
公平	-10.243
发育	-10.2431
肉	-10.2434
专	-10.2434
把这些	-10.244
帮助我们	-10.2441
风格	-10.2441
这本书	-10.2446
人性	-10.2449
每当	-10.2451
感性	-10.2452
情侣	-10.2454
深度	-10.2459
不少	-10.246
抱抱楼主	-10.2461
生孩子	-10.2466
的负面情绪	-10.2468
的念头	-10.247
持	-10.2475
快乐的	-10.2477
也能够	-10.2478
空虚	-10.2479
疏远	-10.248
甜蜜	-10.248
。(3)	-10.2486
的烦恼	-10.2488
的男生	-10.2493
想去	-10.2494
下一次	-10.25
与别人	-10.2507
也就会	-10.2511
封闭	-10.2518
了自己的	-10.2525
保护好自己	-10.2526
效	-10.2527
罢了	-10.2531
自己的优点	-10.2532
保留	-10.2537
可不可以	-10.2538
出现的	-10.2541
的基础	-10.2546
与他	-10.2547
失控	-10.2549
的时刻	-10.2549
很辛苦	-10.255
礼物	-10.2551
这样子	-10.2552
很优秀	-10.2552
性生活	-10.256
自我怀疑	-10.2562
但是在	-10.2567
你父母	-10.2569
在学习	-10.2569
走下去	-10.257
匮乏	-10.2578
做法	-10.2579
逃	-10.258
全面	-10.2583
的后果	-10.2584
没事	-10.2584
哪种	-10.2584
事后	-10.2585
的认可	-10.2587
依	-10.2588
的点	-10.2588
艺术	-10.2598
客	-10.2598
培训	-10.2598
哭泣	-10.26
成长过程中	-10.2613
想知道	-10.2613
当前的	-10.2624
分为	-10.2635
迷	-10.2636
发出	-10.2642
交谈	-10.2644
希望你可以	-10.2651
3.	-10.2652
最初	-10.2654
可以说是	-10.2657
自己的身体	-10.2657
少了	-10.2672
久而久之	-10.2673
会比较	-10.2674
情商	-10.2677
节奏	-10.2679
规定	-10.2679
藏	-10.268
以往	-10.2682
自己一个人	-10.2691
无力感	-10.2692
直面	-10.2695
煎熬	-10.2698
一个好的	-10.2701
缘分	-10.2704
做得	-10.2708
不得	-10.2709
板	-10.2711
自己的孩子	-10.2711
其实我们	-10.2716
喜欢一个人	-10.2726
家人的	-10.2726
没能	-10.2728
为什么不	-10.2729
的需要	-10.273
家庭关系	-10.2732
一面	-10.2737
看到你的描述	-10.2745
不出	-10.2749
就是在	-10.2755
去理解	-10.2756
疏导	-10.2761
方案	-10.2764
尔	-10.2771
惹	-10.2776
象	-10.2777
资料	-10.2777
当他	-10.2792
很长	-10.2793
在一定程度上	-10.2796
是不一样的	-10.2797
无法接受	-10.2797
谨慎	-10.2797
题主的描述	-10.2802
证明自己	-10.2804
察觉	-10.2806
品质	-10.2817
有更多的	-10.2823
打电话	-10.2824
的快乐	-10.2827
不接受	-10.2829
夫	-10.2832
身体健康	-10.2832
混乱	-10.2839
考虑一下	-10.284
家里的	-10.2849
遇到的	-10.2856
才会有	-10.2857
灯	-10.2857
不要害怕	-10.2858
的本质	-10.2859
或多或少	-10.2867
标签	-10.2871
如果不是	-10.2878
呵护	-10.2878
顾	-10.2879
看的	-10.288
来到	-10.2884
以前的	-10.2885
心底	-10.2885
主义	-10.2885
人是	-10.2886
还有就是	-10.2891
的人际关系	-10.2892
先生	-10.2895
多去	-10.2898
属	-10.2899
准备好	-10.2902
陪你	-10.2906
写日记	-10.2908
厉害	-10.291
给楼主	-10.2911
男方	-10.2911
真诚的	-10.2914
兴奋	-10.2916
最重要	-10.2917
肯定会	-10.2917
说不	-10.2918
我们每个人都	-10.2919
工作的	-10.2919
落差	-10.292
消费	-10.2922
根源	-10.2927
胜	-10.293
的回答	-10.2931
楼主好	-10.2935
疑	-10.2937
的妈妈	-10.2937
就去	-10.2943
忽略了	-10.2946
那我们	-10.2947
解决办法	-10.2949
客观的	-10.295
愿望	-10.2952
听起来	-10.2955
压抑自己	-10.2957
不是说	-10.2958
难题	-10.2966
伤害到	-10.2968
的钱	-10.297
的生命	-10.2977
分歧	-10.2978
他对你	-10.2981
有多少	-10.2984
可以让自己	-10.2985
你可以试着	-10.2986
总觉得	-10.2986
支持你	-10.2988
是出于	-10.3002
可以做到	-10.3003
些什么	-10.3004
各方面	-10.3005
一步步	-10.3005
希望我的	-10.302
在我	-10.3023
可以帮助你	-10.3023
阅历	-10.303
微	-10.303
端	-10.3031
存在感	-10.3036
帮助别人	-10.3038
而我们	-10.3039
不要把	-10.3039
的能量	-10.3043
你不是	-10.3046
还是很	-10.3047
现实的	-10.3052
常见的	-10.3052
在这种情况下	-10.3055
每个人都会有	-10.3057
贬低	-10.306
腿	-10.3062
班级	-10.3065
自己是	-10.3066
忙碌	-10.3066
必要的	-10.3069
对人	-10.3069
。●	-10.3069
的形象	-10.307
不受	-10.3072
打游戏	-10.3075
亲子关系	-10.3079
打压	-10.3083
让自己变得	-10.3084
深刻	-10.3084
的事物	-10.3087
的计划	-10.3088
成功的	-10.3089
责怪	-10.3091
题主你好呀	-10.3093
并不代表	-10.3095
他就	-10.3098
展现	-10.3098
希望得到	-10.3098
停	-10.3098
创业	-10.3104
给题主	-10.3105
不一定是	-10.3106
眼前	-10.3108
感动	-10.3108
抚养	-10.312
上大学	-10.3122
表现的	-10.3122
辈	-10.3123
不稳定	-10.3124
认真地	-10.3125
致	-10.3126
紧急	-10.3126
想一下	-10.3129
代替	-10.3129
几点	-10.3129
你看	-10.313
设定	-10.313
自在	-10.3131
他在	-10.3132
算是	-10.3137
气质	-10.3143
～～	-10.3148
会有一些	-10.3149
挺好的	-10.315
取决于	-10.315
会发现	-10.3151
干什么	-10.3153
的判断	-10.3157
非常好	-10.3158
其实就是	-10.3164
穷	-10.3166
也有可能	-10.3166
传递	-10.3172
欠	-10.3182
缺陷	-10.3185
集中	-10.3187
频繁	-10.3189
特别的	-10.3191
清醒	-10.3194
这才是	-10.3201
途	-10.3205
从前	-10.3207
在外	-10.3212
走到	-10.3213
此外	-10.3214
内部	-10.3216
不多	-10.3217
懂事	-10.3225
解决了	-10.3226
+	-10.3228
证据	-10.3229
委屈自己	-10.3241
吸引力	-10.3242
即将	-10.3249
初恋	-10.3252
遍	-10.3254
可能就	-10.3256
生活在	-10.3256
强大的	-10.3258
自我价值	-10.3259
希望对楼主有所帮助	-10.3262
层次	-10.3263
%	-10.3264
就是要	-10.3266
置	-10.3267
怨恨	-10.3268
你能够	-10.327
所以说	-10.3274
其他方面	-10.3276
只是因为	-10.3276
认	-10.3277
不知道楼主	-10.3278
了吧	-10.3283
抗	-10.3284
也是有	-10.3289
毁	-10.3291
的未来	-10.3292
协调	-10.3294
▲	-10.3295
你也会	-10.3296
这两个	-10.3297
睡前	-10.3297
你还是	-10.3298
理想的	-10.33
他们也	-10.3301
起床	-10.3306
中心	-10.3309
但是却	-10.3313
奔	-10.3313
朝	-10.3318
做些	-10.3322
同学们	-10.3324
首	-10.3327
对父母	-10.3329
疑问	-10.3331
零	-10.3333
表扬	-10.3333
迎合	-10.3336
真相	-10.334
现实中	-10.3346
你可以选择	-10.3348
令你	-10.335
挫败	-10.3352
私	-10.3355
夫妻关系	-10.3357
好转	-10.3357
谈一谈	-10.3358
你只是	-10.3359
战胜	-10.3359
我妈	-10.3372
佛	-10.3376
分数	-10.3384
完整	-10.3386
希望能够帮助到你	-10.3389
的表达	-10.3392
毛	-10.3396
本质上	-10.3399
会把	-10.3403
有勇气	-10.3406
表达自己的	-10.3407
无所谓	-10.341
是最好的	-10.3413
能够理解	-10.3414
到最后	-10.3415
相遇	-10.3416
批判	-10.3417
高度	-10.3417
河	-10.3421
模仿	-10.3421
滋养	-10.3423
变得更加	-10.3428
外人	-10.3429
解答	-10.3432
比起	-10.3436
每个人都有自己的	-10.3437
游	-10.3439
可能也	-10.344
锁	-10.3442
不在乎	-10.3445
早期	-10.3447
更何况	-10.3448
产	-10.3454
单纯的	-10.3454
希望可以	-10.3456
休	-10.3457
说服	-10.3461
我们也可以	-10.3464
的老师	-10.3465
伙伴	-10.3466
在网上	-10.347
脏	-10.347
换位思考	-10.3479
叛逆	-10.3481
这种感受	-10.3482
新闻	-10.3483
违背	-10.3484
忘了	-10.3485
这些想法	-10.3488
跟我	-10.3489
目	-10.3498
选择的	-10.35
出现问题	-10.35
的确是	-10.3505
变的	-10.3508
自己想要	-10.3512
的效果	-10.3513
”、“	-10.3514
这么多年	-10.3515
性取向	-10.352
一本书	-10.3521
可以看到	-10.3522
每一个人	-10.3523
孝顺	-10.3526
很不容易	-10.3527
自己的事	-10.3527
一味的	-10.353
动手	-10.353
很清楚	-10.3532
开玩笑	-10.3532
大胆	-10.3537
就这样	-10.3541
已经是	-10.3543
质量	-10.3543
刺	-10.3547
长大后	-10.3548
长远	-10.3549
对孩子的	-10.3549
让它	-10.3555
能做的	-10.3556
改进	-10.3556
权利	-10.3562
和爱	-10.3564
自然而然	-10.3564
一起去	-10.3564
女方	-10.3568
小朋友	-10.3569
评论	-10.357
做完	-10.3571
楼主在	-10.3572
的印象	-10.3572
超我	-10.3575
去世	-10.3576
或许会	-10.3577
测试	-10.3577
所以题主	-10.358
留言	-10.3584
感受不到	-10.3585
俩	-10.3586
云	-10.3592
退缩	-10.3593
甚至会	-10.3595
把事情	-10.3599
抱有	-10.3601
一定有	-10.3602
复杂的	-10.3603
呼	-10.3607
区	-10.3613
的男人	-10.3615
自己去	-10.3617
长期的	-10.3622
是他们	-10.3622
的活动	-10.3627
除非	-10.3629
只需要	-10.363
它的	-10.3631
3、	-10.3632
很在意	-10.3632
缺爱	-10.3635
每个人都是	-10.3641
积	-10.3648
没用	-10.3648
焦虑症	-10.3653
许	-10.3656
身材	-10.3657
坏事	-10.3658
不可以	-10.3659
喝酒	-10.366
关键是	-10.366
你对他	-10.3661
有好感	-10.3669
是这样的	-10.3669
希望我的回答	-10.367
入手	-10.367
背后的	-10.3672
的担忧	-10.3678
榜样	-10.3679
我还	-10.3682
但是他	-10.3684
团体	-10.3685
大事	-10.3689
正是因为	-10.3689
去做一些	-10.369
●	-10.3692
对不起	-10.3694
看出	-10.3695
有两个	-10.3698
你不想	-10.3701
采用	-10.3702
鱼	-10.3702
冷暴力	-10.3705
的亲密关系	-10.3706
侵犯	-10.3708
流动	-10.3709
其实也是	-10.371
不来	-10.3713
不能够	-10.3713
爱我	-10.3715
物品	-10.3719
惊	-10.3723
种种	-10.3723
如果我	-10.3727
明显的	-10.3728
不至于	-10.3729
比别人	-10.3731
伤害你	-10.3736
情感的	-10.3744
的母亲	-10.3746
造	-10.3749
但却	-10.375
控制不住	-10.3752
倾	-10.3752
家务	-10.3753
会越来越	-10.3754
好好爱自己	-10.3756
环境中	-10.3763
的场景	-10.3764
文章	-10.377
昨天	-10.3771
义务	-10.3777
时机	-10.3779
是怎样	-10.378
她说	-10.3783
转换	-10.3784
提醒自己	-10.3786
停留在	-10.3787
放弃了	-10.3788
的优势	-10.3788
卫生	-10.3792
逃离	-10.3799
有意义	-10.3801
如下	-10.3802
都说	-10.3802
不管你	-10.3804
个性	-10.3805
的回应	-10.381
会影响到	-10.3816
从你的描述来看	-10.3821
肯定自己	-10.3823
着自己	-10.3826
病情	-10.3827
视角	-10.3829
放到	-10.383
心理压力	-10.3833
更能	-10.3835
你似乎	-10.3835
补偿	-10.3835
恶意	-10.3836
如何去	-10.3842
写作	-10.3845
希望题主	-10.3847
团	-10.3847
不上	-10.3855
评	-10.3855
心理疾病	-10.3857
把注意力	-10.3858
复读	-10.386
让你感觉	-10.3863
时间和精力	-10.3864
稳	-10.3867
仅供参考	-10.3867
就会觉得	-10.3867
看不起	-10.3873
确	-10.3875
防	-10.3877
每个人都会	-10.3881
有所帮助	-10.3885
也有很多	-10.3886
她会	-10.3887
那份	-10.3887
异地恋	-10.3887
彼此之间	-10.389
成为你	-10.3891
有足够的	-10.3894
的记忆	-10.3901
觉得很	-10.3901
的关心	-10.3904
势	-10.3907
日记	-10.3909
发火	-10.3912
不该	-10.3915
项	-10.3916
希望可以帮到你	-10.3916
不存在	-10.3917
一块	-10.3924
阻止	-10.3924
早点	-10.3928
负能量	-10.3931
给您	-10.3937
标	-10.3942
怎么说	-10.3945
◆	-10.3946
无意识	-10.3951
更重要的是	-10.3952
我的建议是	-10.3955
一把	-10.396
恶心	-10.3964
固定	-10.3965
夸奖	-10.3966
骄傲	-10.3969
布	-10.3969
太过于	-10.397
我有	-10.3971
独立的	-10.3971
催眠	-10.3972
的路上	-10.3974
抽	-10.3976
朋友的	-10.3977
累了	-10.398
来源	-10.398
有关系	-10.3983
可爱	-10.3985
在他们	-10.3986
加入	-10.3991
的愤怒	-10.3993
还不	-10.3993
有压力	-10.3993
甜	-10.3994
渠道	-10.3994
对生活	-10.3995
外貌	-10.3996
想必	-10.3998
带有	-10.4006
所说	-10.4007
寝室	-10.4015
遇到问题	-10.4017
好坏	-10.4018
借助	-10.4019
控制自己	-10.4022
整体	-10.4025
。4	-10.4027
施	-10.4034
加深	-10.4039
不知所措	-10.404
了什么	-10.4043
给到	-10.4045
小小的	-10.4048
归因	-10.4049
每一天	-10.4049
不同的人	-10.405
心疼你	-10.405
在自己的	-10.4054
所以才	-10.4055
配	-10.4057
c	-10.4058
牌	-10.406
上来	-10.4062
心理治疗	-10.4063
都是在	-10.4066
暂时的	-10.4066
留意	-10.407
方便	-10.4073
反正	-10.4074
的某些	-10.4079
你所说的	-10.408
我真的	-10.4082
9	-10.4083
索取	-10.4085
终	-10.4085
的原生家庭	-10.4087
欢迎	-10.4095
我发现	-10.4096
能让你	-10.4098
一周	-10.4099
如果只是	-10.41
扮演	-10.4101
辞	-10.4106
浅	-10.4106
的价值观	-10.4111
你愿意	-10.4117
限	-10.4117
再说	-10.4119
和其他	-10.412
完全可以	-10.4121
还有一个	-10.4121
的互动	-10.4123
香	-10.4129
的不满	-10.413
的各种	-10.413
都没	-10.4131
医	-10.4135
花费	-10.4135
旅行	-10.4135
制造	-10.4143
(2)	-10.4145
一些人	-10.4149
专注于	-10.4151
平淡	-10.4154
多一点	-10.4154
你的男朋友	-10.4156
不懂得	-10.4162
情境	-10.4165
难免	-10.4167
迫	-10.4168
杀	-10.417
露	-10.4172
功	-10.4173
舍不得	-10.4177
一直以来	-10.4183
也知道	-10.4184
是由于	-10.4185
非要	-10.4186
前提	-10.4186
碰	-10.4192
单独	-10.4195
大声	-10.4196
告诉对方	-10.4197
正好	-10.4197
挂	-10.4198
第二个	-10.4199
平复	-10.4203
分担	-10.4204
暴	-10.4205
演讲	-10.4208
没有关系	-10.4213
也不用	-10.4214
牛	-10.4214
就行	-10.4216
的准备	-10.4218
有时间	-10.4219
的身份	-10.4219
准确	-10.422
自己没有	-10.4221
礼貌	-10.4223
无能为力	-10.4224
寄托	-10.4225
但是又	-10.4225
比较大	-10.4227
强求	-10.423
成本	-10.4232
接着	-10.4236
结交	-10.4241
跨	-10.4241
出口	-10.4244
付出的	-10.4246
监督	-10.4248
给予你	-10.4258
可能只是	-10.4263
这样的行为	-10.4267
导	-10.4267
更为	-10.4268
本科	-10.4269
好一点	-10.4274
开口	-10.4274
可能就会	-10.4276
的精力	-10.4278
误	-10.4279
见过	-10.428
碎	-10.4282
必	-10.4289
你们之间的	-10.429
这样想	-10.4292
想哭	-10.4292
地去	-10.4293
喊	-10.4294
异常	-10.4295
我说	-10.4296
无条件	-10.4298
迎接	-10.4298
**	-10.4299
压力很大	-10.43
很明显	-10.4302
借钱	-10.4305
在她	-10.4306
一些小	-10.4312
餐	-10.4312
你母亲	-10.4314
努力去	-10.4315
饿	-10.4315
需要的是	-10.4317
无论如何	-10.4317
的冲突	-10.4322
的特点	-10.4324
!”	-10.4326
第二天	-10.4327
体系	-10.433
消极情绪	-10.4332
外表	-10.4333
表述	-10.434
告诉他们	-10.4341
追求完美	-10.4343
就会产生	-10.4344
刚好	-10.4347
去完成	-10.4349
朋友们	-10.4355
非暴力沟通	-10.4361
立刻	-10.4362
显	-10.4365
后的	-10.4365
不接纳	-10.4367
毛病	-10.4369
希望他	-10.4371
听从	-10.4379
如果您	-10.4383
宽	-10.4384
埋怨	-10.4385
礼	-10.4387
偏差	-10.4387
回想	-10.4391
从来没有	-10.4392
干嘛	-10.4393
写作业	-10.4393
没有了	-10.4394
中考	-10.4395
可以做	-10.4395
下班	-10.4395
不开	-10.4399
被父母	-10.44
或者其他	-10.4403
离不开	-10.4405
可以让	-10.4406
众	-10.4409
感受到你	-10.441
幼稚	-10.441
牙	-10.4411
受不了	-10.4412
有情绪	-10.4416
校园	-10.4416
看到你的问题	-10.4417
′	-10.4419
喜欢自己	-10.4421
互	-10.4421
伤害了	-10.4422
沟通交流	-10.4425
你是不是	-10.4427
换个角度	-10.4428
的社会	-10.4429
收拾	-10.4432
解决方法	-10.4434
一本	-10.4434
厚	-10.4435
早年	-10.4438
分手了	-10.4439
清晰的	-10.4439
就觉得	-10.4442
我们是	-10.4444
你们的感情	-10.4446
电视剧	-10.4447
的渴望	-10.4452
—	-10.4455
不利于	-10.4455
的心理状态	-10.4457
另一个人	-10.4462
才知道	-10.4469
就想	-10.4473
很爱	-10.448
陷入了	-10.4487
魅力	-10.449
说法	-10.449
帮助他	-10.4492
学校的	-10.4494
喜爱	-10.4495
是一个非常	-10.4495
和丈夫	-10.4499
的不同	-10.4499
你就可以	-10.4503
讲话	-10.4507
环境下	-10.4508
?(	-10.4511
前女友	-10.4515
释怀	-10.4518
两点	-10.4518
答	-10.4519
分别	-10.452
t	-10.4523
为人	-10.4529
反映	-10.453
世间	-10.4533
付出了	-10.4537
岁了	-10.4538
改变不了	-10.454
去努力	-10.454
的安全感	-10.454
婚后	-10.4544
已经有了	-10.4552
催	-10.4552
戴	-10.4553
保障	-10.4553
财富	-10.4555
就很	-10.4559
说一下	-10.456
操作	-10.456
病人	-10.4564
提升自己的	-10.4564
解决这个问题	-10.4565
向外	-10.4567
不只是	-10.4568
发展的	-10.4569
对楼主	-10.4571
志	-10.4572
床	-10.4575
终于	-10.4578
打交道	-10.4579
你的母亲	-10.4579
留在	-10.4583
的咨询	-10.4587
告诉我们	-10.459
满足自己	-10.4592
亲爱的题主	-10.4596
在工作	-10.4599
当一个人	-10.4601
活在当下	-10.4603
得知	-10.4603
你可以尝试	-10.4606
更优秀	-10.4606
折	-10.4618
遇	-10.462
悲	-10.4621
请教	-10.4622
在外面	-10.4622
搬	-10.4624
去探索	-10.4624
天赋	-10.4629
一会儿	-10.4629
做了什么	-10.4629
如果觉得	-10.463
像是	-10.4631
努力学习	-10.4632
不怕	-10.4635
是从	-10.4635
的形式	-10.4635
涉及	-10.4644
糖	-10.4649
小心翼翼	-10.4652
爱你的人	-10.4657
对不对	-10.4657
的恋爱	-10.4663
的根源	-10.4664
想说	-10.4668
还是因为	-10.4669
不合理	-10.4669
不像	-10.467
还是说	-10.4672
患	-10.4679
问题是	-10.468
的原因是什么	-10.4683
和支持	-10.4684
劳	-10.4687
去处理	-10.4691
b	-10.4695
哪一种	-10.4699
18	-10.4699
公婆	-10.4702
告诉我	-10.4706
打骂	-10.4712
差别	-10.4717
堂	-10.4722
有很大的	-10.4723
销售	-10.4724
后续	-10.4725
偏见	-10.4726
的那些	-10.4726
自己想	-10.4727
离开了	-10.4729
这样说	-10.4732
一个孩子	-10.4733
的职业	-10.4733
一个是	-10.4736
爱她	-10.4739
同龄人	-10.474
我猜	-10.4742
灵魂	-10.4743
的书籍	-10.4743
C	-10.4743
受害者	-10.4745
于此	-10.4745
草	-10.4746
姥姥	-10.4746
如果能	-10.4749
️️	-10.475
要面对	-10.4752
的人格	-10.4756
克制	-10.4759
导师	-10.4766
更高	-10.4771
打招呼	-10.4771
磨	-10.4772
瞬间	-10.4772
忧虑	-10.4774
你好题主	-10.4776
故	-10.4777
不过是	-10.4779
巨大	-10.4779
它是	-10.4781
改变了	-10.4787
不是你的错	-10.4791
那你就	-10.4793
人品	-10.4794
乐趣	-10.4795
责备	-10.4798
精神分析	-10.4798
雨	-10.4803
都不能	-10.4804
两者	-10.4811
你要知道	-10.4815
关心和	-10.4816
审视	-10.4821
这种方式	-10.4821
表现出来	-10.4821
本质	-10.4821
去接受	-10.4823
耽误	-10.4823
是无法	-10.4828
你不能	-10.4828
俗	-10.4831
勉强	-10.4834
伴	-10.4835
损	-10.4837
建	-10.4839
你有没有	-10.484
表达出	-10.4841
事情的	-10.4842
无法控制	-10.4851
内化	-10.4852
爱着	-10.4852
可以尝试着	-10.4854
错过	-10.4857
给到你	-10.4858
的成长经历	-10.486
例子	-10.4865
这样的想法	-10.4866
更需要	-10.4866
含	-10.4867
拼	-10.4867
p	-10.4868
计较	-10.4869
盲目	-10.4876
在这种	-10.4877
不成熟	-10.4878
要做	-10.4883
明白了	-10.4883
新鲜	-10.4888
波动	-10.4889
看得	-10.4891
孤立	-10.4892
对你有帮助	-10.4892
展示	-10.49
也是如此	-10.4901
▽`)	-10.4906
可以是	-10.4907
万一	-10.4909
这个想法	-10.4911
手段	-10.4912
不相信	-10.4913
生物	-10.4913
是什么原因	-10.4917
东	-10.4917
遇到困难	-10.4917
纯粹	-10.4919
自己要	-10.4921
教师	-10.4924
可以感受到你	-10.4927
不好的事情	-10.4928
接受不了	-10.4933
自己是否	-10.4935
得出	-10.4939
心理健康	-10.4939
你会觉得	-10.4941
对你好	-10.4941
没错	-10.4941
要考虑	-10.4945
很不舒服	-10.495
过度的	-10.4951
有很大	-10.4953
行动起来	-10.4953
我们来	-10.4953
家庭环境	-10.4955
她也	-10.4955
一门	-10.4956
不会因为	-10.4957
看清	-10.4959
如果不能	-10.4964
坦然	-10.4968
有意	-10.4969
题主提到	-10.4973
奇怪	-10.4975
自我价值感	-10.4977
和自己的	-10.4977
的距离	-10.4978
也应该	-10.498
两个人在一起	-10.4983
实际情况	-10.4989
总会有	-10.4992
料	-10.4992
4、	-10.4996
在大学	-10.4996
的信任	-10.4996
让题主	-10.4997
集	-10.4997
进行沟通	-10.4999
中走出来	-10.5001
会有很多	-10.5001
很焦虑	-10.5003
做为	-10.5006
的幸福	-10.5006
来解决	-10.5007
块	-10.501
的现状	-10.5013
设	-10.5018
很理解你	-10.5018
九	-10.502
彼此都	-10.502
的身上	-10.5021
营养	-10.5023
的方式去	-10.5035
您的描述	-10.5041
不要让	-10.5043
诱惑	-10.5045
写下	-10.5045
如果想	-10.5045
输	-10.5048
是被	-10.5049
的困难	-10.5051
那段	-10.5053
到底是什么	-10.5054
乎	-10.5055
顺从	-10.5061
不理	-10.5065
才有可能	-10.5067
该怎么	-10.5068
阳	-10.5073
温	-10.5073
的定义	-10.5076
不确定性	-10.5083
建议您	-10.5091
不舍	-10.5092
搭	-10.5092
问一下	-10.5092
弱小	-10.5093
戒	-10.5094
抢	-10.5095
想想自己	-10.5097
唠叨	-10.5097
?#	-10.5101
人员	-10.5103
理解接纳认可	-10.5108
”,“	-10.511
的前提下	-10.511
帮助到	-10.5114
耳	-10.5118
的第一步	-10.5123
相当	-10.5124
增长	-10.5124
归属感	-10.5124
从题主的描述中	-10.513
和父亲	-10.5136
觉得他	-10.5136
引起的	-10.5136
去了	-10.5139
负责任	-10.5139
什么的	-10.5142
如果你想	-10.5146
建立起	-10.5146
暖	-10.5147
团队	-10.5148
一方面是	-10.5148
未知的	-10.5149
00	-10.515
欢	-10.517
编	-10.517
吐	-10.5171
撑	-10.5172
盯着	-10.5176
的举动	-10.5177
的兴趣	-10.5183
弄清楚	-10.5187
比自己	-10.5189
是否能	-10.519
家族	-10.5193
有信心	-10.5198
虽然你	-10.5199
惊喜	-10.5199
变得更	-10.5204
怎么办呢	-10.5206
一套	-10.5208
他可能	-10.5211
的话语	-10.5213
所以会	-10.5216
走过	-10.5217
你的焦虑	-10.5218
说清楚	-10.522
帮到	-10.5221
米	-10.5222
为主	-10.5225
拿出	-10.5229
告	-10.5232
去感受	-10.5233
组	-10.5236
这些人	-10.5237
就是说	-10.5239
是一件很	-10.524
的伴侣	-10.5242
自尊心	-10.5244
你可能会	-10.5246
第五	-10.5248
注定	-10.5251
抉择	-10.5252
可惜	-10.5254
羞耻感	-10.5254
的精神	-10.5254
有一定	-10.5258
陪伴你	-10.5261
他自己	-10.5264
告别	-10.5265
还想	-10.5265
一份工作	-10.5268
心情不好	-10.5271
面对自己	-10.5272
博	-10.5273
是否真的	-10.5274
得了	-10.5277
只会让	-10.5277
感到焦虑	-10.5279
一步一步	-10.5279
的友谊	-10.528
底气	-10.5282
去发现	-10.5287
权力	-10.5291
这边	-10.5291
很多时候我们	-10.5291
确诊	-10.5292
不必要的	-10.5296
移	-10.5296
[	-10.5296
你不喜欢	-10.5298
西	-10.5299
堵	-10.5299
太阳	-10.5299
亦	-10.53
更加的	-10.5302
幼儿园	-10.5302
寒	-10.5302
这么说	-10.5304
免	-10.5305
换了	-10.5309
对应	-10.5311
可私信	-10.5313
还好	-10.5316
不要轻易	-10.5321
]	-10.5323
先从	-10.5324
闪	-10.5326
不明白	-10.5327
有许多	-10.5327
实习	-10.5328
又能	-10.5328
舒缓	-10.5329
不喜欢你	-10.5329
自己可以	-10.5335
现实生活中	-10.5336
有时候我们	-10.5336
也很难	-10.5337
还有其他	-10.534
对自我	-10.534
要求自己	-10.5342
情景	-10.5343
支	-10.5344
系	-10.5346
什么都不	-10.5346
无论你	-10.5348
如果你真的	-10.5351
维系	-10.5352
的说法	-10.5353
决定的	-10.5354
害怕别人	-10.5356
没有能力	-10.5356
说实话	-10.5358
会一直	-10.536
没有被	-10.5365
这方面的	-10.5369
怨	-10.5374
客户	-10.5375
接纳自己的	-10.5376
起码	-10.5377
依据	-10.5379
定期	-10.538
的出现	-10.5381
。1	-10.5382
谈论	-10.5382
我不知道你	-10.5382
的那个人	-10.5382
伤痛	-10.5383
和异性	-10.5384
是她	-10.5387
前提是	-10.5388
希望我的回答能	-10.539
油	-10.5393
也想	-10.5395
有钱	-10.5396
说是	-10.5397
听话	-10.5398
联结	-10.5404
操	-10.5405
你和他	-10.5406
班主任	-10.5407
比赛	-10.5407
只是想	-10.5408
太高	-10.541
想做的事情	-10.5416
组成	-10.542
满足感	-10.5424
根本不	-10.5426
很害怕	-10.5426
指出	-10.5427
笨	-10.5428
而这些	-10.5429
拼命	-10.5429
经历的	-10.543
丧	-10.5431
冷淡	-10.5431
扛	-10.5432
什么原因	-10.5433
可能是你	-10.5434
坦白	-10.5436
的意识	-10.5436
从来不	-10.5438
药物治疗	-10.544
看上去	-10.5442
能找到	-10.5442
也希望	-10.5443
不符合	-10.5443
负面的	-10.5444
搞清楚	-10.5447
找一些	-10.5447
也不一定	-10.5448
感到很	-10.5451
星	-10.5451
熟悉的	-10.5452
供	-10.5454
隐私	-10.5454
也是这样	-10.5458
诸多	-10.546
找到自己的	-10.5463
会发生	-10.5463
独特的	-10.5464
!️	-10.5465
夸	-10.5465
在那里	-10.5466
结束语	-10.5468
把我	-10.547
不出来	-10.547
来做	-10.5472
或许可以	-10.5475
与孩子	-10.5476
又有	-10.5478
闭	-10.5479
木	-10.548
的时光	-10.5483
各自的	-10.5483
自己对	-10.5483
体贴	-10.5485
反省	-10.5485
给人	-10.5488
人与人之间	-10.549
约定	-10.5493
可以试试	-10.5499
猜	-10.5499
妹	-10.5505
识	-10.5505
你是个	-10.5512
挫败感	-10.5514
亲近的人	-10.5516
学习上	-10.5517
自己的父母	-10.5517
他没有	-10.552
篇	-10.552
陷	-10.5522
糟	-10.5522
对于你来说	-10.5526
不利	-10.5527
这样的方式	-10.5534
迈出	-10.5534
爷爷	-10.5536
挣钱	-10.5539
恐怕	-10.5539
疼痛	-10.554
在做	-10.5542
心理状态	-10.5546
会慢慢	-10.5547
周末	-10.5549
孩子们	-10.5555
表现得	-10.5557
的重要性	-10.556
书写	-10.5561
和同学	-10.5564
以后的	-10.5565
想做	-10.5569
升	-10.557
没有意义	-10.5576
有人说	-10.5577
不合	-10.5579
放松下来	-10.558
是人	-10.558
把这个	-10.5581
物理	-10.5581
倾向于	-10.5585
青少年	-10.5589
听了	-10.5589
保持距离	-10.559
比较好的	-10.5592
想要去	-10.5594
你的心情	-10.5596
基	-10.5597
15	-10.5597
适合你	-10.5599
我们对	-10.5599
但他	-10.5601
一半	-10.5603
给自己一些	-10.5606
不平衡	-10.5607
楼主的描述	-10.5608
做饭	-10.5611
一片	-10.5612
比较容易	-10.5613
莫	-10.5614
患得患失	-10.5616
俗话说	-10.5618
去表达	-10.5619
打工	-10.5625
就容易	-10.5631
项目	-10.5632
大学生	-10.5633
和成长	-10.5638
歌	-10.5641
短期	-10.5641
也是需要	-10.5641
勤	-10.5642
爷爷奶奶	-10.5644
隐瞒	-10.5645
自我觉察	-10.5645
委婉	-10.5645
示	-10.5646
忘	-10.5647
情绪和	-10.5652
就算是	-10.5661
生活习惯	-10.5662
情绪波动	-10.5664
整个人	-10.5667
也都	-10.5669
戏	-10.5669
生命中	-10.567
尚	-10.5672
临	-10.5676
希望你能够	-10.5678
什么样的人	-10.5678
秘密	-10.5683
的本能	-10.5683
你父亲	-10.569
松	-10.5693
音	-10.5694
为他	-10.5694
贪	-10.5695
是属于	-10.5697
服药	-10.5699
压力太大	-10.5702
你害怕	-10.5704
盘	-10.5705
能理解你	-10.5708
如果实在	-10.571
给了你	-10.5711
结论	-10.5711
的女孩子	-10.5713
你的家人	-10.5713
结婚了	-10.5715
时间久了	-10.5716
都无法	-10.5717
阴	-10.5722
试探	-10.5723
这个社会	-10.5724
漫长	-10.5724
最好是	-10.5727
什么问题	-10.5728
个人成长	-10.5729
要先	-10.573
你喜欢的	-10.5739
得到的	-10.5741
的动机	-10.5742
走的	-10.5742
习得	-10.5749
这样的问题	-10.5749
爬	-10.5751
浪漫	-10.5751
内向的人	-10.5752
的家人	-10.5752
但在	-10.5753
就像你	-10.5756
有不同的	-10.576
对自我的	-10.5761
夫妻之间	-10.5761
识别	-10.5767
被看见	-10.5776
跟对方	-10.5776
该怎么办	-10.5777
挑剔	-10.5777
严厉	-10.5777
有些事	-10.5781
感冒	-10.5784
噢	-10.5784
正念冥想	-10.5784
另一	-10.5785
性欲	-10.5791
被他人	-10.5792
提醒你	-10.5796
解开	-10.5801
渣男	-10.5804
模糊	-10.5805
到自己	-10.5805
出去玩	-10.5807
不尊重	-10.581
感觉很	-10.5812
强度	-10.5812
每一个人都	-10.5812
过高	-10.5817
凡事	-10.5818
范围内	-10.5818
孤独感	-10.5824
做出选择	-10.5824
简	-10.5825
时间去	-10.5826
正常生活	-10.5829
两个人之间	-10.5829
d	-10.583
历史	-10.583
要相信	-10.5832
是不好的	-10.5833
烧	-10.5833
干净	-10.5833
其实我	-10.5834
很不错	-10.5839
付	-10.5842
也是很	-10.5844
关联	-10.585
另外一个	-10.5851
相同的	-10.5853
是否会	-10.5853
朝着	-10.5854
这并不是	-10.5857
的好处	-10.5857
的关键	-10.5858
民	-10.5859
不爱你	-10.5861
用自己的	-10.5862
才不会	-10.5862
脑子	-10.5862
经历了什么	-10.5862
自己的优势	-10.5863
平凡	-10.5866
理性的	-10.5872
是自己的	-10.5872
面具	-10.588
做出一些	-10.5883
销	-10.5885
兼职	-10.5889
融洽	-10.5889
书中	-10.5889
很多问题	-10.5893
塑造	-10.5902
喜欢上	-10.5908
很好地	-10.5911
耗	-10.5912
加班	-10.5912
是可以理解的	-10.5913
插	-10.5914
丢	-10.5914
自己的心	-10.5914
很强	-10.5915
案例	-10.5915
暖暖	-10.5918
因为这	-10.5921
护	-10.5921
理解你的	-10.5922
拒绝了	-10.5924
包含	-10.5926
达不到	-10.5926
只有你	-10.5928
大致	-10.5928
沉迷	-10.5933
信号	-10.5933
官	-10.5935
到一个	-10.5941
扬	-10.5943
对我们的	-10.5944
离职	-10.5947
没有意识到	-10.5948
和我们	-10.5948
听过	-10.5949
一丝	-10.5949
担	-10.5951
正式	-10.5955
不高	-10.5958
本来就是	-10.5959
心结	-10.5963
要明白	-10.5964
一直都	-10.5965
怎么去	-10.5966
封	-10.5967
一家	-10.5969
打扮	-10.597
是这样	-10.5974
讲述	-10.598
理念	-10.5981
就是一种	-10.5984
活出	-10.5988
对于孩子	-10.5993
这一次	-10.5994
的人和事	-10.5996
我们无法	-10.5998
消	-10.6002
不快乐	-10.6004
的文字	-10.6006
脑子里	-10.6009
得多	-10.6014
的生活中	-10.6018
亏	-10.6021
担当	-10.6022
多数	-10.6027
学习方法	-10.6028
自己所	-10.6029
就是我们	-10.603
也不需要	-10.6031
12	-10.6031
以来	-10.6032
被忽视	-10.6032
现在的自己	-10.6034
承认自己	-10.6039
感激	-10.6041
严	-10.6045
朋友之间	-10.6045
如何看待	-10.6047
实施	-10.6054
思绪	-10.6056
题主在	-10.6061
是非常正常的	-10.6062
也一样	-10.6063
特别好	-10.6065
具	-10.6066
弹	-10.6068
发作	-10.607
的困境	-10.6075
让你感觉到	-10.6076
感受到的	-10.6076
脑海里	-10.6077
为自己的	-10.608
同一	-10.608
咬	-10.6081
不是一个	-10.6083
感染	-10.6084
掌控感	-10.6084
假装	-10.6084
充	-10.6085
答主	-10.6086
坐下来	-10.6088
主见	-10.609
如果一个人	-10.6091
你怎么	-10.6098
100	-10.61
有意义的	-10.6102
从小就	-10.6109
联	-10.611
这些事	-10.611
这其中	-10.6111
的一句话	-10.6112
益	-10.6113
解脱	-10.6114
遵从	-10.6115
的核心	-10.6118
的一种方式	-10.6128
生活方式	-10.6128
要做的就是	-10.6135
会更好	-10.6137
瘦	-10.6137
的目光	-10.6137
这些行为	-10.6137
反驳	-10.6138
摸	-10.6139
有多大	-10.614
你好啊	-10.6143
的认识	-10.6145
软	-10.6146
决	-10.6148
活力	-10.6151
面对面	-10.6157
能够感受到	-10.6157
的行动	-10.6161
理清	-10.6165
放松一下	-10.6167
胆小	-10.6168
记录下来	-10.6173
吸	-10.6179
不同意	-10.6179
满意的	-10.6179
细心	-10.618
懒	-10.618
试试看	-10.6181
就在	-10.6183
调整一下	-10.6186
后天	-10.6188
参加一些	-10.6188
别人说	-10.6191
希望对方	-10.6191
客体	-10.6193
略	-10.6193
人物	-10.6194
?2.	-10.6195
的好朋友	-10.6197
心理暗示	-10.6201
也有可能是	-10.6203
不可避免	-10.6206
良	-10.6206
是不同的	-10.6206
给你的	-10.6207
几点建议	-10.621
会造成	-10.6212
自我接纳	-10.6213
所以他	-10.6217
内心里	-10.6219
对待你	-10.622
窗	-10.6222
潜	-10.6224
主动去	-10.6228
路上	-10.6229
什么事	-10.6232
希望可以帮到楼主	-10.6232
是很重要的	-10.6233
意志力	-10.6236
境	-10.6237
也不必	-10.624
一家人	-10.6242
偷偷	-10.6245
抵抗	-10.6248
价	-10.6249
友善	-10.6249
快感	-10.6252
则是	-10.6252
来进行	-10.6252
完了	-10.6254
了解对方	-10.6259
多做	-10.6261
会认为	-10.6265
4.	-10.6266
我们就会	-10.6273
福	-10.6276
泡	-10.6278
而在	-10.6279
网络上	-10.628
增进	-10.6283
表达自己的感受	-10.6287
可以接受	-10.6291
不一致	-10.6292
开学	-10.6293
太多了	-10.6295
能力和	-10.6297
照顾孩子	-10.6299
举个例子	-10.6304
鼓	-10.6306
不停的	-10.6306
看到自己的	-10.6308
防御机制	-10.6313
是怎么样的	-10.6313
。5、	-10.6314
去关注	-10.6321
尽可能的	-10.6324
这个词	-10.6325
楼主提到	-10.6325
在孩子	-10.6329
黄	-10.6329
成熟的	-10.633
僵	-10.6331
有其他	-10.6333
懦弱	-10.6334
茶	-10.6335
的来源	-10.6337
如果你们	-10.6338
害羞	-10.6339
自己的心情	-10.6339
分配	-10.6339
迈	-10.6341
爱别人	-10.6347
请问	-10.6349
慎重	-10.6349
一些东西	-10.6355
才是最重要的	-10.6357
尝试去	-10.6358
摔	-10.636
自我认知	-10.6361
城	-10.6363
遵守	-10.6365
敞开心扉	-10.6367
心理老师	-10.6368
认为是	-10.6374
的父亲	-10.6378
尊重你	-10.6379
虚	-10.6381
及时的	-10.6382
忘记了	-10.6383
会变得	-10.6385
延续	-10.6392
走路	-10.6392
测	-10.6394
冷战	-10.6395
进来	-10.6396
影响着	-10.6397
负面影响	-10.6398
信赖	-10.6402
寻求专业	-10.6406
华	-10.6406
不顾	-10.6407
有益	-10.641
受挫	-10.6413
照顾好	-10.6414
操心	-10.6414
想要什么	-10.6414
不是为了	-10.6415
一开始就	-10.6415
医学	-10.6416
借口	-10.6417
的大	-10.6419
轮	-10.642
说明他	-10.642
躯体	-10.6421
咨询师的	-10.6422
为难	-10.6425
与人交往	-10.6426
比较敏感	-10.6429
现在的状态	-10.643
隔离	-10.643
队	-10.6431
决定了	-10.6446
四年	-10.6447
绕	-10.6449
变了	-10.6449
原因是	-10.6452
是因为我们	-10.6453
伤人	-10.6464
很能理解你	-10.6464
几种	-10.6465
是非常重要的	-10.6468
伴随着	-10.647
更多地	-10.6472
是值得	-10.6473
发生过	-10.6475
的身心	-10.6475
照顾自己	-10.6475
悟	-10.6476
我想说的是	-10.6478
本我	-10.6478
给自己带来	-10.6479
部门	-10.6482
独一无二的	-10.6482
脑海中	-10.6483
蓝	-10.6483
很生气	-10.6483
一味	-10.6484
前途	-10.6485
是我的分析和建议	-10.6485
五年	-10.6487
爱情的	-10.649
上司	-10.6491
理解的	-10.6492
需要考虑	-10.6493
觉察自己	-10.6497
也是可以	-10.6498
的边界	-10.6498
陪着	-10.6501
步骤	-10.6504
骨	-10.6509
胜任	-10.6509
禁	-10.6509
积压	-10.6512
移情	-10.6513
把她	-10.6513
只是为了	-10.6514
激烈	-10.6516
做起	-10.6517
因而	-10.652
果断	-10.6521
25	-10.6525
长的	-10.6526
坏的	-10.6528
不听	-10.653
留恋	-10.6532
很心疼	-10.6538
素质	-10.6542
角	-10.6543
被伤害	-10.6545
被理解	-10.6545
。■	-10.6546
手里	-10.6551
等于	-10.6553
但是也	-10.6555
对你们	-10.6556
两天	-10.6557
又或者	-10.656
架	-10.6561
关注和	-10.6563
缓和	-10.6564
托	-10.6564
u	-10.6564
读了	-10.6564
很多东西	-10.6566
应付	-10.6568
的例子	-10.6569
珍贵	-10.6569
和能力	-10.6573
之路	-10.658
有什么样的	-10.6581
以此	-10.6584
不仅仅	-10.6585
辅导	-10.6586
讲道理	-10.6586
不安全	-10.6587
你的身体	-10.6587
看得出	-10.6588
早就	-10.659
态	-10.659
做好准备	-10.6594
有很多人	-10.6595
出了问题	-10.6596
遗传	-10.6598
魔	-10.6599
投入到	-10.6602
我一直	-10.6602
短暂的	-10.6602
有权利	-10.6604
当别人	-10.6606
隐	-10.6616
较大	-10.6616
美国	-10.6617
话说	-10.6622
凡	-10.6623
指的是	-10.6625
大部分人	-10.6628
想象的	-10.6629
按时	-10.663
照片	-10.6632
能看到	-10.6634
人都是	-10.6634
害怕失去	-10.6636
帮助她	-10.6638
专心	-10.6638
感受到你的	-10.6641
分泌	-10.6642
都是有	-10.6642
最多	-10.6644
着想	-10.6648
死了	-10.6649
安全的	-10.6649
常态	-10.665
很差	-10.6652
越大	-10.6657
拔	-10.6658
体重	-10.6662
祝你早日	-10.6671
后来我	-10.6674
也比较	-10.6674
生活上	-10.6677
一会	-10.6678
影响到了	-10.6678
唯一的	-10.668
?)	-10.6684
恐怖	-10.6686
派	-10.6686
投资	-10.6687
土	-10.6687
胎	-10.6687
迷失	-10.6688
敌	-10.6691
资	-10.6694
的资源	-10.6695
受过	-10.6696
来看待	-10.6698
叙述	-10.6699
鼓励自己	-10.6699
既然你	-10.67
因此而	-10.6702
传达	-10.6702
留给	-10.6703
备考	-10.6704
去追求	-10.6711
如何处理	-10.6714
不怎么	-10.6715
怎么想	-10.6716
→	-10.6716
伪装	-10.6717
不下去	-10.6719
遗忘	-10.6725
心境	-10.6725
了解他	-10.6732
有爱	-10.6736
狂	-10.6738
解决方案	-10.6739
时间长了	-10.674
平台上	-10.674
闷	-10.6742
铁	-10.6743
会成为	-10.6745
设想	-10.6746
远远	-10.6751
好事	-10.6754
更快	-10.6756
那我	-10.6757
避	-10.6757
执着	-10.6763
似乎是	-10.6766
你可以去	-10.677
只是我们	-10.6772
小心	-10.6773
牵	-10.6775
从现在开始	-10.6777
开启	-10.6779
如果在	-10.6781
灵	-10.6783
宝	-10.6784
ω	-10.6785
习	-10.6786
这个男生	-10.6786
再多	-10.6787
的自由	-10.6787
想通过	-10.6791
不认同	-10.6792
看一些	-10.6792
统一	-10.6795
信任的人	-10.6798
鲜	-10.6799
分析了解问题	-10.68
转化	-10.6801
和压力	-10.6806
决心	-10.6806
会受到	-10.6808
表情	-10.6811
的小孩	-10.6812
沉重	-10.6812
的同事	-10.6813
不是很好	-10.6815
家庭里	-10.6816
可能会有	-10.6818
无意	-10.6821
交换	-10.6821
说明了	-10.6821
不在意	-10.6821
休息一下	-10.6822
控制的	-10.6824
对自己说	-10.6824
说的是	-10.6825
是不对的	-10.6828
解决不了	-10.683
错误的	-10.683
做错	-10.6831
设计	-10.6834
焦虑感	-10.6836
的遭遇	-10.6838
与对方	-10.6838
与他们	-10.684
要做的	-10.6843
不见	-10.6844
一样的	-10.6848
无数	-10.6852
不认可	-10.6857
的利益	-10.6857
周围的	-10.6858
那样的	-10.686
几个问题	-10.6861
富	-10.6862
也许你可以	-10.6862
消极的	-10.6863
瑜伽	-10.6868
持久	-10.6868
年级	-10.6868
因为在	-10.6869
改变现状	-10.6874
一点一点	-10.6876
唯有	-10.6876
这份感情	-10.6877
就能够	-10.6878
例	-10.6879
就更	-10.6883
小可爱	-10.6888
不良情绪	-10.689
不擅长	-10.6891
无能	-10.6892
哪一个	-10.6893
你的描述我了解到	-10.6894
一刻	-10.6895
此时此刻	-10.69
通过你的描述	-10.6906
自己的缺点	-10.6908
回想一下	-10.6908
姐	-10.6909
很重要的	-10.6914
成长中	-10.6916
愈	-10.6916
感觉你	-10.6919
】【	-10.6924
融	-10.6925
你们可以	-10.693
一定能	-10.6931
科目	-10.6932
的氛围	-10.6933
满足你	-10.6933
这让你	-10.6936
和生活	-10.6937
一次次	-10.6939
比较少	-10.6939
得到满足	-10.6943
大自然	-10.6943
这种事情	-10.6944
建立关系	-10.6945
职位	-10.6947
难免会	-10.695
坚决	-10.6959
新环境	-10.6959
滴	-10.6959
专门	-10.6961
不会有	-10.6962
每一	-10.6962
的亲人	-10.6962
对你有所帮助	-10.6971
你感觉	-10.6973
有困惑	-10.6975
提高自己的	-10.6979
较为	-10.6979
每次都	-10.6981
你的需求	-10.6983
循序渐进	-10.699
那么重要	-10.6991
埋	-10.6993
几个月	-10.7
希望能帮到你	-10.7001
感兴趣的	-10.7002
器	-10.7006
终究	-10.7006
希望我	-10.7007
让你们	-10.7007
好好沟通	-10.7008
眼光	-10.7009
才发现	-10.7009
你最	-10.701
寻	-10.701
据	-10.7014
原始	-10.7015
责任感	-10.7016
撞	-10.7017
惨	-10.7017
锅	-10.7018
我们可以先	-10.702
的倾向	-10.702
墙	-10.7021
会带来	-10.7024
一只	-10.7024
没有达到	-10.7026
后者	-10.7027
更像是	-10.7027
玩笑	-10.7028
为之	-10.7031
真爱	-10.704
桌	-10.7044
还不够	-10.7044
很在乎	-10.7046
沙	-10.7046
大于	-10.7051
完成了	-10.7054
我没有	-10.7054
的标签	-10.706
信任的	-10.7061
拿到	-10.7062
你们彼此	-10.7063
家庭成员	-10.7064
的思考	-10.7066
可怕的	-10.7067
功课	-10.7068
不要着急	-10.7074
不小心	-10.7074
下一步	-10.7075
老是	-10.7076
时间段	-10.7076
小建议	-10.7076
多种	-10.7079
灭	-10.708
压制	-10.708
警惕	-10.7081
跳出	-10.7083
厌烦	-10.7083
生育	-10.7085
幸福感	-10.7085
触碰	-10.7089
给你一个抱抱	-10.7095
建立在	-10.7095
等着你	-10.7095
的心灵	-10.7103
还不如	-10.7104
孩子在	-10.7107
乖	-10.7108
巧	-10.7109
恋情	-10.711
撕	-10.711
社团	-10.7111
结构	-10.7113
认定	-10.7113
你们两个	-10.7113
社会的	-10.7115
头疼	-10.7116
爱着你	-10.7117
与母亲	-10.7118
看到别人	-10.712
发生关系	-10.7121
多关注	-10.7122
你的父亲	-10.7122
找找	-10.7122
社会上	-10.7124
如果想要	-10.7126
不想做	-10.7127
也是正常的	-10.7134
人士	-10.7135
你的叙述	-10.7137
(1)	-10.714
频率	-10.714
鬼	-10.714
这个行为	-10.7141
电脑	-10.7141
容忍	-10.7142
投射到	-10.7142
一番	-10.7145
正向	-10.7145
解决问题的	-10.7152
怒	-10.7153
因此我们	-10.7154
这需要	-10.7155
若是	-10.7156
只是一种	-10.7157
之间的感情	-10.7161
大了	-10.7164
爽	-10.7166
爱一个人	-10.7169
射	-10.7172
在意别人	-10.7173
旁边	-10.7174
激素	-10.7175
调整心态	-10.7176
也一定	-10.7178
以上是我	-10.7179
你现在的	-10.7184
自己到底	-10.7184
占有欲	-10.719
的条件	-10.719
自我意识	-10.7191
感谢你的问题	-10.7193
需要时间	-10.7196
最佳	-10.7196
心里的	-10.7197
谈话	-10.7197
浓	-10.7198
画面	-10.7199
诚	-10.7199
避开	-10.72
活的	-10.7203
。2)	-10.7204
需要帮助	-10.7205
影响你	-10.7205
协商	-10.7206
不高兴	-10.7206
在自己身上	-10.7209
觉知	-10.721
情绪化	-10.7217
面临着	-10.7219
跟你说	-10.722
酸	-10.7221
心事	-10.7223
的所有	-10.7224
又觉得	-10.7226
样子	-10.7226
婚姻关系	-10.7229
性质	-10.7231
19	-10.7232
忧	-10.7233
怎么看	-10.7235
可怜	-10.7238
和改变	-10.7248
不甘	-10.7253
这可能是	-10.7254
性教育	-10.7254
现阶段	-10.7258
自己的不足	-10.7261
状态下	-10.7262
先把	-10.7265
坑	-10.7266
如果父母	-10.7267
可以让你	-10.7268
拆	-10.7268
存在的问题	-10.7268
之分	-10.7269
失败了	-10.7269
遭到	-10.7269
是非	-10.727
她是	-10.727
院	-10.7272
被认可	-10.7275
那位	-10.7276
但是现在	-10.7276
那边	-10.728
你一直	-10.7281
别人的事	-10.7285
️。	-10.7285
提出来	-10.7285
向上	-10.7289
永	-10.7296
宠	-10.7297
重男轻女	-10.7298
议论	-10.7299
人无完人	-10.7301
的言语	-10.7305
正因为	-10.7306
有一次	-10.731
学习一些	-10.7316
主导	-10.7316
教学	-10.7316
有很多的	-10.7317
将会	-10.7318
波	-10.732
世上	-10.7325
哥	-10.7325
本能的	-10.7328
填	-10.7328
伤口	-10.7333
处理问题	-10.7333
的冲动	-10.7341
h	-10.7341
理解你的心情	-10.7343
学会了	-10.7344
的反馈	-10.7347
还不错	-10.7348
一个新的	-10.7354
联想	-10.7361
增	-10.7361
自己会	-10.7361
很大程度上	-10.7362
累积	-10.7365
对未来的	-10.7365
忍耐	-10.7372
一定可以	-10.7374
你才会	-10.7375
的种种	-10.7376
促使	-10.7377
我们要学会	-10.7378
还是比较	-10.7378
很努力	-10.738
这是很正常的	-10.7387
对她的	-10.7388
我们的情绪	-10.7389
北	-10.7391
亲密的	-10.7394
在别人	-10.7399
你为什么	-10.74
对自己的评价	-10.74
给楼主一个拥抱	-10.74
做错了	-10.7402
的视角	-10.7404
祝你幸福快乐	-10.7404
@	-10.7408
努力了	-10.7411
并没有什么	-10.7412
证书	-10.7414
帮助孩子	-10.7415
一时的	-10.7416
清楚自己	-10.7419
向他	-10.7419
和平	-10.7419
这是我们	-10.7422
自己的工作	-10.7422
帮他	-10.7422
割	-10.7423
冰	-10.7423
青	-10.7424
事情发生	-10.7424
=	-10.7424
麻	-10.7424
很严重	-10.7425
也是在	-10.7426
尖	-10.7426
逝	-10.7426
只有你自己	-10.7427
的女人	-10.7427
遵循	-10.7427
已经很	-10.7428
流泪	-10.7429
协助	-10.7429
哲学	-10.7431
某一	-10.7431
就意味着	-10.7433
在内心	-10.7435
ノ	-10.7437
速度	-10.744
如果你是	-10.7444
有一句话	-10.7447
畅	-10.7448
恩	-10.7452
不知道该怎么	-10.7452
这个家	-10.7454
做的不好	-10.7455
渣	-10.7456
换句话说	-10.7459
可以改变	-10.7459
触发	-10.7461
周边	-10.7461
只要我们	-10.7462
极大的	-10.7464
二胎	-10.7464
笑话	-10.7465
但同时	-10.7468
所以当	-10.7468
事儿	-10.7472
我们所	-10.7473
而是你	-10.7476
做家务	-10.7487
你的困惑	-10.7488
显示	-10.7488
亚	-10.7491
我们一起	-10.7491
越好	-10.7491
自己的状态	-10.7495
督导	-10.7497
活下去	-10.7498
心理学的	-10.7499
到达	-10.7501
一顿	-10.7503
这两种	-10.7503
会感觉到	-10.7508
裂	-10.7517
带来了	-10.7518
其他事情	-10.7518
辅助	-10.7525
完整的	-10.7525
唱歌	-10.7526
做出了	-10.7527
和他在一起	-10.7527
奇	-10.7529
会想	-10.7529
长时间的	-10.7531
的分析	-10.7531
这个情况	-10.7533
安好	-10.7535
独特	-10.7537
交到	-10.7537
下一个	-10.7541
对待自己	-10.7544
我也会	-10.7544
手术	-10.7544
按照自己	-10.7544
上述	-10.7546
款	-10.7549
指向	-10.755
是一样的	-10.7552
导致自己	-10.7553
都是你	-10.756
你的妈妈	-10.7563
已经有	-10.7564
ε	-10.7567
清楚的	-10.7567
你也要	-10.7569
作品	-10.7571
重要的事情	-10.7575
给你带来了	-10.7575
行为上	-10.7577
放松自己	-10.7579
我们内心	-10.758
适度	-10.7581
何况	-10.7581
也非常	-10.7582
得好	-10.7584
代表着	-10.7586
软件	-10.7587
盖	-10.7588
滑	-10.7589
继续下去	-10.7592
试一试	-10.7592
终身	-10.7592
我们现在	-10.7593
便是	-10.7597
处女	-10.7598
满足了	-10.7599
这说明	-10.7603
意志	-10.7603
放弃自己	-10.7604
了解了	-10.7604
如果可以的话	-10.7608
这其实	-10.7611
急于	-10.7613
卑微	-10.7619
你对他的	-10.7621
现任	-10.7624
灵活	-10.7625
害怕被	-10.7628
心智	-10.7633
住了	-10.7634
充分的	-10.7645
你并没有	-10.7645
成果	-10.7645
扩大	-10.7648
建议你可以	-10.7648
某一个	-10.7648
会给	-10.7651
迅速	-10.7651
理所当然	-10.7652
一个人在	-10.7653
诗	-10.7653
如果你愿意	-10.7654
将自己的	-10.7654
边缘	-10.7655
极其	-10.7658
表现为	-10.7658
资本	-10.7659
自己心里	-10.766
表面上	-10.766
怎么会	-10.7662
待遇	-10.7664
边界感	-10.7676
意识到了	-10.7679
对立	-10.7683
在哪	-10.7684
你描述的	-10.7685
谢谢你	-10.7687
拉黑	-10.7687
的途径	-10.769
一大	-10.769
_	-10.769
初三	-10.7695
如果他们	-10.7695
自然就	-10.7696
没有问题	-10.7699
一切都是	-10.7701
常常会	-10.7702
的界限	-10.7703
一味地	-10.7703
肯	-10.7704
时间的	-10.7706
你和你	-10.7707
尝试一下	-10.7707
你把	-10.7708
基因	-10.7711
也同样	-10.7712
陪着你	-10.7714
这个年纪	-10.7716
塞	-10.7717
砸	-10.7717
邻居	-10.7717
扎	-10.7718
放轻松	-10.7718
现在的生活	-10.772
兄弟	-10.772
自己的认知	-10.7721
我们能	-10.7722
别人的评价	-10.7728
自己觉得	-10.7728
的大脑	-10.7729
有几个	-10.773
是一个人	-10.7733
就说	-10.7734
信任感	-10.7734
不正常	-10.7736
现代	-10.7738
察觉到	-10.7739
不要让自己	-10.7741
而产生	-10.7744
带给你的	-10.7745
的区别	-10.7747
缓	-10.7749
洞	-10.7749
对彼此	-10.7749
择	-10.775
你男友	-10.775
甲	-10.775
争执	-10.7751
软弱	-10.7751
纠正	-10.7753
载	-10.7753
如果你能	-10.7755
很心疼你	-10.7759
这样才能	-10.7763
感和	-10.7765
向前	-10.7767
最开始	-10.7769
日常生活	-10.7769
你们之间的关系	-10.7772
双方的	-10.7773
是错的	-10.7774
美丽	-10.7778
的一方	-10.7779
林	-10.7781
也没什么	-10.7782
郁闷	-10.7785
督促	-10.7787
隔阂	-10.7787
悔	-10.7789
乐意	-10.7789
长相	-10.7793
出来了	-10.7794
】!	-10.7795
就是因为	-10.7799
喜悦	-10.7801
资格	-10.7804
的差异	-10.7804
兴	-10.7805
完成的	-10.7806
当地	-10.781
婚姻的	-10.781
在日常生活中	-10.7811
聚会	-10.7811
承担责任	-10.7814
范	-10.7814
是不是也	-10.7814
m	-10.7815
y	-10.7816
挖掘	-10.7817
艺	-10.7818
经济上	-10.7819
再者	-10.7822
来缓解	-10.7823
一层	-10.7825
不会再	-10.7835
静下来	-10.7835
辛苦了	-10.7839
你还可以	-10.7843
生活里	-10.7848
少年	-10.7849
四个	-10.7849
吃东西	-10.7849
鸟	-10.785
琐事	-10.7851
雷	-10.7852
优越感	-10.7852
账	-10.7852
同伴	-10.7853
流派	-10.7853
可能也会	-10.7854
根据自己的	-10.7856
你不需要	-10.7857
胸	-10.7859
看问题	-10.786
你的男友	-10.7861
旁观者	-10.7863
即使你	-10.7866
到这里	-10.7866
值得被	-10.7867
另一方	-10.7867
足以	-10.7867
因为没有	-10.7871
得罪	-10.7873
是多么	-10.7873
营	-10.788
就把	-10.7883
父母之间	-10.7885
这会	-10.7887
眼泪	-10.7888
想太多	-10.7888
内耗	-10.7888
分散	-10.7893
长处	-10.7896
被骗	-10.7898
也没有什么	-10.79
光明	-10.79
变得越来越	-10.7902
具体情况	-10.7903
教会	-10.7905
认为你	-10.7905
婚姻中	-10.7906
情感上	-10.7908
码	-10.7912
看他	-10.7914
被压抑	-10.7915
新的环境	-10.7916
逆	-10.7916
干脆	-10.7917
吹	-10.7919
最主要的	-10.7919
在亲密关系中	-10.792
汗	-10.792
破裂	-10.792
的成功	-10.7922
睡着	-10.7925
可靠	-10.7927
的人来说	-10.7927
给你一个大大的拥抱	-10.7927
换来	-10.7928
当面	-10.7929
在现实生活中	-10.7929
的开始	-10.793
眼中的	-10.7932
是一个比较	-10.7933
明星	-10.7934
好看	-10.7936
恋爱中	-10.7939
我们都知道	-10.7942
奶	-10.7947
心目中	-10.795
P	-10.7951
危害	-10.7951
契机	-10.7953
你最近	-10.7958
的主要	-10.7961
深深地	-10.7963
靠谱	-10.7964
和态度	-10.7965
来表达	-10.7968
的交往	-10.7969
!!!	-10.7973
核	-10.7976
肚子	-10.7976
趁	-10.7977
是因为什么	-10.7978
都不一样	-10.7979
伴随	-10.798
局限	-10.7983
羞愧	-10.7984
难得	-10.7985
认清	-10.7987
名字	-10.7991
16	-10.7993
这种心理	-10.7994
的言行	-10.7995
也不可能	-10.7997
工作和生活	-10.7999
要多	-10.8006
自己的努力	-10.8007
从此	-10.8008
日后	-10.801
是否能够	-10.801
换一种	-10.8011
太在意	-10.8012
看得出来你	-10.8012
彩	-10.8014
作者	-10.8015
目前的状态	-10.8018
叶	-10.8019
这位朋友	-10.8019
竟然	-10.8019
支配	-10.8021
被关注	-10.8027
尽量不要	-10.803
你对自己的	-10.8031
你的心里	-10.8036
整天	-10.8039
型的	-10.8039
大一	-10.8041
只不过是	-10.8042
内心深处的	-10.8044
你却	-10.8045
怎么看待	-10.8046
解决的问题	-10.8046
石	-10.805
撒	-10.8053
吐槽	-10.8055
替你	-10.8055
的城市	-10.8056
勇于	-10.8056
你们是	-10.8057
是很好的	-10.8058
重新开始	-10.806
这个年龄	-10.8061
使我们	-10.8066
激动	-10.807
理解你的感受	-10.8071
证明你	-10.8072
我已经	-10.8075
做做	-10.8075
不用担心	-10.8075
情绪状态	-10.8075
大城市	-10.8076
会选择	-10.808
杯	-10.8082
能够感受到你	-10.8083
以下几点	-10.8083
对性	-10.8087
唱	-10.8089
问你	-10.8091
拖延症	-10.8092
养育者	-10.8096
焦虑的	-10.8097
密	-10.8097
大概率	-10.8099
?【	-10.8099
她对你	-10.81
没有人会	-10.81
天下	-10.8103
无限	-10.8105
充实自己	-10.8106
运气	-10.8106
针对你	-10.8106
当孩子	-10.8108
顿	-10.8111
不是因为	-10.8111
自我评价	-10.8112
厌	-10.8115
枯燥	-10.8121
讨好型人格	-10.8121
这种状况	-10.8122
太久	-10.8123
社交恐惧	-10.8123
的品质	-10.8124
要相信自己	-10.8125
的差距	-10.8127
今	-10.8128
大众	-10.8131
做一下	-10.8135
很糟糕	-10.8136
即便是	-10.8141
透过	-10.8142
自己有	-10.8143
它会	-10.8146
我当时	-10.815
完成任务	-10.815
时间来	-10.8151
镜	-10.8151
无处	-10.8152
希望楼主	-10.8152
的风险	-10.8152
选择权	-10.8153
闻	-10.8155
常见	-10.8158
迁就	-10.8159
躲避	-10.8161
并不意味着	-10.8164
平静下来	-10.8164
40	-10.8166
集中注意力	-10.817
找到适合自己的	-10.8172
一代	-10.8173
有条件	-10.8176
你身上	-10.8176
分手后	-10.8176
典型的	-10.8176
和时间	-10.8178
让彼此	-10.8178
您的问题	-10.8179
到时候	-10.8181
验证	-10.8185
听音乐	-10.8186
镜子	-10.8186
做心理咨询	-10.8186
征	-10.8187
感觉到了	-10.819
不能改变	-10.8191
在未来	-10.8191
这些东西	-10.8193
散步	-10.8193
非常理解	-10.8193
文字中	-10.8194
方式来	-10.8194
那么你就	-10.8195
大方	-10.8195
吃亏	-10.8196
加以	-10.8197
的道理	-10.8198
24	-10.82
不让	-10.82
你要相信	-10.8203
我们都是	-10.8204
喜欢什么	-10.8204
自动	-10.8204
的生活方式	-10.8205
近期	-10.8206
也许他	-10.8208
创	-10.8213
的底线	-10.8215
有很多种	-10.822
发生在	-10.822
深层	-10.8221
我看到你	-10.8221
李	-10.8222
但实际上	-10.8223
特定	-10.8224
D	-10.8224
和家庭	-10.8227
楼主内心	-10.8229
才能更好的	-10.823
我们的生活	-10.8232
但是她	-10.8235
ง	-10.8236
不爽	-10.8236
掉了	-10.8237
通过自己的努力	-10.824
?2、	-10.8243
时间和	-10.8244
的课程	-10.8244
应激	-10.8247
我们也要	-10.8248
饱	-10.8252
一定会有	-10.8252
遇到过	-10.8254
能给你	-10.8255
和你在一起	-10.8255
弃	-10.8257
我以前	-10.8257
胃	-10.8257
婚前	-10.8258
都觉得	-10.8258
诉	-10.8259
是不是真的	-10.8259
薄	-10.826
离世	-10.826
零食	-10.826
泪	-10.826
时不时	-10.826
会给你	-10.8264
给彼此	-10.8266
三种	-10.8271
自我调节	-10.8276
明白自己	-10.8277
出现在	-10.8281
的时期	-10.8282
不幸福	-10.8285
孩子身上	-10.8286
你们俩	-10.8287
几十年	-10.8288
法则	-10.8288
给我们带来	-10.829
亲密关系中	-10.8291
印	-10.8292
————	-10.8294
浪	-10.8294
不再是	-10.8296
催促	-10.8297
事事	-10.8298
还有一种	-10.8298
容易被	-10.8299
其实都是	-10.8305
而导致	-10.8306
倍	-10.8307
被迫	-10.8309
作为家长	-10.831
在里面	-10.831
并不是说	-10.8313
与她	-10.8314
长久的	-10.8314
一下自己的	-10.8314
只要自己	-10.8315
的环境中	-10.8316
眼神	-10.8317
关系里	-10.832
少数	-10.832
然后就	-10.8325
所以要	-10.8325
稍	-10.8325
不要给自己	-10.8325
型人格	-10.8326
掩盖	-10.8328
向对方	-10.8329
大概是	-10.8329
向他们	-10.833
玩具	-10.833
撒谎	-10.8332
亲密关系的	-10.8333
心理的	-10.8333
就会出现	-10.8335
心意	-10.8337
会对你	-10.8337
同一个	-10.834
的女性	-10.8341
自己最	-10.8341
想念	-10.8342
对母亲	-10.8344
背后的原因	-10.8345
便会	-10.8346
自信的	-10.8346
与人交流	-10.8347
换成	-10.8347
你才能	-10.8349
责怪自己	-10.8352
爱是	-10.8355
也可以选择	-10.8355
内心的想法	-10.8356
又不	-10.8358
我曾经	-10.836
责骂	-10.8362
排挤	-10.8364
相处模式	-10.8365
摩擦	-10.8366
你的老公	-10.8367
冲击	-10.8367
不要怕	-10.8368
烟	-10.8368
那么大	-10.8369
不喜欢自己	-10.8371
能感受到你	-10.8372
的特质	-10.8373
。2,	-10.8374
的爱好	-10.8376
猜想	-10.8378
的想法和感受	-10.8378
想象中的	-10.8379
秒	-10.838
永远是	-10.8381
对学习	-10.8382
遇到的问题	-10.8383
写的	-10.8384
是爱你的	-10.8385
感觉到你	-10.8387
你们都	-10.8389
慌	-10.8391
没有谁	-10.8394
抛	-10.8398
S	-10.8399
时时刻刻	-10.84
那么他	-10.84
背负	-10.8401
恐惧感	-10.8404
在心理学上	-10.8406
矛盾的	-10.8407
跟人	-10.8407
开了	-10.841
坚定的	-10.8411
的联系	-10.8412
与人相处	-10.8416
用了	-10.8418
开心的	-10.8418
座	-10.8418
只要不	-10.8419
没问题	-10.8421
在你身上	-10.8421
勉强自己	-10.8422
得很	-10.8422
浮	-10.8423
的治疗	-10.8425
一般人	-10.8427
就像一个	-10.8428
值得被爱	-10.843
在平时	-10.8431
响	-10.8433
其中的	-10.8434
孝	-10.8434
是为了什么	-10.8435
任性	-10.8436
还有一些	-10.8437
更好的自己	-10.8438
谋	-10.8438
耐	-10.8448
我的想法	-10.8451
的缺失	-10.8452
可以感受到	-10.8453
课题	-10.8456
降	-10.8457
构成	-10.8458
从未	-10.8462
建立亲密关系	-10.8464
思考和	-10.8464
需要一个	-10.8467
很多事	-10.8467
武	-10.8469
搜	-10.8469
择偶	-10.8469
等着	-10.847
页	-10.8471
这是正常的	-10.8471
嫌	-10.8471
自由的	-10.8472
而去	-10.8473
寂寞	-10.8474
可以继续	-10.8475
和咨询师	-10.8476
爆	-10.8476
就得	-10.8479
中年	-10.8481
缩	-10.8482
正处于	-10.8482
钟	-10.8484
他还	-10.8485
可以让我们	-10.8485
敞开	-10.8486
自己给自己	-10.8487
是因为自己	-10.8487
跟孩子	-10.8488
我们先	-10.8492
很大的压力	-10.8495
喜欢和	-10.8496
三个月	-10.8497
。※	-10.8498
景	-10.8498
看不见	-10.8499
无人	-10.85
比我	-10.8501
外在的	-10.8501
比方说	-10.8502
总是在	-10.8502
推测	-10.8502
市	-10.8505
潜移默化	-10.8506
没有动力	-10.8506
私人	-10.8508
赶紧	-10.8508
过渡	-10.851
从你的描述	-10.8511
来获得	-10.8511
讨	-10.8514
可能还	-10.8522
潜意识中	-10.8523
写出来	-10.8523
是一位	-10.8525
这种情况下	-10.8529
整合	-10.853
绝对的	-10.8536
长得	-10.8537
做到了	-10.8537
我之前	-10.8537
接受了	-10.8538
T	-10.8541
还得	-10.8546
不能理解	-10.8547
述	-10.8548
低谷	-10.8548
分清	-10.8553
能得到	-10.8554
想要的东西	-10.8559
处处	-10.8559
不知道该如何	-10.8561
得以	-10.8562
恭喜你	-10.8565
对这个	-10.8568
现在已经	-10.8569
吃的	-10.8573
决策	-10.8575
的诊断	-10.8576
提到了	-10.8577
丢人	-10.8577
奋	-10.8579
占据	-10.858
一直没有	-10.858
调整好	-10.8583
劳动	-10.8585
我就是	-10.8586
控	-10.8588
你发现	-10.8589
是最重要的	-10.8589
这种现象	-10.8591
像个	-10.8592
和同事	-10.8592
如果要	-10.8593
道路	-10.8597
专业的心理咨询师	-10.8597
■	-10.8599
你感到	-10.86
为什么会这样	-10.8601
出路	-10.8601
抑郁症的	-10.8602
觉得对方	-10.8602
复盘	-10.8602
受伤害	-10.8605
面对问题	-10.8606
好不好	-10.8609
更应该	-10.8609
国内	-10.8609
安稳	-10.861
圣	-10.8612
抹	-10.8614
角落	-10.8615
春	-10.8616
成瘾	-10.8616
性爱	-10.8619
说得	-10.8619
专家	-10.8622
题主的问题	-10.8624
学习中	-10.8624
深层次	-10.8627
惯	-10.8628
可以直接	-10.863
尤其是在	-10.8632
属于你的	-10.8633
的课题	-10.8633
和需求	-10.8636
也不愿意	-10.8637
50	-10.8637
相似的	-10.8638
你的困扰	-10.8639
不自觉	-10.8642
结局	-10.8644
有意思	-10.8646
扔	-10.8646
发泄出来	-10.8647
向内	-10.865
营造	-10.865
自爱	-10.865
更喜欢	-10.8651
皆	-10.8652
和睦	-10.8657
她自己	-10.866
这样会	-10.8662
因为你的	-10.8666
努力地	-10.8667
又要	-10.8668
成长经历	-10.867
这是我	-10.8671
抑郁症患者	-10.8672
不要被	-10.8676
还是想	-10.8677
里面的	-10.8679
的个性	-10.8679
问他	-10.8679
注	-10.8679
只能说	-10.868
牢	-10.8683
市场	-10.8685
打人	-10.8685
细腻	-10.8687
活泼	-10.8688
午	-10.8688
剩	-10.869
探	-10.8691
和矛盾	-10.8691
史	-10.8692
这样的情绪	-10.8692
心理负担	-10.8693
的女儿	-10.8693
面对生活	-10.8698
的内在	-10.87
之上	-10.8704
多想	-10.8704
过不去	-10.8705
都已经	-10.8706
你的提问	-10.8709
案	-10.8711
心里有	-10.8715
我们可能	-10.8716
对你的影响	-10.8718
锻炼自己	-10.8718
也许在	-10.8718
为别人	-10.8719
和恐惧	-10.872
一些时间	-10.872
特长	-10.872
卷	-10.872
疏离	-10.8722
诉求	-10.8723
畏惧	-10.8724
就会被	-10.8724
爱意	-10.8724
漫	-10.8727
跟随	-10.8728
第二次	-10.8732
学科	-10.8735
虽然我	-10.8745
都应该	-10.8747
记忆力	-10.875
是否愿意	-10.8753
普通的	-10.8754
感情中	-10.8755
纳	-10.8756
和父母沟通	-10.8756
斗	-10.8757
怕自己	-10.876
拒绝别人	-10.876
取舍	-10.8761
还是在	-10.8763
同桌	-10.8763
两个方面	-10.8771
而且还	-10.8772
好人	-10.8774
都是正常的	-10.8777
大量的	-10.8779
从来都	-10.8786
谁也	-10.8789
偶	-10.8791
你曾经	-10.8793
不仅是	-10.8795
曲	-10.8796
你可以先	-10.8796
你的心	-10.8796
分辨	-10.8797
大量	-10.8798
在这个世界上	-10.8799
善良的	-10.8802
康复	-10.8802
负面评价	-10.8804
上去	-10.8804
?*	-10.8806
许多人	-10.8807
强制	-10.8808
我们知道	-10.8813
做着	-10.8814
好的一面	-10.882
两个人都	-10.8821
有更好的	-10.8825
始	-10.8826
附	-10.8831
话语	-10.8831
和接纳	-10.8831
会比	-10.8832
发掘	-10.8834
发表	-10.8834
拓展	-10.8834
朋友倾诉	-10.8835
不顺	-10.8836
被你	-10.8837
祝您	-10.8838
甘	-10.884
学会爱自己	-10.8842
暗恋	-10.8842
去考虑	-10.8844
因此我们可以	-10.8846
笔记	-10.8846
关注点	-10.8846
恰恰	-10.8849
如果你不	-10.885
持续的	-10.885
去适应	-10.8851
抽离	-10.8858
与家人	-10.8859
在努力	-10.8862
坐在	-10.8866
毕业后	-10.8866
一道	-10.8867
加重	-10.8868
介入	-10.8871
认识到自己	-10.8871
很强的	-10.8874
但还是	-10.8875
的情绪状态	-10.888
交往中	-10.8882
缓解焦虑	-10.8883
年的	-10.8884
不如别人	-10.889
处境	-10.889
r	-10.8895
不耐烦	-10.8903
藏在	-10.8904
也不好	-10.8905
柔	-10.8905
蛋	-10.8905
吃了	-10.8907
外婆	-10.8907
赞同	-10.8908
风雨	-10.8908
清单	-10.8911
舒适圈	-10.8911
抛开	-10.8912
什么东西	-10.8913
你们两个人	-10.8914
是不是可以	-10.8914
士	-10.8915
结束了	-10.8917
疫情期间	-10.8917
可能存在	-10.8918
某些事情	-10.8919
和鼓励	-10.892
回顾	-10.892
议	-10.892
新鲜感	-10.8921
发言	-10.8926
来这里	-10.8927
公公	-10.893
给予自己	-10.8931
更适合	-10.8934
身体上的	-10.8935
阻	-10.8936
讲的	-10.8939
手淫	-10.8941
现实生活	-10.8942
你说自己	-10.8943
一无是处	-10.8944
负罪感	-10.8945
偿	-10.8945
优缺点	-10.8946
不用太	-10.8946
及时止损	-10.8947
生日	-10.8949
可能因为	-10.8951
成员	-10.8952
在我们的	-10.8955
多看	-10.8955
异性朋友	-10.8955
情绪问题	-10.8957
知识点	-10.8957
生长	-10.8958
自己感兴趣的	-10.8961
而来	-10.8961
是怎么想的	-10.8961
会使	-10.8962
发泄情绪	-10.8962
我不想	-10.8963
生病了	-10.8966
助人	-10.8968
后期	-10.8971
思考问题	-10.8974
不带	-10.8974
他们都	-10.8975
的阴影	-10.8977
急着	-10.8977
要好	-10.8978
吼	-10.898
胆	-10.898
?......	-10.898
怼	-10.898
有所改变	-10.8981
把所有的	-10.8981
不自在	-10.8984
帅	-10.8985
的地步	-10.8985
希望我的回答能够帮助到你	-10.8989
如期而至	-10.8993
帮到你	-10.8994
受到影响	-10.8994
的情景	-10.8995
罗	-10.8998
接触到	-10.9
的生活状态	-10.9005
着手	-10.9007
觉得我	-10.9008
我记得	-10.9008
被尊重	-10.901
阿	-10.901
值得你	-10.9011
维	-10.9012
以此来	-10.9014
内在小孩	-10.9015
愤	-10.9016
军	-10.9016
左	-10.9018
剂	-10.9019
这些话	-10.902
看电影	-10.902
瓶	-10.9021
提示	-10.9023
要做的是	-10.9025
释放压力	-10.9025
其实这	-10.9028
不但	-10.9029
反思自己	-10.9032
楼主也	-10.9032
就不能	-10.9033
详细的	-10.9033
他就会	-10.9034
败	-10.9036
放开	-10.9036
身边的朋友	-10.9038
惯性	-10.9041
和现实	-10.9043
受伤的	-10.9044
自然的	-10.9045
握	-10.9045
放松心情	-10.9049
新的生活	-10.9052
有安全感	-10.9053
不想去	-10.9054
野	-10.9054
。○	-10.9055
挤	-10.9055
共鸣	-10.9056
似	-10.9058
纯	-10.9063
的真实想法	-10.9063
和情感	-10.9064
在你们	-10.9065
无条件的	-10.9066
在现实中	-10.9066
某个人	-10.9068
得起	-10.907
相处时	-10.9072
专业的心理咨询	-10.9074
去体验	-10.9075
好像是	-10.9075
获得了	-10.9079
想成为	-10.9081
孤独的	-10.9081
或者说是	-10.9082
的概念	-10.9084
在恋爱	-10.9088
对婚姻	-10.9089
过错	-10.9093
公务员	-10.9095
这么想	-10.9096
这个时期	-10.9098
立场	-10.9099
很担心	-10.9101
看成	-10.9102
把你的	-10.9104
可爱的	-10.9107
岁月	-10.9108
的语气	-10.9109
知道他	-10.911
假期	-10.911
剩下的	-10.911
为对方	-10.9111
玩耍	-10.9112
等方面	-10.9113
。)2、	-10.9114
和你一起	-10.9115
自觉	-10.9115
买了	-10.9115
并不知道	-10.9116
学习心理学	-10.9121
的时候会	-10.9122
的衣服	-10.9122
我看到了	-10.9126
肌肉	-10.9127
难以接受	-10.9127
懒惰	-10.9128
规范	-10.9128
判	-10.9128
章	-10.9129
线上	-10.913
寄	-10.913
这个家庭	-10.9131
业务	-10.9132
使人	-10.9134
闯	-10.9134
教育孩子	-10.9135
心里面	-10.9136
你的行为	-10.9137
借鉴	-10.9137
吓	-10.9138
看到题主	-10.9138
你自己的	-10.9142
相当于	-10.9142
应当	-10.9145
既然是	-10.9145
到来	-10.9146
还小	-10.915
找你	-10.915
赢得	-10.9151
意思是	-10.9154
公开	-10.9156
冒	-10.9156
看到您	-10.9157
两个月	-10.9157
的刺激	-10.9161
做好了	-10.9163
甚	-10.9166
单一	-10.9167
的拥抱	-10.9168
正能量	-10.9168
狠	-10.9168
觉得别人	-10.917
升级	-10.917
的优秀	-10.917
有更多	-10.9171
哟	-10.9176
表演	-10.9176
能够接受	-10.9179
欠缺	-10.918
手中	-10.9183
但是他们	-10.9184
今天的	-10.9185
自己的兴趣爱好	-10.9185
一个过程	-10.9186
大多数人都	-10.9188
比较强	-10.9191
没有人可以	-10.9191
见解	-10.9195
可以适当	-10.9196
认识的	-10.9197
一起玩	-10.9198
不想要	-10.9198
反映出	-10.92
庆幸	-10.9202
正常人	-10.9202
去接纳	-10.9205
焦虑恐惧	-10.9206
在其中	-10.9207
敷衍	-10.9208
怀念	-10.9213
就医	-10.9213
无用	-10.9214
•	-10.9214
其他的事情	-10.9217
调整自己的心态	-10.9219
一些方法	-10.9221
他的行为	-10.9223
对父母的	-10.9226
职业规划	-10.9226
感受一下	-10.9229
大学生活	-10.9232
没有一个	-10.9236
做咨询	-10.9236
会引起	-10.924
展	-10.9243
凶	-10.9243
弟	-10.9243
挣	-10.9244
就一定	-10.9244
怎么能	-10.9244
某件事	-10.9245
而对于	-10.9246
妇	-10.9246
删除	-10.9247
防止	-10.9247
皮肤	-10.9247
在这个时候	-10.9248
起伏	-10.925
媳妇	-10.925
的是你	-10.925
失误	-10.925
与之	-10.9252
不给	-10.9253
是件	-10.9257
是可以的	-10.9258
愿世间美好与你	-10.9259
孤	-10.926
看得出你	-10.9264
固	-10.9265
如果孩子	-10.9267
没有太多	-10.9267
遇事	-10.9267
的概率	-10.9268
经济独立	-10.9268
处事	-10.9272
生活环境	-10.9272
花时间	-10.9275
想得到	-10.9275
思维模式	-10.9276
某种程度上	-10.9277
深深	-10.9278
卫	-10.9278
就像我们	-10.9278
薪	-10.9279
可以寻求	-10.9279
完全不	-10.9283
忠诚	-10.9283
幽默	-10.9285
这种人	-10.9288
报警	-10.9289
这个状态	-10.9292
在意别人的看法	-10.9293
这个话题	-10.9294
无比	-10.9294
反而是	-10.9296
假如你	-10.9297
不久	-10.9298
顺畅	-10.9298
不顺心	-10.9299
有这样的想法	-10.9299
做一件事	-10.9299
交流一下	-10.93
不成	-10.9302
最坏	-10.9302
恰恰是	-10.9305
也是你	-10.9306
的信心	-10.931
很敏感	-10.931
。5.	-10.931
情绪不稳定	-10.9313
以下几个	-10.9314
表达了	-10.9318
看到你说	-10.9318
一路	-10.9319
罚	-10.932
首先是	-10.9322
无可厚非	-10.9322
举动	-10.9324
字里行间	-10.9325
呗	-10.9326
立马	-10.9327
讨好别人	-10.9338
是否要	-10.9341
在身边	-10.9341
14	-10.9345
就行了	-10.9348
真诚地	-10.9349
舒服的	-10.935
早起	-10.935
但现在	-10.9352
无趣	-10.9353
祝福题主	-10.9355
说一说	-10.9355
粗	-10.9357
是完全	-10.9358
这是因为	-10.9359
攻	-10.9361
全面的	-10.9363
把孩子	-10.9364
利弊	-10.9364
凉	-10.9365
你只需要	-10.9367
同理心	-10.9368
希望我的回答能够	-10.9373
心灵的	-10.9373
联想到	-10.9374
的感受和想法	-10.9375
要怎么	-10.9378
到位	-10.938
一名	-10.9381
---	-10.9381
很低	-10.9382
积极地	-10.9385
不够自信	-10.9385
有意识的	-10.9385
他们自己	-10.9396
过激	-10.9396
右	-10.94
找心理咨询师	-10.9401
恒	-10.9402
紧绷	-10.9407
幸福快乐	-10.9408
的委屈	-10.9411
要改变	-10.9411
股	-10.9411
。————————————————	-10.9412
的不是	-10.9413
才是最	-10.9418
前者	-10.9419
人情	-10.9425
圆	-10.9428
是个很	-10.9428
楼主的内心	-10.9428
真实感受	-10.9428
教训	-10.943
哪些事情	-10.9434
浪费时间	-10.9435
的内心世界	-10.9435
缓解压力	-10.9439
坏人	-10.9439
无缘无故	-10.9442
疼爱	-10.9443
让自己在	-10.9444
很爱你	-10.9445
提出的	-10.9446
而是要	-10.9447
不论是	-10.9448
自己又	-10.9449
少一些	-10.9454
保守	-10.9455
有时候会	-10.9457
回答你的问题	-10.9457
你爸爸	-10.9457
愿意为	-10.946
坦	-10.9466
心理学中	-10.9466
的事情上	-10.9467
减压	-10.9468
力气	-10.9472
有两种	-10.9472
比较高	-10.9473
中学	-10.9478
视野	-10.9481
严肃	-10.9481
忽视了	-10.9481
动态	-10.9481
压力过大	-10.9482
合适的人	-10.9484
失业	-10.9485
健	-10.9485
楼主需要	-10.9488
会得到	-10.9492
无视	-10.9496
接收	-10.9497
怎么样呢	-10.9498
一点点的	-10.9501
所以就	-10.9503
你可以把	-10.9504
反倒	-10.9508
式的	-10.9509
原来的	-10.9511
你的丈夫	-10.9511
看到了你的	-10.9511
就有了	-10.9513
强行	-10.9514
渴求	-10.9514
也可以通过	-10.9514
称之为	-10.9516
之后再	-10.9516
弗洛伊德	-10.9517
鸡	-10.9517
感觉到自己	-10.9517
喜欢她	-10.9518
偶然	-10.9518
肩	-10.9518
手上	-10.9522
的决心	-10.9527
社会中	-10.9528
不佳	-10.953
以上是我的一点建议	-10.953
优先	-10.9531
但他们	-10.9533
买房	-10.9534
为止	-10.9535
眼前的	-10.9535
这么大	-10.9535
这个目标	-10.954
成长起来	-10.9542
惜	-10.9545
的道路	-10.9548
并不一定	-10.9548
在成长过程中	-10.9549
起点	-10.9553
愿意去	-10.9554
善良的人	-10.9554
残酷	-10.9556
俱	-10.9556
申请	-10.9558
看待问题	-10.9559
荡	-10.9559
疲劳	-10.9559
况且	-10.9559
养活自己	-10.956
免费	-10.956
就够了	-10.9561
搜索	-10.9561
劳逸结合	-10.9562
很多次	-10.9565
这样可以	-10.9565
积极向上	-10.9566
从容	-10.9568
间接	-10.9568
推动	-10.958
而产生的	-10.958
的正常	-10.958
是不能	-10.958
多方面	-10.9581
面临的	-10.9583
在意他人	-10.9584
上天	-10.9584
实质	-10.9585
就是为了	-10.9586
在感情中	-10.9587
千万	-10.9589
有什么问题	-10.9593
一种是	-10.9593
不是那么	-10.9595
舞	-10.9596
汉	-10.9596
感到非常	-10.9597
这是个	-10.9597
涌	-10.9598
登	-10.9598
不知不觉	-10.96
成年后	-10.9603
行事	-10.9607
的功课	-10.9608
你妈	-10.9608
就说明	-10.9609
迟到	-10.9612
有趣的	-10.9613
既然已经	-10.9613
逼着	-10.9613
育	-10.9613
检	-10.9614
不动	-10.9615
自己的心态	-10.9616
一个目标	-10.9616
哪些方面	-10.9617
我们不妨	-10.9619
;2、	-10.962
旁人	-10.9623
伤害别人	-10.9626
二十	-10.9628
必要	-10.9631
对一个人	-10.9631
婚姻是	-10.9631
那一刻	-10.9634
?1.	-10.9637
激活	-10.9637
赞赏	-10.9638
宁愿	-10.9638
对症下药	-10.9639
鼓起勇气	-10.964
的前提	-10.9642
毕竟是	-10.9644
但我想	-10.9645
精神科	-10.965
儿女	-10.9651
虽	-10.9651
一切安好	-10.9652
会有什么	-10.9653
你并不	-10.9659
该不该	-10.9659
一类	-10.9659
这一步	-10.966
可以帮助我们	-10.966
想象中	-10.966
所带来的	-10.9661
走出去	-10.9661
一张	-10.9662
17	-10.9662
约会	-10.9663
每周	-10.9664
已经开始	-10.9664
深入的	-10.9668
不要过于	-10.9668
把这种	-10.9668
意识自我	-10.9669
你必须	-10.967
还是可以	-10.9673
界	-10.9673
潮	-10.9676
不由自主	-10.9676
转化为	-10.9677
烂	-10.9677
化妆	-10.9677
有太多	-10.9677
社恐	-10.9678
目前的情况	-10.9678
不影响	-10.9678
检验	-10.9679
也就不会	-10.968
无效	-10.9682
有多么	-10.9682
已婚	-10.9684
的基本	-10.9687
为孩子	-10.9688
未完成	-10.9689
是以	-10.9697
清理	-10.97
全新的	-10.9701
你仍然	-10.9705
超出	-10.9707
责	-10.9707
赌	-10.9714
鼓励和	-10.9716
出问题	-10.9717
青年	-10.9722
恰好	-10.9722
网友	-10.9722
?3.	-10.9723
凭什么	-10.9723
伟大	-10.9723
但不是	-10.9724
帮她	-10.9725
情节	-10.9725
我们总是	-10.9725
之所以会	-10.9727
旁	-10.9733
我猜想	-10.9736
这个孩子	-10.9736
管教	-10.9738
都会遇到	-10.9741
高级	-10.9741
夸大	-10.9743
一起来	-10.9746
都是为了	-10.9747
渴望得到	-10.9749
现在的情况	-10.975
他对你的	-10.9752
外出	-10.9753
是一个很好的	-10.9755
的立场	-10.9756
袭	-10.9757
纷	-10.9757
色彩	-10.9758
醉	-10.9758
考虑的	-10.9759
焦躁	-10.9759
苛刻	-10.9759
脑袋	-10.9761
您说	-10.9762
咋	-10.9762
又如何	-10.977
关照	-10.9772
很抱歉	-10.9772
一分	-10.9774
的体现	-10.9774
在这方面	-10.9775
身心健康	-10.9775
工作了	-10.9776
上瘾	-10.978
不回	-10.9782
行为模式	-10.9787
泛化	-10.9792
永远都	-10.9793
之心	-10.9793
?️	-10.9794
无意识的	-10.9795
对对方的	-10.9796
再有	-10.9796
收益	-10.9796
粘	-10.9798
无形中	-10.98
陈	-10.98
看到他	-10.98
希望别人	-10.9801
自己认为	-10.9801
对事情	-10.9803
间的	-10.9803
不知道该怎么办	-10.9803
带你	-10.9803
换工作	-10.9804
维度	-10.9804
独立自主	-10.9806
而现在	-10.9806
道路上	-10.9807
所做的	-10.9809
给你提供	-10.9811
感觉不到	-10.9813
对方身上	-10.9813
过去的事情	-10.9813
平常心	-10.9814
小女孩	-10.9816
中获得	-10.9816
太少	-10.9817
离家	-10.9818
有一部分	-10.982
踏	-10.9821
称为	-10.9823
:1)	-10.9833
直觉	-10.9835
被孤立	-10.9836
进行心理咨询	-10.9836
不感兴趣	-10.9836
把注意力放在	-10.9837
劣势	-10.9838
苦难	-10.9839
X	-10.9839
工作能力	-10.9839
迹	-10.984
过上	-10.984
需要通过	-10.9841
除此之外	-10.9843
是人类	-10.9844
尝试过	-10.9845
经历中	-10.9852
家庭氛围	-10.9852
固有	-10.9853
情感上的	-10.9856
应该有	-10.9856
喜好	-10.9857
苛责	-10.9857
习惯性	-10.9858
和无助	-10.986
21	-10.986
两方面	-10.9862
而这种	-10.9865
你得	-10.9866
身处	-10.9866
也并不是	-10.9868
你越	-10.987
来临	-10.987
这对	-10.9872
重心	-10.9877
因为这个	-10.9877
活跃	-10.9882
也只能	-10.9883
从这个角度	-10.9884
男女朋友	-10.9884
重建	-10.9885
睡眠质量	-10.9885
一个阶段	-10.9885
的伤痛	-10.9886
这很正常	-10.9886
让自己更	-10.9886
不负责任	-10.9887
共处	-10.9887
词语	-10.9892
自己的看法	-10.9895
做自己喜欢的事情	-10.9895
这事	-10.9898
这段婚姻	-10.9901
的相处方式	-10.9902
问题所在	-10.9906
沟通方式	-10.9908
那段时间	-10.991
的圈子	-10.991
潜意识自我	-10.9911
对感情	-10.9913
控制不了	-10.9913
如何面对	-10.9916
有事	-10.9916
的人都	-10.9917
抑制	-10.9918
最需要	-10.9918
同时又	-10.9919
泥	-10.9922
行为背后	-10.9923
丰	-10.9924
是通过	-10.9924
成为自己	-10.9932
和谐的	-10.9932
祝您生活愉快	-10.9933
希望能帮助到你	-10.9935
和学习	-10.9939
的全部	-10.9944
跟朋友	-10.9944
前期	-10.9946
并没有那么	-10.9948
都比较	-10.9951
对着	-10.9953
以免	-10.9954
短时间内	-10.9954
你自己也	-10.9958
心理准备	-10.9958
不定	-10.996
相信你会	-10.996
如果是这样	-10.996
深刻的	-10.996
环	-10.996
挡	-10.9963
连续	-10.9965
的形成	-10.9965
都是需要	-10.997
的回忆	-10.997
发生变化	-10.9972
的眼睛	-10.9973
朋友关系	-10.9974
都有可能	-10.9975
上面的	-10.9977
放空	-10.9977
临床	-10.9979
自己的未来	-10.9981
作为父母	-10.9983
往后	-10.9985
过来的	-10.9985
表达自己的想法	-10.9985
喜欢的事情	-10.9989
被重视	-10.9989
心里话	-10.9989
想要得到	-10.9989
影响的	-10.999
看电视	-10.9993
意味着什么	-10.9993
也是可以的	-10.9994
换一个角度	-10.9995
先去	-10.9997
齐	-10.9999
就没	-11.0002
忠	-11.0004
只要是	-11.0006
你问	-11.0008
一个朋友	-11.001
简短	-11.001
和看法	-11.0011
能够感觉到	-11.0011
类型的	-11.0012
成为更好的自己	-11.0016
完全没有	-11.0016
遇到事情	-11.0018
为什么呢	-11.0022
出现了问题	-11.0022
我也有	-11.0023
为了自己	-11.0031
。3,	-11.0032
这个是	-11.0034
就知道	-11.0035
没有对错	-11.0036
应有的	-11.0036
就不是	-11.0036
是正确的	-11.0037
纠结于	-11.0038
这样的关系	-11.0039
语气	-11.0039
对于一个	-11.0041
尊重自己	-11.0042
能让自己	-11.0043
尾	-11.0045
言行	-11.0046
呆在	-11.0047
进展	-11.0048
而没有	-11.0048
人间	-11.0049
能够做到	-11.0051
这条路	-11.0052
突出	-11.0053
交集	-11.0055
走得	-11.0058
考量	-11.0059
愧疚感	-11.006
并不想	-11.0061
是不是有	-11.0062
驱	-11.0069
就被	-11.007
往前走	-11.0071
苛责自己	-11.0072
一个个	-11.0073
历	-11.0074
也都是	-11.0077
和未来	-11.0077
至今	-11.0079
阿德勒	-11.0082
表达方式	-11.0083
鞋	-11.0085
逛街	-11.0087
荣	-11.0089
冥想星球	-11.009
先给你一个温暖的抱抱	-11.0091
情绪管理	-11.0092
熟悉的人	-11.0096
素	-11.0097
如何解决	-11.0097
也罢	-11.0098
。️️️	-11.01
家中	-11.0103
去行动	-11.0104
对工作	-11.0105
行动力	-11.0108
觉察一下	-11.011
条件允许	-11.011
自行	-11.0114
早日走出	-11.0114
针	-11.0118
紧密	-11.0126
谈到	-11.0126
也没关系	-11.0127
宝贵的	-11.0128
经典	-11.0128
两个孩子	-11.0129
细致	-11.0129
委	-11.013
擦	-11.013
也可以是	-11.0131
局限性	-11.0131
融合	-11.0132
特性	-11.0134
意义上	-11.0135
也觉得	-11.0137
也有一些	-11.0138
这个朋友	-11.0138
释放出来	-11.0138
对外界	-11.0139
好奇心	-11.014
不肯	-11.0141
首先需要	-11.0143
大胆的	-11.0144
很多很多	-11.0145
。)3、	-11.0146
又或者是	-11.0146
人人都	-11.015
首要	-11.0152
的原则	-11.0154
你不知道	-11.0155
哈哈	-11.0155
的关系中	-11.0157
的处理方式	-11.0158
电视	-11.0159
费用	-11.0161
无意义	-11.0164
愤怒和	-11.0165
因为对方	-11.0167
肢体	-11.0168
贡献	-11.0168
乏	-11.0169
有用的	-11.017
无法理解	-11.0171
权益	-11.0172
平稳	-11.0175
就如	-11.0179
的一点是	-11.0181
给题主一个温暖的抱抱	-11.0182
双向	-11.0182
精神状态	-11.0183
你就要	-11.0184
对朋友	-11.0185
什么事情都	-11.0192
你就不会	-11.0193
了很久	-11.0197
在乎你	-11.0201
本就	-11.0203
体力	-11.0203
非常大的	-11.0205
人心	-11.0206
又没有	-11.021
南	-11.021
填补	-11.0211
厌倦	-11.0212
尊严	-11.0212
权衡	-11.0214
播	-11.0215
熟人	-11.0215
损害	-11.0216
诚实	-11.0216
独立的个体	-11.0217
自己的力量	-11.0218
忍让	-11.0219
但她	-11.022
人的一生	-11.0222
不停	-11.0225
的潜意识	-11.0226
你可以通过	-11.0231
聚焦	-11.0231
爱与	-11.0234
到自己身上	-11.0234
很像	-11.0237
这些情况	-11.0242
理想中的	-11.0243
疏	-11.0243
发生了什么事情	-11.0243
展开	-11.0244
着我们	-11.0244
做选择	-11.0245
看到了你	-11.0246
挺好	-11.0246
就很容易	-11.0249
自己的内在	-11.025
的角度去	-11.0251
尿	-11.0254
几句	-11.0254
提到的	-11.0255
大可不必	-11.0255
提出了	-11.0258
敌意	-11.0258
随着时间	-11.0259
自已	-11.026
了许多	-11.0261
11	-11.0263
准确的	-11.0265
那么在	-11.0269
自己的性格	-11.0274
还有什么	-11.0274
的模样	-11.0275
为你好	-11.0276
规	-11.0278
会觉得自己	-11.0285
那么好	-11.0286
不好受	-11.0286
的沟通方式	-11.0289
不熟悉	-11.0291
安静的	-11.0294
基础上	-11.0295
警	-11.0295
麻木	-11.0297
做一些事情	-11.0298
扭曲	-11.0299
毅力	-11.03
可以慢慢	-11.0302
反击	-11.0302
哪方面	-11.0303
觉得自己很	-11.0304
比较难	-11.0304
绝不	-11.0305
对方是否	-11.0307
发自内心的	-11.0309
可以看看	-11.031
这个东西	-11.031
在你心里	-11.0311
让妈妈	-11.0313
公司的	-11.0314
为自己负责	-11.0317
家人朋友	-11.0318
不想再	-11.0319
留下了	-11.0321
没关系的	-11.0321
真实的感受	-11.0324
觉得自己是	-11.0328
能够理解你	-11.033
只看到	-11.0332
自助	-11.0332
最难	-11.0334
不太会	-11.0339
在学习上	-11.0339
版	-11.0341
调动	-11.0341
攀比	-11.0342
谎言	-11.0342
多多少少	-11.0343
屏蔽	-11.0344
向别人	-11.0345
我的建议	-11.0346
伦理	-11.0346
很长时间	-11.0347
访	-11.0347
嗨	-11.0348
希望可以帮助到你	-11.0348
的打算	-11.0349
那么我们可以	-11.035
拉近	-11.035
和自我	-11.0357
情绪失控	-11.0359
我身边	-11.0364
别人的看法	-11.0368
熟练	-11.0369
负面的情绪	-11.037
就像你说的	-11.0373
憋	-11.0375
是好事	-11.0376
激起	-11.0377
上升	-11.0377
回忆一下	-11.0382
萌	-11.0382
感受到了你的	-11.0383
购物	-11.0383
***	-11.0384
还会有	-11.0384
他身上	-11.0385
文中	-11.0385
现有的	-11.0385
追寻	-11.0386
失利	-11.0387
多沟通	-11.0389
经济条件	-11.0391
面对现实	-11.0392
也很重要	-11.0392
与朋友	-11.0395
为我们	-11.0399
莫名的	-11.0401
为了避免	-11.0401
病症	-11.0402
和其他人	-11.0402
对父亲	-11.0403
和爸爸	-11.0404
当然是	-11.0407
做什么事情	-11.0409
泄	-11.042
会有不同的	-11.042
一直都在	-11.0421
以下是我的分析	-11.0423
照顾你	-11.0425
制度	-11.0428
步入	-11.0428
劝说	-11.0428
才能让	-11.0429
何必	-11.0431
错过了	-11.0439
有限的	-11.0439
分成	-11.0441
老实	-11.0443
有那么多	-11.0445
才可能	-11.0448
焦点	-11.045
不难	-11.045
任何时候	-11.045
锻炼身体	-11.0453
速	-11.0453
的教育方式	-11.0453
深处	-11.0454
也愿意	-11.0455
适	-11.0459
扰	-11.0465
论文	-11.0465
就不会那么	-11.0466
诊	-11.047
胡	-11.0471
忽然	-11.0473
食欲	-11.0473
怪圈	-11.0475
更多的人	-11.0475
在你面前	-11.0475
多长时间	-11.0479
机器	-11.0482
在不断	-11.0483
不停地	-11.0483
认可自己	-11.0483
你担心	-11.0487
去沟通	-11.0488
相处的过程中	-11.049
帮我	-11.0491
系统的	-11.0492
都是一种	-11.0493
而又	-11.0494
家庭条件	-11.0494
要好好	-11.0495
题主应该	-11.0495
索	-11.0498
孩子的成长	-11.0498
甚至还	-11.05
的喜好	-11.0503
下意识	-11.0505
以便	-11.0507
都被	-11.0508
关键在于	-11.0509
能够得到	-11.0509
引发的	-11.051
设立	-11.0513
表达你的	-11.0514
这个专业	-11.0514
扇	-11.0515
心甘情愿	-11.0515
思念	-11.0519
一起生活	-11.052
考的	-11.0522
体育	-11.0523
好一些	-11.0524
身为	-11.0525
有任何	-11.0529
特别想	-11.0531
相信他	-11.0532
多个	-11.0537
看了你的问题	-11.0541
遗	-11.0542
你的痛苦	-11.0543
你的家庭	-11.0543
各个	-11.0546
过日子	-11.0548
服从	-11.0549
扯	-11.0553
你将	-11.0554
仇	-11.0554
漏	-11.0554
祖	-11.0555
读研	-11.0556
踩	-11.0557
敏锐	-11.0558
振	-11.0559
集中在	-11.0561
楼主的问题	-11.0563
我个人觉得	-11.0565
主角	-11.0568
给父母	-11.057
祝安好	-11.057
有自己的想法	-11.0571
我的看法	-11.0572
一切都会	-11.0573
在遇到	-11.0575
你的选择	-11.0577
这个样子	-11.0578
性格内向	-11.0578
该怎么做	-11.0579
自如	-11.0581
都知道	-11.0586
的关爱	-11.0586
?3、	-11.0593
就会发现	-11.0593
染	-11.0594
赞	-11.0594
自然就会	-11.0595
赛	-11.0596
兼	-11.0599
傲	-11.0599
亲子	-11.06
把对方	-11.0601
内心是	-11.0601
讲究	-11.0602
放在心上	-11.0602
被接纳	-11.0603
赏	-11.0603
触动	-11.0604
职责	-11.0604
在对方	-11.0605
相识	-11.0605
提高自己	-11.0605
和您	-11.0608
美食	-11.0608
产生一些	-11.0608
并未	-11.0611
生了	-11.0612
满满	-11.0612
三次	-11.0613
自己的家庭	-11.0614
一定很	-11.0616
和帮助	-11.0617
类似于	-11.0618
看待对待	-11.0619
自己的时间	-11.062
再一次	-11.062
你们在一起	-11.0622
比我们	-11.0623
的童年	-11.0623
因为这样	-11.0625
把问题	-11.0628
的另一半	-11.0629
得到别人的	-11.0631
的唯一	-11.0633
不起来	-11.0635
结婚后	-11.0635
也许可以	-11.0638
被否定	-11.0639
着他	-11.0643
飘	-11.0644
货	-11.0646
例外	-11.0648
冷落	-11.0649
一起努力	-11.065
天使	-11.0652
乡	-11.0652
对身体	-11.0653
大宝	-11.0653
学习效率	-11.0654
我个人认为	-11.0654
很苦恼	-11.0654
我才	-11.0658
很美好	-11.0658
这样的感觉	-11.0662
总有一天	-11.0662
去年	-11.0664
迟	-11.0668
让步	-11.0668
就很难	-11.0672
找了	-11.0676
很委屈	-11.0678
也是非常	-11.0679
过去的经历	-11.068
&	-11.0685
有所不同	-11.0686
会变成	-11.0687
角度看	-11.0689
壮	-11.0689
执念	-11.069
这个事实	-11.069
人生的意义	-11.0691
有以下	-11.0691
的初衷	-11.0691
教导	-11.0692
的乐趣	-11.0692
很能理解	-11.0694
焦虑的情绪	-11.0696
也可以尝试	-11.0697
在你身边	-11.0699
这并不	-11.0701
做点什么	-11.0702
生活和工作	-11.0703
进入了	-11.0705
。-	-11.0706
要做的事情	-11.0707
推荐你	-11.0708
空气	-11.0709
目光	-11.071
当你在	-11.0711
这个男人	-11.0711
这其实是	-11.0711
没有足够的	-11.0712
育儿	-11.0714
技	-11.0716
只要有	-11.0717
自己喜欢的人	-11.0719
在你的描述中	-11.0719
体内	-11.072
等方式	-11.0721
口中	-11.0722
1)	-11.0723
更愿意	-11.0725
告诉父母	-11.0725
不能说	-11.0726
进度	-11.0726
断了	-11.073
看待自己	-11.0731
预测	-11.0731
衷	-11.0731
虚假	-11.0733
早已	-11.0734
迫切	-11.0735
伯	-11.0736
公益	-11.0737
对爱情	-11.0738
可以解决	-11.0739
脚步	-11.0741
的成长环境	-11.0743
那可能	-11.0746
的主人	-11.0747
提及	-11.0747
坏话	-11.0748
的频率	-11.0751
你真正	-11.0752
精神病	-11.0752
倾听者	-11.0757
的状态下	-11.0758
负性	-11.076
很难做到	-11.0762
能感觉到	-11.0762
不习惯	-11.0765
不知道你有没有	-11.0766
必要的时候	-11.0772
勤奋	-11.0773
的兴趣爱好	-11.0775
契合	-11.0776
相对来说	-11.0777
那种感觉	-11.0779
阿姨	-11.0781
放纵	-11.0782
他觉得	-11.0782
概率	-11.0783
突发	-11.0783
希望她	-11.0784
哈喽	-11.0785
打架	-11.0786
感悟	-11.0787
了一下	-11.0787
控制不住自己	-11.0788
网课	-11.079
新人	-11.079
有动力	-11.079
发生什么	-11.0791
恰当的	-11.0793
年代	-11.0794
做主	-11.0796
适当地	-11.0797
新的朋友	-11.08
才好	-11.08
跟妈妈	-11.0801
些许	-11.0804
改掉	-11.0804
大二	-11.0806
的人呢	-11.0806
生理上	-11.0808
和建议	-11.0811
反思一下	-11.0814
的信号	-11.0814
最好的方式	-11.0818
户	-11.082
祝愿	-11.0821
颓废	-11.0821
实际上是	-11.0821
觉得她	-11.0822
虎	-11.0823
斗争	-11.0824
他人的评价	-11.0825
言论	-11.0828
会怎样	-11.0837
顺着	-11.084
真的很难	-11.0841
觉醒	-11.0843
加油哦	-11.0843
得失	-11.0843
探讨一下	-11.0844
说一些	-11.0845
的次数	-11.0847
低自尊	-11.0847
遇到一个	-11.085
的世界里	-11.0852
充足的	-11.0853
就在于	-11.0854
家庭教育	-11.0855
更好的生活	-11.0859
有可能会	-11.086
自己的生命	-11.0863
或许你可以	-11.0866
很大的影响	-11.0866
缠	-11.0868
财产	-11.087
思虑	-11.087
单词	-11.087
秋	-11.087
爱不爱	-11.0871
我们的人生	-11.0872
在这段关系中	-11.0872
转移自己的注意力	-11.0872
一般情况下	-11.0876
还是觉得	-11.0876
你的文字	-11.0877
个人建议	-11.0879
就会慢慢	-11.088
会有不一样的	-11.0881
专注力	-11.0881
活成	-11.0881
找寻	-11.0883
最起码	-11.0884
和心理	-11.0886
坏处	-11.0887
虐待	-11.0888
问我	-11.0889
描述来看	-11.089
是否也	-11.0897
喜欢我	-11.0898
你所描述的	-11.0901
提起	-11.0903
和努力	-11.0904
你就能	-11.0905
先抱抱你	-11.0906
成为朋友	-11.0907
会好很多	-11.0909
博士	-11.0909
基本的	-11.0909
下定决心	-11.0912
是一件好事	-11.0913
滋味	-11.0914
开诚布公	-11.0914
构	-11.0914
我们先来	-11.0915
胜利	-11.0915
炎	-11.0915
正面的	-11.0915
被满足	-11.0917
街	-11.0917
这不是你的错	-11.0919
双重	-11.092
安排好	-11.092
先不要	-11.0923
列出	-11.0923
个案	-11.0924
有时会	-11.0931
考了	-11.0931
尽量避免	-11.0934
对家庭	-11.0935
不可控	-11.0938
忘掉	-11.0941
。@	-11.0944
习惯于	-11.0945
应用	-11.0945
不是特别	-11.0948
工作环境	-11.095
尝	-11.0951
楼主说自己	-11.0953
必然会	-11.0953
必定	-11.0954
分解	-11.0954
内心的感受	-11.0955
正常现象	-11.0955
多巴胺	-11.0955
恰当	-11.0957
敲	-11.0957
幅	-11.0957
确保	-11.0959
精神上	-11.0959
没有时间	-11.096
耗费	-11.096
总要	-11.0961
骂你	-11.0961
别扭	-11.0962
频	-11.0964
^	-11.0964
是人之常情	-11.0967
全身心	-11.0967
我们的大脑	-11.0967
的安排	-11.0969
心理学知识	-11.0969
之余	-11.0969
专科	-11.0971
我们的内心	-11.0974
对于自己的	-11.0974
尽情	-11.0977
想表达	-11.0978
我就会	-11.0982
不要放弃	-11.0986
只有这样	-11.0988
温暖和	-11.0993
不顺利	-11.0995
最真实的	-11.0996
幻	-11.0996
会担心	-11.0997
生活在一起	-11.0998
当她	-11.0998
成绩好	-11.0999
剥夺	-11.1002
很不好	-11.1003
盛	-11.1005
你可以在	-11.1006
喜怒哀乐	-11.1006
这样的感受	-11.1007
就只能	-11.1007
办公室	-11.1007
加油吧	-11.1012
休学	-11.1014
固定的	-11.1015
尽早	-11.1019
毫不	-11.1021
录	-11.1022
不排除	-11.1023
。3)	-11.1025
告诉孩子	-11.1029
划分	-11.103
压抑了	-11.103
倒是	-11.1032
一定程度的	-11.1033
舒适区	-11.1037
醒来	-11.1038
也不太	-11.1039
进一步的	-11.104
来访	-11.1043
威	-11.1045
挨	-11.1049
对你的态度	-11.1051
程序	-11.1057
我知道你	-11.1059
收回	-11.1061
学习任务	-11.1061
婆媳关系	-11.1064
反之	-11.1064
变化的	-11.1067
你可以尝试着	-11.1067
太好	-11.1067
我理解	-11.1072
保证自己	-11.1072
如同	-11.1076
一条路	-11.1078
相应	-11.1079
逐	-11.108
做一件事情	-11.1081
给自己定	-11.1083
轻松自然	-11.1084
和难过	-11.1085
高二	-11.1087
短暂	-11.1088
和思考	-11.1093
一个人的时候	-11.1094
自己喜欢的事情	-11.1094
得很好	-11.1095
绿	-11.1095
一定程度上	-11.1096
的人在一起	-11.1096
无法解决	-11.1096
固然	-11.1097
列举	-11.1097
被爱的	-11.1098
凭借	-11.1099
对自己好	-11.1099
隐忍	-11.1099
没想到	-11.11
心慌	-11.1108
对自己的要求	-11.1109
的预期	-11.111
这种关系	-11.1111
心痛	-11.1114
体验过	-11.1115
妻	-11.1115
。##	-11.1115
我们只能	-11.1116
然后在	-11.1116
这个方法	-11.1116
有一个人	-11.1116
进入社会	-11.1117
总想	-11.1119
咨询室	-11.1121
将就	-11.1123
一个男人	-11.1123
的无奈	-11.1124
在某个	-11.1129
而对方	-11.1129
也是因为	-11.1135
又害怕	-11.114
咱	-11.1141
未成年	-11.1141
撒娇	-11.1143
确定自己	-11.1143
学好	-11.1144
流程	-11.1144
我们也需要	-11.1144
疏解	-11.1145
味道	-11.1145
自己的兴趣	-11.1147
能看出	-11.1147
对你而言	-11.1149
自己真正	-11.1149
发展出	-11.115
所能	-11.1151
确立	-11.1151
一点时间	-11.1152
天气	-11.1152
为她	-11.1158
不知道您	-11.116
运	-11.116
发生冲突	-11.1161
的天性	-11.1165
开心的事情	-11.1165
对自身	-11.1166
供参考	-11.1166
再继续	-11.117
这件事上	-11.1171
自己内心的想法	-11.1174
部位	-11.1179
值得拥有	-11.1179
想象一下	-11.1179
灾难	-11.1186
形容	-11.1186
和愤怒	-11.1187
宠爱	-11.1188
智商	-11.1189
可能也是	-11.1189
必经	-11.1189
耿耿于怀	-11.119
便宜	-11.119
彩礼	-11.119
构建	-11.119
见识	-11.1191
绘画	-11.1191
坦诚的	-11.1192
真的会	-11.1192
互相理解	-11.1193
施加	-11.1194
这就是你	-11.1196
容易产生	-11.1198
待在	-11.1198
人格障碍	-11.12
统	-11.1204
送给你	-11.1207
看出来	-11.121
去选择	-11.121
犯了	-11.121
和社会	-11.1211
为什么我	-11.1211
过往的	-11.1212
不当	-11.1212
我爸	-11.1213
做人	-11.1215
很深的	-11.1217
受欢迎	-11.1218
你的孩子	-11.1224
虽然说	-11.1227
是建立在	-11.1228
不等于	-11.123
关注到	-11.1231
配不上	-11.1232
你就会发现	-11.1232
大学毕业	-11.1233
自己的观点	-11.1233
敏感的人	-11.1235
对外	-11.1236
储	-11.1237
是我们自己	-11.1238
气愤	-11.1238
主意	-11.1238
一帆风顺	-11.1238
与异性	-11.1239
有意识地	-11.1239
因人而异	-11.124
全然	-11.124
吃醋	-11.1241
虽然我们	-11.1242
也并不	-11.1242
前后	-11.1242
对异性	-11.1249
的思路	-11.125
很烦	-11.1258
请不要	-11.1263
找个时间	-11.1265
走入	-11.1265
对他人的	-11.1266
就会变得	-11.1267
本书	-11.1271
看作	-11.1271
觉察到自己	-11.1271
很忙	-11.1271
自学	-11.1271
的不安全感	-11.1273
的诉求	-11.1274
也挺	-11.1274
抵	-11.1278
合格	-11.1279
信仰	-11.1281
表露	-11.1283
是基于	-11.1283
愁	-11.1283
很显然	-11.1284
潜力	-11.1286
不理想	-11.1287
一般是	-11.1288
自己不够好	-11.129
是平等的	-11.129
和女朋友	-11.129
偏执	-11.1291
他认为	-11.1292
第二种	-11.1294
的态度和	-11.1297
和婆婆	-11.1299
保护你	-11.1303
有兴趣	-11.1303
在咨询	-11.1303
不通	-11.1303
可以不用	-11.1305
也很正常	-11.1305
逼迫	-11.1306
过来人	-11.1307
需要什么	-11.1308
不努力	-11.1314
这种焦虑	-11.1315
获	-11.1315
和好	-11.1315
性冲动	-11.1316
在心理上	-11.1319
不合理的	-11.132
的不足	-11.1322
丽	-11.1324
灌输	-11.1327
多半	-11.1328
不主动	-11.1329
朵	-11.1329
错觉	-11.1331
坚信	-11.1331
嘲讽	-11.1332
是不是因为	-11.1332
标题	-11.1332
复发	-11.1333
初期	-11.1335
所处的	-11.1338
哭闹	-11.1339
在人际交往中	-11.134
很压抑	-11.1341
很纠结	-11.1343
要素	-11.1345
影响你的	-11.1348
非常非常	-11.1348
离去	-11.1349
份工作	-11.135
可以适当的	-11.135
了这么多	-11.1351
个小	-11.1353
的温暖	-11.1359
不知道为什么	-11.1361
送你	-11.1362
第一时间	-11.1363
讲到	-11.1367
成功了	-11.137
来看看	-11.1371
学习计划	-11.1373
横	-11.1373
的行为模式	-11.1374
器官	-11.1374
因为害怕	-11.1375
坏情绪	-11.1375
夺	-11.1375
本身是	-11.1376
糊	-11.1377
严苛	-11.1377
炫耀	-11.1377
自我实现	-11.1378
从描述中	-11.138
都希望	-11.138
的风景	-11.1382
仪式感	-11.1384
理解她	-11.1385
是如此	-11.1386
生活当中	-11.1386
终点	-11.1386
和她们	-11.1387
是否需要	-11.1387
预约	-11.1387
所以你会	-11.1388
的苦恼	-11.139
没有朋友	-11.139
打卡	-11.139
自愿	-11.1392
可以根据	-11.1392
希望通过	-11.1392
你的潜意识	-11.1394
很幸福	-11.1394
释	-11.1396
不能因为	-11.14
未婚	-11.14
读完	-11.14
对你说	-11.1401
怎么做呢	-11.1405
没有太大	-11.1408
去实现	-11.1409
沉浸	-11.1409
想起来	-11.1409
抱抱您	-11.1409
n	-11.141
可以参考	-11.1412
趣	-11.1413
想到了	-11.1414
承担起	-11.1414
的角度来看	-11.1415
相信题主	-11.1415
自我认同	-11.1421
想像	-11.1422
◎	-11.1423
都有自己的	-11.1425
聆听	-11.1428
心生	-11.143
不知如何	-11.1431
术	-11.1436
选择一个	-11.1436
熬	-11.1441
让你感受到	-11.1442
还未	-11.1443
是因为他	-11.1444
想做什么	-11.1445
大专	-11.1445
高效	-11.1446
一根	-11.1446
讨厌自己	-11.1449
遇到一些	-11.1449
影响到你	-11.1451
是完美的	-11.1453
一一	-11.1454
处于一个	-11.1455
进了	-11.1456
--	-11.1462
就不再	-11.1462
才能真正	-11.1464
一人	-11.1465
并不需要	-11.1465
回到家	-11.1466
让自己感到	-11.1466
考前	-11.1468
可以看出楼主	-11.1468
了不少	-11.1468
奖	-11.1469
用一些	-11.147
喂	-11.147
夹	-11.1472
尘	-11.1473
线下	-11.1477
心仪的	-11.1478
不见得	-11.1478
姐妹	-11.1478
找人	-11.1481
既不	-11.1481
一个小小的	-11.1482
头发	-11.1482
最关键的	-11.1484
吸收	-11.1484
缺乏自信	-11.1486
生气了	-11.1487
出国	-11.1488
看手机	-11.149
年龄段	-11.1492
处于一种	-11.1495
新朋友	-11.1495
我们都会	-11.1495
通常是	-11.1497
也不敢	-11.1497
人与人	-11.1498
无意中	-11.1499
希望以上	-11.1502
貌	-11.1502
到处	-11.1505
的原因是	-11.1509
学期	-11.151
为啥	-11.151
新生	-11.1513
最简单的	-11.1513
序	-11.1514
延	-11.1521
崇拜	-11.1521
社交恐惧症	-11.1522
真的想	-11.1523
真实的想法	-11.1524
总比	-11.1524
阿凉	-11.1525
成长环境	-11.1527
越界	-11.1528
很紧张	-11.1529
想让你	-11.1531
认错	-11.1532
你说到	-11.1533
以后的生活	-11.1535
很深	-11.1536
相处中	-11.1536
没有那么多	-11.1536
这样的一个	-11.1538
找到合适的	-11.154
精神上的	-11.154
我们常说	-11.154
把所有	-11.1545
修正	-11.1545
的地位	-11.1547
自我探索	-11.1547
向父母	-11.1552
需要做的是	-11.1553
出一个	-11.1555
该怎样	-11.156
在恋爱中	-11.1563
操控	-11.1566
要求你	-11.1566
会发生什么	-11.1567
屡	-11.1567
主题	-11.1568
深厚	-11.1568
挖	-11.1568
又想	-11.1569
掩饰	-11.1569
与我们	-11.157
佩服	-11.1571
农村	-11.1571
菲尔	-11.1571
放过自己	-11.1572
志愿	-11.1572
要解决	-11.1572
被对方	-11.1573
桶	-11.1573
受益	-11.1575
开车	-11.1575
力所能及的	-11.1577
打拼	-11.1578
的命运	-11.1578
我希望你	-11.1579
就此	-11.158
还是其他	-11.1581
玩的	-11.1582
如果能够	-11.1586
这个原因	-11.159
其实并不是	-11.159
任何一个	-11.159
徒	-11.1596
没有做好	-11.1599
智	-11.16
观察到	-11.1601
有太多的	-11.1601
满满的	-11.1602
不妥	-11.1602
一股	-11.1604
轨迹	-11.1607
发光	-11.1608
不完	-11.1608
做点	-11.161
能帮助你	-11.1614
不去想	-11.1617
与此同时	-11.1618
兵	-11.1618
疯狂	-11.1618
貌似	-11.1619
一个很好的	-11.1623
在一起的时候	-11.1624
我们的身体	-11.1625
可是我	-11.1625
务	-11.1628
的一些行为	-11.1628
实在是	-11.163
也是个	-11.1634
强硬	-11.1634
浮现	-11.1635
岁的孩子	-11.1636
没有及时	-11.1637
的闪光点	-11.1637
的脾气	-11.164
一个机会	-11.1642
行为表现	-11.1644
不下	-11.1645
想明白	-11.1647
后再	-11.1648
是什么样子	-11.165
:*	-11.165
针对性	-11.165
坚持下来	-11.1656
身体上	-11.1656
趋	-11.1659
去调整	-11.1659
嫂	-11.1659
在路上	-11.1661
脱敏	-11.1663
丢了	-11.1664
不被理解	-11.1664
废	-11.1666
个人认为	-11.1666
取悦	-11.1666
没有找到	-11.1666
不足以	-11.1667
女主	-11.1668
预防	-11.1668
扣	-11.1668
抽烟	-11.1668
网恋	-11.167
或其他	-11.1671
咨访关系	-11.1671
给不了	-11.1671
哭了	-11.1671
思维方式	-11.1673
自我暗示	-11.1674
有没有什么	-11.1674
因为它	-11.1677
希望我的回答能对你有所帮助	-11.1677
爸	-11.1677
动摇	-11.1679
我们可以从	-11.168
精神疾病	-11.1686
还有一点	-11.1688
这也是一种	-11.1688
是否还	-11.1691
美满	-11.1692
曾经有过	-11.1692
之道	-11.1693
都不知道	-11.1694
如你所说	-11.1694
拿出来	-11.1705
和担忧	-11.1707
很常见	-11.1709
压迫	-11.1709
晚上好	-11.171
相伴	-11.1711
信任和	-11.1711
贯	-11.1712
吻	-11.1714
蒙	-11.1714
颜值	-11.1715
审美	-11.1716
峰	-11.1717
象征	-11.1717
我觉得我	-11.1718
在于你	-11.1718
分寸	-11.172
维护自己的	-11.1721
指望	-11.1723
开导	-11.1724
数据	-11.1724
在你看来	-11.1727
多看看	-11.1728
短短	-11.1729
退让	-11.1731
就成了	-11.1734
不知道该	-11.1737
发生改变	-11.1739
很迷茫	-11.1745
你还没有	-11.1746
状	-11.1747
很快就	-11.1748
和女友	-11.1749
把他们	-11.1752
转向	-11.1752
那么你可以	-11.1754
下属	-11.1754
童	-11.1755
考虑问题	-11.1755
感情上	-11.1757
面临的问题	-11.1757
炸	-11.1762
第一种	-11.1762
和目标	-11.1763
但是我们可以	-11.1763
碗	-11.1764
对家人	-11.1764
燃	-11.1764
遇上	-11.1764
结婚生子	-11.1765
去学校	-11.1766
眼界	-11.1766
看不惯	-11.1767
透露	-11.1768
别人的感受	-11.1768
警察	-11.1768
你女朋友	-11.1773
可控	-11.1773
能够帮助你	-11.1775
当对方	-11.1777
的梦想	-11.1777
对楼主的	-11.1778
生出	-11.178
有一点点	-11.1781
原有的	-11.1781
~※	-11.1781
国外	-11.1784
小小	-11.1785
我的回答	-11.1786
自然而然的	-11.1786
只能是	-11.1788
做出决定	-11.1789
有道理	-11.1793
爱情是	-11.1793
不要总是	-11.1795
任何事情	-11.1798
私下	-11.1799
做梦	-11.1799
进化	-11.18
如何应对	-11.1801
坦诚地	-11.1803
不曾	-11.1809
一直是	-11.1809
的表达方式	-11.1811
急躁	-11.1814
无法自拔	-11.1814
羞	-11.1815
的小事	-11.1815
债	-11.1816
购买	-11.1818
占有	-11.1818
修炼	-11.1819
想得	-11.1819
是有限的	-11.1832
越来越大	-11.1833
所以你要	-11.1834
去对待	-11.1836
去争取	-11.1836
评价自己	-11.1836
根本就	-11.1837
分享一下	-11.1839
可行	-11.1844
执	-11.1844
引导孩子	-11.1847
老大	-11.1849
充电	-11.1852
不管怎样	-11.1853
自己的情感	-11.1854
看了你的	-11.1854
影响到你的	-11.1856
不要觉得	-11.1857
父母对你的	-11.1858
也算是	-11.186
骚	-11.1861
有些问题	-11.1862
昏	-11.1862
与男友	-11.1862
更远	-11.1862
老师说	-11.1866
摸索	-11.1867
;2.	-11.1867
供你参考	-11.1868
把握好	-11.1869
喔	-11.187
偶像	-11.1871
普通朋友	-11.1871
穿着	-11.1873
三善	-11.1874
静静	-11.1877
控制情绪	-11.1879
无可	-11.1886
住在一起	-11.1886
控制自己的情绪	-11.1889
暗示自己	-11.189
的辛苦	-11.1891
解除	-11.1892
理解他	-11.1892
对你的爱	-11.1896
对你产生	-11.1896
要做到	-11.1898
贴标签	-11.1898
和安全感	-11.1899
的节奏	-11.1906
块钱	-11.1906
能给你带来	-11.1907
学习压力	-11.191
有力	-11.1914
噩梦	-11.1916
实际行动	-11.1916
待人	-11.1917
拼搏	-11.1917
理解和支持	-11.1918
怕别人	-11.1918
你依然	-11.1922
族	-11.1923
应该如何	-11.1924
走神	-11.1931
有想法	-11.1934
感受呢	-11.1936
精力去	-11.1937
需要做的	-11.1939
看看他	-11.194
和信任	-11.194
像一个	-11.194
严重影响	-11.1942
这个女生	-11.1945
有不少	-11.1949
为了孩子	-11.1951
学习状态	-11.1952
拿着	-11.1953
舍	-11.1955
不一定要	-11.1957
渴望被	-11.1958
※	-11.196
北京	-11.1962
瓜	-11.1962
娶	-11.1962
学习和生活	-11.1963
规矩	-11.1965
还不能	-11.1965
男的	-11.1968
丢脸	-11.1968
佳	-11.1969
高一	-11.197
可以问问	-11.1971
厌学	-11.1973
给您一个温暖的抱抱	-11.1973
单方面	-11.1974
祝你好运	-11.1976
我和世界爱着你	-11.1976
学生时代	-11.1978
交心	-11.1978
都放在	-11.1979
年前	-11.1979
有空	-11.1981
完全是	-11.1981
通过一些	-11.1984
的画面	-11.1985
感到痛苦	-11.1987
的心思	-11.199
正向的	-11.1992
一生中	-11.1993
做起来	-11.1995
就不会再	-11.1997
究竟是	-11.1997
的礼物	-11.1998
道德感	-11.2004
羞辱	-11.201
订	-11.201
娃	-11.2012
密切	-11.2014
疯	-11.2015
一瞬间	-11.2015
篮	-11.2015
无论怎样	-11.2017
风景	-11.2017
作为孩子	-11.2018
教练	-11.2018
个人感觉	-11.2018
缓冲	-11.2019
绝对化	-11.202
开开心心	-11.202
自己独立	-11.2023
不要担心	-11.2024
鉴于	-11.2028
能做的就是	-11.2029
最基本的	-11.203
那么楼主	-11.2032
自己的意愿	-11.2033
触	-11.2035
已经长大	-11.2035
增加了	-11.2035
上心	-11.2035
把时间	-11.2036
同居	-11.2037
你对她的	-11.2038
又不是	-11.2038
一些事	-11.2039
您说的	-11.204
这条	-11.204
坚守	-11.2041
我了解到	-11.2041
你觉得呢	-11.2042
去医院检查	-11.2046
更高的	-11.2047
上来说	-11.2048
更进一步	-11.2052
感谢你	-11.2055
选项	-11.2057
送给	-11.2063
延伸	-11.2063
弱势	-11.2063
的技巧	-11.2064
O	-11.2065
陈述	-11.2065
签	-11.2065
捉	-11.2066
头上	-11.2066
迟早	-11.2067
无数次	-11.2068
平安	-11.2069
相处的时候	-11.2071
特定的	-11.2073
比较严重	-11.2074
打败	-11.2081
的成就	-11.2081
想和你	-11.2086
在当下	-11.2087
无常	-11.2087
心力	-11.2088
依恋关系	-11.2089
的苦	-11.2092
世俗	-11.2098
亲生	-11.2099
最高	-11.2102
你对她	-11.2104
更要	-11.2104
有助于你	-11.2105
我想要	-11.2106
迁	-11.2107
患有	-11.2107
心理障碍	-11.2114
污	-11.2114
谴责	-11.2115
珍	-11.2116
叔叔	-11.2117
分裂	-11.2118
谅解	-11.2118
骑	-11.2119
游泳	-11.2119
家境	-11.2121
重度抑郁	-11.2123
没有其他	-11.2127
脸上	-11.2127
的一些想法	-11.2129
需要注意	-11.2129
所想	-11.213
内疚感	-11.2134
琐碎	-11.2138
不和谐	-11.2139
的那一刻	-11.214
关心自己	-11.2141
多余的	-11.2143
对你的看法	-11.2148
在工作上	-11.215
人都有	-11.2153
早晚	-11.2155
那是因为	-11.2157
条路	-11.2157
以后再	-11.2159
压抑的情绪	-11.2159
或许是因为	-11.2161
我们可以通过	-11.2163
是有原因的	-11.2164
敬	-11.2165
弊	-11.2165
局面	-11.2166
狼	-11.2166
升华	-11.2166
小家庭	-11.2167
稀	-11.2167
把你当	-11.2167
甩	-11.2167
短板	-11.2168
摊	-11.2168
抖音	-11.2169
只有一个	-11.2172
观察一下	-11.2173
你和她	-11.2174
看清楚	-11.2174
指引	-11.2175
如意	-11.2176
周期	-11.2176
的局面	-11.2177
就是最好的	-11.2177
付出了很多	-11.2178
父母的爱	-11.2178
何不	-11.2179
也是很正常的	-11.2181
理想化	-11.2186
那些人	-11.2188
输出	-11.2191
非常能理解	-11.2191
很伤心	-11.2192
越容易	-11.2192
离异	-11.2195
也很好	-11.2196
处理事情	-11.2197
适度的	-11.2199
往前	-11.2202
先要	-11.2204
自我攻击	-11.2207
的到来	-11.2207
让大家	-11.2209
让自己开心	-11.2209
为什么会有	-11.221
会有一种	-11.2211
邀请你	-11.2212
有没有想过	-11.2215
高低	-11.2216
描	-11.2217
尝试着去	-11.2217
尼	-11.2217
g	-11.2217
喜欢对方	-11.2218
拒	-11.2218
多数人	-11.2219
更难	-11.2219
k	-11.2219
柔软	-11.2221
和方法	-11.2223
这对于	-11.2223
旅程	-11.2224
节目	-11.2225
的方案	-11.2226
倾述	-11.2227
开阔	-11.2227
就算你	-11.2228
前景	-11.2228
行动上	-11.2229
自己的成长	-11.2229
缓慢	-11.2229
理会	-11.2233
人与人之间的	-11.2233
说教	-11.224
头脑中	-11.2242
要不然	-11.2242
那么我们就	-11.2242
让自己的生活	-11.2244
之人	-11.2245
都是因为	-11.2247
从你描述	-11.225
也确实	-11.2252
也正是	-11.2256
来往	-11.2256
敌人	-11.2258
有成就感	-11.226
提升自我	-11.226
希望你们	-11.2261
也是为了	-11.2262
躺	-11.2262
你的工作	-11.2262
而是在	-11.2262
调整好自己	-11.2263
多运动	-11.2264
模	-11.2265
懂你	-11.2267
引发了	-11.2268
讯	-11.2269
说服自己	-11.227
懊悔	-11.227
呐	-11.2271
做错事	-11.2271
壳	-11.2272
发达	-11.2274
暑假	-11.2274
婚姻里	-11.2274
我只能	-11.2277
工作生活	-11.2278
自体	-11.2279
改变一下	-11.2283
感受到了你	-11.2285
和无奈	-11.2287
来满足	-11.2287
60	-11.2287
对亲密关系	-11.2291
没有人能	-11.2292
出去走走	-11.2294
必有	-11.2294
我爱你	-11.2296
踏出	-11.2296
对别人的	-11.2296
中午	-11.2298
这背后	-11.2299
但楼主	-11.2305
善待	-11.2305
更强	-11.2306
解决的办法	-11.2306
考证	-11.2307
互补	-11.2308
床上	-11.2309
简历	-11.232
疲	-11.2321
恼	-11.2322
你觉得你	-11.2322
缝	-11.2323
泛	-11.2323
消失了	-11.2324
心理疏导	-11.2324
抄	-11.2325
碰撞	-11.2325
艰辛	-11.2325
”——	-11.2326
婚恋	-11.2327
随着时间的推移	-11.2327
原理	-11.233
心理层面	-11.2331
已经发生了	-11.2331
不在于	-11.2335
完美的人	-11.2335
心理创伤	-11.2335
体现在	-11.2336
和期待	-11.2337
围	-11.2341
分离焦虑	-11.2342
你的女朋友	-11.2342
社会支持	-11.2342
你是怎么	-11.2343
心理方面	-11.2344
很厉害	-11.2344
同时也要	-11.2348
你要明白	-11.2351
绝大多数	-11.2351
做什么都	-11.2352
这个工作	-11.2353
的负担	-11.2356
爱孩子	-11.2358
共情能力	-11.2359
心理能量	-11.2364
我们能做的	-11.2368
现在的工作	-11.2371
一眼	-11.2372
有能力去	-11.2372
状态不好	-11.2373
第六	-11.2373
大小	-11.2373
每日	-11.2373
伸	-11.2374
那就要	-11.2374
洋	-11.2375
防备	-11.2375
竭	-11.2375
领悟	-11.2376
扶	-11.2376
季	-11.2376
很困难	-11.2378
有好处	-11.2379
笃定	-11.2379
很舒服	-11.2379
打个	-11.2379
别人对你的	-11.238
挂科	-11.2381
时间内	-11.2381
半夜	-11.2381
成绩不好	-11.2385
开心快乐	-11.2385
那句话	-11.2385
独立性	-11.2387
对自己的看法	-11.239
本性	-11.2395
不小的	-11.2396
工作内容	-11.2396
情绪反应	-11.2397
哪儿	-11.24
视为	-11.2401
句话	-11.2405
走出困境	-11.2405
种子	-11.2406
毕竟我们	-11.2407
多了解	-11.2409
做这件事	-11.2409
最亲近的人	-11.2413
默默的	-11.2415
你知道吗	-11.2416
离开他	-11.2419
谈谈心	-11.242
协	-11.2421
别人的想法	-11.2422
是不可能的	-11.2425
幼年	-11.2428
境界	-11.2429
考虑清楚	-11.243
几个小建议	-11.2431
莫名其妙	-11.2433
立即	-11.2434
自己想要什么	-11.2435
修养	-11.2436
场所	-11.2436
的灵魂	-11.2437
的热情	-11.2438
会怎么样	-11.2438
要比	-11.2438
做成	-11.2438
如果一直	-11.2439
说了算	-11.244
认真思考	-11.2443
相处过程中	-11.2443
和他一起	-11.2444
片面	-11.2452
情感需求	-11.2454
攻击自己	-11.2457
找朋友	-11.2457
花了	-11.2458
此事	-11.2458
建立自己的	-11.2458
谈了	-11.2459
情绪上的	-11.2462
没有信心	-11.2464
个小时	-11.2466
的真相	-11.2467
最好的选择	-11.2468
让他知道	-11.247
的相处中	-11.247
自己的焦虑	-11.247
他们之间	-11.247
超出了	-11.2479
打乱	-11.2479
自暴自弃	-11.248
奥	-11.2481
惧怕	-11.2481
的魅力	-11.2482
侧面	-11.2482
涩	-11.2483
你的这种	-11.2484
癖	-11.2485
拳	-11.2485
给他人	-11.2486
这么久	-11.2489
不能完全	-11.2489
把别人	-11.249
上级	-11.249
自己的边界	-11.2491
的情感需求	-11.2491
的自尊	-11.2494
考不上	-11.2495
亲密的人	-11.2498
是否存在	-11.25
很多事情都	-11.25
早日摆脱	-11.2501
瘾	-11.2502
已经过去了	-11.2505
想的那么	-11.2506
好看的	-11.2506
弱点	-11.251
这一生	-11.2516
和价值	-11.2516
很矛盾	-11.2517
表明你	-11.2521
去参加	-11.2522
看看书	-11.2525
也未必	-11.2526
......”	-11.253
纵	-11.2531
怎么处理	-11.2531
给自己一点	-11.2532
虚伪	-11.2532
铺	-11.2532
可想而知	-11.2532
窒息	-11.2533
迷恋	-11.2533
躁	-11.2534
有很好的	-11.2535
悄悄	-11.2536
不可否认	-11.2537
守护	-11.2537
答复	-11.2538
看到的是	-11.2541
最适合	-11.2542
这个平台	-11.2543
可以避免	-11.2544
顺应	-11.2544
去寻求	-11.2545
听听音乐	-11.2546
小事情	-11.255
祝题主	-11.255
原生家庭中	-11.2551
没有价值	-11.2552
平时多	-11.2554
参	-11.2555
买东西	-11.2556
并不是一个	-11.2557
期望值	-11.2557
取向	-11.2557
可以尝试一下	-11.2558
能感觉到你	-11.2559
境遇	-11.256
而活	-11.2561
我们可以试着	-11.2563
用一种	-11.2565
母爱	-11.2566
去应对	-11.2567
的音乐	-11.2567
别的事情	-11.2568
更严重	-11.2568
心平气和的	-11.2569
理解了	-11.257
一对	-11.2572
大三	-11.2573
楼主可以尝试	-11.2574
跟我说	-11.2577
29	-11.2578
探究	-11.2578
一个成年人	-11.2579
律	-11.2581
情形	-11.2581
你一定会	-11.2582
既有	-11.2585
饰	-11.2586
粉	-11.2587
有利的	-11.2587
牢固	-11.2587
职业生涯	-11.2588
觉得自己不够好	-11.2589
夸赞	-11.2589
批	-11.2589
找咨询师	-11.259
这就需要	-11.259
衰	-11.2591
逢	-11.2591
点个赞	-11.2591
那天	-11.2592
书本	-11.2593
每一步	-11.2594
把精力	-11.2596
学会拒绝	-11.2596
每件事	-11.2596
愿不愿意	-11.2596
变故	-11.2596
放宽心	-11.2597
繁	-11.2597
我们才能	-11.2599
去体会	-11.2599
文学	-11.2602
亲亲	-11.2603
逼自己	-11.2605
独立生活	-11.2608
一直处于	-11.261
的时代	-11.2611
潜在	-11.2613
耍	-11.2616
妨碍	-11.2619
任何事情都	-11.262
我们一起来	-11.2621
专业的咨询师	-11.2622
原生家庭的影响	-11.2625
两难	-11.2625
大家都是	-11.2626
表达情绪	-11.2635
每一种	-11.2636
的痛苦和	-11.2637
适时	-11.2639
我们自身	-11.264
捡	-11.264
期盼	-11.2642
功夫	-11.2643
矫情	-11.2644
争论	-11.2645
产品	-11.2645
相亲对象	-11.2647
户外	-11.2647
热闹	-11.2648
服用	-11.2649
下午	-11.265
就不会有	-11.2651
自己的底线	-11.2653
图书馆	-11.2655
问答	-11.2658
自己的长处	-11.266
机遇	-11.2661
不太清楚	-11.2661
任何一个人	-11.2662
各有	-11.2664
可以思考一下	-11.2665
生活费	-11.2667
正常的现象	-11.2669
不愿意去	-11.267
日常生活中	-11.2671
自卑心理	-11.2675
走上	-11.2676
存在于	-11.2679
去觉察	-11.2679
多多地	-11.2679
自己的身上	-11.2679
去解决问题	-11.2681
宜	-11.2682
的时间里	-11.2691
做的很好	-11.2691
保持着	-11.2691
租	-11.2691
饮	-11.2692
郁	-11.2694
身高	-11.2694
冠	-11.2694
环节	-11.2694
掌	-11.2695
你的故事	-11.2695
<<	-11.2695
你也不会	-11.2696
这个事	-11.2696
豆	-11.2697
症结	-11.2697
犯罪	-11.2698
姑	-11.2699
保密	-11.2701
做自己喜欢的事	-11.2701
在这段	-11.2701
非常能够理解	-11.2702
根本原因	-11.2704
在成长的过程中	-11.2709
真的喜欢	-11.271
好的结果	-11.2712
一体	-11.2713
空闲	-11.2714
把它们	-11.2714
习惯性的	-11.2715
去问	-11.2715
多参加	-11.2716
这种模式	-11.2717
和认可	-11.2718
最好的办法	-11.2718
到医院	-11.2719
帮助他们	-11.2721
已经过去	-11.2723
又怎么	-11.2724
不善	-11.2725
制定一个	-11.2726
控制感	-11.2731
这一部分	-11.2735
去接触	-11.2737
其他同学	-11.2737
找到原因	-11.2739
的转变	-11.274
可以做一些	-11.2744
屈	-11.2747
孤僻	-11.2748
顺序	-11.2748
居然	-11.2749
探索自己	-11.2749
无心	-11.2749
别人的认可	-11.275
兼顾	-11.2752
有耐心	-11.2753
万物	-11.2758
天空	-11.2759
这几年	-11.2761
全是	-11.2763
我心里	-11.2764
我在这里	-11.2764
对方的感受	-11.2765
一回	-11.2768
已经发生	-11.2768
任何人都	-11.2771
好好想想	-11.2771
等情绪	-11.2775
不敢去	-11.2776
带给我们	-11.2777
沟通和交流	-11.2777
也会觉得	-11.2779
下意识的	-11.2779
的场合	-11.278
的思维模式	-11.2781
第一反应	-11.2782
你完全可以	-11.2782
您现在	-11.2783
适应环境	-11.2783
一点都不	-11.2784
时间和空间	-11.2785
这件	-11.2789
就不用	-11.279
在同一个	-11.2793
孕	-11.2795
疗愈自己	-11.2797
你们现在	-11.2797
我说的	-11.2798
侮辱	-11.2801
什么事都	-11.2801
腰	-11.2801
可以理解为	-11.2802
方式方法	-11.2802
映	-11.2804
颗	-11.2804
陆	-11.2804
这个时间	-11.2804
鸡汤	-11.2804
授	-11.2804
筛选	-11.2805
与其说	-11.2805
席	-11.2806
英雄	-11.2806
炼	-11.2807
断绝	-11.2808
看你的描述	-11.2808
想问	-11.2809
数字	-11.281
欣慰	-11.2811
的顾虑	-11.2812
问题分析	-11.2813
本事	-11.2814
不爱我	-11.2817
这样下去	-11.2818
是有价值的	-11.2819
想死	-11.2819
生命的意义	-11.282
老了	-11.2822
社交圈	-11.2825
落后	-11.2825
的境地	-11.2828
如果是因为	-11.2828
与外界	-11.283
你俩	-11.2832
强迫行为	-11.2833
可以帮到你	-11.2833
自己的朋友	-11.2836
原谅自己	-11.284
不相信自己	-11.2842
老家	-11.2844
你们关系	-11.2847
说到底	-11.2849
有类似	-11.285
妄想	-11.2851
过程当中	-11.2851
说明楼主	-11.2851
扫	-11.2852
应该做的	-11.2853
希望他们	-11.2854
这说明你	-11.2855
越想	-11.2855
的回复	-11.2857
对过去	-11.2857
失衡	-11.2857
赌博	-11.2857
猛	-11.2859
但不能	-11.2859
单单	-11.286
我觉得题主	-11.2861
港	-11.2861
发生性关系	-11.2862
跳舞	-11.2866
夜晚	-11.2866
格外	-11.2866
以一种	-11.2867
有观察到楼主	-11.2867
分心	-11.2868
的隐私	-11.287
在描述中	-11.287
淡化	-11.287
从您的描述中	-11.287
生命力	-11.2873
也容易	-11.2873
想想看	-11.2873
的结局	-11.2875
主动权	-11.288
头痛	-11.2881
一个女生	-11.2885
嫁给	-11.2886
生理上的	-11.2888
要及时	-11.289
想象的那么	-11.2891
非常棒	-11.2893
让你产生	-11.2893
自己的错误	-11.2895
不敢表达	-11.2895
该做的	-11.2895
有很强的	-11.2898
陪伴着	-11.2898
的心意	-11.2899
不匹配	-11.2899
不太喜欢	-11.2902
又是什么	-11.2902
依然会	-11.2902
来说都是	-11.2904
也可以找	-11.2905
选择性	-11.2907
更多是	-11.291
腾	-11.291
冒犯	-11.2911
涨	-11.2912
总感觉	-11.2916
我们必须	-11.2917
偏激	-11.2917
应该怎么做	-11.2917
副作用	-11.2919
憋在心里	-11.2919
方面的问题	-11.292
丢失	-11.292
是一名	-11.2921
所需要的	-11.2922
一直都是	-11.2923
对视	-11.2923
你可以试试	-11.2925
Karen	-11.2927
希望我的回答可以帮助到你	-11.2927
对你的评价	-11.2928
偏向	-11.2929
进行调整	-11.2934
生涯	-11.2937
的手段	-11.2938
感受到自己	-11.2938
活出自己	-11.2938
把这件事	-11.2939
的情绪反应	-11.294
能够让你	-11.2941
你是一个很	-11.2943
不会轻易	-11.2944
造成伤害	-11.2945
培养自己的	-11.2945
赖	-11.2945
心累	-11.2945
良性	-11.2945
明智	-11.2946
治疗师	-11.295
和评价	-11.2951
可以缓解	-11.2951
几十	-11.2952
首先你要	-11.2957
不理解你	-11.2958
意味	-11.2959
惩罚自己	-11.296
做真实的自己	-11.2962
看见你	-11.2962
真正地	-11.2963
现实中的	-11.2964
这样一种	-11.2965
羊	-11.2968
没有勇气	-11.2969
减弱	-11.2971
正规的	-11.2972
覆	-11.2972
你还会	-11.2972
收费	-11.2973
温馨	-11.2974
诚意	-11.2974
挑选	-11.2974
试过	-11.2974
情绪稳定	-11.2977
什么样子	-11.2978
而是因为	-11.2978
简直	-11.2979
找他	-11.298
专业知识	-11.298
自己的爱好	-11.298
不得不说	-11.2984
好吃的	-11.2984
他们的想法	-11.2987
正当	-11.2987
经历有关	-11.2988
打球	-11.2988
满足自己的	-11.2988
亲密的关系	-11.2997
----	-11.2997
你要学会	-11.3003
有句话说	-11.3007
交流沟通	-11.301
潜能	-11.3013
这是非常	-11.3013
去承担	-11.3014
偏偏	-11.3015
好好生活	-11.3015
常说	-11.3016
你的原生家庭	-11.3019
内心的声音	-11.3021
概括	-11.3023
截	-11.3025
拜	-11.3026
给与	-11.3027
无形的	-11.3027
刚才	-11.3027
撩	-11.3029
方方面面	-11.3029
从楼主的描述中	-11.3031
刘	-11.3032
苦闷	-11.3033
准则	-11.3034
大哭	-11.3035
我们往往	-11.3035
共勉	-11.3037
返	-11.304
上帝	-11.304
安慰自己	-11.304
我也有过	-11.3043
你的性格	-11.3044
坚	-11.3049
在家庭中	-11.3053
刚毕业	-11.3055
麻烦别人	-11.3057
又不想	-11.3058
亲密感	-11.3059
的难处	-11.306
很多人都会有	-11.3061
很难改变	-11.3065
可以感受到你的	-11.3065
也许你会	-11.3066
就诊	-11.3068
根本没有	-11.3072
人体	-11.3073
知己	-11.3077
父爱	-11.3078
可能还会	-11.3079
乏味	-11.308
导致我们	-11.3081
还记得	-11.3082
的几率	-11.3083
倦怠	-11.3083
欢乐	-11.3084
很遗憾	-11.3085
网站	-11.3085
做的好	-11.3085
耳朵	-11.3085
亏欠	-11.3086
试想一下	-11.3086
兰	-11.3086
有目标	-11.3088
我想告诉你	-11.309
分享给你	-11.3091
给你一个拥抱	-11.3092
这段经历	-11.3094
就会越来越	-11.3097
吸引你	-11.3097
住校	-11.3099
所经历的	-11.31
你的担心	-11.3101
另外一方面	-11.3102
这样的生活	-11.3104
娘家	-11.3104
就好比	-11.3104
进行一些	-11.3113
足够的安全感	-11.3115
不放弃	-11.3117
继续努力	-11.3119
受影响	-11.3121
进入到	-11.3122
联系方式	-11.3122
调和	-11.3125
紧张焦虑	-11.3126
并不可怕	-11.3126
活着的意义	-11.3127
予	-11.3128
采	-11.3128
这样的经历	-11.3129
抱歉	-11.3132
面上	-11.3133
漂	-11.3138
龙	-11.3138
三件事	-11.3138
我们常常	-11.314
结识	-11.3141
历程	-11.3142
暴饮暴食	-11.3142
迈出第一步	-11.3144
可能会觉得	-11.3144
的投射	-11.3145
保持一个	-11.3146
开展	-11.3146
晋升	-11.3146
开心的事	-11.3146
推荐一本书	-11.3148
很多年	-11.3149
已经成为	-11.315
问过	-11.3152
圆满	-11.3154
一定不要	-11.3156
和室友	-11.3161
可贵	-11.3162
增添	-11.3164
会给你带来	-11.3166
分清楚	-11.3166
辩	-11.3167
完善自己	-11.317
特别喜欢	-11.3171
加之	-11.3175
越发	-11.3175
七年	-11.3177
多交流	-11.3179
无限的	-11.3181
似的	-11.3184
类似的情况	-11.3185
受损	-11.3185
性需求	-11.3186
太重	-11.3187
给自己制定	-11.319
我的理解	-11.3193
又有什么	-11.3193
确实需要	-11.3193
功利	-11.3196
喜欢吃	-11.3196
报告	-11.3196
超级	-11.3197
姨	-11.3197
懊恼	-11.3197
战斗	-11.3197
退一步	-11.3198
捏	-11.3198
的消息	-11.3198
无情	-11.3198
专升本	-11.3199
解压	-11.3202
梦境	-11.3203
一想到	-11.3207
在表达	-11.3208
的情形	-11.3209
的事儿	-11.321
做不了	-11.321
回答问题	-11.3213
无条件的爱	-11.3219
青春期的孩子	-11.3224
要做好	-11.3226
渐渐的	-11.3227
你觉得他	-11.3228
想要的是什么	-11.3229
在学校里	-11.3229
无疑	-11.323
阅	-11.323
是怎样的呢	-11.323
不管怎么样	-11.3232
打开自己	-11.3233
被打	-11.3234
候	-11.324
不说话	-11.3241
唤起	-11.3243
你提到的	-11.3244
公共	-11.3244
有利	-11.3245
足够好	-11.3249
存在的意义	-11.3249
箱	-11.325
残	-11.3251
至关重要	-11.3251
而是我们	-11.3251
恐	-11.3251
粗暴	-11.3252
舍弃	-11.3253
罪恶感	-11.3254
跳槽	-11.3255
虫	-11.3255
瓶颈	-11.3255
收集	-11.3255
叨	-11.3256
自制力	-11.3256
考上了	-11.3256
生产	-11.3259
看看是否	-11.326
任由	-11.3262
来帮助你	-11.3263
高中的时候	-11.3263
跟他说	-11.3265
最好的方法	-11.3266
初心	-11.3267
过得好	-11.3267
太难	-11.3269
坏了	-11.3269
说谎	-11.3269
责任心	-11.3272
也不错	-11.3275
对这件事	-11.3276
倾诉一下	-11.3277
希望孩子	-11.3277
成长的过程	-11.3277
很讨厌	-11.3279
不放	-11.328
是一件非常	-11.328
心中有	-11.3281
一笑	-11.3282
际	-11.3286
关系模式	-11.3287
自己的需要	-11.3287
这些感受	-11.3291
第三者	-11.3292
也没有办法	-11.3296
深入了解	-11.33
财	-11.3301
说不出	-11.3306
这一段	-11.3306
传播	-11.3308
瞒	-11.3311
积攒	-11.3312
出发点	-11.3313
自己的思维	-11.3313
胆怯	-11.3314
志同道合的朋友	-11.3314
雪	-11.3314
制止	-11.3314
比例	-11.3315
熊	-11.3316
相对于	-11.3318
调解	-11.3319
三天	-11.332
考好	-11.332
试错	-11.3321
认真看完你的倾诉	-11.3323
产生一种	-11.3324
升学	-11.3324
意识不到	-11.3324
多些	-11.3325
不知道怎么办	-11.3326
研	-11.3326
写信	-11.3328
熬过	-11.3328
深陷	-11.3332
对自己负责	-11.3333
楼主内心的	-11.3333
问题的根源	-11.3334
被欺负	-11.3334
想做的	-11.3336
积极主动	-11.3336
当天	-11.3338
对他来说	-11.3339
脾气暴躁	-11.3339
从题主的	-11.3339
居住	-11.334
让他人	-11.334
底层	-11.3343
因为每个人	-11.3344
启	-11.335
天地	-11.335
与父亲	-11.335
心理因素	-11.3351
安慰你	-11.3357
接受它	-11.3358
监	-11.3358
多点	-11.3361
题主目前	-11.3362
回来了	-11.3364
眠	-11.3364
身体里	-11.3364
挣脱	-11.3365
滚	-11.3366
更多的时间	-11.3367
净	-11.3368
二者	-11.3368
组建	-11.3368
沉淀	-11.3368
虚拟	-11.3369
谦虚	-11.337
强加	-11.337
较少	-11.3372
的恋情	-11.3372
诱发	-11.3374
最容易	-11.3376
性子	-11.3377
教养	-11.3377
烦心事	-11.3378
之类	-11.338
数量	-11.338
是相互的	-11.3384
被老师	-11.3386
一次次的	-11.3388
跟不上	-11.3389
再怎么	-11.339
我们之所以	-11.339
的眼神	-11.3391
为什么不能	-11.3391
全都	-11.3393
百度	-11.3394
会影响我们	-11.3394
有个人	-11.3394
很重	-11.3402
会引发	-11.3406
是很正常的事情	-11.3407
热心	-11.3408
这个行业	-11.3414
祝楼主	-11.3415
最初的	-11.3417
在日常	-11.3418
祝愿你	-11.3422
仔细想想	-11.3424
仰	-11.3425
不好的情绪	-11.3425
非常痛苦	-11.3426
这种痛苦	-11.3426
E	-11.3427
参照	-11.3427
船	-11.3428
在不同的	-11.343
欣赏你	-11.343
在婚姻中	-11.343
非常理解你	-11.343
不听话	-11.3433
被批评	-11.3437
强迫思维	-11.3439
抖	-11.344
帮助他人	-11.3444
班里	-11.3444
来分析	-11.3445
楼主目前	-11.3446
流行	-11.3446
的局限	-11.3447
带入	-11.3449
一堆	-11.345
就有可能	-11.345
一个家庭	-11.3451
可能会让你	-11.3452
三个人	-11.3452
以致	-11.3456
这也是你	-11.3456
看见自己	-11.3456
考虑过	-11.3457
回想起	-11.3458
的必要	-11.346
考不好	-11.3462
欣赏自己	-11.3463
遇到什么	-11.3464
一部	-11.3465
听取	-11.3468
你很想	-11.3469
所学	-11.3469
这一切都	-11.3472
是值得被爱的	-11.3475
承受着	-11.348
开头	-11.3481
财务	-11.3483
颜	-11.3483
媒体	-11.3484
好意	-11.3486
荷尔蒙	-11.3487
奶茶	-11.3488
乃至	-11.3488
拨	-11.3488
调查	-11.3489
流露	-11.349
也可能会	-11.3492
隔着屏幕	-11.3494
是什么样子的	-11.3494
能改变的	-11.3494
去看看心理医生	-11.3498
竞争力	-11.3499
不要把自己	-11.35
和别人交流	-11.3501
变成一个	-11.3506
源头	-11.3507
别人的眼光	-11.351
其实并不	-11.351
提升自己的能力	-11.3511
的结论	-11.3513
很让人	-11.3513
每天都在	-11.3514
有错	-11.3515
仅仅只是	-11.3515
的情境	-11.3518
比较低	-11.3521
的性格特点	-11.3522
不知道你们	-11.3524
留下来	-11.3524
并非是	-11.3526
的角度来说	-11.3527
来决定	-11.3527
美好的事情	-11.3527
就必须	-11.3527
喜不喜欢	-11.3528
一下子就	-11.353
自己和他人	-11.353
承	-11.3532
认真对待	-11.3533
普	-11.3533
不方便	-11.3535
互相尊重	-11.3535
这个环境	-11.3537
妙	-11.3538
比较大的	-11.354
讨厌的人	-11.3541
绳	-11.3541
危	-11.3541
分享一下我	-11.3542
I	-11.3542
表象	-11.3542
纯洁	-11.3542
窝	-11.3543
剖析	-11.3545
研究表明	-11.3546
早恋	-11.3547
某件事情	-11.3547
又不能	-11.3548
说一句	-11.3549
很受伤	-11.3552
命令	-11.3552
用语言	-11.3554
进取	-11.3554
看完了你的叙述	-11.3556
也有自己的	-11.3557
自救	-11.3559
不公	-11.356
咨询关系	-11.3562
这些年	-11.3567
推开	-11.3568
什么地方	-11.3572
———	-11.3579
把手	-11.3579
为中心	-11.3579
快要	-11.3582
万事	-11.3584
请相信	-11.3589
离开家	-11.3593
只要你愿意	-11.3595
22	-11.3596
很复杂	-11.3596
用力	-11.3596
侧	-11.3597
别人身上	-11.3597
享	-11.3598
一见钟情	-11.3599
只知道	-11.3599
腔	-11.36
和弟弟	-11.3601
癌症	-11.3602
遭	-11.3603
摘	-11.3603
悬	-11.3604
从根本上	-11.3606
智力	-11.3606
正确认识	-11.3609
迎刃而解	-11.3609
噪音	-11.3611
很多人都会	-11.3612
没啥	-11.3612
那你可以	-11.3614
依然是	-11.3615
祝你生活愉快	-11.3615
很大一部分	-11.3617
从业	-11.3617
某一天	-11.3617
渐	-11.3618
所影响	-11.3618
的成分	-11.3619
存在一些	-11.3621
安定	-11.3621
姿态	-11.3622
眼下	-11.3622
多接触	-11.3624
和前任	-11.3627
26	-11.363
需要你去	-11.363
养育孩子	-11.3635
不要太过	-11.3637
两面	-11.3638
不分	-11.3641
来判断	-11.3641
过去的自己	-11.3642
对这段感情	-11.3652
?1、	-11.3655
细细	-11.3657
v	-11.3658
孔	-11.3659
那我们就	-11.366
臭	-11.3661
馆	-11.3662
兄弟姐妹	-11.3663
村	-11.3663
迷惑	-11.3664
固执	-11.3664
🤩	-11.3666
越来越少	-11.3667
不太一样	-11.3668
好玩	-11.3673
性关系	-11.3675
温度	-11.3676
件事	-11.3677
天然	-11.3677
以上是我的分析和建议	-11.3679
不能解决	-11.3681
不必要	-11.3681
也有过	-11.3682
非常大	-11.3684
太累了	-11.3684
学姐	-11.3687
有好的	-11.369
回避型依恋	-11.3691
要强	-11.3695
人和事	-11.3698
很可能是	-11.37
不健康的	-11.3706
更换	-11.3715
得到什么	-11.3716
事务	-11.3716
有人喜欢	-11.3716
内心的需求	-11.3716
大大的拥抱	-11.3716
辱骂	-11.3719
自己想要的生活	-11.3723
润	-11.3723
全盘	-11.3724
堆积	-11.3725
欺凌	-11.3725
多想想	-11.3728
提出分手	-11.3729
入职	-11.3729
这个结果	-11.3729
的前提是	-11.373
宁	-11.3733
隐藏着	-11.3733
耻	-11.374
闹矛盾	-11.374
优点和缺点	-11.3741
有病	-11.3745
何时	-11.3748
烈	-11.3749
把控	-11.3749
是有一定	-11.375
伤心难过	-11.3751
空白	-11.3752
分开了	-11.3755
的心境	-11.3757
动起来	-11.3758
向她	-11.376
主动地	-11.3761
莫名	-11.3761
唯	-11.3761
表现出来的	-11.3765
调理	-11.3765
出色	-11.3767
小组	-11.3767
你不必	-11.3769
困在	-11.377
夫妻双方	-11.377
藏着	-11.3772
有了孩子	-11.3774
》《	-11.3775
尚未	-11.3776
吸引到	-11.3777
一起探讨	-11.3778
N	-11.3778
应该怎么	-11.3781
屋	-11.3782
歇	-11.3782
称赞	-11.3783
在人际关系中	-11.3783
M	-11.3783
揭	-11.3783
接收到	-11.3784
不着急	-11.3784
楼主也可以	-11.3787
冥想练习	-11.3787
鸭	-11.3788
轻度	-11.3793
继而	-11.3793
最好不要	-11.3794
生怕	-11.3795
希望我的回答对你有帮助	-11.3795
・)	-11.3797
的借口	-11.3799
痛快	-11.3802
干活	-11.3803
这两者	-11.3803
生死	-11.3803
归属	-11.3804
儿时	-11.3809
心理科	-11.3809
你的努力	-11.381
才是最好的	-11.381
了解孩子	-11.3815
几分钟	-11.3817
会有这样的	-11.3817
都有一个	-11.3818
婆家	-11.3819
影响了你的	-11.3819
不考虑	-11.382
的源头	-11.3825
本心	-11.3827
被控制	-11.3828
每个月	-11.3828
路人	-11.383
不恰当	-11.3835
与现实	-11.3835
踢	-11.3838
人际关系中	-11.3839
恶劣	-11.3839
被忽略	-11.384
神奇	-11.384
票	-11.3841
小伙伴	-11.3842
宣	-11.3843
传染	-11.3844
挽留	-11.3844
社区	-11.3844
揣测	-11.3845
携手	-11.3845
瞎	-11.3845
湾	-11.3845
以为自己	-11.3848
那个男生	-11.3849
既可以	-11.3849
信任的朋友	-11.3851
不满足	-11.3851
一件小事	-11.3853
丝毫	-11.3856
的出发点	-11.3857
恐惧症	-11.386
异性恋	-11.3861
自己对自己的	-11.3862
输了	-11.3864
小三	-11.3864
不离婚	-11.387
一切顺利	-11.3871
太太	-11.3873
社交活动	-11.3873
当你觉得	-11.3875
更有利于	-11.3876
娘	-11.3879
经济能力	-11.3882
跳出来	-11.3883
的姿态	-11.3884
无法承受	-11.3885
不清楚你	-11.3886
暴力倾向	-11.3886
在咨询中	-11.3886
其中一个	-11.3889
不能再	-11.3896
继	-11.3896
过着	-11.3897
行为习惯	-11.3898
既能	-11.3898
感到孤独	-11.39
天性	-11.39
孙	-11.39
自己的立场	-11.39
仪式	-11.3901
留学	-11.3902
被讨厌的勇气	-11.3904
减退	-11.3905
阐述	-11.3905
冒险	-11.3905
娇	-11.3905
标志	-11.3906
不要过度	-11.3906
举例	-11.3907
宝贵	-11.3909
预料	-11.3909
闪光点	-11.3909
最坏的结果	-11.3909
哒	-11.3909
语音	-11.3909
你的未来	-11.391
疑虑	-11.3912
全世界	-11.3912
这种时候	-11.3914
er	-11.3914
希望我的回答对你有所帮助	-11.3915
自己的思想	-11.3917
也曾	-11.3919
还是挺	-11.392
地点	-11.3924
躁狂	-11.3925
遇到这样的	-11.3926
其实是一种	-11.3928
可能不会	-11.3928
也是一样	-11.393
不解	-11.3931
姐夫	-11.3931
节点	-11.3931
建立自信	-11.3933
的一种表现	-11.3933
不自觉地	-11.3935
社会功能	-11.3937
你提到了	-11.3941
有害	-11.3943
害怕失败	-11.3945
值得我们	-11.3947
伦	-11.3951
让自己陷入	-11.3951
尊重对方	-11.3952
拖着	-11.3952
从你的描述里	-11.3954
勇敢面对	-11.3955
抗争	-11.3956
都是一样的	-11.3958
一两个	-11.3959
兽	-11.3962
13	-11.3963
⇨⇨	-11.3964
憋屈	-11.3964
仍旧	-11.3964
自然也就	-11.3965
可以利用	-11.3968
可能会出现	-11.3968
幻觉	-11.3968
有一段时间	-11.3969
石头	-11.3971
的意志	-11.3972
我有一个	-11.3972
生意	-11.3973
我们每个人都有	-11.3974
益处	-11.3975
重新审视	-11.3975
广泛	-11.3978
请假	-11.3979
寻找到	-11.3989
生理需求	-11.3989
得住	-11.3989
感情基础	-11.3993
不必太	-11.3994
常人	-11.3994
增加自己的	-11.3995
三十	-11.3995
自己做主	-11.3996
可以做的	-11.4001
你和你的	-11.4001
。)4、	-11.4008
最为	-11.4011
会想到	-11.4011
建议题主可以	-11.4016
(3)	-11.4018
一个男生	-11.4019
无知	-11.4019
仍然是	-11.402
这个道理	-11.4023
闹钟	-11.4026
唤醒	-11.4026
废物	-11.4027
规避	-11.4027
捆绑	-11.4028
压抑着	-11.4028
有没有可能	-11.4029
荒	-11.4029
易怒	-11.403
身体状况	-11.403
折腾	-11.403
轻轻	-11.4031
除非你	-11.4033
交代	-11.4033
轻微	-11.4034
发生的事	-11.4035
问一问	-11.4035
几句话	-11.4037
更合适	-11.4037
要承担	-11.4037
可以想象	-11.4039
犯错误	-11.404
把自己的想法	-11.4043
辅导员	-11.4046
摆正	-11.4047
量表	-11.4047
美丽的	-11.405
回忆起	-11.405
有些东西	-11.4051
跟老师	-11.4052
不断学习	-11.4054
探索一下	-11.4058
成立	-11.4058
这个部分	-11.406
副	-11.4061
职业发展	-11.4063
坦然面对	-11.4063
好的关系	-11.4066
生下来	-11.4067
跟家人	-11.4067
激烈的	-11.407
年轻的时候	-11.407
刚刚开始	-11.407
一个小时	-11.4071
多关心	-11.4073
贬	-11.4074
还说	-11.4077
就如同	-11.4078
能感受到题主	-11.408
运转	-11.408
需要调整	-11.4081
取决于你	-11.4081
伤了	-11.4081
虐	-11.4081
年少	-11.4081
更倾向于	-11.4082
十几年	-11.4082
给予我们	-11.4082
乳	-11.4084
滋	-11.4084
你爸妈	-11.4085
歧视	-11.4089
鲁	-11.4089
爷	-11.4089
吸烟	-11.409
旋	-11.409
秀	-11.409
的心声	-11.4091
追逐	-11.4091
嘴巴	-11.4091
悠	-11.4092
意想不到的	-11.4093
三角	-11.4093
阵	-11.4094
为自己而活	-11.4095
的方向发展	-11.4096
同理	-11.4097
一群	-11.4097
生活节奏	-11.4099
终生	-11.41
学霸	-11.4101
让你产生了	-11.4102
过一段时间	-11.4107
觉得不舒服	-11.4108
心理阴影	-11.4109
如果是这样的话	-11.411
同时你也	-11.4111
一同	-11.4114
我看到了你	-11.4116
值得肯定	-11.4117
这种事	-11.4117
十岁	-11.412
题主不妨	-11.4133
需要做的就是	-11.4134
心理活动	-11.4134
是美好的	-11.4137
否	-11.4141
表达自己的情绪	-11.4141
楼主不妨	-11.4141
也要学会	-11.4144
谓	-11.4145
的自信心	-11.4146
英	-11.4147
可以感觉到	-11.4147
阶	-11.415
递	-11.415
L	-11.415
材料	-11.4151
阻抗	-11.4151
洗澡	-11.4152
哀	-11.4152
拦	-11.4153
不舍得	-11.4153
说错话	-11.4153
小姐姐	-11.4153
谦	-11.4153
提倡	-11.4153
做更好的自己	-11.4155
哪些地方	-11.4155
已然	-11.4156
变态	-11.4157
你们已经	-11.4158
要清楚	-11.4158
听歌	-11.4159
对生活的	-11.416
叛逆期	-11.416
全身	-11.4162
认真看完了你的提问	-11.4162
戒掉	-11.4162
热线	-11.4163
较高	-11.4164
中立	-11.4166
溺爱	-11.4167
(・	-11.4169
积极乐观	-11.4169
几个人	-11.417
轻生	-11.4171
落下	-11.4175
让家人	-11.4175
差劲	-11.4178
做任何	-11.418
全能	-11.4187
给自己一些时间	-11.4189
成长的过程中	-11.4191
商量一下	-11.4193
多疑	-11.4193
侵	-11.4195
突	-11.4195
怎么解决	-11.4203
这一年	-11.4204
所有事情	-11.4206
所言	-11.4207
吞	-11.4212
琢磨	-11.4214
一次又一次	-11.4215
剧烈	-11.4215
揪	-11.4216
光芒	-11.4217
加剧	-11.4219
主体	-11.4219
放任	-11.4223
你之所以	-11.4224
客气	-11.4224
想做的事	-11.4226
一面镜子	-11.4226
所致	-11.4229
心跳	-11.4229
共同话题	-11.423
为了满足	-11.4231
大环境	-11.4232
合理化	-11.4234
跨越	-11.4235
时间管理	-11.4235
三点	-11.4236
什么都没有	-11.4237
很远	-11.4237
这类人	-11.4241
在这个阶段	-11.4243
中医	-11.4247
从自身	-11.4255
一笔	-11.4256
同行	-11.4257
谈一下	-11.4258
要么是	-11.4264
社会关系	-11.4264
距离感	-11.4269
谈心	-11.427
课堂	-11.427
灰	-11.4271
材	-11.4273
用这种方式	-11.4273
嘴上	-11.4273
班上	-11.4276
比较喜欢	-11.4276
均	-11.4277
颜色	-11.4277
随着年龄的增长	-11.4277
消磨	-11.4278
从楼主的	-11.4278
臆	-11.4278
阻力	-11.4278
控制住	-11.4279
夸夸	-11.4279
牵扯	-11.428
拙	-11.428
铃	-11.4281
问心无愧	-11.4282
的态度方式	-11.4284
给你一个大大的抱抱	-11.4287
对自己进行	-11.4289
工作岗位	-11.4291
发展到	-11.4292
买单	-11.4292
之内	-11.4293
很值得	-11.4293
美好的回忆	-11.4296
推进	-11.4298
好的方面	-11.4299
在社会上	-11.4302
写出	-11.4306
等级	-11.431
自己的节奏	-11.431
接纳它	-11.4315
可以看出来	-11.432
我猜测	-11.4322
三四	-11.4327
听一些	-11.4328
不爱自己	-11.4332
著	-11.4334
鼠	-11.4334
添	-11.4336
大家一起	-11.4337
f	-11.4337
奉献	-11.4342
长此以往	-11.4342
反刍	-11.4343
牵挂	-11.4343
罩	-11.4343
在他的	-11.4343
疲倦	-11.4344
让我想起了	-11.4344
拿起	-11.4344
尽可能地	-11.4344
元素	-11.4344
。“”	-11.4344
母女	-11.4344
何种	-11.4345
先天	-11.4346
多读书	-11.4347
视觉	-11.4347
其他原因	-11.4349
进食	-11.435
住院	-11.4351
因为疫情	-11.4351
往事	-11.4351
哭出来	-11.4352
都会经历	-11.4353
知觉	-11.4358
各种各样	-11.4366
六年	-11.4367
对老公	-11.4367
你可能需要	-11.4368
多做一些	-11.437
这个过程中	-11.437
沉迷于	-11.437
保持良好的	-11.4373
较好的	-11.4375
在中国	-11.4376
所以我们要	-11.4378
我也曾	-11.4378
逼迫自己	-11.438
从这里	-11.4381
大部分人都	-11.4381
的根本	-11.4383
你的付出	-11.4383
克制自己	-11.4384
要做什么	-11.4386
祝你幸福	-11.439
对咨询师	-11.4392
一定不会	-11.4398
写完	-11.4399
听课	-11.4402
简单来说	-11.4403
险	-11.4404
闭上眼睛	-11.4404
违	-11.4404
周围环境	-11.4404
这个年龄段	-11.4404
空洞	-11.4405
医疗	-11.4406
从以下几个方面	-11.4406
是安全的	-11.4407
丰富多彩	-11.4407
喘不过气	-11.4407
的思维方式	-11.4408
自控力	-11.4408
遮	-11.4408
反弹	-11.441
薄弱	-11.441
散散心	-11.4411
外面的世界	-11.4412
陷在	-11.4412
临近	-11.4412
名词	-11.4413
希望题主可以	-11.4413
不优秀	-11.4415
问候	-11.4416
所愿	-11.4419
上来看	-11.4419
放假	-11.4419
重要他人	-11.4421
文字描述	-11.4421
让自己变得更好	-11.4422
喝水	-11.4422
做得更好	-11.4427
相差	-11.4428
意识层面	-11.4432
你的烦恼	-11.4435
可以回想一下	-11.4436
最终还是	-11.444
感兴趣的事情	-11.4447
有效的沟通	-11.4448
考得	-11.4455
社	-11.4456
发生了什么事	-11.446
不平等	-11.4462
苗	-11.4465
另外一种	-11.4465
不好的影响	-11.4466
较多	-11.4467
习得性无助	-11.4469
捕	-11.447
割舍	-11.4471
通俗	-11.4471
崩	-11.4471
很强烈	-11.4471
沿	-11.4472
稳固	-11.4472
臂	-11.4473
猜疑	-11.4474
能力不足	-11.4474
浑身	-11.4476
这几个	-11.4477
陪她	-11.4477
切记	-11.4478
班长	-11.4478
问问他	-11.4482
一百	-11.4484
修行	-11.4484
之间的矛盾	-11.4487
意图	-11.4487
的关系模式	-11.4488
说出自己的想法	-11.4489
出现这种情况	-11.4491
会遇到很多	-11.4492
每个阶段	-11.4493
难关	-11.4494
感到难受	-11.4494
的好坏	-11.4495
明知道	-11.4495
不具备	-11.4496
回国	-11.4496
下午好	-11.4496
找个咨询师	-11.4499
各方面都	-11.4501
集中精力	-11.4501
强迫性	-11.4507
完全不同	-11.4509
更好的人	-11.451
本该	-11.4511
题主说自己	-11.4513
已经成年	-11.4515
对这件事情	-11.4521
续	-11.4523
照顾到	-11.4524
苏	-11.4527
并不一定是	-11.4527
很有意思	-11.4527
同时也是	-11.4528
农	-11.4528
著名的	-11.453
路径	-11.4532
祟	-11.4534
痒	-11.4534
白白	-11.4535
迟钝	-11.4535
浑浑噩噩	-11.4537
亲朋好友	-11.4537
弯路	-11.4538
童年时期	-11.454
学校里	-11.454
世界里	-11.4543
口头	-11.4544
茫然	-11.4544
遭遇了	-11.4545
冬天	-11.4546
释放情绪	-11.4547
像你一样	-11.455
受委屈	-11.4552
成长过程	-11.4552
次数	-11.4553
我能感受到你	-11.4554
贬低自己	-11.4554
某些人	-11.4555
学费	-11.456
充足	-11.4561
发现问题	-11.4563
;3、	-11.4564
获得满足	-11.4564
末	-11.4564
产后	-11.4566
通常会	-11.4571
的喜悦	-11.4574
难堪	-11.4575
初步	-11.4576
不好看	-11.4576
策	-11.4578
不一定会	-11.4581
二宝	-11.4581
需要双方	-11.4581
归于	-11.4585
属性	-11.4586
明明知道	-11.4588
更强大	-11.4591
发展成	-11.4591
猎	-11.4594
等同于	-11.4598
伙	-11.46
自己的责任	-11.46
睡不好	-11.46
厨	-11.4601
光环	-11.4601
硕士	-11.4601
台词	-11.4602
半小时	-11.4602
说白了	-11.4602
吸取	-11.4603
积极的心理暗示	-11.4604
喜欢的东西	-11.4607
°	-11.4608
单亲家庭	-11.461
培养孩子	-11.4612
我想问	-11.4614
相信你可以	-11.4615
带上	-11.4616
是什么样的人	-11.4621
个人觉得	-11.4621
能更好的	-11.4623
前妻	-11.4624
知心	-11.4628
再考虑	-11.4632
好累	-11.4632
得不到满足	-11.4634
太难了	-11.4635
需要一个过程	-11.464
渐渐地	-11.4644
有这种想法	-11.4644
突破自己	-11.4645
不信	-11.4647
暂停	-11.4648
疗	-11.465
做的更好	-11.4651
劝你	-11.4652
精神分裂症	-11.4654
我们的父母	-11.4656
短时间	-11.4663
90	-11.4664
残忍	-11.4664
w	-11.4664
颇	-11.4664
桥	-11.4665
扶持	-11.4666
工作经验	-11.4667
舞蹈	-11.4668
跟他在一起	-11.467
辣	-11.467
从心理学的角度	-11.4672
想逃避	-11.4675
洗手	-11.4678
走走	-11.4678
从您的描述看	-11.4679
两个家庭	-11.4679
向他人	-11.4679
随之	-11.4682
放松训练	-11.4683
做了很多	-11.4684
从你的文字中	-11.4684
用行动	-11.4684
看的出来	-11.4684
丢掉	-11.4685
多少钱	-11.4687
自己的自信心	-11.4688
伤害过	-11.469
的日子里	-11.4691
也会影响	-11.4692
太强	-11.4692
但是由于	-11.4697
事情本身	-11.4697
搞得	-11.4698
验	-11.4701
未能	-11.4706
想告诉你	-11.4709
做得很好	-11.471
腹	-11.471
有的人会	-11.4715
但事实上	-11.4715
发信息	-11.4715
不妨先	-11.4717
对你很好	-11.4718
都是不一样的	-11.4719
可以先从	-11.472
化学	-11.4721
带到	-11.4721
开来	-11.4722
养成了	-11.4724
确实很难	-11.4724
他的父母	-11.4727
宇宙	-11.4727
搭讪	-11.4728
吵闹	-11.4729
懈怠	-11.473
符	-11.4731
感到害怕	-11.4732
OK	-11.4733
诚恳	-11.4734
你爸	-11.4734
慌张	-11.4734
时间长	-11.4734
莫名其妙的	-11.4734
取代	-11.4735
积蓄	-11.4736
填满	-11.4736
触及	-11.4736
怎么才能	-11.4737
来得及	-11.4737
双性恋	-11.4737
归宿	-11.4738
坚定地	-11.4738
亦或是	-11.4739
知晓	-11.4741
你的遭遇	-11.4742
给你的建议	-11.4742
每一段	-11.4743
有同感	-11.4743
深深地理解你的痛苦	-11.4745
这三个	-11.4746
一些小事	-11.4747
也没必要	-11.4749
人生观	-11.4749
上网	-11.475
最好的朋友	-11.475
真正的朋友	-11.4752
带动	-11.4753
也不代表	-11.4755
好好珍惜	-11.4757
源自于	-11.4758
认同感	-11.4759
期限	-11.4761
失落感	-11.4763
的确会	-11.4763
一般都是	-11.4766
谈过	-11.4766
明确的目标	-11.4767
这段话	-11.477
自动化	-11.4771
任何问题	-11.4772
也没有关系	-11.4773
未来的生活	-11.4774
不被爱	-11.4774
定时	-11.4777
不开心的事情	-11.4778
新工作	-11.478
又怕	-11.4781
陷入到	-11.4782
小气	-11.4787
被照顾	-11.4788
上台	-11.4791
你现在的状态	-11.4791
很多方面	-11.4791
自我疗愈	-11.4792
好不容易	-11.4792
肠	-11.4795
感知到	-11.4796
肝	-11.4797
欺	-11.4797
走过来	-11.4797
怯	-11.4799
一切都好	-11.4799
卧	-11.4799
宠物	-11.4799
证实	-11.48
十全十美	-11.48
晒	-11.4801
广阔	-11.4801
产生矛盾	-11.4801
异样	-11.4802
告白	-11.4803
姑姑	-11.4803
水果	-11.4805
他人身上	-11.4807
几个方面	-11.4809
一杯	-11.4811
决定权	-11.4811
超过了	-11.4812
是个好	-11.4815
比较内向	-11.4815
处在一个	-11.4817
才开始	-11.4818
其他方式	-11.4819
那些事情	-11.482
共同努力	-11.4821
一副	-11.4822
遇到挫折	-11.4823
成为什么样的人	-11.4823
的表情	-11.4824
欢迎关注我	-11.4826
也就意味着	-11.4828
感兴趣的事	-11.483
自从	-11.4831
要么就是	-11.4831
一个女人	-11.4832
幼	-11.4833
可行的	-11.4833
有责任	-11.4835
占用	-11.4836
在想什么	-11.4838
感到自卑	-11.4839
来帮助自己	-11.484
舒	-11.4842
坦然接受	-11.4847
很多人都有	-11.4847
年龄阶段	-11.4848
心情好	-11.4848
现实问题	-11.485
影响力	-11.4851
亲戚朋友	-11.4856
岗	-11.486
依附	-11.4863
走的路	-11.4863
辛	-11.4863
毁灭	-11.4864
正常的生活	-11.4865
腻	-11.4866
无时无刻	-11.4867
测评	-11.4867
深渊	-11.4867
释然	-11.4868
屏	-11.4869
Ta	-11.4869
玉	-11.4869
大不了	-11.4869
不舒服的感觉	-11.487
骚扰	-11.4872
解析	-11.4873
校园暴力	-11.4874
感触	-11.4875
为你点赞	-11.4875
情绪控制	-11.4876
性侵	-11.4876
启动	-11.4877
无法满足	-11.4877
希望我的回答可以帮到您	-11.4877
去观察	-11.488
劳累	-11.4882
重新建立	-11.4884
总体	-11.4886
说起	-11.4886
直面问题	-11.4897
受虐	-11.4902
偏爱	-11.4904
有很大的关系	-11.4906
报名	-11.4906
如何对待	-11.4907
自我肯定	-11.4913
比较小	-11.4915
发生矛盾	-11.4916
去图书馆	-11.4919
限度	-11.492
很容易被	-11.4921
家乡	-11.4921
病态	-11.4923
找原因	-11.4925
老好人	-11.4928
内心的冲突	-11.4932
不经意	-11.4932
非黑即白	-11.4932
寄宿	-11.4933
塌	-11.4933
这辈子	-11.4933
英国	-11.4934
幼儿	-11.4934
我感觉你	-11.4935
弄得	-11.4936
深思熟虑	-11.4936
认清自己	-11.4936
违法	-11.4937
判定	-11.4938
采纳	-11.4939
你也知道	-11.494
帖子	-11.4942
文明	-11.4943
充满着	-11.4944
人缘	-11.4944
不适感	-11.4953
感到不舒服	-11.4954
你的咨询师	-11.4954
拥有一个	-11.4957
建设	-11.4957
一段亲密关系	-11.4957
改造	-11.4958
驱使	-11.4958
的情绪体验	-11.4959
小小的建议	-11.496
表达自己的需求	-11.4962
可以感受到你对	-11.4965
单方面的	-11.4966
总结一下	-11.4974
觉得委屈	-11.4979
伤感	-11.4979
吓到	-11.498
必要时	-11.4982
提出这个问题	-11.4984
让她知道	-11.4985
想办法解决	-11.4985
多大了	-11.4988
情人	-11.4988
放在自己身上	-11.4989
详	-11.499
体质	-11.4992
同时也可以	-11.4993
不知道你是否	-11.4995
加快	-11.4996
公正	-11.4999
不情愿	-11.4999
逗	-11.5
招聘	-11.5
微博	-11.5
预设	-11.5001
昂	-11.5001
互联网	-11.5002
道德绑架	-11.5003
堕落	-11.5003
你有没有想过	-11.5003
按部就班	-11.5003
价格	-11.5003
律师	-11.5005
处女情结	-11.5005
得不偿失	-11.5006
狗狗	-11.5008
没钱	-11.5009
如果是后者	-11.5009
步入社会	-11.501
更深	-11.501
及其	-11.5013
无私	-11.5015
怎样才能	-11.5017
你的诉求	-11.5018
负向	-11.5019
都会出现	-11.5019
会觉得很	-11.5021
给自己一点时间	-11.5021
也是一样的	-11.5023
父母对孩子	-11.5024
得到缓解	-11.5025
亲密接触	-11.5027
做得好	-11.5028
制定计划	-11.5029
允许自己有	-11.5029
好久	-11.503
出身	-11.503
找到属于自己的	-11.5032
所有的事情都	-11.5032
十几岁	-11.5033
潜在的	-11.5035
这么大的	-11.5035
我觉得你可以	-11.5038
地球	-11.5043
做题	-11.5044
迫于	-11.5047
巨	-11.5048
我们可以选择	-11.5051
还挺	-11.5053
做什么事	-11.5059
几分	-11.5059
性幻想	-11.506
业余	-11.5065
凑	-11.5067
绑	-11.5068
聚餐	-11.5068
比喻	-11.5068
跃	-11.5068
的小伙伴	-11.5069
审	-11.5069
睁	-11.507
驱动	-11.507
误区	-11.507
淋	-11.5071
不可怕	-11.5071
高要求	-11.5071
冷静一下	-11.5071
顾忌	-11.5071
代沟	-11.5072
晴	-11.5073
鼻子	-11.5074
遇到这种情况	-11.5075
》、《	-11.5075
放大了	-11.5075
教室	-11.5077
人生经历	-11.5077
不在身边	-11.5077
立足	-11.5077
自省	-11.5079
偷懒	-11.5081
你们双方	-11.5081
就变成了	-11.5085
感谢邀请	-11.5085
默	-11.5086
五个	-11.5087
会影响你	-11.5087
肉体	-11.5088
没做好	-11.509
高中生	-11.5091
假想	-11.5092
找机会	-11.5094
年华	-11.51
共同进步	-11.5104
自己的梦想	-11.5106
同等	-11.5111
累的时候	-11.5115
传递给	-11.5118
建立起来	-11.512
根本就不	-11.512
合理安排	-11.5121
有魅力	-11.5121
保存	-11.5122
和父母的关系	-11.5123
能力强	-11.5127
辅	-11.513
不能满足	-11.5131
谢	-11.5135
经济压力	-11.5136
我的经验	-11.5137
悔恨	-11.5138
考到	-11.5138
遥	-11.5138
矫正	-11.5138
令自己	-11.5138
模拟	-11.5138
退休	-11.5139
将注意力	-11.514
女士	-11.514
薪资	-11.514
默契	-11.514
应激反应	-11.5141
失调	-11.5142
探寻	-11.5143
界定	-11.5143
外卖	-11.5144
抒发	-11.5144
打扫	-11.5144
接纳自己的不完美	-11.5144
欧	-11.5147
主人公	-11.5147
不完美的自己	-11.5152
能体会	-11.5152
失意	-11.5152
才华	-11.5154
2)	-11.5155
最有效的	-11.5155
出现过	-11.516
地看待	-11.5161
弹性	-11.5163
浪费了	-11.5163
就一定会	-11.5166
理科	-11.5167
会好起来的	-11.5172
要面临	-11.5173
下手	-11.5178
善待自己	-11.518
自己内在的	-11.518
人际边界	-11.5182
每年	-11.5184
给了我们	-11.5186
司	-11.5187
摇	-11.5189
有点像	-11.519
压在	-11.5195
最后的结果	-11.5197
打动	-11.5198
问题的关键	-11.5199
矛盾冲突	-11.52
这个女孩	-11.5202
展示自己	-11.5204
家教	-11.5204
辨	-11.5205
不合理信念	-11.5205
自信起来	-11.5206
来找你	-11.5206
涉	-11.5207
无理取闹	-11.5207
以自我为中心	-11.5207
善解人意	-11.5207
狱	-11.5207
夕	-11.5208
格局	-11.5209
容易出现	-11.521
瞧不起	-11.521
你的表述	-11.5211
理财	-11.5211
说完	-11.5213
自习	-11.5213
觉察力	-11.5214
热爱生活	-11.5215
自认为	-11.5216
静心	-11.5216
上了大学	-11.5217
听见	-11.5218
陪伴孩子	-11.5219
精神科医生	-11.522
学会如何	-11.5221
老师们	-11.5221
远方	-11.5222
走到一起	-11.5228
无望	-11.5228
亲爱的朋友	-11.523
去看医生	-11.5232
渡过	-11.5233
的初心	-11.5236
到一定程度	-11.5238
接受现实	-11.5238
成家	-11.5239
心存	-11.5245
强大起来	-11.5245
建议楼主可以	-11.5246
迎	-11.5249
调整自己的状态	-11.5253
大概就是	-11.5258
最低	-11.5258
世界上没有	-11.5264
题主描述	-11.5266
楚	-11.5268
有了自己的	-11.527
群里	-11.5276
介	-11.5276
这一方面	-11.5277
人设	-11.5277
筹	-11.5277
膜	-11.5277
涡	-11.5278
形成一种	-11.5278
朗	-11.5278
夸张	-11.5279
激	-11.528
很善良	-11.528
极致	-11.528
逛	-11.528
向着	-11.5281
言行举止	-11.5281
筋	-11.5282
丈	-11.5282
放平心态	-11.5283
提不起兴趣	-11.5283
─	-11.5284
只能通过	-11.5292
特意	-11.5292
心理建设	-11.5293
两周	-11.5294
说出口	-11.5295
对女性	-11.5296
没什么大不了	-11.5296
不懂事	-11.5296
表示理解	-11.5297
各个方面	-11.5299
也许是因为	-11.5299
不太了解	-11.5299
排名	-11.5301
发生过什么	-11.5301
岁左右	-11.5308
很困惑	-11.5309
办事	-11.5312
经常说	-11.5314
的目的是什么	-11.5316
建立良好的	-11.5325
99	-11.5326
列出来	-11.5329
解决问题的方法	-11.5331
园	-11.5333
直视	-11.5335
类似的事情	-11.5341
不值得被爱	-11.5343
放过	-11.5343
下次再	-11.5343
带给我们的	-11.5344
则会	-11.5344
鼻	-11.5344
档	-11.5345
羡慕别人	-11.5345
奖学金	-11.5346
晕	-11.5346
优异	-11.5347
实实在在	-11.5347
来证明	-11.5347
森	-11.5347
成年了	-11.5348
椅子	-11.5349
赞扬	-11.535
力不从心	-11.535
附近	-11.5351
月份	-11.5354
导向	-11.5356
很长一段时间	-11.5359
的影子	-11.5359
持续时间	-11.5362
处理不好	-11.5366
能感受到你的	-11.5367
憋着	-11.5367
了解下	-11.5368
我曾经也	-11.5369
来保护自己	-11.537
前辈	-11.5371
让我觉得	-11.5374
一些小建议	-11.5375
很关心	-11.5375
定义为	-11.538
还算	-11.5381
分析下	-11.5382
肯定会有	-11.5382
人格特质	-11.5383
更深的	-11.5384
两个人的关系	-11.5384
但事实	-11.5386
事件中	-11.5387
你们之间的感情	-11.5387
互相帮助	-11.5387
以上建议	-11.5389
问题在于	-11.5389
会伤害到	-11.5391
心烦	-11.5391
人脉	-11.5396
能做什么	-11.5397
转化成	-11.5398
一日	-11.5398
也会慢慢	-11.5399
成分	-11.5399
有提到	-11.5404
你现在已经	-11.5414
世界观	-11.5414
前方	-11.5416
辱	-11.5417
贱	-11.5417
亡	-11.5418
长大成人	-11.5418
念念不忘	-11.5418
很好的朋友	-11.5419
诺	-11.5419
的依恋关系	-11.5419
池	-11.5419
贫	-11.542
犹如	-11.542
关闭	-11.5421
从另一个角度	-11.5423
1⃣️	-11.5423
70	-11.5424
患病	-11.5424
酷	-11.5424
相信你一定	-11.5426
是最棒的	-11.5426
天生就	-11.5428
余光	-11.5432
我不清楚	-11.5436
面目	-11.5438
每个人都需要	-11.5438
给自己留	-11.544
只看	-11.5443
●)	-11.5443
坏习惯	-11.5445
的心结	-11.5448
不允许自己	-11.5449
精力放在	-11.5451
学习的动力	-11.5452
删	-11.5454
待在一起	-11.5456
付出努力	-11.5461
丝	-11.5463
80	-11.5463
的秘密	-11.5466
为重	-11.5466
有效的方法	-11.5466
如果是的话	-11.5467
没意思	-11.547
外向的人	-11.547
那个女生	-11.5473
宣泄情绪	-11.5474
不要放弃自己	-11.5477
学习环境	-11.5478
语言表达	-11.548
不好的一面	-11.5483
第三个	-11.5484
人民	-11.5485
自立	-11.5485
这样那样的	-11.5486
让他们知道	-11.5487
提出的问题	-11.5488
情绪背后	-11.5488
顽	-11.549
调节情绪	-11.549
贷	-11.549
卷入	-11.5491
一个良好的	-11.5491
钥匙	-11.5491
框架	-11.5492
自己想要的是什么	-11.5492
日积月累	-11.5493
表妹	-11.5494
运行	-11.5494
跌倒	-11.5495
磨练	-11.5496
无法忍受	-11.5497
他的内心	-11.5497
大师	-11.5497
调整好心态	-11.5499
的含义	-11.55
确定关系	-11.5501
稳重	-11.5501
•̀	-11.5502
前夫	-11.5503
无力无助	-11.5503
骗子	-11.5504
磨难	-11.5506
本就是	-11.5507
缘由	-11.5507
一度	-11.551
如果有机会	-11.551
比不上	-11.5511
听说过	-11.5514
已经到了	-11.5519
的互动模式	-11.552
剧情	-11.5522
跟你一样	-11.5523
有意义的事情	-11.5526
代入	-11.5526
社会环境	-11.5534
听着	-11.5534
自己的心意	-11.5538
不断成长	-11.5539
有些话	-11.5541
的常态	-11.5542
很好奇	-11.5543
即时	-11.5544
给你个	-11.555
了解彼此	-11.555
几个建议	-11.5554
这些症状	-11.5555
亵	-11.5557
原先	-11.5557
对我来说	-11.5559
讽刺	-11.556
预想	-11.5561
调整过来	-11.5563
枕	-11.5564
教授	-11.5564
牛奶	-11.5564
沦	-11.5564
三岁	-11.5565
你们的婚姻	-11.5565
并不容易	-11.5566
自控	-11.5566
宅	-11.5566
事半功倍	-11.5566
一张纸	-11.5567
在这段感情中	-11.5568
言辞	-11.5568
怨气	-11.557
。6、	-11.557
希望这些文字	-11.5571
注意力放在	-11.5571
所有的问题	-11.5571
正视自己的	-11.5575
换取	-11.5575
妄	-11.5578
爱的能力	-11.5578
极力	-11.558
让人感到	-11.5581
落实	-11.5581
适用	-11.5584
勇敢一点	-11.5587
换位思考一下	-11.5589
是从什么时候开始	-11.559
乐于	-11.5591
考完	-11.5591
是非常好的	-11.5592
只会让自己	-11.5593
少女	-11.5596
看到你的提问	-11.5598
一些其他的	-11.5603
陪他	-11.5604
更近	-11.5608
大象	-11.5608
事先	-11.5612
梦到	-11.5614
工作效率	-11.5617
越高	-11.5622
盲	-11.5623
告诉他们你	-11.5625
并不重要	-11.563
很无助	-11.5635
裸	-11.5635
导火索	-11.5635
别人家的孩子	-11.5635
诱因	-11.5636
捧	-11.5636
毕	-11.5637
忧郁	-11.5638
讲出来	-11.5639
一无所有	-11.564
托付	-11.564
看看有没有	-11.564
6.	-11.5641
不得已	-11.5641
顺便	-11.5644
老人家	-11.5645
离婚后	-11.5647
跟老公	-11.5648
听一听	-11.5651
社交能力	-11.5652
吃过	-11.5653
愤怒的情绪	-11.5653
不同于	-11.5657
很尴尬	-11.5658
中提到	-11.5658
比以前	-11.5659
非常理解你的感受	-11.5661
or	-11.5665
太快	-11.567
造成影响	-11.567
无法做到	-11.5671
会给自己带来	-11.5671
很孤独	-11.5671
精神出轨	-11.5674
真情	-11.5676
非得	-11.5677
懂得如何	-11.5678
过多地	-11.5679
找到适合	-11.5682
在某些方面	-11.5687
自我提升	-11.5688
更有效	-11.5689
示好	-11.5693
把精力放在	-11.5694
责备自己	-11.5698
两个人一起	-11.5698
现在的状况	-11.57
继续保持	-11.5702
绑架	-11.5704
让老公	-11.5705
畏	-11.5705
显著	-11.5708
斥	-11.5708
找一份	-11.5708
脸色	-11.5709
才导致	-11.571
做作业	-11.5711
相互理解	-11.5713
照料	-11.5713
备胎	-11.5714
选择逃避	-11.5714
霸凌	-11.5715
进程	-11.5715
贷款	-11.5716
凡事都	-11.5716
不后悔	-11.5718
话语权	-11.5718
那件事	-11.5719
贴上	-11.572
自我认同感	-11.5723
大海	-11.573
弱者	-11.5734
心怀	-11.5734
接纳认可	-11.5735
客观事实	-11.5736
现代社会	-11.5738
外力	-11.574
学业上	-11.5741
就相当于	-11.5741
就显得	-11.5747
想象力	-11.5747
很清晰	-11.5749
低头	-11.5749
现实世界	-11.5752
感到困惑	-11.5753
下心来	-11.5753
幻听	-11.576
吃苦	-11.5761
非常难受	-11.5765
有效沟通	-11.5766
散发	-11.5769
一个故事	-11.5772
会加重	-11.5774
合法	-11.5774
好好休息	-11.5775
转学	-11.5778
盈	-11.578
思想上	-11.578
脚踏实地	-11.5781
彼	-11.5781
本子	-11.5781
永远不会	-11.5782
老天爷的事	-11.5783
为人处世	-11.5784
镇	-11.5784
一成不变	-11.5786
吃完	-11.5786
此类	-11.5787
慌乱	-11.5788
医嘱	-11.5789
精准	-11.579
科普	-11.5791
谈不上	-11.5791
不够优秀	-11.5791
烦闷	-11.5791
五分钟	-11.5792
做准备	-11.5792
•́)	-11.5793
慢下来	-11.5793
给你一个温暖的拥抱	-11.5797
这是一件	-11.5797
看清自己	-11.5798
改变轨迹	-11.5805
停下	-11.5807
读到	-11.5809
家里面	-11.5809
终将	-11.5812
装修	-11.5812
类型的人	-11.5813
重重	-11.5813
圈子里	-11.5814
遇到了什么	-11.5815
穿衣	-11.5817
一群人	-11.5817
所产生的	-11.5817
有资格	-11.582
较真	-11.5822
拉开	-11.5828
能帮助到你	-11.5832
接受心理咨询	-11.5834
知道自己想要什么	-11.5835
婚礼	-11.5837
为难自己	-11.5838
会不自觉地	-11.5838
平衡点	-11.584
️️️	-11.5842
暴力行为	-11.5842
一起成长	-11.5843
自然地	-11.5843
该怎么办呢	-11.5845
很奇怪	-11.5848
,++	-11.5853
这场	-11.5854
宽恕	-11.5854
血液	-11.5854
丁	-11.5856
早睡早起	-11.5856
格格不入	-11.5856
伐	-11.5856
森田疗法	-11.5857
痕迹	-11.5857
词汇	-11.5858
检测	-11.5858
不顺眼	-11.5859
条件反射	-11.586
站在对方的角度	-11.586
辨别	-11.5861
自己感兴趣的事情	-11.5862
全职	-11.5863
走一走	-11.5863
众多	-11.5866
恶化	-11.5868
体面	-11.5868
恨意	-11.5869
加重了	-11.5869
便利	-11.5872
下一代	-11.5874
得来的	-11.5874
在关系里	-11.5877
为什么这么	-11.5879
你的内在	-11.588
大多数时候	-11.5881
在不断的	-11.5885
请允许我	-11.5886
很无奈	-11.5887
来满足自己	-11.589
没有被满足	-11.5895
一个词	-11.5895
同学之间	-11.5898
堆	-11.5899
促	-11.5901
有责任心	-11.5901
感到高兴	-11.5902
很幸运	-11.5908
才算	-11.5908
轻松一点	-11.5913
自我调整	-11.5914
下雨	-11.5915
有怎样的	-11.5916
不敢面对	-11.5917
色情	-11.5923
不必太过	-11.5925
第一印象	-11.5927
老一辈	-11.5928
都是不同的	-11.5929
全心全意	-11.5929
虑	-11.593
履	-11.593
黏	-11.593
业绩	-11.5931
虚弱	-11.5931
反反复复	-11.5932
自豪	-11.5932
注意力不集中	-11.5932
很渴望	-11.5932
极限	-11.5933
打麻将	-11.5933
奇迹	-11.5933
急切	-11.5935
发抖	-11.5936
调整好自己的心态	-11.5937
实质性的	-11.5938
观看	-11.5941
在人群中	-11.5941
表面上看	-11.5942
正规	-11.5942
进入婚姻	-11.5942
回避型	-11.5942
跑跑步	-11.5943
都是很正常的	-11.5945
总结经验	-11.5947
发觉	-11.5947
小家	-11.5947
想逃离	-11.5949
初二	-11.5949
值不值得	-11.5952
过早	-11.5959
总觉得自己	-11.5959
是错误的	-11.5959
我该怎么办	-11.5967
是没有问题的	-11.5968
在别人身上	-11.597
心软	-11.5971
父母亲	-11.5975
另外一个人	-11.5979
希望自己能够	-11.5984
可耻	-11.5988
不合群	-11.5989
有句	-11.5992
得到父母的	-11.5993
一年多	-11.5995
现场	-11.5995
鉴	-11.5995
时间精力	-11.5996
挥	-11.6
配偶	-11.6002
乖乖	-11.6003
PUA	-11.6005
苛求	-11.6005
男士	-11.6006
盐	-11.6006
棵	-11.6006
自以为是	-11.6007
眉	-11.6007
裂痕	-11.6008
溢	-11.6008
小姑娘	-11.6009
内敛	-11.6011
往下	-11.6013
无助感	-11.6016
借此	-11.6017
Dear	-11.6019
解决问题的办法	-11.6023
气场	-11.6027
帮助到你	-11.6027
被称为	-11.6028
一口气	-11.6029
切断	-11.603
典型	-11.6031
向前看	-11.6035
逃避现实	-11.6039
来帮你	-11.6044
租房	-11.6044
怀着	-11.6045
并不喜欢	-11.6047
美女	-11.6047
分类	-11.6049
同频	-11.6049
对这个世界	-11.6059
困住	-11.606
好好相处	-11.6064
有条件的话	-11.6071
绪	-11.6075
示弱	-11.6076
两种情况	-11.6076
勇	-11.6077
感到迷茫	-11.6077
怎	-11.6078
暴食	-11.6079
某人	-11.608
百分百	-11.608
愧	-11.6081
裤	-11.6081
艳	-11.6082
旗	-11.6082
生活质量	-11.6083
未来的规划	-11.6083
产生怀疑	-11.6084
转折点	-11.6086
半个月	-11.6087
我国	-11.6087
偏离	-11.6088
踏入	-11.6088
享受生活	-11.6091
心理咨询师的帮助	-11.6092
骂人	-11.6096
的身心健康	-11.6097
希望自己可以	-11.6097
听完	-11.6099
满足自己的需求	-11.6103
相关知识	-11.6104
作息时间	-11.6106
脉	-11.6106
也是可以理解的	-11.6108
和孩子一起	-11.611
感到难过	-11.6116
资金	-11.6117
一个地方	-11.6117
算命	-11.6119
无疑是	-11.612
体现出	-11.6123
看看能不能	-11.6123
更轻松	-11.6129
伤害他人	-11.6139
上高中	-11.6143
表达一下	-11.6143
考上大学	-11.6144
一段时间后	-11.6145
回顾一下	-11.6147
解决方式	-11.6152
|	-11.6153
杆	-11.6153
吃点	-11.6155
达成共识	-11.6155
传承	-11.6156
荣格	-11.6156
ABC	-11.6156
亲友	-11.6157
攒	-11.6158
趋势	-11.6158
终止	-11.6158
剪	-11.616
武器	-11.6161
达成一致	-11.6161
蜕变	-11.6162
桥梁	-11.6162
看小说	-11.6162
所爱	-11.6163
咨询师的帮助	-11.6163
和你分享	-11.6164
app	-11.6165
关乎	-11.6166
躯体化	-11.6168
小蘑菇	-11.6171
所描述的	-11.6171
我也不知道	-11.6171
质问	-11.6172
倒不如	-11.6173
既要	-11.6173
经受	-11.6174
电子	-11.6177
有暴力倾向	-11.6178
充实起来	-11.6181
打气	-11.6183
冒出来	-11.6185
很艰难	-11.6189
心理辅导	-11.6192
想法和感受	-11.6193
走到最后	-11.6196
确实让人	-11.6198
一辈子都	-11.6199
岂不是	-11.6201
您提到	-11.6202
虽说	-11.6205
这块	-11.6206
周围的环境	-11.6209
新生活	-11.6209
要懂得	-11.621
这种心态	-11.6213
想要的结果	-11.6213
给自己设定	-11.6217
追问	-11.6221
老二	-11.6229
我很好奇	-11.6229
直白	-11.623
塔	-11.623
模型	-11.6232
巩固	-11.6234
扑	-11.6234
奉	-11.6234
矮	-11.6234
全力以赴	-11.6235
口气	-11.6236
哇	-11.6236
要记得	-11.6237
惰性	-11.6237
踏踏实实	-11.6237
疏通	-11.6238
企图	-11.6238
沉溺	-11.6238
辩证	-11.6239
哀伤	-11.624
持有	-11.6241
使然	-11.6241
○	-11.6242
几乎没有	-11.6243
自闭	-11.6247
可以采用	-11.6247
就足够了	-11.6252
如实	-11.6252
对策	-11.6254
懒得	-11.6255
让对方知道	-11.6256
打断	-11.6264
爱慕	-11.6265
受苦	-11.6265
不放心	-11.627
温柔世界	-11.627
提要求	-11.6279
梦中	-11.6282
积极的心态	-11.6285
围绕	-11.6288
才是真正的	-11.6288
心理反应	-11.6289
情感支持	-11.6292
漫长的过程	-11.6294
用心去	-11.6294
层面上	-11.6298
我们会发现	-11.6302
继父	-11.6303
看医生	-11.6303
尊	-11.6306
平庸	-11.6307
没有绝对的	-11.6308
挠	-11.6313
周遭	-11.6313
吉	-11.6314
起作用	-11.6314
微妙	-11.6314
离家出走	-11.6315
复制	-11.6315
慰藉	-11.6315
学术	-11.6316
轻视	-11.6316
心安	-11.6318
说了什么	-11.6319
富有	-11.6319
试想	-11.6319
成全	-11.632
期许	-11.6321
...........................	-11.6321
―	-11.6322
正所谓	-11.6324
只需	-11.6328
我的理解是	-11.6329
深受	-11.633
站起来	-11.633
心平气和	-11.6331
自负	-11.6331
半天	-11.6333
区域	-11.6333
一段话	-11.6334
就好啦	-11.6337
精神分裂	-11.6338
有上进心	-11.6343
不知道怎样	-11.6344
范围之内	-11.6348
心酸	-11.6357
直接表达	-11.6359
>>>	-11.6363
第一位	-11.6363
所拥有的	-11.6368
婆媳	-11.6369
才行	-11.6371
私密	-11.6371
在你心中	-11.6371
未曾	-11.6378
会不自觉的	-11.6379
体制	-11.638
诱	-11.6382
目前的状况	-11.6382
跌	-11.6386
更舒服	-11.6389
本职工作	-11.639
稿	-11.639
演员	-11.6391
永远都是	-11.6392
布置	-11.6392
潇洒	-11.6392
溜	-11.6392
短期内	-11.6394
纵容	-11.6394
赔	-11.6395
聊一下	-11.6395
名人	-11.6396
援助	-11.6396
脸红	-11.6396
重拾	-11.6397
悲痛	-11.6397
肢体接触	-11.6398
它的存在	-11.64
很愤怒	-11.6403
对您有所帮助	-11.6403
对你有所启发	-11.6404
向前走	-11.6408
做自己想做的事	-11.641
男女之间	-11.641
对照	-11.641
发朋友圈	-11.641
展现自己	-11.6416
寻求心理咨询师的帮助	-11.6416
讨论一下	-11.6417
来衡量	-11.6419
最好的办法就是	-11.642
分化	-11.6421
同龄	-11.6421
迎来	-11.6424
心情低落	-11.6425
一座	-11.6425
志同道合	-11.6425
让她们	-11.6426
;3.	-11.6428
加油呀	-11.6428
的疑问	-11.6429
越想越	-11.6429
所处的环境	-11.6432
需要勇气	-11.6433
三十岁	-11.6434
一部分人	-11.6435
呈现出来	-11.6453
过度关注	-11.6454
找到答案	-11.6455
因此我们需要	-11.6456
她的内心	-11.6458
而忽略了	-11.6463
存款	-11.6466
吊	-11.6466
束	-11.6467
录取	-11.6467
宫	-11.6468
岸	-11.6468
隙	-11.647
无所适从	-11.647
影响到了你的	-11.6471
两性关系	-11.6472
舒畅	-11.6473
散散步	-11.6473
消沉	-11.6474
院校	-11.6474
遵医嘱	-11.6475
肆意	-11.6475
是成年人了	-11.6479
很少有人	-11.6479
通知	-11.6481
从您的陈述中	-11.6481
更加优秀	-11.6483
谢邀	-11.6484
走不出来	-11.6489
在原地	-11.6489
卸	-11.649
早早	-11.6496
星期	-11.6503
体检	-11.6512
才能更好地	-11.6513
解决不了问题	-11.6514
扩	-11.6526
从而导致	-11.6527
之情	-11.6535
楼主描述的	-11.6539
某些方面	-11.654
舆论	-11.6544
叹	-11.6544
抑郁状态	-11.6544
弯	-11.6545
争辩	-11.6546
调侃	-11.6547
躺在床上	-11.6548
祸	-11.6548
屁	-11.6549
加工	-11.6549
马斯洛	-11.6549
沾	-11.655
必不可少	-11.655
指标	-11.6551
一对一	-11.6551
母子	-11.6551
称呼	-11.6555
恩爱	-11.6555
自己擅长的	-11.6557
给你个大大的拥抱	-11.6558
非常理解楼主的感受	-11.6559
给题主一个抱抱	-11.656
在纸上	-11.656
我们无法改变	-11.6561
灰心	-11.6562
感觉不舒服	-11.6564
在某种程度上	-11.6564
抚养者	-11.6564
回归到	-11.6569
足够强大	-11.657
生理和心理	-11.6572
反向	-11.6574
养老	-11.6583
外公	-11.6587
比较困难	-11.6588
27	-11.6604
设限	-11.6612
至亲	-11.6612
共同成长	-11.6612
天真	-11.6617
袋	-11.662
讲讲	-11.6624
on	-11.6624
唐	-11.6624
富足	-11.6625
囊	-11.6626
中国人	-11.6627
乖巧	-11.6628
慈	-11.6628
摄	-11.6628
搁	-11.6628
有这么多	-11.663
窥	-11.663
追溯	-11.6631
运作	-11.6632
姓	-11.6632
条件下	-11.6632
惶恐	-11.6633
欢喜	-11.6633
旺盛	-11.6634
第一点	-11.6635
况	-11.6637
综上	-11.6638
如果是前者	-11.6638
抽出	-11.6639
桌子	-11.6639
聊得来	-11.664
两句	-11.664
Audrey	-11.6642
也可以说是	-11.6643
发消息	-11.6645
分工	-11.6646
势必	-11.6649
全家	-11.6654
的原因之一	-11.6656
难熬	-11.6663
.........	-11.6667
独立思考	-11.6673
心脏	-11.6678
亲自	-11.6681
执着于	-11.6682
把目光	-11.6684
得体	-11.6689
卸下	-11.6691
慢慢长大	-11.6696
而你却	-11.6698
35	-11.6705
目的性	-11.6706
乌	-11.6706
只管	-11.6708
册	-11.6708
爹	-11.6709
妆	-11.6709
不切实际	-11.6709
崇	-11.6709
同事们	-11.671
仗	-11.671
排序	-11.6711
犹豫不决	-11.6711
公众	-11.6711
姨妈	-11.6712
伤疤	-11.6712
催婚	-11.6712
在什么情况下	-11.6713
付诸行动	-11.6713
无所事事	-11.6713
公主	-11.6713
不自知	-11.6715
后盾	-11.6715
团结	-11.6715
心情不好的时候	-11.6719
找借口	-11.6721
看完你的描述	-11.6722
friend	-11.6722
第二步	-11.6724
转机	-11.6725
淡定	-11.6725
听上去	-11.6726
做的不对	-11.6728
既定	-11.673
弟弟妹妹	-11.673
高压	-11.673
和对方沟通	-11.6733
三分	-11.6733
相待	-11.6735
行走	-11.6736
删了	-11.6738
来证明自己	-11.6738
好运	-11.6739
休息时间	-11.6743
所需	-11.6747
实在不行	-11.6751
总想着	-11.6754
也是很重要的	-11.6755
很差劲	-11.6764
祝楼主可以	-11.677
清晰地	-11.677
分明	-11.6773
这世上	-11.6773
的委屈和	-11.6774
的方式来表达	-11.6775
可以帮助到你	-11.6775
界限感	-11.6775
心理素质	-11.6779
不对等	-11.6782
互不	-11.6783
影响很大	-11.6783
促成	-11.6785
家人和朋友	-11.679
八卦	-11.679
留住	-11.679
咽	-11.6791
黄金	-11.6791
君	-11.6791
蓄	-11.6791
与众不同	-11.6791
躁郁症	-11.6791
大家都会	-11.6792
凝	-11.6793
艾	-11.6793
违反	-11.6793
利于	-11.6793
承载	-11.6793
半个小时	-11.6794
真挚	-11.6794
普及	-11.6794
无关紧要	-11.6794
直播	-11.6796
非常在意	-11.6797
提分手	-11.6798
毫无意义	-11.68
真实的自我	-11.6802
很着急	-11.6803
明知	-11.6804
短信	-11.6804
苦苦	-11.6809
相比于	-11.6809
解决的方法	-11.6811
理解和包容	-11.6817
对你造成了	-11.6827
个人隐私	-11.6827
说些什么	-11.6832
口水	-11.6833
终究是	-11.6834
注意力集中	-11.6835
来到这个世界	-11.6836
这种做法	-11.6837
是你的错	-11.685
经常吵架	-11.6851
相信你一定可以	-11.6853
孩子的教育	-11.6858
怜	-11.686
几点小建议	-11.6865
晨	-11.6869
好好活着	-11.687
仙	-11.6871
迷信	-11.6871
裁	-11.6871
猜忌	-11.6872
抑	-11.6872
在国外	-11.6873
抚慰	-11.6873
尊敬	-11.6874
揽	-11.6874
柜	-11.6875
蝶	-11.6875
康	-11.6876
吃力	-11.6876
所提到的	-11.6877
很失望	-11.6877
悲剧	-11.6877
观众	-11.6878
良药	-11.6879
刷手机	-11.6881
教养方式	-11.6881
使命	-11.6881
进入大学	-11.6881
希望以下回答能帮助到你	-11.6882
大龄	-11.6882
亲人朋友	-11.6883
擅长的事情	-11.6883
笑容	-11.6884
5.	-11.6887
更新	-11.6888
总归	-11.6888
作家	-11.6894
合群	-11.6896
孕期	-11.6898
拖累	-11.6901
检查一下	-11.6901
是有问题的	-11.6902
慢性	-11.6904
当回事	-11.6909
给自己贴标签	-11.691
更加了解	-11.6915
理智上	-11.6922
实用	-11.6925
23	-11.6931
霸	-11.6932
隐隐	-11.6936
经理	-11.6937
绝大部分	-11.6937
200	-11.6941
会给我们带来	-11.6943
努力提升自己	-11.6944
杀人	-11.6944
显现	-11.6945
性格特点	-11.6948
是一个独立的个体	-11.6951
暂且	-11.6951
仇恨	-11.6952
革	-11.6952
捋	-11.6954
盼	-11.6954
须	-11.6954
真正想要的	-11.6956
垮	-11.6956
琴	-11.6956
幕	-11.6956
诚然	-11.6956
却发现	-11.6957
宣传	-11.6958
娃娃	-11.6958
亿	-11.6958
前进的动力	-11.6961
马拉松	-11.6963
酱	-11.6963
正在经历	-11.6964
套路	-11.6965
集体活动	-11.6966
粗心	-11.6966
让你不舒服	-11.6968
上床	-11.6969
要好的朋友	-11.6969
装作	-11.6974
带来的压力	-11.6975
人或事	-11.6979
扩大自己的	-11.6981
错失	-11.6983
是一个不错的	-11.6984
找对象	-11.6987
新事物	-11.6989
楼主可以尝试着	-11.699
这样的状况	-11.6991
手头	-11.6991
但凡	-11.6996
条理	-11.7001
求助者	-11.7002
忙于	-11.7003
的位置上	-11.7003
梦里	-11.7003
微小	-11.7006
理论上	-11.701
>	-11.7015
有多少人	-11.7016
默认	-11.7017
升起	-11.702
究竟是什么	-11.7026
。******	-11.7028
深交	-11.703
勾	-11.7031
一身	-11.7031
伏	-11.7032
题主所说的	-11.7032
捷	-11.7037
乘	-11.7039
找一位	-11.7039
根深蒂固	-11.7039
消退	-11.7039
大胆地	-11.7039
好与坏	-11.704
渴	-11.704
阴暗	-11.7041
认知行为疗法	-11.7041
洒脱	-11.7041
计算	-11.7042
APP	-11.7042
放一放	-11.7043
焦急	-11.7044
虚无	-11.7046
邀答	-11.7046
越来越严重	-11.7048
社交场合	-11.7048
真的很棒	-11.7049
以下建议	-11.7049
执行力	-11.705
感慨	-11.705
发呆	-11.7051
忙着	-11.7055
长期处于	-11.7056
第二点	-11.7061
自己的呼吸	-11.7061
想要的生活	-11.7063
生理反应	-11.7064
看到自己的优点	-11.7064
现实情况	-11.7065
什么都不做	-11.7065
压力比较大	-11.7066
写字	-11.7066
最喜欢的	-11.7071
心里不舒服	-11.7073
自己的理想	-11.7073
转专业	-11.7074
陌生的环境	-11.7077
每天晚上	-11.7082
好好沟通一下	-11.7085
千里	-11.7085
实则	-11.7086
足够优秀	-11.7088
前几天	-11.7098
从你的文字	-11.71
一类人	-11.7102
情绪价值	-11.7102
中断	-11.7104
晚安	-11.7105
把关注点	-11.7107
很同情你	-11.711
:▲	-11.7114
停留	-11.7115
幸福的生活	-11.7116
过往经历	-11.7117
体会一下	-11.7117
是两个人的事	-11.7119
离别	-11.712
谱	-11.712
征服	-11.7122
斤	-11.7122
掐	-11.7122
洛	-11.7123
可以做些什么	-11.7123
哎	-11.7124
点点滴滴	-11.7124
的应对方式	-11.7124
科技	-11.7124
绵	-11.7125
考察	-11.7125
读大学	-11.7126
绽放	-11.7127
28	-11.7127
紧紧	-11.7128
对你的伤害	-11.7128
小礼物	-11.713
搞定	-11.713
退行	-11.713
鞋子	-11.7131
在你这里	-11.7141
两位	-11.7142
克服困难	-11.7156
喜欢独处	-11.7157
有所收获	-11.7157
自伤	-11.7161
如果他真的	-11.7161
又何必	-11.7163
只能说明	-11.7165
希望题主能够	-11.7168
询	-11.7169
加倍	-11.7172
需要自己去	-11.7173
并没有错	-11.7174
或多或少都会	-11.7174
局限于	-11.7177
帮助来访者	-11.718
去了解一下	-11.7181
几条	-11.7182
不是一朝一夕	-11.7183
余生	-11.7186
把自己内心的	-11.7189
神经症	-11.7192
开心起来	-11.7193
有经验的	-11.7194
慎重考虑	-11.7195
植	-11.7204
耕	-11.7205
欣喜	-11.7206
猪	-11.7206
嚼	-11.7207
昧	-11.7208
淹没	-11.7208
休闲	-11.721
屋子	-11.7211
社团活动	-11.7212
更年期	-11.7212
得到改善	-11.7212
两句话	-11.7214
的意义是什么	-11.7217
没考好	-11.7219
多大年龄	-11.7233
治好	-11.7235
所认为的	-11.7236
情侣之间	-11.7242
辩论	-11.7243
不够成熟	-11.7245
主动找	-11.7248
多元	-11.725
变差	-11.725
偏好	-11.7251
众人	-11.7263
夏	-11.7264
一千	-11.7264
出现了一些	-11.7265
所有的人都	-11.7272
厕所	-11.7279
人生规划	-11.728
抬	-11.7287
很烦躁	-11.7287
豪	-11.7288
瑶瑶	-11.729
容纳	-11.729
曼	-11.729
皇	-11.729
一秒	-11.7291
斗志	-11.7291
宿	-11.7291
理所应当	-11.7292
不要太在意	-11.7293
迟迟	-11.7294
汲取	-11.7294
统计	-11.7295
切实	-11.7295
瑕	-11.7295
无非是	-11.7295
谈婚论嫁	-11.7296
奔跑	-11.7299
心路历程	-11.73
每一天都	-11.7302
报道	-11.7302
Yourfriend	-11.7304
对你想要问的问题有了一定的了解	-11.7304
学识	-11.7305
会越来越好的	-11.7308
终极	-11.7309
从而产生	-11.731
自己喜欢的东西	-11.7319
十分钟	-11.7321
告诉妈妈	-11.7327
不受控制	-11.7327
完成作业	-11.7328
自己内心的感受	-11.7329
不单单是	-11.733
给你造成了	-11.7331
来弥补	-11.7333
不能很好的	-11.7333
产后抑郁	-11.7338
父母离异	-11.7339
................................	-11.7342
是因为什么原因	-11.7343
会好一些	-11.7343
自己的闪光点	-11.7344
文科	-11.7346
自发	-11.7349
环境的影响	-11.7354
一点儿	-11.7356
增多	-11.7357
讲课	-11.736
很容易产生	-11.7363
和对方在一起	-11.7365
想问问	-11.7366
十几	-11.7368
・	-11.7373
汇报	-11.7374
憎恨	-11.7375
精神层面	-11.7377
厘	-11.7377
血缘关系	-11.7378
梯	-11.7378
颠	-11.7378
一起吃饭	-11.7379
F	-11.738
来不及	-11.738
门槛	-11.738
退出	-11.738
挚	-11.7381
体制内	-11.7381
赠	-11.7382
闲暇	-11.7382
难免会有	-11.7382
趋利避害	-11.7382
影子	-11.7383
钻牛角尖	-11.7383
破碎	-11.7383
驱动力	-11.7383
不是一件容易的事	-11.7384
权衡利弊	-11.7385
总的来说	-11.7386
语文	-11.7387
心扉	-11.7387
应该怎么办	-11.7388
正经	-11.7388
意识到自己的问题	-11.7389
工厂	-11.7389
某方面	-11.7389
上进心	-11.739
不太容易	-11.739
境况	-11.7392
感官	-11.7393
好好谈谈	-11.7397
通往	-11.74
找专业的心理咨询师	-11.7405
有所启发	-11.7408
围绕着	-11.741
童年经历	-11.741
自己的真实想法	-11.7411
真理	-11.7412
手工	-11.7414
忍着	-11.7416
换一种方式	-11.7419
一年级	-11.742
偏心	-11.7422
有了一定的	-11.7424
最重要的还是	-11.7425
的情绪变化	-11.7435
自强	-11.7435
记着	-11.7438
高敏感	-11.744
该有的	-11.7446
做得不好	-11.7449
这一类	-11.745
工作和学习	-11.745
我们来看看	-11.7451
脾气不好	-11.7454
做到最好	-11.7454
购	-11.7457
太远	-11.7458
勒	-11.746
在意别人的眼光	-11.7461
盟	-11.7461
顿饭	-11.7461
田	-11.7462
勿	-11.7462
患上	-11.7463
保持联系	-11.7463
肩膀	-11.7464
消极的情绪	-11.7464
怀抱	-11.7465
的产物	-11.7465
悦	-11.7465
前段时间	-11.7466
R	-11.7467
钻	-11.7467
奢	-11.7467
彷	-11.7468
政策	-11.7469
舞台	-11.7469
逃跑	-11.747
报酬	-11.747
遥远	-11.7471
偏向于	-11.7472
先照顾好自己	-11.7473
把你当成	-11.7476
我想告诉你的是	-11.7476
需要注意的是	-11.7477
地区	-11.7478
突破口	-11.748
有过类似	-11.7481
别着急	-11.7481
变得优秀	-11.7481
想挽回	-11.7488
优越	-11.7491
胜过	-11.7491
物体	-11.7492
不要去想	-11.7494
白费	-11.7494
个多月	-11.7496
在职场上	-11.7497
这并不代表	-11.7499
一次机会	-11.7499
希望有所帮助	-11.7501
意味着什么呢	-11.7505
感到紧张	-11.7508
不知道你现在	-11.7515
答题	-11.7519
将其	-11.7521
打造	-11.7531
小区	-11.7533
不靠谱	-11.7538
自我暴露	-11.7541
处事方式	-11.7543
我们都希望	-11.7544
枝	-11.7548
因果	-11.7549
震	-11.7551
仪	-11.7552
奖赏	-11.7552
武志红	-11.7553
整洁	-11.7553
暴怒	-11.7553
戳	-11.7554
变本加厉	-11.7554
咖啡	-11.7554
奇妙	-11.7554
安逸	-11.7555
透彻	-11.7555
吃饱	-11.7556
舌	-11.7556
的枷锁	-11.7556
钢琴	-11.7557
主观能动性	-11.7557
拓宽	-11.7557
摇摆	-11.7558
拖拉	-11.7558
大大方方	-11.7558
议题	-11.7561
繁衍	-11.7563
先给你一个大的抱抱	-11.7564
有句话	-11.7564
希望我的回答能帮到你	-11.7566
可以留言或者私信	-11.7566
。️**	-11.7567
一段恋情	-11.7571
才有机会	-11.7572
把自己放在	-11.7573
可以私信	-11.7574
不同程度的	-11.7575
内外	-11.7578
没有人理解	-11.7579
求学	-11.758
创造力	-11.7584
能力很强	-11.7585
面对和解决	-11.7588
释放自己的情绪	-11.7592
大部分时间	-11.7598
围着	-11.7604
不爱说话	-11.7606
添麻烦	-11.7608
能帮到你	-11.7609
渡	-11.761
绝对不是	-11.7614
为人父母	-11.7618
学车	-11.7618
很能理解你的感受	-11.7621
压抑自己的情绪	-11.7624
坐着	-11.7624
两个字	-11.7624
想的那样	-11.7626
真正的爱情	-11.7627
强者	-11.7629
唯独	-11.7638
这是很好的	-11.7638
相互之间	-11.764
肺	-11.764
包裹	-11.764
指挥	-11.7642
只剩下	-11.7642
惧	-11.7642
课外	-11.7642
喷	-11.7643
老虎	-11.7643
民族	-11.7643
秉	-11.7643
垫	-11.7643
体育锻炼	-11.7644
神秘	-11.7645
坚韧	-11.7645
遇到类似	-11.7645
不忍心	-11.7647
叙	-11.7647
独自一人	-11.7648
慢热	-11.7649
老师和同学	-11.7651
知心朋友	-11.7652
因果关系	-11.7653
更深层次的	-11.7654
见证	-11.7657
相通	-11.7658
归因于	-11.7658
玩儿	-11.7663
场面	-11.7663
不要紧	-11.7669
全世界都	-11.7672
剩下	-11.7676
经济来源	-11.7676
病痛	-11.768
建设性	-11.7682
吖	-11.7682
更有力量	-11.7682
类似的经历	-11.769
走近	-11.7692
会自动	-11.7694
自考	-11.7702
整个家庭	-11.7705
这项	-11.7707
饭菜	-11.7708
en	-11.7708
指点	-11.7709
分享给	-11.7717
尊重信任理解接纳认可	-11.7723
阔	-11.7725
求同存异	-11.7728
稍稍	-11.7729
两者之间	-11.773
尽力而为	-11.773
忽	-11.773
政治	-11.7731
盆	-11.7732
一点一滴	-11.7733
自卑与超越	-11.7734
渐行渐远	-11.7734
姿势	-11.7734
健全	-11.7735
寥	-11.7735
趟	-11.7735
希望对你有启发	-11.7735
愈合	-11.7735
反移情	-11.7736
深爱	-11.7736
预言	-11.7736
直观	-11.7737
路线	-11.7737
抚平	-11.7738
在职场中	-11.7739
一件坏事	-11.7741
开支	-11.7741
忘不了	-11.7741
工程	-11.7742
祝融心理	-11.7744
删掉	-11.7746
心平气和地	-11.7748
嘴里	-11.775
内心的恐惧	-11.7753
出丑	-11.7753
继续走下去	-11.7756
是必然的	-11.7757
其他地方	-11.7758
空闲时间	-11.7759
对你有用	-11.7761
整个过程	-11.7761
路过的	-11.7763
放低	-11.777
是可以改变的	-11.7776
主流	-11.7777
是故意的	-11.7778
希望我的建议	-11.7783
情绪激动	-11.7788
发生了变化	-11.7793
分不清	-11.7801
施虐	-11.7814
正确看待	-11.7815
改成	-11.7816
筑	-11.7818
应聘	-11.7818
秩序	-11.7818
液	-11.7818
胸闷	-11.7819
串	-11.782
第一个问题	-11.782
老年人	-11.782
倘若	-11.782
抵御	-11.7821
充沛	-11.7822
公园	-11.7822
贫穷	-11.7822
鸡蛋	-11.7822
救赎	-11.7822
停不下来	-11.7823
洁癖	-11.7823
耀	-11.7823
阻挡	-11.7823
对与错	-11.7823
平均	-11.7823
早晨	-11.7823
戒备	-11.7824
总而言之	-11.7825
有针对性的	-11.7825
渴望被爱	-11.7827
快递	-11.7827
独自面对	-11.7829
停药	-11.783
神经系统	-11.7831
所述	-11.7832
自由自在	-11.7832
扔掉	-11.7833
当我在看完了你的描述	-11.7835
的一些看法	-11.7836
助理	-11.7836
债务	-11.7839
浓度	-11.7843
虚心	-11.7845
是自己的错	-11.7846
到底发生了什么	-11.7848
背着	-11.7848
通过这种方式	-11.7849
从众	-11.7851
内心真实的想法	-11.7852
很有帮助	-11.7857
擅长的领域	-11.7858
舍得	-11.786
真心喜欢	-11.7866
到什么程度	-11.7866
放下手机	-11.7869
整个世界	-11.787
和她在一起	-11.787
未被满足	-11.7871
ti	-11.7872
恭喜	-11.7876
双手	-11.7885
反面	-11.7888
心胸	-11.789
旅	-11.7892
龄	-11.7898
的需求是什么	-11.7903
对着镜子	-11.7911
冤枉	-11.7912
从哪里来	-11.7912
历练	-11.7913
尺	-11.7913
获益	-11.7914
投注	-11.7914
思索	-11.7915
魄	-11.7915
学不进去	-11.7916
谈过恋爱	-11.7916
福利	-11.7916
分分合合	-11.7917
阴暗面	-11.7917
杠	-11.7917
妥善	-11.7917
泥潭	-11.7918
三甲医院	-11.7918
美妙	-11.7918
你看看对不对	-11.7919
深造	-11.7919
恨不得	-11.7919
阴霾	-11.7919
做的不够好	-11.7924
变淡	-11.7928
幼小	-11.793
希望对你有用	-11.793
心理现象	-11.7933
.....	-11.7941
以下是我的	-11.7942
展现出来	-11.795
良心	-11.7953
能够帮助到你	-11.7953
找准	-11.7956
方面的知识	-11.7962
～##	-11.7963
该做什么	-11.7964
没有义务	-11.797
能力范围内	-11.7973
全程	-11.7974
给自己贴上	-11.7977
估	-11.798
新手	-11.7981
努力奋斗	-11.7981
语言暴力	-11.7982
去医院做	-11.7986
幸福美满	-11.7993
知情	-11.7995
谷	-11.7996
厅	-11.7998
井	-11.7999
梳理清楚	-11.8
攀	-11.8001
爆炸	-11.8002
循	-11.8002
体察	-11.8002
坡	-11.8002
仁	-11.8004
注视	-11.8004
造就了	-11.8004
啃	-11.8005
充斥着	-11.8005
训	-11.8005
重蹈覆辙	-11.8006
红包	-11.8006
没有好坏之分	-11.8007
掩	-11.8007
较劲	-11.8007
内涵	-11.8008
可否	-11.8008
精神世界	-11.8008
适用于	-11.801
搭理	-11.801
在咨询过程中	-11.8011
惋惜	-11.8011
是怎么回事	-11.8011
好受一些	-11.8013
作为一名	-11.8016
给你一个四维空间的抱抱	-11.8016
随之而来	-11.8017
了解清楚	-11.8017
诸	-11.8019
扩展	-11.802
智能	-11.802
。4)	-11.8025
看到你的文字	-11.8026
危机感	-11.8032
关键点	-11.8036
给人带来	-11.8046
有所改善	-11.8054
包含着	-11.8055
宁静	-11.8055
试一下	-11.8058
身体和心理	-11.806
尊重自己的感受	-11.8061
孤独无助	-11.8076
信息量	-11.8076
太大的压力	-11.8086
睡得	-11.809
擅	-11.8092
寸	-11.8094
孩童	-11.8095
应酬	-11.8095
宗教	-11.8096
倒霉	-11.8096
抓狂	-11.8096
抗压能力	-11.8097
几件	-11.8097
做任何事情	-11.8097
的缘故	-11.8097
抽象	-11.8097
州	-11.8098
精神支柱	-11.8098
党	-11.8098
袒露	-11.8098
战争	-11.8099
抬头	-11.8099
疏忽	-11.8099
孙子	-11.8099
僵硬	-11.8099
杨	-11.8099
懵懂	-11.81
象限	-11.81
全国	-11.8101
睡不着觉	-11.8102
培养自己的兴趣爱好	-11.8104
付费	-11.8104
及格	-11.8105
直男	-11.8106
内向者	-11.8106
退步	-11.8107
过好自己的生活	-11.8107
带领	-11.8109
高估	-11.811
分居	-11.811
第三种	-11.8113
私聊	-11.8113
采取行动	-11.8115
的那部分	-11.8121
进一步发展	-11.8122
无限可能	-11.8123
你和你老公	-11.8126
发自内心	-11.8128
最重要的事情	-11.8128
守住	-11.8132
更多时候	-11.8137
发声	-11.8143
有这样的感觉	-11.8146
自杀的想法	-11.8148
会议	-11.8149
虚荣心	-11.815
同事之间	-11.8154
懂事的孩子	-11.8155
事项	-11.8156
稳定的工作	-11.8161
多出去走走	-11.8164
外界环境	-11.8169
无理	-11.8172
是不够的	-11.8179
茫	-11.8179
还没有完全	-11.8179
求职	-11.8182
链	-11.8187
生而为人	-11.8189
献	-11.819
源泉	-11.8191
勃	-11.8191
蜜	-11.8191
绘	-11.8191
络	-11.8191
转身	-11.8192
旅途	-11.8193
随时随地	-11.8194
进一步了解	-11.8195
无可奈何	-11.8195
不要给自己太大的压力	-11.8195
重塑	-11.8196
何尝	-11.8197
私人空间	-11.8197
节日	-11.8198
无措	-11.8198
希望楼主能够	-11.8199
小动物	-11.8202
庆幸的是	-11.8209
晚上睡觉	-11.821
积累经验	-11.8211
表姐	-11.8213
为此感到	-11.8215
解放	-11.8218
的主要原因	-11.8219
升职	-11.8219
哈哈哈	-11.8221
哪天	-11.8229
离开这个世界	-11.8231
每个孩子都	-11.8234
费力	-11.8234
自己的真实感受	-11.8238
道题	-11.8247
是假的	-11.8254
是很正常的现象	-11.8258
意向	-11.8259
不妨试着	-11.8263
男主	-11.8268
瓦	-11.8275
肤	-11.8278
辆	-11.8279
对我们来说	-11.8279
崩塌	-11.8281
陶	-11.8282
一事无成	-11.8283
淫	-11.8283
是两个人的事情	-11.8283
狠狠	-11.8284
年幼	-11.8284
放慢	-11.8285
协议	-11.8285
启示	-11.8286
Q	-11.8287
⊙	-11.8287
粉丝	-11.8287
洁	-11.8287
航	-11.8287
直接告诉	-11.8288
诞	-11.8288
波澜	-11.8288
疙瘩	-11.8288
指指点点	-11.8289
禅	-11.8289
每个人都是独立的个体	-11.829
征求	-11.829
来形容	-11.8291
著名	-11.8292
抱一抱	-11.8292
想不通	-11.8294
逆反心理	-11.8294
戒烟	-11.8294
周全	-11.8295
给你个温暖的抱抱	-11.8296
几个小时	-11.8296
的真正原因	-11.8297
无尽的	-11.8299
同步	-11.83
真切	-11.8301
更有动力	-11.8305
交通	-11.8307
找个机会	-11.8308
积极的一面	-11.8317
徒增	-11.8322
趁着	-11.8322
都有其	-11.8329
再做决定	-11.833
什么都做不好	-11.8332
无法释怀	-11.8341
讲理	-11.8341
日本	-11.8342
看不上	-11.8345
做一些自己喜欢的事情	-11.8353
过于在意	-11.8355
调节自己的情绪	-11.8359
性格特质	-11.8364
一个完整的	-11.837
缺乏足够的	-11.837
以此为	-11.8372
生闷气	-11.8375
侵入	-11.8378
窗户	-11.8379
支付	-11.838
某种意义上	-11.8381
归纳	-11.8381
级别	-11.8381
的一举一动	-11.8382
浮躁	-11.8382
振作起来	-11.8383
怂	-11.8384
让自己忙起来	-11.8384
会有新的	-11.8384
严谨	-11.8384
公众号	-11.8385
牵手	-11.8386
爬山	-11.8386
愉悦感	-11.8387
头晕	-11.8388
互助	-11.8393
给自己定一个	-11.8393
打消	-11.8395
贴心	-11.8396
的一个重要	-11.8396
希望楼主能	-11.84
安宁	-11.8405
在此之前	-11.8406
稳定下来	-11.8407
焦虑和恐惧	-11.8414
作为子女	-11.8414
缩小	-11.8416
该做的事情	-11.8417
希望能帮助你	-11.8418
塑	-11.8419
尽量减少	-11.8425
两件事	-11.8429
个人观点	-11.8431
过客	-11.8431
和谐相处	-11.8431
创作	-11.8433
是有帮助的	-11.8433
在这样的家庭	-11.8436
专业课	-11.8441
会适得其反	-11.8442
大学期间	-11.8444
被打扰	-11.8445
表哥	-11.8448
自己的性取向	-11.8449
含义	-11.8463
政	-11.8471
事与愿违	-11.8472
鄙视	-11.8473
伤痕	-11.8473
受到外界	-11.8474
悦纳	-11.8474
社会支持系统	-11.8475
痴	-11.8475
植物	-11.8475
印证	-11.8475
保险	-11.8475
玫瑰	-11.8475
弊端	-11.8476
焦点效应	-11.8476
苍	-11.8476
背诵	-11.8476
骨子里	-11.8477
罐	-11.8477
癌	-11.8477
自虐	-11.8477
炒	-11.8478
QQ	-11.8478
成绩下降	-11.848
生活和学习	-11.8481
不经意间	-11.8481
音频	-11.8482
拉扯	-11.8482
抓紧	-11.8483
较强	-11.8483
轻音乐	-11.8483
出汗	-11.8483
百分之	-11.8484
一起讨论	-11.8485
有了新的	-11.8486
百态	-11.8486
感到疲惫	-11.8486
正义	-11.8486
确信	-11.8493
单调	-11.8495
上厕所	-11.8495
双相	-11.8496
理顺	-11.8501
自愈	-11.8502
站出来	-11.8507
过往的经历	-11.8515
适得其反	-11.8518
现实层面	-11.8519
变动	-11.8523
真正想要的是什么	-11.8524
其余	-11.8529
这两件事	-11.8531
早睡	-11.8537
起初	-11.855
是必须的	-11.8554
晓	-11.8562
能够看出	-11.8566
二本	-11.8566
xx	-11.8567
坠	-11.8568
可有可无	-11.8568
洪	-11.857
援	-11.857
私信	-11.8571
心安理得	-11.8572
捷径	-11.8572
收敛	-11.8573
无非就是	-11.8573
优质	-11.8573
叔	-11.8573
延迟	-11.8574
伞	-11.8574
委曲求全	-11.8574
弥	-11.8575
荣誉	-11.8575
兄	-11.8575
输赢	-11.8576
无微不至	-11.8576
哀悼	-11.8576
耳机	-11.8576
激化	-11.8576
细微	-11.8578
补救	-11.8578
温情	-11.858
在别人面前	-11.858
取消	-11.8581
知乎	-11.8581
预知	-11.8581
专科医院	-11.8581
带去温暖	-11.8582
阻断	-11.8583
成效	-11.8584
第三方	-11.8584
能力范围	-11.8587
死循环	-11.8587
落空	-11.859
支出	-11.8599
反问	-11.8599
习惯性地	-11.86
的那一个	-11.8603
全力	-11.8604
肚子里	-11.8605
经验教训	-11.8606
听不懂	-11.8607
美好的事物	-11.8608
帮不了	-11.8617
婆	-11.8617
一整天	-11.8633
美好的未来	-11.8639
好好思考一下	-11.8645
手指	-11.8653
给题主带来	-11.8658
心机	-11.8663
钉	-11.8664
同一件事情	-11.8666
庸	-11.8668
届	-11.8668
惊讶	-11.8669
彻	-11.8669
誓	-11.8669
隐形	-11.867
喘	-11.867
济	-11.867
警觉	-11.8671
谁对谁错	-11.8672
棘手	-11.8672
未尝不	-11.8673
躯体症状	-11.8673
机械	-11.8674
恕	-11.8674
纪念	-11.8675
摧毁	-11.8675
歉意	-11.8675
扭转	-11.8675
现如今	-11.8676
〰	-11.8676
讲清楚	-11.8677
在别人眼里	-11.8677
一阵子	-11.8678
的一员	-11.8678
在所难免	-11.8679
病毒	-11.8679
一时冲动	-11.868
晚辈	-11.868
身心疲惫	-11.8681
一切都会好起来的	-11.8681
与你无关	-11.8682
灵感	-11.8682
上升到	-11.8683
考试成绩	-11.8684
去看心理医生	-11.8685
节约	-11.8689
躺着	-11.869
光彩	-11.869
共同语言	-11.8695
宝妈	-11.8698
出不来	-11.87
尽头	-11.8704
给自己贴	-11.8706
长程	-11.8718
合拍	-11.8719
罗列	-11.872
志同道合的人	-11.8726
给您带来	-11.873
自己喜欢做的事	-11.8732
遇到的困难	-11.8734
an	-11.8737
求证	-11.8737
in	-11.874
已有的	-11.8741
发生什么事情	-11.8746
很大的伤害	-11.8748
我们一起来看看	-11.875
力所能及	-11.8759
不要太过于	-11.876
全能自恋	-11.8765
优劣	-11.8766
经由	-11.8766
相貌	-11.8766
强迫性重复	-11.8767
卑	-11.8767
暇	-11.8767
富裕	-11.8768
刹	-11.8769
誉	-11.8769
训斥	-11.8769
游刃有余	-11.877
踪	-11.877
屈服	-11.877
假象	-11.8771
腕	-11.8771
完不成	-11.8773
情谊	-11.8773
渺小	-11.8773
气馁	-11.8773
多陪陪	-11.8774
拼尽全力	-11.8775
从你的提问中	-11.8775
分析和建议	-11.8777
学校的心理老师	-11.8781
绝交	-11.8781
添加	-11.8782
内心的压力	-11.8785
反差	-11.8791
每种	-11.8792
一生都在	-11.8794
闲聊	-11.8799
出去旅游	-11.88
很可爱	-11.88
最终的结果	-11.881
想到了什么	-11.8816
只能靠	-11.8821
终有一天	-11.8821
改变自己的心态	-11.8822
学院	-11.8825
算不上	-11.8835
对等的	-11.8835
问清楚	-11.8836
亲身	-11.8845
修改	-11.8849
八年	-11.8853
产生好感	-11.8864
归咎于	-11.8865
仿	-11.8867
淘汰	-11.8868
竞	-11.8869
凌	-11.8869
泼	-11.8869
脂	-11.887
漠	-11.887
有句话叫	-11.8871
松懈	-11.8871
也会随之	-11.8872
985	-11.8872
存在的价值	-11.8873
助力	-11.8873
门口	-11.8874
繁重	-11.8874
驻	-11.8874
线索	-11.8875
价值观念	-11.8876
节省	-11.8876
叠加	-11.8877
亲切	-11.8877
承接	-11.8877
双眼	-11.8878
课题分离	-11.8878
首先对你的情况表示理解	-11.8879
心理顾问	-11.8879
不妨试试	-11.8879
愿我的文字能给	-11.8879
螺旋式上升	-11.888
静静汀	-11.8883
正值	-11.8883
晚睡	-11.8884
打个比方	-11.8885
朋友的阅读	-11.8886
订婚	-11.8887
已经意识到了	-11.8892
考场	-11.8892
给人一种	-11.8894
对楼主来说	-11.8897
让我们一起	-11.8898
花点时间	-11.8905
敏	-11.8907
述说	-11.8924
当众	-11.893
不必过于	-11.8933
加速	-11.8939
文凭	-11.8939
弄明白	-11.8948
忌	-11.8962
配得上	-11.8964
磁	-11.8966
典	-11.8967
庄	-11.8967
拘	-11.8967
以偏概全	-11.8968
五六	-11.8968
姆	-11.8969
监护	-11.8969
直至	-11.897
过得更好	-11.897
视而不见	-11.897
。++	-11.8971
自我效能感	-11.8971
惠	-11.8971
容器	-11.8973
归根结底	-11.8974
一路走来	-11.8974
不屑	-11.8974
100%	-11.8975
正规医院	-11.8975
生物钟	-11.8976
尚且	-11.8976
冰山	-11.8977
新奇	-11.8978
๑	-11.8979
固然重要	-11.8979
包围	-11.8979
让我想到了	-11.8981
没有做错什么	-11.8982
见不得	-11.8983
的那一部分	-11.8984
妥当	-11.8985
不善于表达	-11.8986
从你的描述中可以看出	-11.899
支持和帮助	-11.9
常规	-11.9002
做好心理准备	-11.9007
千万别	-11.9014
发怒	-11.9018
确实是一件	-11.9018
对你的关心	-11.9022
是很常见的	-11.9024
正确的认识	-11.9038
一篇	-11.9039
诸如	-11.9041
女孩儿	-11.9057
唤	-11.9064
缺乏自信和安全感	-11.9067
韧	-11.9072
滞	-11.9072
柴米油盐	-11.9072
媒	-11.9073
综艺	-11.9074
搬出去	-11.9074
滥	-11.9074
俭	-11.9075
压垮	-11.9075
交际圈	-11.9075
古代	-11.9075
图片	-11.9078
传统文化	-11.9079
感叹	-11.9079
输入	-11.9079
赌气	-11.908
主张	-11.908
上午好	-11.9081
妥	-11.9082
诉苦	-11.9082
顺遂	-11.9083
受到的伤害	-11.9087
倍感	-11.9087
相互吸引	-11.9087
对我们的影响	-11.9087
老天的事	-11.9091
回首	-11.9095
男同事	-11.9096
主管	-11.9099
曾有过	-11.91
高质量的	-11.9105
找一找	-11.9106
负性情绪	-11.9107
为人处事	-11.9107
活在过去	-11.9108
重担	-11.9115
事故	-11.9116
一个星期	-11.9116
是改变的开始	-11.912
做错了什么	-11.9122
势必会	-11.9124
是很棒的	-11.9129
所期待的	-11.9135
推荐你看	-11.9162
雅	-11.9171
按摩	-11.9172
糟糕至极	-11.9172
从何而来	-11.9173
笼	-11.9173
国企	-11.9174
慎	-11.9174
制订	-11.9175
<	-11.9177
的所作所为	-11.9177
恢复正常	-11.9177
衬	-11.9177
轻重缓急	-11.9178
就事论事	-11.9178
归结于	-11.9178
十多年	-11.9179
抱持	-11.9179
越走越	-11.9179
竞选	-11.918
社工	-11.918
密码	-11.9181
每个人都是独一无二的	-11.9181
杂念	-11.9181
量化	-11.9181
损伤	-11.9183
矛盾和冲突	-11.9184
苦衷	-11.9186
分割	-11.9186
吸气	-11.919
物质条件	-11.919
七八	-11.9191
付出代价	-11.9194
进行心理建设	-11.9195
热水	-11.9199
忘却	-11.9204
无果	-11.9206
与父母的关系	-11.921
换个角度想	-11.9221
在爱情里	-11.9224
也许你还可以	-11.9236
考取	-11.9246
孕妇	-11.9254
闲下来	-11.9255
清晰的认识	-11.9255
源自	-11.9262
较低	-11.9269
越来越远	-11.9273
雄	-11.9275
x	-11.9275
刑	-11.9277
愚蠢	-11.9278
刻板印象	-11.9279
搏	-11.9279
嘿	-11.928
怒火	-11.928
隐患	-11.9281
无忧无虑	-11.9281
大大咧咧	-11.9281
无动于衷	-11.9281
座位	-11.9282
随心所欲	-11.9282
调适	-11.9282
银行	-11.9283
固化	-11.9284
虚幻	-11.9284
人和人之间	-11.9284
带娃	-11.9284
再正常不过	-11.9285
碍于	-11.9286
解惑	-11.9288
照亮	-11.9289
照样	-11.929
钱财	-11.9291
(*▁̄)▁̄)	-11.9291
希望可以帮助到题主	-11.9292
真的很同情你的遭遇呢	-11.9293
连自己都	-11.9296
推断	-11.9297
索性	-11.9297
初次	-11.9297
必备	-11.9305
业余时间	-11.9306
静静地	-11.9307
报考	-11.9308
的情绪和感受	-11.9321
虚荣	-11.9327
回过头来	-11.9329
是一个什么样的人	-11.9339
成年人的世界	-11.9346
今日	-11.9349
慕	-11.9353
你好吖	-11.9357
剧本	-11.9357
摸摸	-11.9371
计划表	-11.9372
一阵	-11.9373
严格要求	-11.9376
两个小时	-11.9376
不太舒服	-11.938
V	-11.9381
汤	-11.9381
争夺	-11.9382
棍	-11.9383
斩	-11.9384
涵	-11.9385
勒索	-11.9385
鸡毛蒜皮	-11.9386
铺垫	-11.9386
泰	-11.9387
美术	-11.9387
的名义	-11.9387
怪罪	-11.939
喜欢的女生	-11.939
免疫力	-11.9391
惊恐	-11.9392
朝夕相处	-11.9392
́	-11.9392
感受到世界的温暖	-11.9393
趋于	-11.9394
追星	-11.9396
那个年代	-11.9398
希望以上回复对你有所	-11.9398
从楼主的描述中了解到	-11.9399
误以为	-11.94
难以忍受	-11.9401
外部世界	-11.9403
轻重	-11.9405
安静下来	-11.9408
杀死	-11.9409
所面临的	-11.9415
成长经历当中	-11.9424
实话	-11.9432
备受	-11.9432
切换	-11.9443
做生意	-11.9445
客观的看待	-11.9446
只顾	-11.945
都不晚	-11.9458
放在第一位	-11.9458
极有可能	-11.9462
祝愿题主	-11.947
這	-11.9475
问题的解决	-11.9475
企	-11.9485
绷	-11.9486
究	-11.9486
猴	-11.9488
设身处地	-11.949
栏	-11.949
生完孩子	-11.9491
肾	-11.9491
逃脱	-11.9491
肿	-11.9491
笼统	-11.9491
的角度出发	-11.9492
措	-11.9492
微不足道	-11.9492
终结	-11.9493
窍	-11.9494
有氧运动	-11.9494
咨	-11.9494
做得不够好	-11.9494
已经尽力了	-11.9495
〔	-11.9495
饼	-11.9495
最亲的人	-11.9495
〕	-11.9495
蛇	-11.9495
屏幕	-11.9495
明晰	-11.9496
广告	-11.9497
现在我分享我的观察	-11.9498
惊吓	-11.9499
升温	-11.9499
破解	-11.95
勾起	-11.95
插手	-11.9502
断开	-11.9502
进行专门咨询	-11.9502
修通	-11.9504
的那一面	-11.9505
谢谢你的提问	-11.9506
沟	-11.9515
失去信心	-11.9518
好与不好	-11.9522
为之努力	-11.9527
记下来	-11.9537
隔绝	-11.9537
内分泌	-11.9542
能力有限	-11.9543
最根本的	-11.9551
承担的责任	-11.9563
在意别人的评价	-11.9568
溺	-11.9568
朋	-11.9572
竟	-11.9577
这么长时间	-11.9579
儿媳	-11.9581
衍生	-11.9586
适不适合	-11.9587
相符	-11.9588
津	-11.9595
高高在上	-11.9596
所看到的	-11.9596
浴	-11.9597
驾	-11.9598
斜	-11.9598
跳楼	-11.9598
灾	-11.9599
颤	-11.9599
库	-11.96
不能自拔	-11.96
专制	-11.9601
从心理学角度	-11.9601
开拓	-11.9601
管控	-11.9602
组合	-11.9602
表弟	-11.9603
残疾	-11.9603
灿烂	-11.9604
懒散	-11.9604
素养	-11.9604
商品	-11.9605
稳妥	-11.9605
良性循环	-11.9605
与自己和解	-11.9606
分散注意力	-11.9607
酒精	-11.9607
难忘	-11.9607
平日里	-11.9609
寻求专业人士的帮助	-11.9609
使劲	-11.9609
・。)	-11.961
全职妈妈	-11.9611
为自己争取	-11.9613
细化	-11.9615
精进	-11.9618
自述	-11.9621
情感隔离	-11.9622
常理	-11.9622
共生	-11.9627
个人的一些想法	-11.9628
对你来说意味着什么	-11.9629
印象深刻	-11.9638
你还年轻	-11.9653
hi	-11.9674
到底想要什么	-11.9678
房贷	-11.9686
冬	-11.9688
理清楚	-11.9696
⏩	-11.9697
轨	-11.9697
迁怒	-11.9704
驾照	-11.9705
咳	-11.9706
煮	-11.9706
夹杂	-11.9707
扬长避短	-11.9707
沉没成本	-11.9707
溯	-11.9707
终其一生	-11.9707
丛	-11.9709
日复一日	-11.9709
励志	-11.9709
宽慰	-11.9709
主动出击	-11.9709
吐露	-11.971
眼镜	-11.9711
公式	-11.9711
搭配	-11.9712
世纪	-11.9712
羁绊	-11.9713
副业	-11.9713
吸取教训	-11.9713
充盈	-11.9713
已经很棒了	-11.9713
全班	-11.9718
予以	-11.9719
寄存到一	-11.9719
张车票	-11.9719
早日走出阴霾	-11.9721
体会不到	-11.9723
两件	-11.9725
不光是	-11.9727
张三	-11.9729
幸运的是	-11.9733
过敏	-11.9736
务必	-11.9743
那个样子	-11.9744
专业的心理医生	-11.9746
轻松愉快	-11.975
我想对你说	-11.975
某某	-11.9756
亲身经历	-11.9758
创新	-11.9761
糟心	-11.9774
充当	-11.9776
不足之处	-11.98
愛	-11.9803
抚	-11.9809
西方	-11.9812
劣	-11.9815
祈	-11.9815
干呕	-11.9816
希	-11.9816
支柱	-11.9816
恐吓	-11.9817
糊涂	-11.9817
兆	-11.9817
枪	-11.9817
呕吐	-11.9817
肆	-11.9819
认认真真	-11.9819
终归	-11.982
管束	-11.982
挟	-11.982
晶	-11.982
孤立无援	-11.982
浏览	-11.982
片段	-11.9821
肆无忌惮	-11.9821
禁止	-11.9821
一个人呆着	-11.9821
尺度	-11.9822
3⃣️	-11.9822
不是一天两天	-11.9823
深有体会	-11.9824
祝贺	-11.9824
黑夜	-11.9825
能够感觉的到楼主内心的	-11.9829
情商低	-11.983
事例	-11.9832
配合医生	-11.9841
正处在	-11.9846
按照自己的想法	-11.9853
三个方面	-11.9855
关键词	-11.9856
心理防御机制	-11.9901
先给楼主一个温暖的抱抱	-11.9903
通道	-11.9912
安全的环境	-11.9913
强加给	-11.9914
挫	-11.9918
住宿	-11.9921
吞噬	-11.9923
光鲜亮丽	-11.9925
淘	-11.9926
马云	-11.9927
江	-11.9928
婴幼儿	-11.9928
一篇文章	-11.9928
比自己优秀	-11.9929
腐	-11.9929
番	-11.9929
代际	-11.9929
在这样的情况下	-11.993
人情世故	-11.9931
台阶	-11.9931
一部电影	-11.9932
轨道	-11.9932
在这段关系里	-11.9932
涂	-11.9932
歪	-11.9933
H	-11.9934
罢	-11.9948
辉	-12.0038
犹	-12.0039
蕴	-12.0039
霍	-12.0041
咸	-12.0041
溃	-12.0042
芽	-12.0043
撤	-12.0043
剑	-12.0043
棋	-12.0045
婴	-12.0151
迪	-12.0156
瞧	-12.0156
烫	-12.0157
麦	-12.0157
酌	-12.0157
梁	-12.0158
鸣	-12.0159
奏	-12.0221
喉	-12.0265
窘	-12.0265
吾	-12.0268
疾	-12.0271
咯	-12.0273
域	-12.0354
剥	-12.0356
蹦	-12.0386
湖	-12.0387
岳	-12.0387
伪	-12.0388
沼	-12.0389
澡	-12.0389
庆	-12.039
狐	-12.0498
蠢	-12.0498
携	-12.0498
昨	-12.0499
宏	-12.0499
咒	-12.05
胀	-12.0504
捅	-12.0504
嘱	-12.0506
秘	-12.0507
Z	-12.0514
赋	-12.0615
汁	-12.0616
伍	-12.062
扭	-12.0621
岔	-12.0621
肋	-12.0621
申	-12.0623
磕	-12.0623
拢	-12.0628
箭	-12.063
贤	-12.074
伊	-12.0741
赤	-12.0741
逾	-12.0743
裙	-12.0745
舔	-12.0745
谨	-12.0745
劈	-12.0865
湿	-12.0867
拽	-12.0868
觅	-12.0869
掰	-12.0869
豁	-12.0869
糕	-12.0909
拥	-12.0929
银	-12.0982
掏	-12.0987
贞	-12.0988
凤	-12.0988
丫	-12.0988
腆	-12.0988
蒂	-12.0989
浇	-12.099
灌	-12.099
乞	-12.0992
诀	-12.0997
宗	-12.1105
尤	-12.1107
悸	-12.1108
粮	-12.1109
蔽	-12.1111
恳	-12.1113
饶	-12.1116
`	-12.1119
矣	-12.1119
概	-12.1233
框	-12.1235
愚	-12.1237
叉	-12.1237
苟	-12.124
摧	-12.124
菌	-12.1241
玄	-12.1241
币	-12.1243
柴	-12.1249
障	-12.1363
堡	-12.1364
贝	-12.1364
窄	-12.1369
杰	-12.1369
嘲	-12.137
恰	-12.1451
為	-12.1486
▶	-12.1495
褪	-12.1495
邻	-12.1496
曰	-12.1497
粒	-12.1497
穴	-12.1497
肥	-12.1498
裕	-12.1499
乙	-12.1499
唠	-12.15
拐	-12.15
寡	-12.15
枯	-12.1504
跪	-12.1625
醋	-12.1627
驳	-12.1629
筒	-12.1629
眷	-12.1629
汽	-12.163
诫	-12.1631
韩	-12.1755
驼	-12.1756
肚	-12.1759
翔	-12.1765
梗	-12.1765
悖	-12.1765
齿	-12.1767
洒	-12.1768
汇	-12.1884
冻	-12.1894
盒	-12.1894
钢	-12.1898
盗	-12.1899
呵	-12.1899
庞	-12.1899
叮	-12.19
氧	-12.19
婉	-12.1902
蹲	-12.1903
個	-12.2004
什	-12.2029
墓	-12.2031
咪	-12.2032
钝	-12.2035
逊	-12.2036
径	-12.2041
來	-12.2152
悉	-12.2171
朦	-12.2172
芬	-12.2172
卜	-12.2173
雾	-12.2173
颈	-12.2174
跤	-12.2174
刁	-12.2176
柳	-12.2176
囤	-12.2176
培	-12.227
庭	-12.2274
盯	-12.2293
契	-12.2308
仓	-12.2314
玲	-12.2315
弦	-12.2315
锤	-12.2316
芳	-12.2318
羽	-12.2318
讳	-12.2321
孩	-12.2411
會	-12.2439
妮	-12.2449
渺	-12.2452
兮	-12.2454
懵	-12.2454
侄	-12.2457
肢	-12.2457
殆	-12.2458
川	-12.2458
弗	-12.2458
‍	-12.2459
窃	-12.246
键	-12.246
帝	-12.2563
锐	-12.2599
葬	-12.26
垂	-12.2601
榜	-12.2603
揉	-12.2607
們	-12.2731
飙	-12.2745
咎	-12.2748
痘	-12.2748
炮	-12.2748
祥	-12.2749
削	-12.275
🤗	-12.275
舟	-12.2757
臣	-12.289
纲	-12.2896
q	-12.2897
拾	-12.2897
晦	-12.2898
茬	-12.2898
竹	-12.29
腺	-12.29
桃	-12.2902
寿	-12.2904
谧	-12.2912
坟	-12.3046
蔑	-12.3046
嚷	-12.3049
耽	-12.305
迅	-12.305
撼	-12.3051
壁	-12.3052
召	-12.3054
慧	-12.3054
'	-12.306
砍	-12.306
恬	-12.3063
驯	-12.319
叠	-12.3193
侠	-12.3197
凯	-12.3199
赐	-12.3202
熏	-12.3203
县	-12.3204
庇	-12.3204
锋	-12.3205
寂	-12.3206
骄	-12.3207
唉	-12.3207
甄	-12.3208
屎	-12.321
谎	-12.3283
籍	-12.3305
肌	-12.335
艰	-12.3353
瞬	-12.3353
剖	-12.3355
朴	-12.3357
驴	-12.3358
劫	-12.3359
宵	-12.3359
泽	-12.3361
珠	-12.3361
晃	-12.3361
殴	-12.3361
宾	-12.3362
撇	-12.3363
综	-12.3503
哺	-12.3514
毅	-12.3514
婿	-12.3516
鞭	-12.3517
鹿	-12.3517
倦	-12.3517
郎	-12.3518
姿	-12.3518
拧	-12.3521
衡	-12.3521
哲	-12.3666
枚	-12.3681
瑟	-12.3681
倔	-12.3681
榨	-12.3681
K	-12.3682
墨	-12.3682
U	-12.3686
疮	-12.3688
亢	-12.369
椅	-12.3834
膊	-12.3841
慰	-12.3842
揣	-12.3843
披	-12.3846
胶	-12.3846
曝	-12.3846
佩	-12.3848
螺	-12.385
🤔	-12.3852
碍	-12.3916
呈	-12.3953
麼	-12.3992
厂	-12.3993
莱	-12.4009
葛	-12.4009
织	-12.401
雌	-12.401
纹	-12.4011
谣	-12.4012
棉	-12.4013
壤	-12.4013
嗓	-12.4013
G	-12.4014
脖	-12.4014
妖	-12.4014
绊	-12.4014
栽	-12.4015
怦	-12.4015
鲸	-12.4017
Y	-12.4019
岂	-12.409
媽	-12.4152
乃	-12.4161
伟	-12.4162
歉	-12.4174
铭	-12.4177
暮	-12.4177
J	-12.4178
卵	-12.4181
耶	-12.4181
硕	-12.4182
寝	-12.4182
惘	-12.4183
媚	-12.4183
{	-12.4185
瑾	-12.4193
懦	-12.4349
碑	-12.4349
谬	-12.435
菲	-12.435
殖	-12.4352
嫖	-12.4355
翼	-12.4356
▽	-12.4363
冥	-12.4476
晾	-12.4522
疚	-12.4523
斑	-12.4527
崖	-12.4528
婷	-12.4529
恭	-12.4529
芝	-12.453
袜	-12.453
茧	-12.453
吝	-12.4531
扮	-12.4531
搅	-12.4532
罕	-12.4533
漆	-12.4534
嚣	-12.4704
丹	-12.4705
锦	-12.4706
膝	-12.4706
摩	-12.4707
帖	-12.4708
赴	-12.4709
赘	-12.4709
酵	-12.471
闺	-12.471
绎	-12.471
≠	-12.4711
j	-12.4712
肖	-12.4712
毫	-12.4838
绩	-12.4869
慨	-12.4873
碌	-12.4874
躯	-12.4879
Ю	-12.4882
洲	-12.4884
讷	-12.4884
抠	-12.4885
粥	-12.4886
沐	-12.4887
焉	-12.4888
逞	-12.4889
帘	-12.489
莽	-12.489
兔	-12.4891
巾	-12.4891
旷	-12.4891
匿	-12.4891
邪	-12.4891
桑	-12.4892
W	-12.4894
唾	-12.4896
說	-12.5042
勉	-12.5064
皱	-12.5068
浸	-12.5069
践	-12.507
浩	-12.5071
瘤	-12.5071
酿	-12.5073
桎	-12.5074
隆	-12.5075
乍	-12.5075
喧	-12.5075
崭	-12.5076
壶	-12.5076
梅	-12.5077
雇	-12.5077
椎	-12.5079
砺	-12.5082
晋	-12.5234
冤	-12.5251
纪	-12.5256
鄙	-12.5258
睹	-12.526
竖	-12.526
帐	-12.526
尬	-12.526
伺	-12.526
糙	-12.5262
焕	-12.5263
萨	-12.5264
膨	-12.5266
筷	-12.5266
鸿	-12.5266
烤	-12.5266
搓	-12.527
邀	-12.5437
叛	-12.5444
佐	-12.5447
棘	-12.5447
殷	-12.545
蚊	-12.5453
袖	-12.5454
z	-12.5455
聪	-12.5456
揍	-12.5457
荆	-12.5457
犬	-12.5462
陀	-12.5465
話	-12.5635
遵	-12.5637
骆	-12.5643
岛	-12.5646
惑	-12.5648
蚀	-12.5648
憎	-12.565
腥	-12.565
沌	-12.5652
陌	-12.5652
央	-12.5653
渗	-12.5653
搪	-12.5655
嫩	-12.5656
🤝	-12.5657
沒	-12.5838
察	-12.5842
戈	-12.5842
恍	-12.5846
杜	-12.5849
糗	-12.585
奴	-12.585
淤	-12.585
狡	-12.585
迂	-12.5852
沸	-12.5853
努	-12.5854
孰	-12.5854
郑	-12.5854
撸	-12.5855
倚	-12.5861
沃	-12.6048
魂	-12.6051
囚	-12.6055
佬	-12.6058
犒	-12.6059
奠	-12.6059
钦	-12.6059
怡	-12.606
缕	-12.6063
ヾ	-12.6065
暂	-12.6088
堪	-12.6107
涯	-12.6172
實	-12.6241
對	-12.6244
邮	-12.6255
漱	-12.6256
俊	-12.6256
惭	-12.6258
棚	-12.6259
戾	-12.6259
孟	-12.626
茨	-12.6261
埃	-12.6261
邦	-12.6262
俯	-12.6262
哑	-12.6262
拗	-12.6263
驰	-12.6263
嘉	-12.6264
狮	-12.6266
柏	-12.6267
燥	-12.6267
叭	-12.6268
泊	-12.6268
痔	-12.6273
妨	-12.6425
匹	-12.6446
¶	-12.6462
醇	-12.6467
曹	-12.6469
桩	-12.6472
析	-12.6474
谛	-12.6475
乔	-12.6475
捂	-12.6477
遣	-12.6477
拟	-12.6478
柄	-12.6479
轰	-12.6479
昵	-12.648
枉	-12.6484
秦	-12.6485
過	-12.6666
驶	-12.6687
拎	-12.6687
忆	-12.669
萝	-12.669
捣	-12.6691
玛	-12.6692
昔	-12.6692
堕	-12.6693
蚁	-12.6693
渲	-12.6693
饥	-12.6695
△	-12.6695
衔	-12.6695
狭	-12.6697
僧	-12.6908
允	-12.6912
徐	-12.6914
欣	-12.6914
砖	-12.6914
瑞	-12.6916
舅	-12.6916
煌	-12.6916
矩	-12.6918
郊	-12.6918
殊	-12.6919
刨	-12.6921
鲍	-12.6921
蛙	-12.6922
纱	-12.6925
枫	-12.6927
§	-12.7131
贺	-12.7134
帽	-12.7141
涕	-12.7142
萎	-12.7144
茂	-12.7146
褒	-12.7147
谜	-12.7147
嗅	-12.7149
霜	-12.715
韵	-12.7152
呦	-12.7152
噪	-12.7348
萍	-12.7369
跷	-12.7369
堤	-12.7372
泉	-12.7372
歧	-12.7373
呃	-12.7374
翩	-12.7374
宴	-12.7374
朱	-12.7375
蜂	-12.7376
挪	-12.7377
杭	-12.7377
咕	-12.7379
拮	-12.738
姻	-12.7591
幽	-12.7607
凳	-12.7609
刮	-12.7613
府	-12.7614
辑	-12.7615
捶	-12.7617
惶	-12.7619
🦄	-12.7619
鹅	-12.7619
喽	-12.7621
疫	-12.7791
尸	-12.7844
脾	-12.7851
蹈	-12.7853
瘫	-12.7853
祷	-12.7855
钩	-12.7855
缸	-12.7855
寓	-12.7859
烹	-12.786
掂	-12.786
阀	-12.7863
∇	-12.7871
纠	-12.8089
轴	-12.8099
蔡	-12.8104
倡	-12.8105
翁	-12.8109
袒	-12.811
阈	-12.811
阐	-12.8111
洽	-12.8111
诈	-12.8111
岭	-12.8114
筛	-12.8114
覺	-12.8339
帕	-12.8358
遂	-12.8359
悄	-12.8361
啪	-12.8361
蚂	-12.8361
矿	-12.8363
厉	-12.8363
雀	-12.8364
▷	-12.8364
棱	-12.8366
旨	-12.8366
絮	-12.8366
掀	-12.8368
坛	-12.8368
嗑	-12.837
捐	-12.8371
浑	-12.86
⋯	-12.8616
迭	-12.8616
役	-12.8621
奕	-12.8621
碾	-12.8624
裹	-12.8624
遏	-12.8626
犀	-12.8626
⏫	-12.8626
恃	-12.8628
绒	-12.8628
茁	-12.8631
涟	-12.8633
雕	-12.8633
掺	-12.8633
丘	-12.8888
京	-12.8889
拴	-12.889
贼	-12.889
橘	-12.8893
贩	-12.8895
蒸	-12.8895
萦	-12.8896
渊	-12.8899
紫	-12.8899
盔	-12.89
坍	-12.89
烘	-12.8901
燕	-12.8903
稚	-12.8903
钙	-12.8905
媛	-12.8907
峙	-12.9164
別	-12.9166
卿	-12.917
}	-12.9173
惚	-12.9174
秤	-12.9174
售	-12.9175
瑜	-12.9175
哮	-12.9176
汹	-12.9176
葱	-12.9177
哗	-12.9177
咖	-12.9177
捆	-12.9178
懈	-12.918
傍	-12.918
稽	-12.918
诧	-12.9181
蹭	-12.9181
娼	-12.9181
颂	-12.9185
廉	-12.9449
ㄓ	-12.9449
樣	-12.945
剔	-12.9457
梳	-12.9458
垒	-12.946
览	-12.9462
肛	-12.9462
泻	-12.9462
佣	-12.9463
蜗	-12.9463
嫉	-12.9463
淑	-12.9463
黎	-12.9464
匀	-12.9464
嘘	-12.9465
暑	-12.9465
诶	-12.9465
渔	-12.9465
凰	-12.9465
弓	-12.9465
僻	-12.9466
￼	-12.9466
址	-12.9466
煤	-12.9468
憨	-12.9469
問	-12.9734
仔	-12.9736
屠	-12.975
逸	-12.975
偎	-12.9751
缈	-12.9752
×	-12.9753
叽	-12.9753
噩	-12.9754
铛	-12.9754
歹	-12.9755
溪	-12.9755
靓	-12.9755
荷	-12.9756
膏	-12.9756
扁	-12.9757
丸	-12.9757
侯	-12.9758
涣	-12.9758
熄	-12.9759
辟	-12.9759
澈	-12.9762
赵	-13.0044
怠	-13.0045
還	-13.0047
旦	-13.0049
疤	-13.0051
吴	-13.0052
秽	-13.0055
斧	-13.0056
吭	-13.0056
庙	-13.0057
兑	-13.0059
唇	-13.0059
趴	-13.006
峻	-13.0061
嗦	-13.0062
坊	-13.0063
骤	-13.0106
抒	-13.0359
柯	-13.0362
聘	-13.0363
呜	-13.0364
梨	-13.0364
摹	-13.0364
遛	-13.0365
鼾	-13.0365
腊	-13.0365
嘟	-13.0369
怅	-13.037
簧	-13.037
盏	-13.037
焦	-13.0371
咐	-13.0371
槽	-13.0371
莲	-13.0372
矛	-13.0373
迥	-13.0373
橡	-13.0374
董	-13.0377
愣	-13.0378
樊	-13.0379
甸	-13.038
孽	-13.0662
時	-13.0667
澳	-13.0682
珊	-13.0683
奈	-13.0686
〖	-13.0688
〗	-13.0688
沓	-13.069
禀	-13.069
趾	-13.0691
佑	-13.0691
辙	-13.0691
嗷	-13.0692
馋	-13.0692
咧	-13.0692
篱	-13.0692
嗜	-13.0692
馅	-13.0693
莉	-13.0694
哼	-13.0694
厢	-13.0695
讥	-13.0695
藤	-13.0697
蓬	-13.0698
憾	-13.0699
译	-13.0699
題	-13.1016
內	-13.1021
宰	-13.1021
胺	-13.1021
淀	-13.1022
嬉	-13.1022
仆	-13.1023
濒	-13.1023
纾	-13.1024
蝇	-13.1025
沧	-13.1025
儒	-13.1026
瓣	-13.1026
涛	-13.1029
岩	-13.1029
孜	-13.103
癔	-13.103
秃	-13.1031
杖	-13.1032
靡	-13.1032
帆	-13.1035
🧡	-13.1038
督	-13.1344
滨	-13.1356
讓	-13.1358
於	-13.1359
呛	-13.1362
焰	-13.1364
毯	-13.1366
捞	-13.1368
枢	-13.1369
烛	-13.1369
翰	-13.137
羡	-13.1371
芒	-13.1372
炉	-13.1375
冶	-13.1376
兜	-13.1376
锚	-13.1376
畜	-13.1381
敷	-13.1383
谊	-13.1459
愉	-13.1714
奸	-13.1721
喻	-13.1721
喃	-13.1722
宇	-13.1722
赦	-13.1722
谤	-13.1724
掠	-13.1725
颖	-13.1726
亘	-13.1727
祭	-13.1727
搂	-13.1728
◇	-13.1729
芹	-13.1729
酬	-13.1729
丨	-13.173
凄	-13.173
惩	-13.173
淇	-13.173
鸦	-13.173
琪	-13.1733
嵌	-13.1733
ᴗ	-13.1745
ぴ	-13.2078
莹	-13.2084
妒	-13.2089
娜	-13.2092
诽	-13.2095
卢	-13.2097
迸	-13.2097
夷	-13.2098
亟	-13.2099
郭	-13.21
汪	-13.21
沫	-13.21
厮	-13.21
恪	-13.2101
绞	-13.2102
ㄛ	-13.2102
瞩	-13.2103
爪	-13.2104
涅	-13.2107
蕾	-13.2112
敞	-13.2331
親	-13.2467
鹰	-13.2468
啼	-13.2472
關	-13.2476
诡	-13.2478
贸	-13.2478
睫	-13.2479
栗	-13.2481
韦	-13.2482
扒	-13.2482
眨	-13.2483
灸	-13.2483
赫	-13.2483
靶	-13.2484
凿	-13.2485
俏	-13.2486
掷	-13.2486
陋	-13.2487
潭	-13.2488
娱	-13.2488
蔚	-13.2488
遐	-13.2488
栋	-13.2489
痣	-13.249
绰	-13.2491
梭	-13.2491
碳	-13.2492
氏	-13.2494
瞅	-13.2874
铸	-13.2875
汀	-13.2875
翘	-13.2877
踮	-13.2877
纽	-13.2877
卓	-13.2878
拂	-13.288
崎	-13.288
纬	-13.2881
哔	-13.2882
龟	-13.2883
悍	-13.2884
匪	-13.2884
霆	-13.2884
囧	-13.2885
颓	-13.2886
勺	-13.2887
撮	-13.2887
躬	-13.2888
炫	-13.2888
仲	-13.2888
宕	-13.2889
🥰	-13.2889
鸽	-13.2897
距	-13.3286
Ш	-13.3287
押	-13.3291
琐	-13.3294
矫	-13.3298
柱	-13.33
哆	-13.33
慑	-13.3302
喳	-13.3303
拣	-13.3303
憩	-13.3305
嗡	-13.3306
∀	-13.3311
谅	-13.3732
痕	-13.3737
藉	-13.3739
耿	-13.374
挽	-13.4176
澜	-13.4184
媳	-13.4184
盾	-13.4187
粹	-13.4189
旺	-13.4194
械	-13.4195
稻	-13.4652
诵	-13.4668
讽	-13.467
茅	-13.4671
睦	-13.5108
噜	-13.5166
膀	-13.5169
励	-13.517
竿	-13.5171
汰	-13.5173
扼	-13.5689
刃	-13.5689
悯	-13.5692
噬	-13.6237
翅	-13.625
⇨	-13.6251
卦	-13.6252
菇	-13.6256
琢	-13.6258
睬	-13.679
蛛	-13.683
泳	-13.6834
啰	-13.6835
霾	-13.6838
锻	-13.7457
吟	-13.746
淹	-13.8114
泣	-13.812
戚	-13.8122
脆	-13.8125
括	-13.8127
屑	-13.8791
烙	-13.8837
缚	-13.8837
惮	-13.8842
殿	-13.8844
钓	-13.8844
玫	-13.8851
杏	-13.9605
荐	-13.961
霉	-13.9612
窦	-13.9617
肽	-14.0439
缪	-14.0448
侮	-14.0448
弛	-14.0449
谐	-14.1282
赎	-14.1346
呕	-14.1351
彤	-14.1351
槛	-14.1351
摒	-14.1355
彰	-14.1356
瞻	-14.1358
灼	-14.1358
煎	-14.1359
沛	-14.1359
俄	-14.1361
芥	-14.2327
绽	-14.2345
猝	-14.2353
蔓	-14.2354
偕	-14.2357
凸	-14.3444
魅	-14.3448
羁	-14.346
渠	-14.3462
堑	-14.3468
啡	-14.347
寐	-14.3471
̀	-14.3483
泌	-14.471
檐	-14.4712
嘻	-14.472
御	-14.4722
婶	-14.473
睛	-14.6107
滤	-14.6118
厕	-14.6129
苛	-14.6135
灿	-14.6143
矢	-14.6146
蒜	-14.6146
悼	-14.6147
邋	-14.6149
潇	-14.6152
侣	-14.7772
惰	-14.7779
笃	-14.7798
瑶	-14.7804
瑰	-14.7806
拓	-14.7806
毋	-14.7807
尴	-14.7816
滔	-14.7819
贡	-14.9786
芸	-14.9803
馁	-14.9803
蔬	-14.9805
杞	-14.9807
隶	-14.9815
肃	-14.9817
茄	-14.9818
讶	-14.9818
唬	-14.9819
蛾	-14.9819
淌	-14.9826
狄	-15.2296
巅	-15.2296
牲	-15.2298
掘	-15.2305
鳞	-15.2306
豫	-15.2308
遢	-15.2309
恢	-15.2311
侃	-15.2314
嗤	-15.2318
扉	-15.5412
绍	-15.5614
魁	-15.563
惫	-15.5638
伽	-15.5649
胁	-15.5649
藕	-15.5653
馨	-15.5656
衍	-16.0486
绸	-16.0587
汲	-16.0605
逻	-16.0612
谴	-16.0622
懊	-16.0628
怖	-16.0636
疙	-16.0639
诅	-16.064
虹	-16.0641
弈	-16.0642
倘	-16.0645
讪	-16.0647
驭	-16.0653
浦	-16.0654
敛	-16.0657
舆	-16.0665
乒	-16.067
浏	-16.0671
蜕	-17.0113
髅	-17.0511
骷	-17.0512
酝	-17.0513
蛔	-17.0514
缜	-17.0515
筝	-17.0516
瘠	-17.0517
膳	-17.0518
澎	-17.0519
湃	-17.052
慷	-17.0521
辕	-17.0522
蹉	-17.0523
踵	-17.0524
跎	-17.0525
绛	-17.0526
瘁	-17.0527
痿	-17.0528
崛	-17.0529
◾	-17.053
讼	-17.0531
瞌	-17.0532
拇	-17.0533
幌	-17.0534
‿	-17.0535
憔	-17.0536
悴	-17.0537
彬	-17.0538
呱	-17.0539
◕	-17.054
鸵	-17.0541
蔼	-17.0542
滕	-17.0543
邂	-17.0544
逅	-17.0545
抨	-17.0546
黯	-17.0547
躇	-17.0548
踌	-17.0549
葡	-17.055
萄	-17.0551
缥	-17.0552
氓	-17.0553
馒	-17.0554
阉	-17.0555
砝	-17.0556
岌	-17.0557
兀	-17.0558
镳	-17.0559
辄	-17.056
狈	-17.0561
漪	-17.0562
゙	-17.0563
饪	-17.0564
暄	-17.0565
畸	-17.0566
惺	-17.0567
辗	-17.0568
绚	-17.0569
熠	-17.057
咙	-17.0571
呻	-17.0572
濡	-17.0572
̆	-17.0573
婪	-17.0574
忏	-17.0575
铠	-17.0576
秩	-17.0576
扪	-17.0577
丐	-17.0578
髓	-17.0579
肪	-17.058
懑	-17.0581
┈	-17.0582
圳	-17.0583
侬	-17.0584
惬	-17.0585
喋	-17.0586
耘	-17.0587
鼹	-17.0588
蜚	-17.0589
啬	-17.059
佼	-17.0591
梏	-17.0592
缤	-17.0593
猬	-17.0594
咀	-17.0595
狸	-17.0596
乓	-17.0597
娩	-17.0598
衅	-17.0598
斟	-17.0599
胳	-17.06
惴	-17.0601
骛	-17.0602
嗽	-17.0603
咄	-17.0604
▪	-17.0605
嘈	-17.0606
胧	-17.0607
辍	-17.0608
蹶	-17.0609
◍	-17.061
谩	-17.0611
痹	-17.0612
诠	-17.0613
腼	-17.0614
愫	-17.0615
侥	-17.0616
刍	-17.0616
宙	-17.0616
疵	-17.0617
淆	-17.0618
锢	-17.0619
赡	-17.062
睐	-17.062
徨	-17.0621
譬	-17.0622
阱	-17.0623
┅	-17.0624
侈	-17.0625
兢	-17.0626
聆	-17.0626
漩	-17.0627
惦	-17.0628
̅	-17.0629
蝴	-17.063
捍	-17.0631
痊	-17.0632
匙	-17.0632
忡	-17.0632
傅	-17.0633
诋	-17.0634
蘑	-17.0635
猥	-17.0636
钥	-17.0637
肮	-17.0637
紊	-17.0638
漓	-17.0639
畴	-17.064
矜	-17.064
葩	-17.064
巩	-17.064
惋	-17.064
徘	-17.0641
徊	-17.0642
袱	-17.0643
忑	-17.0644
晰	-17.0644
睿	-17.0644
瘩	-17.0645
忐	-17.0645
璃	-17.0646
玻	-17.0647
蹴	-17.0648
阂	-17.0648
苹	-17.0649
坷	-17.065
窒	-17.065
胞	-17.0651
憬	-17.0652
姥	-17.0652
鸩	-17.0653
憧	-17.0653
枷	-17.0654
匆	-17.0655
澄	-17.0656
酗	-17.0656
̄	-17.0657
拯	-17.0658
ᨐ	-17.0659
惕	-17.066
寞	-17.0661
抉	-17.0662
垃	-17.0663
圾	-17.0664
[...]
